<brk> 0
, 290254
. 210036
▁die 87483
▁und 78863
▁der 57405
▁ist 53418
▁das 47178
▁zu 46184
▁in 45881
▁ich 40716
▁wir 39774
▁es 37221
▁Sie 32667
▁sie 31379
▁ein 30761
▁von 28762
▁nicht 28741
▁dass 28651
▁eine 27423
▁Und 25769
▁den 24195
▁mit 23102
▁auf 21733
▁Ich 19463
: 19369
▁sich 19178
▁wie 19153
- 18524
▁sind 18498
▁haben 17564
▁für 17224
▁an 16383
? 15475
▁man 15369
▁war 14948
▁" 14836
▁als 14483
▁Das 14338
▁um 14060
▁so 13769
▁Es 13624
▁diese 12974
▁was 12855
▁dem 12613
▁im 12475
▁Wir 12435
▁wenn 11719
▁einen 11520
▁uns 11421
▁aus 11272
▁können 10717
▁werden 10543
▁oder 10467
▁er 10269
▁über 10110
▁hat 9910
▁des 9542
▁aber 9489
▁auch 9330
▁einer 9149
▁Aber 9002
▁kann 8999
▁einem 8987
▁Die 8775
s 8773
▁nur 8514
▁wird 8513
▁sehr 8474
▁Menschen 8131
▁hier 7988
▁mich 7880
▁-- 7854
▁gibt 7695
▁– 7488
▁dann 7443
▁also 7345
▁sein 7141
▁etwas 6903
▁nach 6866
▁noch 6781
▁ 6764
▁sehen 6579
▁habe 6551
▁mir 6414
▁dieser 6398
▁vor 6389
▁Welt 6007
▁mehr 5970
▁Wenn 5807
▁bei 5714
." 5692
▁alle 5488
▁wurde 5266
▁durch 5164
▁Ihnen 5111
▁Er 5026
▁zum 4957
▁machen 4956
▁wirklich 4811
▁meine 4748
▁immer 4723
▁weil 4653
▁tun 4492
▁Also 4429
▁viel 4302
▁Zeit 4290
▁hatte 4286
▁unsere 4262
▁dieses 4232
▁am 4119
▁keine 4091
e 4078
▁da 4052
▁Leute 4031
er 4030
▁ihre 4024
▁müssen 3940
es 3923
▁Leben 3873
▁diesem 3862
▁- 3838
" 3824
▁viele 3822
▁waren 3814
▁♫ 3793
▁sagte 3784
▁sagen 3782
▁Dinge 3780
▁einfach 3762
▁diesen 3744
▁Jahren 3715
▁zwei 3704
▁Was 3696
▁In 3684
▁bin 3607
▁eines 3596
▁andere 3570
▁wissen 3551
▁Art 3516
▁jetzt 3511
▁anderen 3478
▁ihr 3450
en 3415
te 3334
▁alles 3314
▁würde 3303
▁zur 3259
▁wo 3239
▁damit 3211
▁selbst 3188
▁Der 3133
▁geht 3080
▁bis 3059
▁du 3056
▁Jahre 3028
ten 2957
▁dies 2917
▁muss 2916
▁Man 2912
▁Wie 2909
▁gut 2841
▁wieder 2837
▁schon 2793
▁Ein 2768
▁denn 2754
▁mein 2726
de 2706
▁Kinder 2671
▁ihnen 2659
▁möchte 2658
▁vielleicht 2645
ung 2611
st 2605
▁davon 2521
d 2514
▁Nun 2465
▁ganz 2447
o 2428
▁heute 2426
▁hatten 2416
; 2410
in 2402
▁ob 2400
▁Geschichte 2381
▁Hier 2373
▁drei 2363
t 2362
den 2328
▁ihn 2318
▁Jahr 2315
▁all 2315
▁zurück 2297
▁dort 2289
▁könnte 2274
▁Diese 2273
▁einige 2260
▁wollen 2249
▁ab 2242
▁unter 2230
▁meiner 2214
▁gehen 2199
▁paar 2196
▁wurden 2196
▁genau 2181
▁darüber 2181
▁nun 2168
▁werde 2147
▁zusammen 2124
▁sondern 2111
▁tatsächlich 2111
i 2073
▁weiter 2066
liche 2063
a 2052
ischen 2052
?" 2046
▁gab 2033
▁unserer 2032
▁Problem 2032
▁Beispiel 2025
▁So 2016
▁seine 2013
▁Teil 2009
▁Als 1991
▁B 1984
▁wäre 1982
k 1956
▁dazu 1946
▁vom 1935
▁denke 1927
ische 1925
▁neue 1915
ern 1913
▁finden 1892
▁denken 1887
▁kein 1882
lichen 1877
▁sogar 1875
▁denen 1870
▁Wasser 1864
▁macht 1863
ieren 1859
▁einmal 1856
▁zwischen 1840
▁Tag 1839
▁weiß 1836
▁Dies 1828
▁kommen 1825
ungen 1824
▁gemacht 1818
▁glaube 1805
▁gerade 1793
▁Frauen 1792
▁geben 1791
▁kommt 1788
▁Frage 1779
▁Arbeit 1765
! 1763
ig 1763
▁ohne 1753
l 1749
m 1739
iert 1738
y 1734
▁nichts 1718
▁will 1714
▁zeigen 1712
▁ihren 1710
▁würden 1708
▁nie 1704
b 1703
▁dafür 1701
▁unser 1694
▁konnte 1689
▁passiert 1685
▁sieht 1681
an 1681
sten 1669
▁Land 1660
▁ersten 1639
▁verstehen 1632
on 1631
ige 1630
▁jeder 1627
▁S 1624
▁während 1619
em 1618
▁daran 1615
▁Eine 1613
▁Prozent 1613
▁Millionen 1612
▁K 1610
isch 1606
▁Ihre 1601
▁etwa 1595
▁Mal 1572
▁warum 1572
igen 1571
▁erste 1571
▁lassen 1568
▁Daten 1566
▁Vor 1558
' 1556
▁leben 1554
▁An 1552
▁letzten 1551
al 1542
▁sollten 1541
▁mal 1538
▁sollte 1538
▁Idee 1528
ste 1526
▁Grund 1525
ter 1520
f 1520
▁meinen 1515
▁T 1514
h 1504
▁meinem 1502
▁könnten 1500
▁Geld 1497
▁Bild 1494
▁P 1494
at 1492
S 1488
▁wollte 1486
▁ja 1482
▁meisten 1480
▁Gehirn 1473
▁ganze 1467
▁große 1466
▁Weg 1464
▁sprechen 1453
▁ziemlich 1451
▁besser 1445
▁natürlich 1445
▁heraus 1444
▁L 1441
▁G 1436
▁ihrer 1434
▁bekommen 1434
▁R 1426
▁dabei 1421
▁ging 1418
u 1417
▁sagt 1416
▁kam 1412
▁arbeiten 1403
▁wichtig 1401
sch 1384
p 1384
▁nehmen 1382
ie 1376
▁darauf 1363
or 1356
▁Im 1348
lich 1346
Ö 1344
▁weniger 1342
be 1338
▁doch 1334
▁kleinen 1327
▁Ende 1317
w 1313
▁Raum 1313
". 1312
n 1312
g 1311
▁Dank 1309
der 1302
▁bedeutet 1298
▁Auf 1285
▁unseren 1284
▁Technologie 1279
▁Dollar 1277
▁Dann 1275
ungs 1273
▁vier 1267
▁Sache 1263
▁Energie 1261
▁Mann 1259
▁ins 1259
▁dachte 1254
B 1254
ge 1246
▁welche 1245
▁Da 1240
▁bringen 1240
▁ihm 1236
▁un 1235
▁10 1232
▁brauchen 1231
▁kleine 1231
▁eigentlich 1227
▁gesehen 1225
▁hin 1222
▁pro 1220
▁Ver 1217
▁Computer 1214
▁jemand 1198
▁großen 1193
▁Seite 1191
▁Denn 1189
▁D 1186
▁ver 1186
„ 1184
▁Ihr 1178
▁W 1177
▁H 1176
▁Weise 1173
ar 1172
▁C 1166
▁F 1165
▁Mit 1163
▁M 1163
▁Frau 1157
▁E 1156
is 1154
▁Stadt 1152
▁ganzen 1151
", 1146
% 1146
ing 1144
▁keinen 1138
▁Person 1132
Ich 1127
▁Menge 1124
▁später 1121
▁jeden 1120
▁gesagt 1119
▁gegen 1119
▁versuchen 1117
▁ge 1116
▁hätte 1113
M 1104
▁glauben 1103
▁Ort 1099
ierte 1098
▁Körper 1098
▁Zukunft 1095
▁vielen 1084
▁beim 1083
K 1079
tes 1079
▁Vielen 1078
el 1076
z 1075
▁seit 1075
ik 1069
▁Danke 1069
▁sicher 1068
▁stellen 1066
T 1063
▁konnten 1062
▁Lebens 1058
“ 1058
▁Kind 1057
▁Um 1055
▁heißt 1054
▁eigenen 1051
▁Sch 1050
▁A 1049
▁lernen 1049
▁schnell 1045
▁fast 1045
▁funktioniert 1044
▁fünf 1038
▁wenig 1037
▁indem 1037
▁Aus 1036
▁20 1036
▁schaffen 1029
▁f 1027
▁hoch 1015
▁Mutter 1012
▁Warum 1011
▁Erde 1011
D 1011
▁Jetzt 1010
▁möglich 1007
▁oft 1006
▁Probleme 1005
▁nutzen 1003
▁Moment 1003
ur 1001
▁jedes 997
▁N 996
▁Hand 993
ien 987
ischer 986
▁gute 984
re 981
▁seiner 980
▁Natur 980
▁Licht 979
▁Fall 978
le 976
us 975
▁wahrscheinlich 971
▁sah 969
▁helfen 968
it 967
▁allen 965
c 958
▁genug 949
▁Du 949
as 948
▁zeigt 946
▁unserem 944
r 944
▁System 944
▁neuen 942
▁erzählen 941
▁lange 940
▁nächsten 932
▁USA 930
se 929
▁Ja 929
os 929
▁begann 925
▁lang 924
ierten 918
▁erst 912
▁Internet 907
▁anders 907
▁ungefähr 906
▁jede 901
▁sch 899
▁bauen 898
um 892
▁Buch 890
▁richtig 889
P 887
▁m 886
▁gleich 885
bar 882
▁liegt 879
▁Planeten 878
▁verändern 878
▁bisschen 877
▁k 877
▁Augen 876
▁sei 875
A 875
▁Leuten 871
▁Ideen 871
▁herum 871
▁Form 871
▁weit 870
▁Wissen 868
▁St 868
▁seinen 868
ab 867
▁weg 867
gen 864
F 864
ation 862
▁Schule 862
▁Informationen 858
▁überall 855
▁z 853
▁kennen 851
▁stehen 848
▁sagten 847
sp 843
ver 843
H 841
▁Wissenschaft 839
ei 837
▁gehört 835
▁Für 831
▁Musik 831
▁Punkt 830
▁klar 827
▁darum 826
▁nennen 824
▁st 823
▁Antwort 822
▁Milliarden 821
▁Fragen 821
▁musste 820
▁Männer 820
▁Projekt 817
▁ihrem 816
▁reden 815
▁wer 815
am 814
▁Meine 813
▁bevor 810
iger 809
▁anderes 807
▁Dieses 806
▁dich 805
▁bereits 803
▁euch 797
C 797
▁p 793
▁50 791
L 791
▁Haus 790
▁je 787
▁Arten 787
ale 786
▁entwickelt 785
▁New 785
▁fragen 784
▁Afrika 783
▁erkennen 781
▁schwer 780
ers 780
▁Minuten 779
▁erreichen 779
▁Kopf 778
▁Mädchen 776
▁besonders 774
▁100 774
▁steht 774
♪ 774
▁be 773
▁halten 772
▁Gesellschaft 772
ent 772
] 771
▁namens 770
▁oben 770
▁30 769
▁Design 769
▁gar 768
▁spielen 768
[ 766
▁Kunst 764
▁hätten 764
▁verschiedene 764
▁Familie 764
▁benutzen 764
▁gerne 761
▁seinem 760
▁Unternehmen 756
▁machte 751
il 751
▁Oder 750
G 749
▁hören 749
▁Nach 749
isches 748
▁darin 748
ben 747
▁Selbst 747
▁Ab 744
▁TED 742
▁d 742
ot 739
▁w 738
▁Gruppe 736
▁Macht 735
▁Geschichten 733
▁sechs 733
ein 732
▁Auto 732
▁aller 732
▁Spiel 730
▁t 727
▁Doch 725
▁Mein 724
▁jedem 723
▁Glück 723
▁braucht 722
▁Angst 720
end 718
▁Bilder 717
▁Vielleicht 717
▁her 716
▁soll 715
▁Patienten 714
▁b 713
▁entwickeln 712
▁Weil 712
licher 711
ad 710
▁Über 709
▁Bei 708
▁vorstellen 707
▁Sprache 706
▁Be 703
heit 703
ä 702
▁Gefühl 698
▁Möglichkeit 694
▁Z 694
▁Indien 693
ber 693
ch 692
▁einigen 690
▁Stunden 690
▁erhalten 690
▁bewegen 690
▁Vater 690
▁irgendwie 689
ier 687
alen 685
▁verschiedenen 683
▁Nicht 681
▁beiden 680
▁wohl 680
sen 679
▁manchmal 679
▁Film 678
v 676
▁ändern 676
▁Eltern 675
chen 673
▁wollten 672
ro 672
▁Wort 670
▁Luft 670
ger 666
ü 666
ol 664
▁besten 664
▁nämlich 662
▁einzige 662
E 659
▁Regierung 658
▁Hause 656
▁Un 653
▁Sachen 653
▁Gott 652
W 651
▁groß 650
ra 648
▁verwenden 647
et 647
R 646
▁verändert 646
▁eher 645
aus 644
om 644
▁unglaublich 644
iges 643
▁Sp 642
▁15 642
▁neu 642
▁alt 641
▁sage 641
▁innerhalb 639
▁... 637
▁dir 637
▁China 636
▁fand 636
▁menschlichen 636
▁Kindern 635
▁fest 635
▁Gebäude 633
▁Roboter 632
▁Am 631
▁wegen 629
▁überhaupt 628
▁Stück 628
▁Ziel 625
▁getan 624
▁Länder 624
ion 623
▁O 622
▁Dieser 620
fen 619
ag 618
▁l 617
▁gleichen 615
op 614
un 613
▁beginnen 612
▁zwar 609
▁versucht 609
ant 608
▁schauen 608
▁Lage 605
N 604
▁Entwicklung 603
▁allem 602
▁Wirtschaft 602
▁Sinn 602
▁Krebs 601
▁Okay 600
▁Stellen 600
▁Universum 599
▁treffen 598
▁Video 598
▁führen 595
ist 595
eln 594
▁Verhalten 594
he 592
▁mag 592
▁s 592
▁wahr 591
au 588
▁Gesundheit 587
▁h 587
▁mussten 584
▁Erfahrung 584
▁meines 584
▁Tiere 581
▁wusste 581
▁schön 580
des 579
ul 579
and 578
▁Dingen 578
▁kamen 576
▁Re 576
▁weitere 575
▁Anfang 573
▁nächste 572
hen 572
ser 571
▁Zu 568
▁Freunde 567
zu 566
▁fühlen 566
▁kurz 566
▁hinter 565
kl 563
▁Herz 563
▁tut 563
▁Kultur 563
▁Wer 562
▁Grunde 561
ke 561
▁solche 560
▁Wochen 558
▁V 558
▁40 555
ut 555
▁Zum 555
▁Umwelt 554
▁unten 554
▁eigene 553
▁J 553
ir 552
▁menschliche 551
▁worden 550
▁falsch 550
gt 549
ll 547
▁Möglichkeiten 546
▁lässt 546
▁deren 546
▁Unterschied 546
▁letzte 546
▁Boden 545
▁York 545
▁Publikum 544
▁bringt 543
▁wären 543
▁damals 543
▁jedoch 543
▁recht 542
▁Lassen 540
▁obwohl 540
▁Tage 539
ck 539
▁Gedanken 538
▁Hilfe 537
▁schreiben 536
▁völlig 536
▁3 536
▁ent 533
▁gleiche 533
▁Nein 531
▁niemand 531
bl 530
▁Lehrer 530
ne 529
▁Thema 529
▁fragte 529
▁Staaten 528
2 527
▁direkt 527
▁bleiben 527
igkeit 527
Was 526
▁Nacht 525
▁Tages 524
▁Mensch 524
▁Woche 523
▁lösen 523
▁dessen 523
▁Markt 522
▁Prozess 522
iere 520
▁besteht 519
▁sollen 519
nen 518
▁suchen 518
▁Monate 517
▁Denken 517
ster 516
▁betrachten 515
ine 515
liches 514
▁Viele 514
▁los 514
▁genauso 511
▁Al 509
▁Namen 509
... 508
▁teilen 508
▁zuvor 507
▁U 506
▁ange 505
▁Ländern 505
▁' 504
j 504
▁Tier 502
▁interessant 501
▁bereit 501
▁stellt 501
▁Zellen 501
▁Kraft 501
▁Ist 499
anz 498
tern 498
▁Autos 497
▁führt 497
ationen 497
▁Familien 496
▁funktionieren 496
▁gefunden 496
▁Essen 495
▁Lösung 495
▁Freund 494
▁Ihren 494
▁unseres 493
▁zweite 493
är 492
▁Liebe 492
id 492
ert 492
zen 490
▁Fähigkeit 490
▁sieben 489
▁Modell 489
▁bitte 488
ang 488
▁sterben 488
▁kaufen 487
kommen 487
▁Unter 486
▁unterschied 486
▁Haupt 486
▁Wahl 485
▁Heute 484
ken 483
▁Krieg 483
▁scheint 482
▁I 481
▁All 481
Das 481
▁liebe 481
▁größte 481
▁anderer 480
▁lesen 479
▁Unsere 478
▁draußen 478
▁Wissenschaftler 477
▁welches 477
▁r 477
▁Bewegung 477
▁Zahl 477
age 475
iv 475
.000 475
▁eins 473
▁2 473
▁hast 473
ate 472
▁erinnern 472
▁Sehen 471
▁nahm 470
O 470
▁n 469
zeit 469
▁schließlich 467
▁schwierig 467
▁Jeder 467
▁gelernt 467
ak 465
▁gewesen 465
▁erschaffen 464
▁Medien 464
und 463
▁Eis 463
▁fanden 462
▁hinein 462
men 462
▁bewusst 461
▁Labor 461
▁Natürlich 461
ell 460
▁Ge 460
▁passieren 460
▁sehe 460
ap 459
▁glücklich 458
bt 458
▁essen 458
▁erklären 458
▁Reihe 457
llen 457
▁80 457
▁Verbindung 456
▁g 456
ler 455
▁Muster 455
▁sp 455
▁Tatsache 453
▁Technik 453
ast 453
▁Studenten 452
▁Jahrhundert 452
▁Wert 452
elt 452
▁jemals 452
▁Schritt 452
ierung 451
▁daraus 451
▁Wahrheit 451
▁bist 451
▁gebaut 450
▁geworden 450
▁nimmt 449
▁schlecht 449
▁Gemeinschaft 449
▁CA 448
gel 447
▁Technologien 447
▁leicht 447
ed 447
▁deshalb 446
art 446
▁Alles 445
▁miteinander 445
▁nachdem 444
ok 444
▁wissenschaft 444
▁aussehen 444
▁Richtung 444
▁möchten 444
▁Wo 443
▁Anzahl 443
▁mache 441
▁zehn 441
▁Platz 441
▁beginnt 440
▁größten 440
▁verloren 440
▁Alle 440
▁Tatsächlich 440
▁verbunden 440
▁ausge 439
▁Sicherheit 439
▁kleines 439
▁anfangen 439
ö 436
od 436
▁einge 436
▁kleiner 436
▁stark 435
▁Einige 435
▁sofort 434
▁5 433
▁plötzlich 431
▁Stimme 431
▁schrieb 431
▁findet 431
▁gezeigt 431
▁gegenüber 431
▁danach 431
▁Aufgabe 429
▁Ihrem 428
▁60 428
▁Forschung 428
▁stellte 428
▁Bildung 427
▁vorher 427
▁Deshalb 427
▁frei 426
▁Umgebung 426
▁guten 425
▁Gewalt 424
▁Ihrer 424
▁Städte 424
▁Rest 423
ill 423
▁länger 423
▁hinaus 421
schen 421
▁Teile 421
▁genannt 421
ft 420
▁bekommt 420
▁Vorstellung 420
▁Veränderung 420
▁Gen 419
▁Rolle 419
▁allein 419
▁entfernt 418
I 418
▁Kl 417
▁Bedeutung 417
ick 417
▁acht 416
▁verwendet 416
▁Reise 416
▁Mitte 416
▁Situation 415
V 414
5 414
▁Erfolg 414
▁egal 414
br 414
▁anzu 414
▁Größe 414
ic 413
▁Hälfte 413
me 413
Wir 413
▁tat 413
▁sonst 412
▁Während 412
▁Foto 410
▁nachdenken 409
▁18 409
▁Realität 409
▁benutzt 409
ze 408
ner 407
bare 407
mal 407
▁niemals 407
fe 407
▁Meinung 406
▁hoffe 406
▁Straßen 406
ia 405
▁25 405
dern 405
▁Krankheit 405
▁beide 405
▁laufen 404
▁Herausforderung 404
ri 404
▁Gesicht 404
ah 404
▁Pro 403
▁Le 402
▁Bereich 402
▁jemanden 401
▁raus 401
▁beste 401
▁weltweit 400
▁erreicht 400
▁Studie 400
▁soziale 400
▁bekam 399
▁Team 399
fl 399
▁bekannt 398
▁Entscheidungen 398
ort 397
1 397
▁voll 397
▁mögen 397
▁Information 397
▁alten 396
▁gingen 395
▁zeige 394
ip 393
▁statt 393
▁größer 393
▁12 393
▁komplett 393
x 393
▁langsam 392
▁ziehen 392
los 391
▁DNA 391
ha 391
▁daher 390
▁gegeben 390
▁Tat 390
▁genommen 389
3 389
▁Amerika 389
▁Straße 389
▁Zwei 389
her 388
ismus 387
ren 387
▁fahren 386
▁schneller 385
▁Sonne 385
▁wichtiger 385
▁Kosten 384
▁Preis 384
▁Zahlen 383
▁machten 382
▁Strom 381
▁außer 381
▁setzen 381
▁Nur 380
▁interessiert 380
sst 379
▁geschieht 379
▁Vereinigten 379
▁brachte 379
▁Struktur 378
▁6 378
▁Nachrichten 377
▁herauszufinden 377
gehen 377
▁Mittel 376
igt 376
▁geboren 376
▁Oberfläche 376
▁Papier 375
▁Schauen 375
▁Meter 375
sk 375
eren 375
▁fliegen 374
▁aufge 374
land 374
▁Fähigkeiten 374
▁liegen 374
▁Ergebnis 374
▁Bücher 374
▁Fisch 374
▁Firma 373
▁nennt 373
4 372
all 372
▁Fehler 372
oren 371
▁Material 371
▁absolut 371
▁Europa 371
▁stimmt 370
▁Gesundheits 370
▁Maschine 370
▁Tod 369
▁Generation 369
▁Beziehung 369
▁000 369
ere 368
8 368
▁90 368
ug 367
▁einfache 367
▁gemeinsam 367
ma 367
▁gesamte 367
▁neues 366
▁Von 366
▁lieben 366
▁rein 365
tet 365
!" 364
▁Blick 364
▁dachten 363
▁e 363
▁begannen 363
▁nein 363
▁Medizin 363
▁sozialen 362
▁geschrieben 361
▁200 361
▁Blut 361
▁Hoffnung 361
▁Ding 361
▁Alter 361
▁Bau 360
halten 359
rei 359
isten 359
▁Karte 359
▁sprach 358
▁Ch 358
▁1 358
▁gesprochen 357
▁Auch 357
hr 357
▁anstatt 357
▁Recht 357
▁zuerst 357
▁tragen 357
▁Aufmerksamkeit 356
St 356
6 355
▁Produkt 355
▁OK 355
▁Experiment 355
▁Revolution 355
iz 354
▁wachsen 352
▁Google 352
keit 352
▁großer 352
▁bewegt 352
▁hervor 352
▁gleichzeitig 351
▁stand 351
tz 351
▁Seiten 350
▁passierte 350
» 350
▁Schulen 350
▁Y 349
Sch 349
▁ähnlich 349
▁Gruppen 349
▁sahen 349
ob 348
▁finde 347
▁Bevölkerung 347
▁Studien 347
elle 345
lichkeit 345
▁verlassen 345
▁beobachten 345
« 345
▁Demokratie 344
▁wichtige 344
▁bestimmt 344
▁auszu 344
▁gern 344
▁klein 344
cken 344
▁vorbei 344
ys 344
▁bestimmten 344
og 343
▁Zugang 343
▁Pflanzen 342
▁7 342
▁versuchte 341
Die 341
im 341
▁Arm 341
man 340
▁junge 340
▁gearbeitet 340
▁aufzu 340
▁Orte 340
▁Mitgefühl 340
▁ansehen 339
ziehen 338
▁Monaten 338
ss 338
▁Job 337
▁re 337
▁Einfluss 336
▁Regeln 336
▁Uhr 336
7 335
▁Typ 335
innen 335
lle 335
▁Kontrolle 334
▁Evolution 334
▁gesch 334
▁Vortrag 333
▁ständig 333
baren 332
▁De 332
▁4 332
▁Sicht 332
ass 331
▁sitzen 330
▁bessere 330
form 330
▁Dr 330
▁Fl 330
▁Konzept 330
▁Schul 330
▁Menschheit 329
▁bald 329
▁offensichtlich 329
▁falls 329
▁US 328
▁verbessern 328
▁Eines 327
geb 327
auf 327
▁richtige 327
▁richtigen 326
▁bleibt 326
▁Oh 326
▁extrem 326
▁Daher 325
▁einzelne 325
▁entscheiden 325
▁Krankheiten 324
▁wussten 324
▁Software 324
eu 324
▁vergessen 324
▁Durch 323
▁8 323
▁Stelle 323
▁ihres 323
▁bilden 323
qu 322
det 322
eil 321
▁Beispiele 320
kt 320
▁großes 320
▁Ent 320
setzen 319
▁möglichen 319
— 319
▁bl 319
▁Politik 318
fer 318
& 318
▁Spaß 317
▁Können 317
▁arbeitete 317
▁HIV 317
▁Orten 317
ls 317
ator 316
▁Dorf 316
▁anschauen 316
▁Tagen 315
▁Schüler 315
ind 315
▁Grenzen 315
uch 315
Z 315
▁kannst 315
ru 315
▁abge 314
weise 314
enn 314
ium 314
▁verlieren 314
▁Versuch 314
▁links 314
▁neben 313
mm 313
▁Entscheidung 313
▁Genau 313
▁Firmen 313
▁erzeugen 313
▁zumindest 313
▁Nachricht 313
▁denkt 312
▁zer 312
▁erlaubt 312
▁voller 312
▁Gebiet 312
▁näher 312
▁70 312
▁Vergangenheit 312
▁Wind 312
Wie 311
▁aussieht 311
▁deine 311
▁erzählt 310
▁Armut 310
/ 310
sche 310
▁nachzudenken 309
▁Wirklichkeit 309
▁Chris 308
▁eben 308
aten 308
▁a 308
▁irgendwo 308
▁Bürger 307
▁Innovation 307
▁Künstler 307
▁Worte 307
▁Bakterien 307
▁Programm 307
▁manche 307
▁gebracht 307
ow 307
▁Sohn 307
▁Hände 307
ans 306
▁Meer 306
fahren 306
▁abzu 306
▁Personen 306
stellen 305
▁Universität 305
▁arbeitet 305
▁Spezies 305
▁Mathematik 305
▁Sekunden 304
ons 304
▁schw 304
▁Gut 304
▁Gerät 303
legen 303
▁Wand 303
▁führte 303
▁gesamten 303
▁sodass 303
vor 302
▁Ebene 302
▁tief 302
9 302
▁produzieren 301
▁trotzdem 301
▁solchen 301
▁versuche 301
▁kaum 301
▁traf 300
raum 300
▁gewinnen 300
wer 300
▁Ergebnisse 300
sehen 299
schaft 299
▁Theorie 299
ive 299
▁heutzutage 298
▁interessante 298
▁Baby 298
▁befinden 298
▁Morgen 298
▁retten 298
▁Amerikaner 297
eg 297
▁Flug 297
▁Schw 297
▁bestimmte 297
▁Ozean 297
▁Objekt 297
▁Ressourcen 296
ff 296
▁zeigte 295
▁Monat 295
▁gekommen 295
hin 295
▁nenne 295
▁Arbeits 295
▁Mar 295
▁geschehen 295
ach 295
▁erfahren 294
▁Regierungen 294
acht 294
▁runter 294
▁verbinden 294
amp 294
▁Wachstum 293
▁Wahrscheinlich 293
▁riesige 293
▁offen 293
▁globalen 293
▁CO 292
▁untersuchen 292
ay 292
▁Kern 292
io 292
iker 292
▁Chance 291
▁Mikro 291
▁Telefon 291
▁einzelnen 291
▁unmöglich 291
▁neun 291
cke 290
▁gefragt 290
▁aufgrund 289
are 289
▁erfolgreich 289
▁folgen 288
▁de 288
▁fertig 288
▁Bewusstsein 288
▁Landes 288
▁rund 287
▁Bezug 287
▁Himmel 287
▁Linie 287
ade 287
▁Rück 286
▁entdecken 286
▁Druck 286
▁Kon 286
iven 286
▁Kollegen 285
▁hilft 285
▁Groß 285
▁Zeug 285
ich 285
▁alte 285
▁Gesetz 285
eit 284
agen 284
▁großartige 284
▁gew 284
▁lebt 284
▁Fuß 284
bo 284
▁danke 283
▁Nahrung 283
ges 283
ür 282
▁sowohl 282
▁hab 282
▁jungen 282
▁Haut 282
▁herausfinden 282
▁verstanden 282
▁Auswirkungen 281
▁Prinzip 281
▁wann 281
▁Ordnung 281
▁Netz 281
geben 281
J 281
▁entschieden 280
▁best 280
▁großartig 280
▁Sex 280
▁Damit 280
▁hörte 280
icht 280
▁Tür 279
leben 279
arten 279
Oh 279
▁toll 279
ens 279
▁läuft 279
▁leisten 279
▁erzählte 278
est 278
eh 278
▁v 278
och 277
▁dadurch 277
rü 277
▁gestellt 277
lei 277
▁einander 277
▁hält 277
äu 277
▁fing 277
▁zweiten 277
alt 276
▁Sinne 276
▁ermöglicht 276
▁normalerweise 276
▁sammeln 276
ts 276
▁rechts 276
▁Wörter 276
▁öffentlichen 275
▁arbeite 275
▁Formen 275
▁verm 275
▁Se 275
spiel 275
▁warten 274
▁Bo 274
▁übrigens 274
▁gest 274
▁Bienen 274
▁Million 273
▁geschaffen 273
▁ger 273
arbeiten 273
▁14 273
bau 273
▁diejenigen 272
▁Freiheit 272
▁außerhalb 272
▁Fotos 272
▁Schl 271
▁ca 271
▁Methode 271
▁befindet 271
▁Nummer 270
▁Organisation 270
▁Beziehungen 270
ure 270
▁Krankenhaus 270
▁Büro 270
igung 269
mer 269
aden 269
▁Test 269
▁Reaktion 269
▁Gehirns 269
rä 269
▁Systeme 269
▁früher 268
▁16 268
▁Wesen 268
X 268
▁entdeckt 268
▁handelt 268
▁Arzt 268
voll 268
▁of 268
▁Gründe 267
bringen 267
enden 267
▁taten 267
▁schützen 267
th 267
che 267
▁Ärzte 267
▁Architektur 266
▁Schlüssel 266
▁Nord 266
▁welcher 266
▁messen 266
▁bisher 266
In 266
▁Ar 266
▁desto 266
itz 266
▁ebenso 265
ore 265
▁Regel 265
ität 265
▁Jungen 265
ce 264
▁Drogen 264
▁Maschinen 264
werk 264
kon 264
▁spielt 264
▁Verständnis 264
▁einzigen 264
Ja 263
▁Beginn 263
▁Flugzeug 263
▁betrachtet 263
▁selben 263
▁Farbe 263
ßen 263
▁nahe 262
▁unterstützen 262
▁dritte 262
▁Geist 262
▁schlechte 261
alten 261
▁kl 261
stand 261
▁bet 261
▁Kampf 261
▁Netzwerk 261
ies 260
▁entweder 260
▁Liste 260
▁Unser 260
▁fühlte 260
wesen 259
▁herstellen 259
▁ber 259
▁Bühne 258
▁Ma 258
anten 258
weisen 258
▁Gene 258
▁Stunde 258
▁Artikel 258
▁Punkte 258
▁Jahres 257
▁Zeitpunkt 257
ank 257
▁Mars 257
▁Geschäft 257
Nein 257
ann 257
▁Manchmal 257
▁Traum 257
▁getroffen 256
▁Ha 256
▁dasselbe 256
▁Ton 256
▁Name 256
▁Finger 256
ße 256
▁Interesse 255
▁Plan 255
▁Super 255
▁guter 255
▁Feuer 255
▁Behandlung 255
▁hinzu 254
▁Baum 254
▁erwarten 254
▁erleben 254
▁Na 254
▁wert 254
▁Englisch 254
▁amerikanischen 253
ess 253
▁Co 253
▁gutes 253
rat 253
▁lag 253
per 252
▁Lösungen 252
▁Jahrhunderts 252
arbeit 252
▁heutigen 252
onen 252
▁mehrere 252
▁Erfahrungen 252
▁Einer 252
▁San 252
▁Ex 251
ändern 251
▁hundert 251
▁wenige 250
▁erinnere 250
▁Gefängnis 250
schw 250
▁Veränderungen 249
▁Tisch 249
▁fort 249
ub 249
▁Bl 249
one 249
▁Wieder 249
licherweise 249
▁jene 249
▁nahmen 248
pt 248
haft 248
bild 248
▁Medikamente 248
▁keiner 247
▁spricht 247
ations 247
zug 247
▁schicken 247
Es 247
▁ebenfalls 246
▁Wunder 246
▁verkaufen 246
teil 246
▁Manche 246
▁früh 246
▁Risiko 245
▁Teilen 245
▁500 245
▁Kamera 245
▁Wege 244
▁Industrie 244
▁Jedes 244
▁bestehen 244
▁Worten 244
▁wählen 244
Warum 244
▁behandeln 244
▁Sommer 243
▁Mon 243
▁Zeiten 243
▁fällt 243
▁ehrlich 243
aut 243
▁dein 243
▁Haben 242
▁erfunden 241
dem 241
▁einfachen 241
▁km 241
▁Verantwortung 241
▁gedacht 241
▁17 241
▁jemandem 241
▁Hirn 241
ionen 240
wert 240
▁Erstens 240
bel 240
▁Eigenschaften 240
▁Sand 240
ph 240
▁Fluss 240
ac 240
▁geschah 240
kte 239
tr 239
▁Vergleich 239
zellen 239
▁Ro 239
▁Süd 239
▁Auge 239
lt 239
rie 238
lo 238
▁Noch 238
▁Designer 238
▁einzu 238
▁geb 238
schl 238
pf 238
arm 238
▁Regen 237
fall 237
▁existiert 237
▁Junge 237
▁Männern 237
▁Schönheit 237
▁komme 237
▁unglaubliche 237
▁Ahnung 237
▁Ok 237
▁Werte 237
▁konzentrieren 236
▁John 236
▁Bis 236
ho 236
Ver 236
aler 236
führen 235
▁verbringen 235
änder 235
ack 235
up 235
▁Tieren 235
▁herunter 235
alität 235
"- 235
ange 235
▁Städten 234
we 234
▁Bar 234
ellen 234
▁überleben 234
▁sobald 234
▁Religion 234
▁Nähe 234
▁lernte 234
▁Kommunikation 233
▁verrückt 233
▁Gesch 233
ierende 233
▁Berg 233
unden 233
▁öffnen 233
▁Zustand 233
▁Frieden 232
▁frühen 232
▁Biologie 232
▁Westen 232
▁Freunden 232
oten 232
stellung 231
system 231
▁Projekte 231
▁fangen 231
▁echte 231
▁Rad 231
rau 231
▁Freude 231
▁eigenes 231
▁Physik 231
▁Wirtschafts 230
▁11 230
▁gegangen 230
▁angefangen 230
▁spreche 230
▁Abend 229
▁ernst 229
assen 229
▁Verfügung 229
▁trifft 229
▁verb 229
▁verst 229
▁Region 229
pl 229
▁Spitze 229
▁Antworten 229
▁Glauben 229
▁Schutz 229
▁verd 228
▁cool 228
▁Zusammen 228
▁Materialien 228
oll 228
eile 228
▁Wald 227
▁300 227
▁Produkte 227
ud 227
▁Neu 227
▁gehe 227
▁Waffen 227
ative 227
ose 227
▁Park 227
tete 227
▁Gelegenheit 226
▁Sauerstoff 226
gesch 226
▁fallen 226
▁entstehen 226
▁begonnen 226
▁hört 226
▁Herzen 226
▁kontrollieren 226
▁Drei 225
▁Grad 225
▁riesigen 225
▁Bäume 225
▁herzustellen 225
▁Infrastruktur 225
ater 225
▁seines 225
ante 225
tw 225
▁Bi 225
▁geschafft 225
ierter 225
▁globale 224
0 224
▁erzeugt 224
rin 224
▁24 224
▁größere 224
Er 224
▁Leidenschaft 224
▁Nehmen 224
▁genutzt 223
▁wider 223
▁beeinflusst 223
▁Dort 223
▁echt 223
▁größeren 222
▁gebe 222
▁Farben 222
▁aufgenommen 222
▁Massen 222
▁Zelle 222
▁Ad 222
weg 222
▁brauchte 222
▁Polizei 222
▁dar 222
▁En 222
ende 222
▁ließ 222
▁Verbindungen 222
▁online 222
ucht 221
▁Unterschiede 221
▁Tochter 221
net 220
▁wichtigsten 220
▁Kreativität 220
▁13 220
▁Fenster 220
▁reagieren 220
ß 220
▁besch 220
gew 219
▁politischen 219
▁Entwicklungsl 219
▁erstaunlich 219
▁Vielfalt 219
▁kämpfen 219
ile 218
▁ermöglichen 218
▁Opfer 218
▁Lernen 218
▁fühlt 218
mittel 217
▁weiterhin 217
▁Her 217
▁verw 217
▁Werkzeuge 217
sa 217
ide 217
▁Hoch 217
▁Suche 217
▁Mir 216
▁endlich 216
▁Geschwindigkeit 216
einen 216
▁hart 216
▁beeinflussen 216
▁Klasse 216
▁London 216
▁voraus 215
uss 215
▁gen 215
▁Qu 215
schlag 215
▁entlang 215
ichten 215
▁Glas 215
▁fühle 215
▁Partner 214
▁einfacher 214
▁produziert 214
▁handeln 214
▁Mond 214
▁okay 214
istische 214
aren 214
▁Ansatz 214
▁kenne 214
▁Gefühle 214
An 214
▁langen 213
▁gilt 213
▁deutlich 213
▁Funktion 213
chte 213
▁dorthin 213
▁Kilometer 213
ark 213
▁seien 213
isiert 213
▁Osten 213
▁hielt 212
▁Version 212
issen 212
▁National 212
▁Nichts 212
gang 212
wei 212
sicht 212
▁Par 212
▁tot 212
pro 211
▁Afghanistan 211
Wenn 211
▁Los 211
iten 211
hm 211
▁Web 211
▁Loch 211
▁nehme 210
▁erlauben 210
über 210
▁Gel 210
▁stellten 210
▁schaut 210
ün 209
iken 209
▁Mehr 209
teten 208
▁erstellen 208
▁Müll 208
bst 208
▁entsteht 208
inen 208
▁Neuronen 208
▁Soldaten 208
▁Zusammenhang 207
co 207
▁gaben 207
▁Kunden 207
▁Botschaft 207
▁behandelt 207
▁ändert 207
▁Gesellschaften 207
▁Karriere 207
▁kostet 207
▁politische 207
▁Ameisen 207
▁Facebook 207
▁David 206
▁Holz 206
▁gel 206
▁darf 206
lassen 206
▁ganzes 206
ogen 206
▁wei 206
ckt 206
hal 206
igte 206
▁Einsatz 205
ib 205
▁dagegen 205
▁Zeichen 205
▁Karten 205
alter 205
▁Je 205
▁entschied 205
ät 205
▁erforschen 204
▁legen 204
▁Virus 204
▁Gegen 204
▁verkauft 204
▁Position 204
▁Typen 204
▁vers 203
industrie 203
▁Bedingungen 203
▁betrifft 203
▁Insekten 203
▁Satz 203
▁Materie 203
▁Ausbildung 203
▁Werkzeug 202
heiten 202
▁veröffentlicht 202
▁Komplexität 202
▁Wunsch 202
▁Sterne 202
▁steigen 202
sm 202
▁vert 202
iss 201
▁Fortschritt 201
▁bloß 201
▁Spielen 201
▁davor 201
ären 201
ite 201
▁Niemand 201
ht 201
▁weiteres 201
▁saß 201
▁alleine 201
▁Herr 201
tem 201
▁Gang 201
▁investieren 200
▁verursacht 200
chten 200
▁Unterstützung 200
▁benötigen 200
if 200
▁Mo 200
▁Atmosphäre 200
▁Kontakt 200
än 200
▁Qualität 200
▁Aufgaben 200
ard 200
halt 200
▁letztes 200
▁Klimawandel 200
ette 199
▁bes 199
▁habt 199
▁Jede 199
▁Gemeinde 199
▁beschreiben 199
ften 199
ologie 199
▁überzeugt 199
▁Drittel 199
▁. 199
▁gewonnen 199
▁entwickelten 198
▁sowie 198
▁He 198
▁Fernsehen 198
▁kommunizieren 198
▁Titel 198
▁Sekunde 198
▁Babys 198
▁dahin 197
▁Text 197
fte 197
▁Ur 197
Sie 197
rate 197
▁klingt 197
▁Ne 197
▁Ziele 197
▁Großbritannien 197
▁Zusammenarbeit 196
▁Den 196
▁leider 196
▁Zweitens 196
▁Geb 196
stehen 196
▁El 196
▁Intelligenz 196
▁Japan 196
▁schafft 196
▁Knochen 196
▁Universums 196
▁trotz 196
▁wirtschaft 195
▁Zentrum 195
▁gef 195
▁Höhe 195
▁9 195
▁umgehen 195
▁See 195
▁Feld 195
▁Wandel 194
▁Einkommen 194
▁gek 194
elte 194
▁neuer 194
essen 194
rad 194
▁unbedingt 194
▁überzeugen 194
ks 194
ran 194
▁Organisationen 193
igten 193
▁bef 193
▁lautet 193
ue 193
druck 193
▁vermutlich 193
▁Schmerz 193
ingen 193
▁Herausforder 193
▁Fällen 193
▁rechten 192
ett 192
▁herausgefunden 192
▁Hintergrund 192
▁Fach 192
▁Sport 192
ehr 192
▁Spiele 192
▁schl 192
▁Plastik 192
U 191
▁tolle 191
▁durchgeführt 191
▁wiederum 191
▁, 191
▁Handy 191
▁dieselbe 191
▁vollkommen 191
▁City 191
scht 191
▁Jobs 191
▁Forscher 191
▁außerdem 191
▁Ausdruck 191
▁unver 191
▁Identität 191
▁gem 190
▁Sh 190
▁übertragen 190
▁verbreitet 190
▁beschäftigt 190
ssystem 190
fach 190
▁Vertrauen 190
▁20. 190
Du 190
ativen 189
▁aktiv 189
▁krank 189
▁Charakter 189
ian 189
eller 189
lose 189
▁Objekte 189
▁Gründen 189
▁unbe 189
▁Kar 189
▁Landwirtschaft 189
▁le 189
▁verdienen 189
▁fragten 189
▁Gesetze 189
▁drehen 189
lern 188
isieren 188
▁erklärt 188
▁sorgen 188
▁Problemen 188
ritt 188
▁gestalten 188
reich 188
▁sitzt 188
▁stecken 188
▁sicherlich 188
▁besitzen 188
ologen 188
▁usw 188
▁selber 188
▁Sorgen 187
▁Basis 187
▁Großteil 187
▁benötigt 187
▁bezahlen 187
▁Gewicht 187
▁Keine 187
▁buchstäblich 187
▁Or 187
▁Zuerst 187
▁geführt 187
▁wirst 187
▁Schlaf 187
stern 186
▁Nutzen 186
barkeit 186
▁Pf 186
buch 186
äre 186
dr 186
▁erwartet 186
▁erstes 186
▁bitten 186
▁lief 186
▁High 186
▁Modelle 186
▁Beine 186
ins 186
▁Brot 186
ales 185
▁Masse 185
▁natürliche 185
▁höher 185
▁zufällig 185
amm 185
▁sozusagen 185
▁Ber 185
▁schöne 185
▁gelangen 185
▁bedeuten 185
kraft 185
▁uner 185
▁Sehr 185
▁dürfen 184
▁Konferenz 184
stoff 184
istischen 184
▁kümmern 184
hn 184
▁Finanz 184
isierung 184
abel 184
▁hinweg 184
geschichte 184
▁anderem 184
▁bestimmen 184
▁Affen 184
unter 184
▁Online 184
▁Bill 183
kten 183
▁modernen 183
▁wohin 183
▁mindestens 183
ust 183
our 183
▁Bank 183
▁dreht 183
▁Bett 183
gl 183
▁1. 183
▁Bildschirm 183
ache 183
gend 183
▁hohen 183
▁Stein 183
▁werfen 183
haus 183
als 183
sam 183
▁Rede 182
▁o 182
▁Milliarde 182
▁Dienst 182
▁nah 182
▁erhält 182
schaften 182
▁Au 182
ai 182
▁Leistung 181
▁Kalifornien 181
▁erinnert 181
▁hängt 181
▁Kindheit 181
▁steckt 181
▁entwerfen 181
bte 181
▁Bel 181
schlagen 181
▁täglich 181
▁Präsident 181
att 181
▁ex 181
▁auseinander 181
▁wächst 180
▁Staat 180
▁tausende 180
▁Museum 180
▁Sonnen 180
▁stolz 180
kel 180
▁falsche 180
▁lieber 180
▁Irak 180
▁Gold 180
▁Institutionen 180
▁To 179
▁verwandeln 179
▁öffentliche 179
▁Themen 179
▁Gefahr 179
▁irgendwann 179
▁daß 179
ont 179
▁Schluss 179
▁Fische 179
ichte 179
▁Dem 179
atz 179
▁Meeres 179
▁interagieren 179
digen 178
▁na 178
▁weder 178
▁interessanter 178
plan 178
son 178
▁Golf 178
▁normal 178
," 178
▁2000 178
▁verfolgen 178
▁per 178
▁testen 177
jährigen 177
▁überrascht 177
▁Bildern 177
▁Geräte 177
tert 177
▁glaubt 177
▁scheinen 177
▁einsetzen 177
▁weiteren 177
▁Kontext 177
▁Strukturen 177
▁Phänomen 177
rit 177
▁perfekt 177
▁Erinnerung 177
▁getötet 177
▁ans 176
hl 176
bes 176
▁töten 176
▁fragt 176
▁Lebensmittel 176
▁Bet 176
▁ro 176
▁Falls 176
rag 175
geln 175
bet 175
▁Außerdem 175
▁Entwicklungs 175
▁Jungs 175
00 175
▁Ecke 175
ker 175
▁hauptsächlich 175
▁laut 175
▁Per 175
bten 175
tel 175
▁Klima 175
achen 175
▁ha 174
▁halte 174
▁letztendlich 174
▁Bauern 174
▁War 174
ßt 174
▁weiss 174
ment 174
▁versch 174
▁Gegenteil 174
unde 174
▁Galaxien 174
rieb 173
pp 173
▁Kohlenstoff 173
av 173
inge 173
▁bed 173
▁wichtigste 173
▁198 173
▁Car 173
▁Lieblings 173
▁Norden 173
▁Temperatur 173
▁möglicherweise 173
▁verbracht 173
▁fl 173
▁Rahmen 173
▁Seit 173
▁tue 173
▁Ste 173
▁interessieren 173
▁Hund 173
▁Gl 173
▁verl 173
▁begeistert 172
▁Aktivität 172
▁nächstes 172
▁Sprachen 172
▁bel 172
▁England 172
▁schließen 172
Der 172
losen 172
▁Bruder 172
▁Iran 172
▁Kohle 171
▁Nation 171
▁Sein 171
▁Häuser 171
▁Verhaltens 171
▁gefährlich 171
stein 171
▁vollständig 171
▁Kreis 171
fr 171
▁besseren 170
▁verhindern 170
vers 170
▁Mut 170
get 170
▁Begriff 170
führt 170
▁versuchten 170
▁eingesetzt 170
▁Su 170
jährige 170
▁deinen 170
▁gewisse 170
▁einst 170
▁Wal 170
▁frage 170
eine 170
▁gehabt 170
nis 170
▁Dinosaurier 170
▁Meilen 169
ions 169
▁Vision 169
▁Ho 169
wir 169
▁We 169
▁Militär 169
Nun 169
▁basiert 169
▁schlimmer 169
▁Boot 169
▁älter 169
annt 169
pen 169
ve 169
▁Filme 169
ffentlichkeit 169
▁Experten 169
▁Stress 169
▁erzähle 168
▁September 168
▁amerikanische 168
▁Zimmer 168
ane 168
▁Fleisch 168
▁Videos 168
▁starb 168
▁Gewebe 168
▁Augenblick 168
▁existieren 168
appen 167
asse 167
▁stelle 167
▁bieten 167
Pro 167
▁erster 167
▁normalen 167
▁wunderbare 167
ote 167
▁Verstand 167
▁Israel 167
▁bemerkt 167
▁Ganz 167
▁hohe 167
bereich 167
inn 167
▁Vogel 167
▁Folge 167
▁Haufen 166
achten 166
▁praktisch 166
▁dauert 166
▁gäbe 166
▁Kn 166
▁Überleben 166
uten 166
▁Maus 166
▁Rand 166
▁irgendetwas 166
▁Sind 166
igkeiten 166
war 166
hlen 166
▁Verb 166
bs 166
iver 166
Sp 166
akt 165
lung 165
▁holen 165
▁arbeiteten 165
▁entworfen 165
sel 165
▁Händen 165
lie 165
▁unterschiedlich 165
▁Produktion 165
▁unterscheiden 165
▁35 165
bauen 165
▁teuer 165
▁Ger 165
▁Sozial 165
▁schönen 165
▁Bitte 165
▁durchschnitt 165
▁Erkenntnis 164
punkt 164
▁Cl 164
▁hunderte 164
▁verantwortlich 164
▁kennt 164
zt 164
▁Folgendes 164
▁West 164
▁nannte 164
▁schaute 164
▁wenigen 164
▁Kurz 163
▁fiel 163
▁kurze 163
▁wunderbar 163
▁Stimmen 163
▁Gespräch 163
inde 163
▁Laufe 163
▁Schwester 163
▁Lied 163
lau 163
ums 163
holen 162
▁einiger 162
fähigkeit 162
▁Ob 162
▁Gedanke 162
▁stärker 162
▁schien 162
▁lebte 162
▁meistens 162
▁linken 162
kommt 162
▁beantworten 162
▁gehalten 161
▁müsste 161
▁Pl 161
▁Richard 161
▁beh 161
▁Spieler 161
met 161
▁somit 161
▁Schimpansen 161
▁Gras 161
falls 161
▁al 161
▁Eins 160
▁Landschaft 160
▁entspricht 160
▁aufhören 160
▁wichtigen 160
▁entstanden 160
▁nochmal 160
▁hoffentlich 160
▁setzt 160
▁Konflikt 160
gern 160
▁häufig 160
▁angesehen 160
min 160
▁Moleküle 160
zer 160
eilen 160
▁ließen 160
▁beg 160
▁Beweis 160
▁könnt 160
▁dritten 160
▁Ant 160
▁Mütter 160
2- 159
rö 159
▁Perspektive 159
▁Radio 159
▁bekamen 159
▁erw 159
▁reich 159
▁Körpers 159
▁Mund 159
▁Individuen 159
▁mitten 158
▁Washington 158
▁erlebt 158
▁Gegensatz 158
▁Andere 158
▁morgen 158
ager 158
▁Dass 158
▁ges 158
▁vergleichen 158
▁Ihres 158
▁Standard 158
▁kon 158
▁Geburt 158
▁Rätsel 158
▁erkannte 158
▁Effekt 158
▁allerdings 158
igsten 157
▁Politiker 157
▁hoffen 157
wie 157
zahl 157
▁dennoch 157
iertes 157
▁Experimente 157
erst 157
▁Sc 157
▁Ganze 157
▁Eindruck 157
enk 157
▁zog 157
Re 157
▁Minute 157
▁Gleiche 157
▁bew 157
▁Mark 157
▁total 157
▁Twitter 157
▁Folgen 156
▁effektiv 156
eid 156
▁Todes 156
▁Unternehmer 156
bung 156
▁hergestellt 156
▁dran 156
▁Genom 156
▁Bio 156
▁passen 156
▁Rat 156
gruppe 156
eig 156
▁genauer 156
ierenden 156
▁verg 156
The 156
nisse 156
▁Nationen 156
▁Obwohl 156
du 156
▁gl 156
mo 156
▁Brust 156
▁Bein 156
▁gestern 155
▁stammt 155
satz 155
wirtschaft 155
▁Tausende 155
▁fördern 155
▁eigen 155
▁Dabei 155
▁nutzt 155
▁Gas 155
ings 155
gest 155
▁schlechter 155
▁musst 155
▁College 155
▁Brasilien 155
welt 155
▁Etwas 155
▁roten 155
▁Lauf 155
▁Teilchen 155
▁Medikament 155
feld 154
▁Kräfte 154
▁150 154
▁brauchten 154
▁197 154
len 154
▁kn 154
▁Satelliten 154
▁Zeitalter 154
▁Grenze 154
wachstum 154
▁erscheinen 154
▁gelesen 154
▁Gehirne 154
ör 154
seite 154
▁Bewegungen 154
▁Insel 153
▁selten 153
▁aufbauen 153
▁21. 153
ek 153
▁Entdeckung 153
▁Wellen 153
▁zahlen 153
▁lernt 153
▁Fakten 153
▁Har 153
▁brachten 153
▁10.000 153
▁Eigentlich 153
▁entwickelte 153
▁Zuhause 153
fahr 153
▁Erst 152
▁reduzieren 152
▁brauche 152
▁starke 152
▁Klein 152
ock 152
stelle 152
hilfe 152
▁oh 152
▁Forschungs 152
▁tausend 152
▁welchen 152
▁beschlossen 152
▁echten 152
▁erfinden 152
▁kosten 152
brechen 152
band 152
▁wieso 152
netz 152
▁Gr 152
▁bezahlt 151
▁persönlich 151
▁Atem 151
reiben 151
▁aufs 151
▁schlagen 151
af 151
▁Zug 151
annte 151
▁j 151
▁Klang 151
mt 151
dete 151
▁Lern 151
volle 151
▁verschwinden 151
▁Pu 151
▁normale 151
▁relativ 151
str 151
$ 151
▁wahre 150
ech 150
▁Zucker 150
▁400 150
bares 150
▁Bu 150
▁Sk 150
▁Hinsicht 150
▁Spiegel 150
▁Australien 150
▁Professor 150
., 150
▁trägt 150
▁verbrachte 150
▁Schn 150
zi 150
▁Gemeinden 149
▁Vorteil 149
▁Staats 149
▁gestorben 149
▁Gleich 149
kosten 149
allen 149
▁Mikroben 149
▁Nachdem 149
▁Krise 149
▁zunächst 149
▁vorhanden 149
▁außergewöhn 149
ron 149
▁reichen 149
▁Lebewesen 149
▁studieren 149
▁verbreiten 149
bern 149
▁lustig 149
ix 149
▁solch 149
▁Methoden 149
▁Ball 149
▁Hinter 148
hnen 148
uren 148
▁abhängig 148
▁Jemand 148
▁Organismen 148
esen 148
▁starten 148
ial 148
▁behalten 148
▁Arbeiten 148
▁Wohn 148
laufen 148
▁las 148
▁Met 148
▁Stand 148
▁geh 148
▁Linien 148
▁ern 148
▁Einzel 148
▁Blau 148
▁Reg 148
▁fuhr 147
schauen 147
ko 147
▁Ausmaß 147
▁Elektrizität 147
▁kurzem 147
▁Generationen 147
▁hinge 147
yp 147
▁45 147
é 147
gten 147
▁Ansicht 147
▁lie 147
▁Details 147
▁Mission 147
▁wobei 147
genommen 147
▁tiefer 147
fern 147
▁kurzen 147
▁nötig 147
orn 147
▁Laden 147
legt 147
▁For 147
gleich 146
schte 146
▁fängt 146
▁Aspekt 146
▁Lehr 146
▁schwarze 146
▁geändert 146
äl 146
app 146
▁for 146
▁gehören 146
▁nieder 146
▁halbe 146
▁medizinische 146
▁Elemente 146
oo 146
▁Interessen 146
▁Min 146
▁Tanz 146
ina 146
▁Netzwerke 146
▁zurückzu 146
▁kürzlich 146
▁entgegen 146
▁Fest 146
▁fern 145
▁AIDS 145
▁heran 145
▁Existenz 145
▁lebten 145
▁Zuschauer 145
möglichkeiten 145
▁Beste 145
itzen 145
▁verh 145
▁Ko 145
▁blieb 145
▁Website 145
▁Islam 145
del 144
ct 144
▁Weile 144
reichen 144
▁beschäftigen 144
▁geschickt 144
▁Code 144
▁Viren 144
▁meiste 144
▁zugänglich 144
▁drüben 144
▁Wetter 144
▁zählen 144
Ge 144
▁drin 144
ischem 144
▁beobachtet 144
▁Gedicht 144
▁Beim 144
▁natürlichen 144
ana 144
▁reicht 144
▁Wohlstand 143
▁eure 143
▁Korruption 143
▁Weltraum 143
les 143
▁Sitz 143
▁Motor 143
▁passt 143
▁aufregend 143
▁beschloss 143
cher 143
elten 143
reg 143
▁Grafik 143
▁Träume 143
▁Garten 143
gende 143
▁Beweise 143
▁Tests 143
▁Ober 143
▁seltsam 143
▁Lachen 143
▁Vorfahren 143
▁Po 142
▁Abschluss 142
▁Armen 142
agt 142
▁Emotionen 142
▁steigt 142
▁komplexe 142
▁darstellen 142
▁morgens 142
verbrauch 142
▁zerstört 142
▁Umfeld 142
▁rede 142
kul 142
▁Viel 142
oss 142
▁erkennt 142
iel 142
▁sprachen 142
▁Einstein 142
▁Wahrnehmung 142
▁Streit 142
▁grundlegende 142
atoren 142
▁Welche 142
▁Mitarbeiter 141
ativ 141
▁Zitat 141
asen 141
▁and 141
▁Dach 141
▁definieren 141
eien 141
▁erscheint 141
▁Gu 141
▁anwenden 141
▁Schiff 141
ragen 141
▁Erklärung 141
anden 141
▁Kaffee 141
▁verbindet 141
▁Patient 141
▁traditionellen 141
reten 141
▁Null 141
bahn 141
▁Kapital 140
▁MIT 140
▁Deutschland 140
▁deswegen 140
▁enorme 140
▁Nachbarn 140
▁meist 140
▁folgt 140
▁Architekten 140
▁dank 140
▁Kein 140
▁Bus 140
▁Rücken 140
▁School 140
▁Organ 140
▁Ehe 140
off 140
üsse 140
nahm 140
▁Korallen 140
▁wuchs 140
▁gesund 140
▁verfügbar 140
▁Paar 139
▁Jo 139
▁Quelle 139
▁aufzubauen 139
▁1, 139
iziert 139
▁setzte 139
▁zerstören 139
▁übrig 139
▁bat 139
▁spielte 139
fü 139
▁Theater 139
sver 139
▁Hei 139
▁Erd 139
▁Kerl 139
▁König 139
▁Schwierigkeiten 139
▁leiden 139
▁Mexiko 139
▁Schatten 139
▁Kann 139
▁Verhältnis 139
vert 139
▁la 139
▁Maßstab 139
▁verschl 139
err 138
fälle 138
geber 138
▁Zweck 138
geht 138
▁Sprach 138
▁Times 138
▁Fälle 138
setzt 138
elles 138
▁annehmen 138
▁erstellt 138
▁aufgebaut 138
▁At 138
hne 138
alisieren 137
▁vermitteln 137
▁Paul 137
▁wesentlich 137
▁gewissen 137
ord 137
ase 137
▁umgeben 137
▁leid 137
▁Viertel 137
▁erwähnt 137
▁worüber 137
▁Planet 137
hö 137
nahmen 137
▁Beruf 137
▁schlechten 137
äch 137
eist 137
daten 137
licht 137
ensch 137
artig 137
▁Freundin 137
dent 136
▁solcher 136
▁Mu 136
▁Durchschnitt 136
▁nützlich 136
▁Diskussion 136
▁Vorstell 136
▁UN 136
▁halb 136
▁verhalten 136
erk 136
▁Seine 136
▁zieht 136
▁gesp 136
yn 136
▁Schrift 136
asste 136
utz 136
▁heißen 136
▁Bereichen 136
verständlich 136
▁müssten 136
▁außen 135
▁Fernseh 135
▁formen 135
sh 135
▁Seele 135
▁DNS 135
▁Sogar 135
▁kannte 135
ätzen 135
▁Erwachsenen 135
▁Kulturen 135
▁ergibt 135
itter 135
versorgung 135
▁Chemie 135
atte 135
fisch 135
▁Harvard 135
ry 135
▁quasi 135
▁grün 135
▁enorm 135
▁treten 134
▁Bildungs 134
▁Volk 134
kre 134
▁Neues 134
▁entdeckte 134
ierungs 134
▁rief 134
ja 134
glich 134
▁höre 134
angen 134
▁Fünf 134
▁Ben 134
▁teil 134
gte 134
▁schätzen 134
▁ersch 134
▁Geräusch 134
▁Gewinn 133
vollen 133
▁verbessert 133
▁Situationen 133
▁fähig 133
▁Fahrrad 133
tlich 133
▁Riesen 133
▁196 133
▁inspiriert 133
lage 133
▁ersetzen 133
▁gebeten 133
▁still 133
▁schrecklich 133
▁Not 133
inden 133
ult 133
▁Grün 133
▁Damals 133
igem 133
ossen 133
inger 133
▁Arbeiter 133
▁Stufe 133
▁Start 133
▁Ru 132
▁vermeiden 132
gangen 132
▁gelöst 132
▁Auswahl 132
ungskraft 132
programm 132
▁Band 132
omen 132
wasser 132
▁Ph 132
▁21 132
eiten 132
▁Geheimnis 132
▁vorne 132
Mail 132
▁Zivilisation 132
▁menschlicher 132
arbeiter 132
▁Verlust 132
▁Vögel 132
▁beinahe 132
▁stattdessen 132
▁Inhalt 132
▁Bereiche 132
tro 132
üt 132
▁untersucht 132
hör 132
wo 131
alis 131
▁persönlichen 131
▁welchem 131
▁Risiken 131
▁Buchstaben 131
▁rot 131
ome 131
änger 131
▁Definition 131
▁unabhängig 131
▁Großmutter 131
▁entstand 131
maschine 131
▁Signal 131
▁gefangen 131
ats 131
▁Interaktion 131
▁verf 131
gef 131
▁voran 130
▁langer 130
▁notwendig 130
cker 130
▁Tonnen 130
▁abst 130
▁Ser 130
▁persönliche 130
ition 130
atur 130
▁hinten 130
stück 130
▁schwimmen 130
▁Doktor 130
▁ben 130
nahme 130
ala 130
▁Rot 130
ost 130
▁Anteil 129
▁19. 129
mmer 129
▁Zahn 129
▁Post 129
ara 129
▁versteht 129
▁Wesentlichen 129
▁App 129
▁unterstützt 129
▁Element 129
cht 129
ake 129
▁Lager 129
▁Gutes 129
▁Neur 129
▁Werbung 129
▁Student 129
▁verteilt 129
etten 129
stre 129
richt 129
ologe 129
altet 129
▁ant 129
▁derzeit 129
▁besuchen 129
▁Rechte 129
reiten 129
▁herein 129
▁Mil 129
▁Anderson 128
icken 128
▁verk 128
▁Wissens 128
▁erstaunliche 128
▁Kom 128
▁Schuld 128
▁schwieriger 128
▁fantastisch 128
▁standen 128
for 128
▁Hunde 128
ica 128
nete 128
so 128
▁westlichen 128
imm 128
▁seitdem 128
hafte 128
▁Strategie 128
▁Tradition 128
▁Zauber 128
▁besondere 128
▁Leider 128
▁Erinnerungen 128
gem 127
▁c 127
▁Anwendung 127
▁kreativ 127
▁Gew 127
die 127
▁Zell 127
ängen 127
Ein 127
▁World 127
▁hierher 127
ahl 127
▁berührt 127
▁dunkle 127
▁Tr 127
▁schlafen 127
nt 127
star 127
teilen 127
▁reg 127
mann 127
com 127
uchen 127
▁wen 127
▁beinhaltet 127
▁Süden 127
wand 127
▁Kongress 127
▁bauten 127
▁verstehe 127
▁Willen 127
▁Operation 127
▁Geschäfts 127
▁steuern 126
▁Verkehr 126
▁Kurs 126
▁lebens 126
▁Gegend 126
▁11. 126
org 126
▁Diagramm 126
ähr 126
▁feststellen 126
ielle 126
▁beschrieben 126
kosystem 126
▁beweisen 126
▁Gra 126
▁internationalen 126
▁erhielt 126
▁spät 126
▁Stärke 126
▁Wei 126
▁Weiter 126
▁meinte 126
stell 126
▁Wieso 126
▁eindeutig 126
az 126
▁Echtzeit 126
▁Ak 126
▁Eier 126
verb 125
▁Kombination 125
▁bietet 125
▁Respekt 125
ging 125
▁darunter 125
▁lediglich 125
▁besagt 125
▁enthält 125
atten 125
▁aufnehmen 125
▁Helden 125
▁Stuhl 125
▁stehe 125
▁digitalen 125
▁wirtschaftliche 125
ika 125
urm 125
▁blauen 125
▁vorzustellen 125
testen 125
▁Galaxie 125
▁Pfund 125
fel 125
▁Brief 124
▁sparen 124
systeme 124
▁etc 124
▁Ku 124
▁liefern 124
▁Steuer 124
▁faszinierend 124
▁99 124
to 124
▁Christ 124
▁Bedürfnisse 124
▁sucht 124
laden 124
▁vertraut 124
▁Chemikalien 124
▁entfernen 124
machen 124
▁Arme 124
▁Darum 124
▁Instrument 124
schrift 124
platz 124
▁Herren 124
auer 123
▁2. 123
sein 123
▁gefällt 123
▁Potential 123
▁Rei 123
stellte 123
▁seid 123
▁Denk 123
▁äußerst 123
▁gegründet 123
▁Mill 123
ari 123
▁Danach 123
▁gemeinsame 123
haften 123
änge 123
deten 123
▁folgende 123
▁speziell 123
▁trag 123
▁Malaria 123
▁George 123
▁Geistes 123
ingt 123
▁gespielt 123
▁Würde 123
▁weiterer 123
▁übernehmen 123
▁lokalen 123
▁Zufall 123
schutz 123
▁Geh 123
artige 123
▁absch 123
▁ähnliche 123
▁Ozeane 123
▁verschieden 123
▁gesellschaft 123
▁singen 123
zogen 122
▁leichter 122
▁armen 122
▁Mehrheit 122
ehen 122
▁gelebt 122
▁bek 122
▁junger 122
▁Richtig 122
gaben 122
let 122
gruppen 122
ov 122
▁überwinden 122
▁75 122
▁Gehen 122
▁Tumor 122
▁kriegen 122
▁kreieren 122
alisierung 122
▁Francisco 122
▁Milch 122
▁Aufnahme 122
▁kompliziert 122
▁Teufel 122
ity 122
▁Charles 122
▁Stattdessen 122
▁Werk 122
▁Maß 122
ond 122
▁Fliegen 122
▁psych 122
neten 122
alle 122
▁2008 122
▁schn 121
▁sichtbar 121
▁Do 121
▁Grundlage 121
▁Heimat 121
▁Kontinent 121
▁Mengen 121
▁internationale 121
istisch 121
mmen 121
▁Sicherheits 121
▁fürs 121
opp 121
▁veränderte 121
▁wirkliche 121
▁moderne 121
▁durchs 121
sie 121
▁ar 121
raten 121
▁Einheit 121
test 121
▁Di 121
▁Moral 121
▁Symbol 121
▁Südafrika 121
pe 121
pr 121
▁Deswegen 121
▁Brücke 121
▁Miss 121
▁Sobald 120
▁Sa 120
▁verwandelt 120
▁NASA 120
▁Jahrzehnt 120
▁großartigen 120
Hey 120
▁Erfindung 120
▁akzeptieren 120
▁Fahr 120
▁dahinter 120
▁Wein 120
▁Kabel 120
▁drauf 120
fahrer 120
50 120
▁Blumen 120
▁glaubte 120
▁bi 120
acken 120
▁heisst 120
▁Haar 120
immer 120
▁manchen 120
▁Open 120
▁Statistiken 120
alisiert 120
▁Winter 120
▁Küste 120
▁23 119
achte 119
▁dieselben 119
▁funktionierte 119
schnitt 119
lauf 119
▁erweitern 119
▁Links 119
▁zeigten 119
ling 119
▁gegenseitig 119
stet 119
▁Gedächtnis 119
▁Stammzellen 119
▁fasziniert 119
▁scheinbar 119
▁innen 119
ley 119
äng 119
▁soviel 119
▁Kenia 119
▁Aktivitäten 119
▁Jahrzehnten 119
▁Momente 119
rieben 119
▁hei 119
▁Gerechtigkeit 119
▁mögliche 118
▁Innovationen 118
▁zusammenge 118
han 118
ierend 118
▁Nase 118
lin 118
heim 118
▁vieles 118
öl 118
▁gewählt 118
gabe 118
▁schwarz 118
-, 118
▁medizinischen 118
rom 118
▁erhöhen 118
berg 118
lang 118
▁froh 118
alismus 118
▁menschliches 118
äd 118
▁inter 118
▁Gesichter 118
▁bemerken 118
osen 118
▁angenommen 118
▁Gegenwart 118
▁Einstellung 118
losigkeit 118
▁Pakistan 118
Be 118
▁Fabrik 118
ssen 118
dige 118
▁Fortschritte 117
▁Vorteile 117
▁Gebiete 117
▁Terrorismus 117
▁Russland 117
▁Te 117
▁unglaublichen 117
▁realen 117
▁baute 117
ück 117
▁Literatur 117
▁Signale 117
▁Einen 117
▁Wüste 117
▁Ju 117
eten 117
▁heiß 117
▁Zeitung 117
▁Top 117
ipp 117
▁komplex 117
ven 117
▁Best 117
▁Tor 117
▁Damen 117
▁Besch 117
▁Ereignis 117
forschung 117
▁Pflege 117
▁Bur 116
▁Br 116
urs 116
unternehmen 116
▁rote 116
scha 116
▁jener 116
▁Schritte 116
▁besitzt 116
▁Bes 116
▁Nahrungs 116
▁Hallo 116
▁Mach 116
▁Steve 116
▁Neurow 116
▁Wechsel 116
▁allgemein 116
ode 116
mp 116
▁600 116
▁Lektion 116
▁lachen 116
▁James 116
hlt 116
▁Führung 116
▁Stern 116
▁Wirkung 116
▁Billionen 116
▁Zunächst 115
▁besseres 115
▁überraschend 115
ierungen 115
▁arme 115
▁ansieht 115
▁senden 115
▁umge 115
scher 115
▁dr 115
▁i 115
▁Kriegs 115
führung 115
▁automatisch 115
▁Untersuchung 115
▁fährt 115
▁Erlebnis 115
▁überlegen 115
▁bezeichnen 115
▁Pap 115
schul 115
▁Michael 115
▁gefallen 115
▁Immer 115
zent 115
▁Hin 115
▁Quadrat 115
▁Absicht 115
▁Chicago 115
▁falschen 115
grund 115
▁Mö 115
markt 115
▁Th 115
▁Kirche 115
▁Mc 115
hy 115
▁Hunger 115
▁weißen 114
▁Informations 114
▁Transport 114
▁194 114
▁Welten 114
schluss 114
▁grundsätzlich 114
▁behaupten 114
▁anfing 114
bücher 114
▁Beg 114
yl 114
▁bekomme 114
▁Elektro 114
ele 114
hol 114
▁zeichnen 114
▁dargestellt 114
▁Dazu 114
▁Verd 114
▁Blatt 114
▁Webseite 114
▁Elefanten 114
▁leiten 114
▁Darwin 114
▁Nigeria 113
▁fr 113
Dollar 113
▁durchführen 113
▁verein 113
eite 113
▁dauerte 113
▁Gar 113
▁gebraucht 113
▁Pass 113
ame 113
ama 113
▁zusammenzu 113
räge 113
▁Vert 113
▁Gottes 113
▁eng 113
▁Innen 113
▁hinunter 113
▁wechseln 113
uf 113
keln 113
▁aufgewachsen 113
▁springen 113
fallen 113
beln 113
▁perfekte 113
▁Folie 113
verhalten 113
▁Dafür 113
▁Angeles 113
▁Wagen 113
▁Führer 113
ex 113
▁Show 113
▁beispielsweise 113
▁Vorstellungen 113
▁willst 113
Wo 113
▁wofür 112
denken 112
stoffe 112
▁führten 112
stellt 112
▁Chancen 112
▁zurückge 112
▁sowas 112
oph 112
gebracht 112
▁gep 112
▁Afrikas 112
▁empf 112
▁reisen 112
▁zufrieden 112
▁Bef 112
wissenschaft 112
menge 112
▁Trick 112
hand 112
▁Autor 112
▁Löcher 112
▁19 112
bert 112
▁Mio 112
▁fingen 112
▁Stahl 112
▁Sternen 112
▁gross 112
imp 112
▁positive 112
▁Metapher 112
▁Unterhaltung 111
▁Handel 111
▁beibringen 111
zubringen 111
▁Kap 111
▁Nutzung 111
▁berichten 111
quelle 111
▁landen 111
▁Tri 111
▁digitale 111
▁verz 111
▁the 111
▁Resultat 111
▁Psych 111
hren 111
hre 111
arb 111
▁Fr 111
▁merken 111
▁Blog 111
▁Geburtstag 111
▁bekannten 111
ktion 111
▁Gemeinschaften 111
▁drücken 111
▁Unfall 111
▁verschwunden 111
▁Schlag 111
System 111
▁Prinzipien 111
zei 111
▁ged 111
▁Kapitel 111
wissenschaften 111
▁SMS 111
▁Geschlecht 111
▁Verbrechen 111
gie 111
▁zweimal 110
▁Annahme 110
▁Ohne 110
▁Jugend 110
flug 110
▁blaue 110
▁Heim 110
▁Jahrzehnte 110
▁gemeinsamen 110
▁trafen 110
▁vertrauen 110
▁Gal 110
▁umher 110
▁lokale 110
▁Teenager 110
▁Kanada 110
▁bemerkte 110
haltung 110
▁zeit 110
▁The 110
▁Molekül 110
▁starben 110
▁Außen 110
▁Ohren 110
▁übert 110
▁afrikanischen 110
ital 109
▁irgendjemand 109
▁ums 109
▁Vier 109
▁Darstellung 109
▁besorgt 109
▁Gute 109
▁schwarzen 109
sprache 109
▁unteren 109
▁par 109
▁zuge 109
ahr 109
▁trinken 109
▁Männchen 109
▁Fa 109
▁achten 109
inken 109
▁Aussage 109
▁verstand 109
▁kostenlos 109
▁sogenannte 109
▁hielten 108
▁antwortete 108
▁einiges 108
▁Bevor 108
dit 108
▁pl 108
barer 108
▁Mag 108
▁darstellt 108
▁baut 108
▁Anstatt 108
▁Gibt 108
Le 108
gerät 108
▁Regierungs 108
▁Ausstellung 108
▁geholfen 108
▁ok 108
▁komplexen 108
▁Rob 108
gung 108
fällt 108
▁solange 108
▁Nachhaltigkeit 108
▁hörten 108
tzen 108
▁Lu 108
umm 108
▁La 108
▁genügend 108
kor 108
▁unge 108
▁Schließlich 108
leistungen 108
▁Weltkrieg 108
▁speziellen 108
▁Phase 108
▁Versuche 108
▁Strand 107
ute 107
▁betroffen 107
▁stabil 107
▁offenen 107
dienst 107
muster 107
▁get 107
ände 107
fol 107
▁biologische 107
ice 107
▁Fast 107
▁Schu 107
▁Zur 107
▁lebe 107
▁Asien 107
▁grünen 107
▁konzentriert 107
lager 107
▁sozial 107
▁worauf 107
▁Tro 107
▁Schweden 107
ließen 107
▁Dar 107
räume 107
artigen 107
▁jung 107
ält 107
▁Regionen 107
▁Anders 107
▁langsamer 107
▁Musiker 107
▁Noten 107
▁Aktion 107
▁Märkte 107
▁Verstehen 107
▁2007 107
▁Kat 106
▁Abfall 106
▁super 106
▁betreiben 106
▁Paris 106
weis 106
res 106
nehmen 106
▁Präsentation 106
▁Sonnenlicht 106
▁blau 106
▁anhand 106
▁nannten 106
▁enthalten 106
▁Einfach 106
recht 106
eigen 106
▁weiße 106
▁enden 106
ktiv 106
aw 106
▁se 106
▁Hunderte 106
zelle 106
▁Räume 106
▁versteckt 106
▁Hotel 106
▁dauern 106
▁wirken 106
▁Magie 106
▁treiben 106
▁nachzu 106
▁grau 106
ka 106
▁woher 106
schule 106
▁Klassen 106
▁real 106
▁gebrochen 106
ain 106
▁Samen 106
▁organisieren 106
▁Des 106
▁dunkel 106
hung 106
▁erkannt 106
▁Klassenzimmer 106
modell 106
▁Schicksal 106
▁stoppen 106
▁Außer 106
▁Bericht 106
▁Kampagne 106
▁wisst 106
▁teilweise 105
▁positiv 105
▁beteiligt 105
ender 105
▁Empf 105
▁Mangel 105
dung 105
▁verglichen 105
▁Debatte 105
▁Ereignisse 105
gesellschaft 105
ickt 105
▁27 105
▁Rock 105
ax 105
ire 105
▁Wettbewerb 105
gefühl 105
▁Uns 105
▁Boston 105
▁Ernährung 105
▁Schaden 105
▁Lungen 105
▁nachgedacht 105
▁Mode 105
▁Geräusche 105
▁nachts 105
000 105
ologische 105
▁moralische 105
▁Geschenk 105
▁öffentlich 105
uche 105
▁wertvoll 105
▁Argument 105
isierte 105
▁Tab 105
▁fehlt 105
▁Frankreich 105
bei 105
spieler 105
▁Wikipedia 105
2. 105
▁unterrichten 105
wahrscheinlich 105
▁YouTube 105
▁Restaurant 104
heben 104
▁hängen 104
▁Wirklich 104
▁Gericht 104
asch 104
▁1000 104
▁Con 104
▁Marketing 104
finden 104
▁Neben 104
tere 104
▁einfaches 104
▁schreibt 104
▁Wegen 104
▁rechte 104
▁traurig 104
▁Futter 104
▁Alters 104
▁wirkt 104
▁voneinander 104
stens 104
punkte 104
▁begegnen 104
llt 104
▁hinauf 104
▁Quellen 104
▁Wolken 104
itten 104
▁Wor 104
▁freien 104
zentrum 104
▁ausgesetzt 104
▁Unterricht 104
▁Grippe 104
▁Part 103
▁Anführer 103
▁Privat 103
▁gekauft 103
▁derselben 103
▁Quanten 103
▁Fokus 103
▁Laptop 103
zustellen 103
geschwindigkeit 103
izieren 103
bewegung 103
ahn 103
▁weshalb 103
▁grundlegend 103
ographie 103
▁University 103
▁Stamm 103
▁suchte 103
Y 103
ret 103
▁Ruhe 103
▁Status 103
▁Red 103
gelt 103
ym 103
▁erk 103
▁bewirken 103
▁Entfernung 103
own 103
▁2010 103
▁201 103
▁2, 103
▁reagiert 103
▁iPhone 103
▁Abst 102
▁verdient 102
gebiet 102
iell 102
▁insbesondere 102
▁Armee 102
▁Terror 102
▁Cent 102
▁Spielzeug 102
▁betrieben 102
▁anschaut 102
▁gewisser 102
▁grosse 102
▁veröffentlichen 102
▁Leiden 102
tt 102
▁Programme 102
▁wenigstens 102
amen 102
▁entz 102
▁doppelt 102
▁irgendeine 102
▁Bevölkerungs 102
▁weltweiten 102
▁heilen 102
▁Sal 102
▁vergangenen 102
▁GPS 102
▁glaubten 102
▁100.000 102
kehr 102
▁bestand 102
asst 102
▁Schicht 102
aum 102
▁reduziert 102
wärts 102
itt 102
▁Kindes 102
▁bekannte 102
▁erhöht 102
fluss 102
▁Hy 102
hof 102
ey 102
reitet 102
ath 102
ander 102
fähig 101
▁Aspekte 101
▁Schnitt 101
▁Handys 101
▁ausgeb 101
▁genießen 101
▁gründen 101
▁Meister 101
kam 101
▁Sol 101
▁Rezept 101
▁Zeitraum 101
▁bezüglich 101
▁besessen 101
▁gelang 101
▁Fläche 101
arkt 101
▁Persönlichkeit 101
▁herauszu 101
bekommen 101
cy 101
▁Potenzial 101
▁Chaos 101
folg 101
▁Depression 101
▁folgendes 101
▁Proteine 101
▁Computern 101
▁Reich 101
▁ergeben 101
▁2005 101
▁Fehl 101
▁nett 101
▁199 101
auen 101
▁half 101
▁Feind 101
▁Zweifel 101
blick 101
▁Teilnehmer 101
spielen 101
▁kü 101
problem 100
▁br 100
▁schauten 100
▁Presse 100
struktur 100
▁Naja 100
▁spüren 100
▁Schnee 100
▁mehreren 100
ese 100
▁Stücke 100
▁momentan 100
werfen 100
▁Zerstörung 100
▁beenden 100
▁arm 100
▁versorgen 100
▁te 100
ungssystem 100
bildung 100
▁erneut 100
▁Instrumente 100
kn 100
▁Kameras 100
▁Kleidung 100
▁Aufnahmen 100
▁Krieges 100
hei 100
teilt 100
▁kontrolliert 100
rt 100
fil 100
eisen 100
wür 100
karte 100
gibt 100
▁folgenden 100
▁Such 100
▁ursprünglich 99
▁versp 99
▁rau 99
arr 99
▁dienen 99
Okay 99
ordnung 99
dien 99
▁kalt 99
▁Kal 99
▁My 99
no 99
▁hinzufügen 99
▁hieß 99
mel 99
▁Stock 99
▁Hat 99
richtung 99
0, 99
▁Faktor 99
▁Gemälde 99
deln 99
▁produktiv 99
▁Tal 99
uß 99
▁1.000 99
ehl 99
▁Fre 99
▁woran 99
▁Sichtweise 99
▁Konsequenzen 99
▁eingeladen 99
▁unterwegs 99
▁verliert 99
▁Rechts 99
▁BG 99
▁aufgeregt 98
gegeben 98
▁verursachen 98
▁wiederholen 98
▁Inspiration 98
fassen 98
ösen 98
▁Extrem 98
▁basierend 98
atische 98
▁letzter 98
fläche 98
▁Witz 98
▁hinterlassen 98
holt 98
▁Ära 98
zig 98
▁Taschen 98
▁prä 98
▁Erwachsene 98
▁niemanden 98
ses 98
▁Trans 98
▁Erwartungen 98
▁Decke 98
▁angeht 98
▁Dimensionen 98
nimmt 98
▁bedeutete 98
▁ko 98
spiele 98
▁Air 97
▁End 97
▁Robert 97
▁Ingenieure 97
▁Verbreitung 97
iellen 97
▁entscheidend 97
▁Entdeckungen 97
mon 97
sprozess 97
▁Machen 97
bend 97
urt 97
▁sinn 97
etische 97
▁Nest 97
änd 97
einer 97
schein 97
▁zunehmend 97
▁Gebäuden 97
▁bezeichnet 97
Wer 97
digung 97
▁Algorithmen 97
▁umzugehen 97
▁Kurve 97
gestellt 97
▁deiner 97
▁Pal 97
▁trug 97
kultur 97
▁Richtungen 97
▁Detail 97
▁Wohl 97
▁gerettet 97
▁Wachstums 97
▁wovon 97
▁Physiker 97
▁Eigen 97
▁höhere 97
ochen 97
▁Tiefe 97
▁lebendig 97
▁Ep 97
▁Erdbeben 97
▁Lasst 97
▁Reaktionen 97
ießen 97
ufen 96
ots 96
▁Ingenieur 96
isk 96
▁eint 96
▁Aufbau 96
gendes 96
▁getrennt 96
zeichnet 96
▁inspirieren 96
▁rei 96
▁Juni 96
▁Teams 96
▁Kre 96
▁eigentliche 96
ou 96
macht 96
▁Street 96
▁Überraschung 96
endes 96
2, 96
▁Scham 96
▁Trotzdem 96
▁Metall 96
decken 96
▁Große 96
▁Gemüse 96
▁Verfahren 96
▁vorbereitet 96
▁Inter 96
ott 96
erne 96
ekt 96
▁eingeführt 96
▁General 96
▁Atom 96
▁erfassen 96
▁gefähr 96
▁Stift 96
ole 96
formen 96
▁Geschäfte 96
▁Ägypten 96
▁Psychologie 96
▁Wann 96
▁Chinesen 96
▁2009 96
▁Darüber 95
▁Pe 95
ielen 95
▁Sub 95
▁Zwischen 95
▁Treffen 95
▁unsichtbar 95
▁definiert 95
▁Herstellung 95
▁mittels 95
fs 95
stücke 95
▁gezogen 95
▁begreifen 95
▁Tom 95
▁wünschte 95
schreiben 95
▁Nerven 95
▁Gegenden 95
▁wunderbaren 95
▁Island 95
inder 95
rakt 95
▁grüne 95
▁deinem 95
▁Bibliothek 95
zeiten 95
▁Verlauf 95
▁Theorien 95
▁Toten 95
▁Erinnern 95
▁Dir 95
▁gewalt 95
▁grundlegenden 95
▁schwierige 95
ong 95
▁he 95
kan 95
▁Faktoren 95
▁legt 95
wellen 95
▁elektrische 95
▁anpassen 95
▁seht 95
▁Higgs 95
▁Pollen 95
▁Schuhe 94
zeichen 94
▁Ganzen 94
ulen 94
▁Thomas 94
schnittlich 94
▁Eigenschaft 94
▁naja 94
▁späten 94
▁Laufen 94
▁investiert 94
▁ausgeben 94
▁schlau 94
wagen 94
▁Box 94
int 94
▁knapp 94
▁Bro 94
prozess 94
▁Leiter 94
▁Normalerweise 94
▁spezielle 94
▁Komp 94
▁Anstieg 94
la 94
▁Kur 94
ash 94
▁vorhin 94
same 94
▁Erste 94
ografie 94
▁Heutzutage 94
▁dreidimension 94
▁besuchte 94
alte 94
▁Male 94
utzen 94
▁Dunkelheit 94
▁Weisheit 94
▁BIP 94
▁Wahlen 94
▁Terroristen 94
▁Flagge 94
▁Lo 94
▁form 93
annten 93
▁machst 93
hören 93
▁mach 93
▁brach 93
▁lebenden 93
▁Bedrohung 93
▁denselben 93
▁ernähren 93
▁Weibchen 93
▁studiert 93
▁atmen 93
▁Brustkrebs 93
▁bekämpfen 93
▁Anti 93
▁weißt 93
▁Ruf 93
▁Berge 93
▁lehren 93
▁Hitze 93
reffen 93
▁genetische 93
reise 93
▁Geschmack 93
▁Innerhalb 93
▁Kan 93
▁umzu 93
reisen 93
iff 93
▁Str 93
▁Lebenserwartung 93
▁Me 93
▁Vers 93
körper 93
▁rufen 93
ham 93
werke 93
▁Afrikaner 93
▁Kreuz 93
iden 93
▁Bord 92
▁bemerkenswert 92
▁Projekten 92
produktion 92
itze 92
▁fantastische 92
▁neigen 92
20 92
▁oberen 92
▁sogenannten 92
▁grossen 92
asche 92
▁vorsichtig 92
ön 92
sprach 92
▁erfüllen 92
▁Gesamt 92
▁Nachbarschaft 92
par 92
linie 92
▁kaufte 92
iens 92
▁Denkweise 92
▁starken 92
▁anzusehen 92
▁interessanten 92
hält 92
eut 92
▁schlug 92
▁Bauch 92
▁Italien 92
▁zurückkehren 92
500 92
▁Konsum 92
Aber 92
hi 92
zeug 92
etz 92
▁Zähne 92
▁liebte 92
▁Änderungen 92
▁neur 92
▁Antibiotika 92
igste 92
Welt 92
▁wahrnehmen 92
▁Plötzlich 92
▁anhalten 92
▁Obama 92
▁dankbar 91
ös 91
ungsk 91
▁Uni 91
iums 91
▁Weltbevölkerung 91
▁Reisen 91
anne 91
▁Angriff 91
▁Analyse 91
▁Ind 91
erweise 91
▁planen 91
▁Problems 91
▁erklärte 91
▁zählt 91
▁Sagen 91
▁Center 91
▁65 91
▁cm 91
uer 91
lichkeiten 91
▁beigebracht 91
erin 91
▁chemische 91
▁wundervoll 91
▁Ursprung 91
▁Port 91
isse 91
▁Schreiben 91
▁Schmerzen 91
▁Mor 91
samkeit 91
beh 91
pfen 91
ologischen 91
rot 91
Ar 91
▁ländlichen 91
dert 91
▁Mult 91
fragen 91
▁außergewöhnlich 91
▁Flügel 91
▁Adam 91
▁Aut 90
▁Januar 90
▁ausmachen 90
design 90
▁Lang 90
▁Niveau 90
▁vorn 90
▁Funktionen 90
▁soweit 90
▁Nieder 90
▁harte 90
stände 90
▁Wasserstoff 90
▁Inneren 90
▁Hinblick 90
▁beschreibt 90
▁Umständen 90
▁Chef 90
▁genetischen 90
▁schwere 90
▁technischen 90
▁Anruf 90
▁brechen 90
▁Will 90
▁Yorker 90
▁Gespräche 90
▁gesunden 90
▁ausb 90
ald 90
▁erforscht 90
▁Enkel 90
bruch 90
stoffen 90
▁besucht 90
▁Spe 90
▁Auft 90
▁blind 90
▁Richtige 90
▁Trend 90
schten 90
▁worum 90
konomen 90
Un 90
▁Ed 90
ball 90
▁Kr 90
▁Schulter 90
opf 90
fliegen 90
▁Katze 90
▁sens 90
kap 90
▁Komm 90
▁Syn 90
▁Privatsphäre 90
▁Hacker 90
▁0, 89
▁berechnen 89
arbeitet 89
▁Verwendung 89
ennt 89
▁Systemen 89
▁Sprung 89
ungsst 89
▁vieler 89
▁Phot 89
▁Mitglieder 89
▁verschiedener 89
▁Knie 89
▁ste 89
▁konfrontiert 89
” 89
spr 89
▁Kongo 89
▁wütend 89
gar 89
anc 89
annen 89
rang 89
zunehmen 89
▁Fü 89
▁Sechs 89
lungen 89
ight 89
▁jenen 89
wenden 89
▁Fett 89
▁kulturelle 89
▁Block 89
ison 89
▁gemessen 89
▁gewann 89
▁Klavier 89
▁glücklicher 89
orte 89
▁Training 89
▁Symptome 89
▁Saal 89
▁Haie 89
▁Investitionen 88
▁geschlossen 88
▁Haiti 88
▁Hü 88
▁Level 88
▁Systems 88
pfer 88
ationalen 88
▁anstelle 88
▁kreativen 88
▁ernsthaft 88
mus 88
▁biologischen 88
ippen 88
▁Beh 88
ters 88
▁vielmehr 88
▁höchsten 88
Sc 88
staat 88
▁Leid 88
▁Humor 88
rum 88
▁Sorge 88
▁mitnehmen 88
▁könne 88
▁Spektrum 88
▁Rom 88
▁Protein 88
fin 88
▁berühren 88
▁angehen 88
▁domin 88
▁nervös 88
alisierte 88
rop 88
▁hoher 88
zeugen 88
icher 88
▁aut 88
▁gezwungen 88
chter 88
dlich 88
▁gestartet 88
▁Autismus 88
fäll 88
inner 88
nach 88
setzung 88
▁Vergnügen 88
maßen 88
▁Euch 88
▁Neuigkeiten 88
▁Gipfel 88
▁chinesische 88
▁Hir 88
▁Gleichgewicht 88
▁Einrichtungen 88
▁Ghana 87
▁Kuh 87
▁funktion 87
▁Ausnahme 87
ächt 87
▁Oberflächen 87
▁gelassen 87
▁qu 87
▁Microsoft 87
▁Alternative 87
▁winzig 87
utt 87
▁hassen 87
▁ruhig 87
▁Plattform 87
▁einzig 87
▁Guten 87
▁Wälder 87
▁Belohnung 87
▁Schwer 87
▁identifizieren 87
stoßen 87
▁verfolgt 87
euert 87
▁Bier 87
▁zurückgehen 87
▁Heil 87
▁dazwischen 87
▁öfter 87
äter 87
▁Pat 87
▁wieviel 87
▁gering 87
▁Ä 87
▁sinnvoll 87
▁winzigen 87
▁lernten 87
zahlen 87
ime 87
▁dunklen 87
▁besonderen 87
▁visuelle 87
dy 87
▁Metern 87
▁Mama 87
▁Sensoren 87
▁DH 87
▁saßen 86
andelt 86
▁28 86
▁26 86
▁Kapitalismus 86
▁Designs 86
ichtet 86
▁kaputt 86
▁Großen 86
ep 86
▁Polio 86
▁seltsame 86
▁Far 86
▁Pol 86
chtet 86
▁höheren 86
▁Universitäten 86
▁schaue 86
▁Nan 86
▁Science 86
▁Schwarz 86
▁Muskeln 86
▁Muskel 86
hört 86
▁Zurück 86
▁wenden 86
▁wunderschön 86
▁Sozi 86
▁stirbt 86
▁Bibel 86
▁mut 86
▁schlimm 86
▁regelmäßig 86
▁hindurch 86
▁langweilig 86
▁erwähnen 86
▁Mathematiker 86
▁Mess 86
▁Akt 86
ives 86
▁Nachfrage 86
▁Stoff 86
gebiete 86
▁stimmen 86
▁Epidemie 86
▁Geruch 86
anken 85
▁Ern 85
hle 85
üssen 85
ystem 85
lan 85
▁erg 85
▁Star 85
▁Dame 85
▁tanzen 85
▁Vorschlag 85
▁Komponenten 85
▁Inst 85
▁Mad 85
▁Prä 85
▁leer 85
▁Acht 85
▁Szene 85
immt 85
▁elektrischen 85
▁wem 85
▁stieg 85
▁Fahrzeug 85
▁Diabetes 85
▁Blätter 85
▁Beton 85
▁gesetzt 85
▁Stanford 85
▁Verlangen 85
▁Prozesse 85
ständ 85
▁jenem 85
▁Jack 85
▁verkl 85
▁riesiges 85
▁Quad 85
▁Teleskop 85
öse 85
▁gründete 85
▁Dadurch 85
▁physische 85
eint 85
▁Studio 85
▁irgendeinem 85
ds 85
▁angemessen 85
fühl 85
Fl 85
ams 85
▁Röntgen 85
ütz 85
▁Konflikte 85
äh 85
▁wunderschöne 85
▁Füße 85
oh 85
Ex 84
▁politisch 84
▁Partei 84
▁Einfachheit 84
▁Wäre 84
mar 84
,5 84
▁bildet 84
karten 84
▁Tränen 84
▁unternehmen 84
▁einsch 84
▁Proben 84
▁insgesamt 84
fügen 84
leiter 84
geräte 84
▁anscheinend 84
anischen 84
▁Fort 84
▁drehte 84
▁Wut 84
▁irgend 84
▁Leber 84
alisierten 84
fische 84
▁heiraten 84
▁mittleren 84
stellten 84
schicht 84
unk 84
▁Medium 84
▁Bedürfnis 84
deckt 84
▁benutze 84
▁Prototypen 84
▁ignorieren 84
▁Katastrophe 84
stö 84
▁frühe 84
▁Mich 84
gangs 84
arch 84
▁Schwestern 84
▁Ursache 84
▁geteilt 84
▁Flächen 84
▁Batterie 84
Man 84
▁moralischen 84
unt 84
esse 83
▁Effizienz 83
▁Marken 83
rechte 83
▁Geheim 83
▁Verl 83
funktion 83
krieg 83
schn 83
▁195 83
altung 83
▁Apple 83
▁Bob 83
▁Go 83
▁Organismus 83
▁mittlerweile 83
spro 83
▁organisiert 83
orten 83
▁Res 83
▁faszin 83
▁Wild 83
▁Kommen 83
▁änderte 83
ami 83
▁Jedenfalls 83
abe 83
ischt 83
sta 83
▁Fundament 83
▁womit 83
▁Vorgang 83
▁fliegt 83
ppe 83
▁1990 83
▁Ohr 83
▁Strategien 83
▁Transparenz 83
ckte 83
▁Zw 83
har 83
▁misst 83
▁Ka 83
▁mächtig 83
▁Präsidenten 83
▁Indem 83
▁neugierig 83
▁vierte 83
▁Medikamenten 83
ktor 83
▁Küche 83
▁Spinnen 83
▁Organe 83
▁Ehre 82
▁vorzu 82
▁Dutzend 82
gegen 82
▁Figur 82
▁weibliche 82
▁Budget 82
▁Sequenz 82
uck 82
itionen 82
▁120 82
eiter 82
▁Liebling 82
▁nebenbei 82
ikt 82
▁Gro 82
istin 82
zimmer 82
olit 82
▁rum 82
▁wirksam 82
▁stammen 82
▁analysieren 82
▁Ros 82
▁Philosophie 82
issenschaft 82
▁reparieren 82
▁Frank 82
win 82
▁umso 82
ahm 82
▁welt 82
▁wundervolle 82
▁abgesehen 82
eiden 82
▁Lächeln 82
rech 82
▁Dis 82
▁Höhepunkt 82
hängen 82
▁Höhlen 82
▁Gemein 82
kur 82
ichen 82
▁AB 82
ierer 82
▁schwerer 82
▁schickte 82
▁setzten 81
▁hand 81
ürzt 81
▁Daumen 81
▁spannend 81
▁Konsumenten 81
ühen 81
hoben 81
▁Techn 81
▁Schnell 81
▁Besitz 81
▁infiziert 81
▁Ker 81
bringt 81
isst 81
▁gesammelt 81
schaffen 81
kä 81
▁Knopf 81
▁Motivation 81
ild 81
▁Bedarf 81
samen 81
▁Preise 81
▁Frei 81
kunft 81
eige 81
▁Biologen 81
▁gewöhnt 81
▁leuchten 81
▁verletzt 81
▁Salz 81
▁: 81
ehren 81
ider 81
ugen 81
apt 81
enkt 81
▁Schauspieler 81
▁eingehen 81
▁beides 81
▁Seh 81
▁inzwischen 81
▁überraschen 81
ox 81
▁Diagnose 81
ikation 81
▁feiern 81
▁Wichtigste 81
▁Rollen 81
▁indischen 81
▁eröffnet 80
▁Logik 80
▁Verbesserung 80
▁Handeln 80
▁enormen 80
▁Bush 80
▁benutzten 80
▁Übrigens 80
ordnen 80
▁Sen 80
▁Vermögen 80
▁nachdenkt 80
▁jeweils 80
▁nahezu 80
▁überein 80
rücken 80
▁1950 80
▁Gebieten 80
▁verließ 80
▁Umstände 80
▁exakt 80
▁Mannes 80
▁komplizierter 80
▁empfinden 80
▁Aufstieg 80
▁Bal 80
▁ru 80
▁ähnlichen 80
▁lebende 80
▁Mäuse 80
▁1980 80
boden 80
▁Mitglied 80
▁richten 80
▁22 80
▁beitragen 80
deck 80
▁Haare 80
▁offenbar 80
▁kleinere 80
▁Staub 80
anen 80
▁zurecht 80
▁Kranken 80
▁Katzen 80
▁hingehen 80
haben 80
▁echtes 80
rain 80
▁Schweine 80
▁verlie 80
car 80
▁traditionelle 80
▁wiederholt 80
▁dient 80
▁sozialer 80
▁arabischen 80
▁PM 80
eim 80
▁aktuelle 79
▁zuzu 79
ace 79
frage 79
▁qual 79
▁2004 79
lant 79
▁kreative 79
▁Resultate 79
▁zw 79
enz 79
▁Meere 79
komp 79
▁Fantasie 79
▁antworten 79
▁Wände 79
mut 79
ühr 79
linge 79
▁verlor 79
riffen 79
▁geraten 79
▁festgestellt 79
zukommen 79
▁heben 79
▁wahren 79
▁Kugel 79
▁Texas 79
▁Anwendungen 79
▁emotionale 79
els 79
agern 79
▁Alkohol 79
yst 79
ief 79
eich 79
richten 79
▁Toiletten 79
▁fließt 79
pflanzen 79
sätze 79
▁Techniken 79
ras 79
▁Ungleichheit 79
teile 79
▁früheren 79
fache 79
▁Internets 79
stag 79
▁Tasche 79
▁Marke 79
ritten 79
▁Handlungen 79
▁Pflanze 79
ias 79
▁3. 79
▁Pinguine 79
leistung 78
politik 78
▁begrenzt 78
▁fein 78
quellen 78
▁Durchschnitts 78
wissen 78
eht 78
▁höchste 78
▁au 78
ios 78
▁erhielten 78
▁ho 78
▁letztlich 78
istenz 78
vo 78
Wissen 78
ule 78
▁Wärme 78
▁anbieten 78
▁1960 78
▁Erstaun 78
▁mochte 78
bi 78
gener 78
▁vorgestellt 78
▁einziges 78
▁verarbeiten 78
▁32 78
xt 78
▁tauchen 78
ologisch 78
▁innere 78
gesetz 78
▁stets 78
▁geworfen 78
▁Büchern 78
▁trocken 78
▁verrückte 78
▁zuhören 78
▁keinem 78
▁Schwarze 78
leich 78
▁Serie 78
▁Ratten 78
igungen 78
ask 78
aschen 78
▁Mot 78
uster 78
anzen 78
▁int 78
▁Vi 78
▁heutige 78
▁Maßnahmen 78
▁Glücks 78
anlagen 78
▁Sektor 78
use 78
▁Klinik 78
▁chinesischen 78
oc 78
▁Fischer 78
gr 78
▁Schon 78
▁Fremden 78
▁Unterwasser 78
▁Lebensraum 78
▁flog 77
▁Versuchen 77
▁Unternehmens 77
▁vorwärts 77
itäten 77
▁diskutieren 77
▁Mem 77
▁befassen 77
▁hinsichtlich 77
▁überlebt 77
▁anfängt 77
▁getestet 77
1. 77
▁verliebt 77
▁Stich 77
▁Lesen 77
flu 77
tra 77
▁Mac 77
▁geöffnet 77
▁öffnet 77
wachsen 77
▁gefahren 77
▁schlimmsten 77
▁danken 77
▁Änderung 77
▁Versorgung 77
▁Ausland 77
▁Ebenen 77
▁Rückenmark 77
Mails 77
lungs 77
▁bedeckt 77
?", 77
▁ausgehen 77
▁Gedichte 77
▁jährlich 77
▁legte 77
▁Valley 77
▁Fels 77
ood 77
▁Verteilung 77
▁durfte 77
▁verstecken 77
▁Bon 77
its 77
▁befreien 77
▁übersetzen 77
ames 77
▁Erfolgs 77
▁Auff 77
werte 77
▁Mat 77
▁weltweite 77
schneiden 77
▁Zer 77
▁pass 77
eins 77
▁ü 77
▁Würden 77
▁Live 77
▁reicher 77
▁Ta 77
ünde 77
▁repräsentiert 77
▁2006 77
▁kg 77
ca 76
▁ausgegeben 76
▁ungeheuer 76
sse 76
▁Kredit 76
▁Oxford 76
itel 76
▁Ernst 76
▁Globalisierung 76
▁Widerstand 76
▁Disk 76
part 76
▁beeindruckend 76
▁schm 76
▁Erfinder 76
▁privaten 76
▁Pop 76
▁Dialog 76
jekt 76
▁Inseln 76
▁Gebäudes 76
▁billig 76
oben 76
▁sauber 76
▁alter 76
▁schreibe 76
ört 76
▁füllen 76
▁kreiert 76
▁schreckliche 76
▁ur 76
Und 76
▁Verw 76
auern 76
▁Bomben 76
▁Les 76
▁Therapie 76
▁ang 76
▁Egal 76
▁aufeinander 76
ips 76
▁gelangt 76
▁Kü 76
▁Kor 76
▁berühmt 76
durch 76
▁Ehemann 76
▁Stil 76
▁Bewohner 76
▁Schwanz 76
▁lasse 76
▁Ausrüstung 76
by 76
▁beträgt 76
▁or 76
▁umfassen 76
▁Stad 76
jähriger 76
▁Toilette 76
▁wartet 76
▁Bek 76
▁Berechnungen 76
▁Meg 76
▁verteilen 76
schau 76
onie 76
▁trat 76
▁Investition 76
reiche 76
organisationen 76
▁dick 76
▁Ansichten 76
▁ausmacht 76
bank 76
zieht 76
▁Achse 76
sterblichkeit 76
▁Sam 76
▁vorge 75
▁Koch 75
▁fü 75
▁niedrig 75
Se 75
▁Ausgaben 75
freund 75
fällen 75
▁erh 75
▁Konzepte 75
▁kap 75
▁gelehrt 75
▁As 75
▁kümmert 75
▁bem 75
▁auszudrücken 75
▁Betracht 75
▁heim 75
▁Auftrag 75
▁Entwurf 75
fre 75
well 75
Projekt 75
▁Katastrophen 75
ocken 75
▁Pferd 75
▁aktuellen 75
▁ältere 75
▁gesunde 75
▁ausschließlich 75
▁Lau 75
▁Wurzeln 75
auchen 75
▁Schlacht 75
ney 75
ringen 75
▁anf 75
▁Nie 75
▁selbe 75
▁Flüssigkeit 75
ologien 75
▁Feedback 75
ffekt 75
rach 75
▁extra 75
▁1970 75
▁Martin 75
▁zentrale 75
▁positiven 75
▁Uganda 75
▁Fahrer 75
▁offene 75
▁Hör 75
▁Ges 75
schalten 75
▁Waffe 75
▁verschwindet 75
▁erhe 75
▁erm 75
▁Etwa 75
▁fair 75
▁san 75
▁Lö 75
läss 75
▁niedriger 75
sinn 75
▁Verein 75
▁Onkel 75
▁verringern 75
▁Sta 75
▁kulturellen 75
▁physischen 75
▁250 75
▁bedeutend 75
steht 75
zeichnen 75
ura 75
▁Abenteuer 75
rank 75
rauen 75
▁höchst 75
▁Symmetrie 75
▁schöner 74
▁we 74
▁Smith 74
▁umzusetzen 74
▁global 74
▁inklusive 74
öser 74
minister 74
▁Mus 74
▁Che 74
bedingungen 74
▁komplexer 74
▁lau 74
▁Darauf 74
▁Überall 74
▁Dat 74
ppen 74
Pl 74
▁Umgang 74
stab 74
▁irgendwelche 74
▁Mechanismus 74
▁Fahrzeuge 74
▁Kontroll 74
steigen 74
▁ausdrücken 74
▁benutzte 74
pft 74
For 74
tragen 74
aterial 74
bungen 74
▁konserv 74
▁Angebot 74
▁schrieben 74
vel 74
▁Lehrern 74
▁lasst 74
▁Solar 74
▁wirklichen 74
▁älteren 74
änden 74
dliche 74
▁altes 74
▁Reserv 74
▁Hel 74
▁freie 74
▁erledigen 74
▁Journalisten 74
▁herab 74
▁einzigartig 74
▁jenseits 74
▁Ide 74
▁Tee 74
▁nationale 74
auten 74
▁Med 74
▁werdet 74
▁sü 74
nissen 74
▁BF 74
▁Oxytocin 74
euer 73
▁Werden 73
▁ersetzt 73
kung 73
stands 73
▁betreffen 73
projekt 73
▁unterhalb 73
ffen 73
▁Engagement 73
▁Statistik 73
▁Raketen 73
▁Laut 73
flie 73
verkehr 73
▁billiger 73
ehmen 73
folge 73
▁Probe 73
räumen 73
▁Einblick 73
▁derer 73
▁künstliche 73
▁Stille 73
▁Gebrauch 73
▁700 73
▁Tre 73
▁Dan 73
▁Tour 73
▁Amerikas 73
▁Bür 73
▁Tim 73
▁gestaltet 73
onnen 73
Bahn 73
ernen 73
▁löst 73
▁Übung 73
Na 73
▁berühmte 73
kr 73
ient 73
gegangen 73
▁Selbstmord 73
Inter 73
cks 73
gelassen 73
mit 73
halb 73
▁Kop 73
▁Gleichung 73
Auf 73
▁Wohlbefinden 73
▁Reichtum 73
▁Blickwinkel 73
▁Cal 73
▁Beitrag 73
▁Baseball 73
ada 73
ograf 73
rak 73
▁Ange 73
▁unterhalten 73
immen 73
▁Hinweise 73
schild 73
mäßig 73
▁zukünftigen 73
bene 73
▁Treibstoff 73
züge 73
▁ne 73
▁Kuchen 73
▁Zufriedenheit 73
▁teilnehmen 73
▁fuhren 72
▁schief 72
▁zurückkommen 72
grün 72
▁nachhaltig 72
elig 72
▁technische 72
▁Wird 72
▁Vo 72
▁rüber 72
▁Pr 72
▁fließen 72
ular 72
▁Hölle 72
zählen 72
▁Pause 72
frei 72
▁Sau 72
▁zukünftige 72
▁Nutzer 72
agte 72
▁95 72
akte 72
▁zogen 72
▁Oktober 72
▁wünschen 72
techn 72
▁Jung 72
bilder 72
▁dumm 72
▁klingen 72
▁Bürgermeister 72
▁behaupte 72
▁Dennoch 72
▁ster 72
arren 72
▁el 72
▁Elektronen 72
▁allgemeinen 72
zugehen 72
firma 72
omat 72
▁gegessen 72
▁einzusetzen 72
▁ras 72
▁illegal 72
▁Ac 72
▁Flasche 72
ützt 72
igerweise 72
ielt 72
▁verlangen 72
▁komplizierte 72
illen 72
▁entsp 72
▁Muslime 72
▁Löwen 72
seh 72
▁Nervenzellen 72
▁Blase 72
▁Population 72
▁bewahren 72
▁Lichter 72
▁Auswirkung 72
▁komp 72
ranken 72
ement 72
▁Handels 72
▁Praxis 72
▁dramatisch 72
▁Hollywood 72
▁anzugehen 72
▁Option 72
▁Mikroskop 72
▁Geschichtener 72
▁Werke 72
fahrt 71
▁suchten 71
▁altern 71
rans 71
▁schönes 71
raut 71
▁Gegenstände 71
ippe 71
ument 71
▁erkunden 71
▁entdeckten 71
▁vorhersagen 71
▁Bedenken 71
ary 71
▁Kohlendioxid 71
arte 71
▁Tempo 71
holz 71
reif 71
▁Sieben 71
under 71
▁Standpunkt 71
▁Benzin 71
▁Vorträge 71
ius 71
▁liebt 71
▁zunehmen 71
▁Dre 71
▁Gift 71
dest 71
▁Schriftsteller 71
▁halt 71
öt 71
▁gro 71
▁greifen 71
swert 71
Test 71
▁Alt 71
▁Bäumen 71
▁Mauer 71
▁aufw 71
▁Cyber 71
▁liefert 71
▁Letztes 71
▁y 71
▁rück 71
▁Besuch 71
▁visuellen 71
zur 71
▁Nachbar 71
ops 71
gekommen 71
▁schlussendlich 71
wa 71
▁Titan 71
größe 71
▁nationalen 71
▁nachhaltige 71
▁Kommun 71
ärm 71
▁zusätzlich 71
▁Ballon 71
▁ärmsten 71
▁bedroht 71
▁Alltag 71
▁vermittelt 71
▁Life 71
rab 71
▁Fliege 71
▁Entstehung 71
▁linke 71
▁Könnte 71
▁Gletscher 71
ora 70
▁800 70
▁Tode 70
wend 70
▁ausführen 70
▁Volks 70
▁Köpfen 70
▁gebildet 70
▁gewinnt 70
▁Party 70
digt 70
▁Prin 70
omp 70
▁Stiftung 70
zell 70
▁nutzten 70
way 70
▁intelligente 70
▁Heran 70
▁schnelle 70
▁Manhattan 70
▁hilfreich 70
▁Spenden 70
▁verbrauchen 70
▁winzige 70
▁unterscheidet 70
▁tiefe 70
▁Großvater 70
für 70
▁angekommen 70
emp 70
▁profitieren 70
hrt 70
oberfläche 70
▁aufmerksam 70
▁Schm 70
▁Produktivität 70
▁angetrieben 70
▁end 70
▁erlangen 70
ikan 70
▁braun 70
tens 70
▁irgendein 70
▁Magazin 70
▁Schülern 70
▁zweitens 70
▁Peter 70
▁Zeitungen 70
▁Inhalte 70
▁ad 70
▁Arbeitsplatz 70
▁übersetzt 70
gal 70
stes 70
▁ehr 70
Kon 70
streben 70
wissenschaftler 70
▁überprüfen 70
▁Oft 70
olle 70
▁Aktiv 70
▁Werten 70
utter 70
schläge 70
▁Fußball 70
▁Joe 70
▁Lebensqualität 70
▁Felsen 70
▁inform 70
▁Homo 70
▁virtuellen 70
dig 70
▁Spur 70
▁hell 70
▁Einheiten 70
▁Speicher 70
▁zugrunde 70
▁Mass 70
▁Abs 70
lege 70
▁Green 70
▁Schädel 70
▁Höhle 70
▁beachten 70
▁Berufs 70
▁religiösen 70
▁Hals 70
▁Ruanda 70
port 70
dro 70
▁Videospiele 70
stimm 70
▁schwierigen 70
pu 70
▁Sammlung 70
gut 69
▁circa 69
ruppen 69
▁erinnerte 69
▁geblieben 69
▁Flugzeuge 69
geschäft 69
line 69
▁Phil 69
▁Mist 69
llte 69
▁fühlten 69
▁Altern 69
▁Diesen 69
▁heiße 69
▁Gerade 69
iet 69
▁Jim 69
aun 69
▁Entw 69
▁erfordert 69
▁sä 69
reu 69
▁effizient 69
▁Dichte 69
▁Kilo 69
vent 69
▁Fern 69
va 69
▁quer 69
▁Alzheimer 69
zeichnung 69
▁schäd 69
bew 69
▁Ol 69
▁Trends 69
äser 69
▁Allerdings 69
ines 69
▁treibt 69
▁wirft 69
lichung 69
schung 69
ille 69
▁Menschlichkeit 69
▁Nahrungsmittel 69
▁Spuren 69
▁191 69
▁Arch 69
▁Illusion 69
▁Tief 69
stadt 69
ministerium 69
▁schau 69
amb 69
ständig 69
▁Front 69
▁Gestaltung 69
ilder 69
▁Kooperation 69
▁Ken 69
ierendes 69
▁Rio 69
isierten 69
▁zusätzliche 69
will 69
▁Gefahren 69
▁Gegenstand 69
▁üben 69
zustand 69
▁struktur 69
▁programmieren 69
organisation 69
▁Oel 69
derung 69
▁Mas 69
▁Hören 69
▁ungewöhnlich 69
bein 69
Kopf 69
▁Interview 69
ächtigen 69
je 69
▁Beinen 69
▁erzählten 69
▁weiterentwick 69
▁Depressionen 69
▁afrikanische 69
▁Nadel 69
▁sexuelle 69
aufen 68
handel 68
ünden 68
zte 68
äuf 68
geld 68
▁reiste 68
▁ausgebildet 68
▁Dynamik 68
▁private 68
▁Einmal 68
▁bedenken 68
▁Weltall 68
▁abgeschlossen 68
▁Eisen 68
▁weitermachen 68
▁Intuition 68
▁TV 68
▁Austausch 68
▁lagen 68
▁Tätigkeit 68
▁dicht 68
▁verbraucht 68
▁attraktiv 68
▁Dinger 68
enne 68
▁diesmal 68
▁schießen 68
ucken 68
kal 68
-- 68
▁Fakt 68
▁gra 68
eidung 68
▁aufrecht 68
▁Knoten 68
▁Käfer 68
▁trennen 68
ln 68
▁allgemeine 68
▁allzu 68
▁ert 68
kü 68
▁Ärzten 68
klich 68
▁Mathe 68
▁irr 68
mung 68
ßer 68
▁Früher 68
▁Figuren 68
▁Pen 68
▁Kriege 68
▁Reden 68
gerung 68
halte 68
▁Sir 68
▁Chip 68
▁auftreten 68
▁Störungen 68
▁Hügel 68
▁beschützen 68
▁heil 68
▁ra 68
▁clever 68
▁Hinweis 68
ehn 68
▁Lehre 68
▁Anerkennung 68
▁Asteroiden 68
osten 68
▁gesünder 68
▁errichten 68
▁Beide 68
▁spiele 68
▁är 68
▁Ass 68
itär 68
▁sicherstellen 68
▁Ei 68
▁malen 68
▁Schau 68
reifen 68
▁Kamer 68
▁Zit 68
▁Lärm 68
▁unglück 68
▁Leg 68
› 68
‹ 68
▁Flughafen 67
▁Allgemein 67
▁erzielen 67
euern 67
werten 67
▁10- 67
hil 67
▁herbei 67
▁2003 67
▁leeren 67
▁einziger 67
▁Pazifik 67
tten 67
▁Pocken 67
▁Wow 67
▁zwingen 67
gebaut 67
▁erfüllt 67
▁Allgemeinen 67
▁erf 67
▁85 67
▁Abstand 67
burg 67
▁tollen 67
▁Mr 67
▁häufiger 67
▁zugleich 67
bilden 67
▁Fe 67
▁Übergang 67
üssel 67
▁Studium 67
▁Geburts 67
▁Vortrags 67
▁Ter 67
▁Ke 67
flächen 67
▁King 67
▁Mittleren 67
▁Autoren 67
technologie 67
▁20.000 67
▁Punkten 67
▁PC 67
block 67
uh 67
▁Verkauf 67
gab 67
drücke 67
▁Anzeichen 67
sitz 67
▁Betrachten 67
▁Ah 67
wirken 67
▁33 67
äß 67
▁beendet 67
wirkung 67
▁Voll 67
▁Empathie 67
keiten 67
▁Welle 67
▁verschw 67
▁Schwerkraft 67
▁Seil 67
▁Klim 67
ga 67
sträger 67
▁Nordamerika 67
ande 67
▁to 67
▁Gleichheit 67
achsen 67
▁Falle 67
▁Abendessen 66
▁rennen 66
schel 66
▁lenken 66
▁kochen 66
▁anzuschauen 66
▁Untersuchungen 66
blich 66
änen 66
▁tausenden 66
▁unsicher 66
führer 66
designer 66
▁Tun 66
itu 66
▁echter 66
organis 66
▁Hut 66
▁Norwegen 66
▁chemischen 66
▁Kol 66
▁irgendwas 66
▁Gates 66
dessen 66
▁stattfinden 66
▁dreimal 66
grad 66
hem 66
▁erfuhr 66
▁Florida 66
▁trage 66
▁Institute 66
▁zentr 66
▁angepasst 66
äft 66
▁Köpfe 66
▁Kluft 66
▁Absch 66
▁Ach 66
ativer 66
▁Statt 66
ffe 66
besch 66
▁Operationen 66
▁Saturn 66
▁tolles 66
ängt 66
▁Tau 66
▁Tragödie 66
▁Schle 66
▁endet 66
▁aussch 66
▁Taten 66
▁landete 66
▁genetisch 66
▁Griff 66
▁Bew 66
▁ursprüngliche 66
▁Kreislauf 66
▁sinken 66
▁Sonnensystem 66
oth 66
▁Apfel 66
▁ansprechen 66
▁Einwohner 66
▁bewältigen 66
▁Küsten 66
mals 66
▁Jon 66
▁Erwärmung 66
▁Jeden 66
▁Vagina 66
▁Besten 66
▁ansch 66
zumachen 66
▁Herkunft 66
ierender 66
30 66
▁Später 66
prä 66
rug 66
▁Hai 66
▁Energien 65
▁Mai 65
▁Kauf 65
▁Woher 65
▁Frühling 65
▁ak 65
klär 65
▁Meinungen 65
einander 65
▁Dezember 65
orben 65
▁schaffte 65
▁zwölf 65
ausend 65
▁effizienter 65
etischen 65
▁gewissermaßen 65
vern 65
kamen 65
▁Mittagessen 65
▁Vielzahl 65
stel 65
▁5.000 65
zentr 65
▁kauft 65
▁vorkommen 65
stoß 65
schm 65
▁Schock 65
▁Waren 65
ährt 65
gert 65
echt 65
▁geredet 65
▁Weltbank 65
▁Leistungen 65
fleisch 65
kasten 65
'. 65
▁beziehen 65
▁Schreibtisch 65
▁Abhängigkeit 65
▁Stämme 65
▁Amazonas 65
▁schließt 65
▁Cambridge 65
▁Tricks 65
technik 65
▁perfekten 65
erv 65
▁Mel 65
▁angeschaut 65
▁Maße 65
iegen 65
▁exist 65
▁wunderschönen 65
▁Mischung 65
mme 65
▁Güte 65
mat 65
▁bedienen 65
▁Umfrage 65
▁sicherer 65
reck 65
▁vermute 65
▁verab 65
irn 65
▁weh 65
▁Kurzem 65
▁Sätze 65
▁fehl 65
▁Summe 65
▁live 65
▁soziales 65
herap 65
▁Stoffwechsel 65
▁durchzuführen 65
▁Kle 65
▁pol 65
▁komisch 65
▁Liefer 65
▁Matt 65
ziehung 65
▁startete 65
▁bewegte 65
ichteten 65
▁Fabriken 65
kreis 65
▁Erk 65
▁Erkrankungen 65
▁leidenschaft 65
▁Gast 65
▁Talent 65
ächer 65
▁auftauchen 65
▁täglichen 65
Ist 65
▁Fernseher 65
serv 65
▁Bahn 65
▁Stimmt 65
▁bedeut 65
▁at 65
ump 65
▁Erziehung 65
▁Fischerei 65
▁Mak 65
▁Panik 65
▁Animation 65
▁geschützt 65
▁Biom 65
▁Prim 65
▁KB 65
igend 64
urz 64
▁Institut 64
itzt 64
▁züchten 64
▁involviert 64
▁Zivil 64
▁verdoppelt 64
▁1,5 64
ike 64
▁Wollen 64
ständen 64
▁Zeichnungen 64
mpf 64
▁50.000 64
setzten 64
▁bewerten 64
▁halben 64
▁kombinieren 64
▁abschließen 64
▁durchge 64
ischerweise 64
▁Privileg 64
▁CD 64
mensch 64
▁finanzieren 64
▁respekt 64
▁erschien 64
ierbar 64
ahnen 64
ift 64
▁Watt 64
▁Dauer 64
▁vielerlei 64
▁Regenwald 64
▁Bewegungs 64
andel 64
üren 64
Programm 64
▁Kommunikations 64
▁entschlossen 64
gebäude 64
▁erledigt 64
mmern 64
▁wach 64
▁gemein 64
▁Bandbreite 64
▁Prote 64
▁verhindert 64
ruf 64
▁stoßen 64
▁Spiels 64
▁Supermarkt 64
zut 64
▁optimistisch 64
.. 64
ics 64
Qu 64
Aus 64
reibung 64
▁Gehör 64
▁geist 64
haber 64
▁träumen 64
▁zweites 64
▁zweieinhalb 64
▁bemerkenswerte 64
elen 64
ramm 64
osition 64
lex 64
hel 64
▁weich 64
▁Lücke 64
▁Minister 64
tag 64
▁Hilfs 64
▁Februar 64
haufen 64
▁beliebt 64
anal 64
▁Königin 64
▁Offenheit 64
äten 64
mäß 64
esser 64
▁Zentral 64
▁senken 64
▁herrscht 64
▁prakt 64
▁Darm 64
▁Poster 64
weite 64
▁Banken 64
fert 64
▁Bewusstseins 64
▁blicken 64
▁Euro 64
▁Dick 64
▁Hor 64
unterricht 64
ktionen 64
achel 64
umen 64
▁angesichts 64
▁Spitzen 64
▁Schall 64
▁Bas 64
▁17. 64
▁inmitten 64
▁Strahlung 64
▁Versagen 64
▁Völker 64
▁Autorität 64
▁Institution 64
▁ausgewählt 64
ric 64
▁trainieren 64
▁Roman 64
▁Hyper 64
put 64
▁fressen 64
▁Kin 64
gemacht 63
rise 63
ulieren 63
▁beobachtete 63
▁2001 63
atives 63
▁Erforschung 63
▁Interessante 63
behörde 63
▁interessantes 63
▁aussah 63
▁verdammt 63
▁Genen 63
las 63
▁kurzer 63
▁Trotz 63
▁Tja 63
reicht 63
▁Lust 63
ores 63
▁neulich 63
▁lass 63
▁Schlange 63
▁Somit 63
▁aufgeben 63
▁Wörterbuch 63
▁irgendeiner 63
▁speichern 63
▁kannten 63
▁Verzweiflung 63
▁Big 63
▁präsent 63
gewebe 63
gehend 63
▁Vereinten 63
▁wundervollen 63
▁Rein 63
▁Gewässer 63
hü 63
▁Hill 63
▁gefüllt 63
▁schafften 63
▁Straf 63
▁ursprünglichen 63
▁anstellen 63
▁Prototyp 63
gewicht 63
▁Fotograf 63
deut 63
aff 63
▁schwach 63
▁betreten 63
aby 63
▁geschlagen 63
▁Fund 63
indung 63
▁einstellen 63
▁spielten 63
▁exponentiell 63
▁Rechen 63
Technologie 63
▁revolution 63
▁reale 63
eis 63
▁Brüder 63
öhn 63
▁Benutzer 63
▁grösser 63
▁Kiste 63
bed 63
eils 63
▁Keiner 63
▁Business 63
▁Prof 63
ima 63
▁Überzeugung 63
Geh 63
▁Füßen 63
▁ankommen 63
▁Direktor 63
▁Messer 63
aktiv 63
▁Nahen 63
▁Anreize 63
▁westliche 63
▁Effekte 63
▁Chirurg 63
▁CE 63
▁Elektronik 63
▁Studierenden 63
ville 62
ban 62
▁Roll 62
▁Tausenden 62
roh 62
▁Planung 62
▁entscheidende 62
nte 62
▁wozu 62
ommen 62
▁Pre 62
obile 62
ors 62
ichtete 62
sproblem 62
▁Religionen 62
andelten 62
arzt 62
▁probieren 62
▁berichtet 62
auft 62
▁Media 62
artiges 62
▁Architekt 62
probleme 62
▁beginne 62
▁fortgeschritten 62
▁verfügen 62
schätzen 62
brachte 62
▁Lieder 62
glichen 62
▁einnehmen 62
iegeln 62
▁unendlich 62
▁Immunsystem 62
▁Schichten 62
▁verhält 62
▁Ameise 62
▁Mos 62
▁prüfen 62
▁verlangt 62
▁überlassen 62
ise 62
▁zug 62
▁modern 62
press 62
▁keines 62
ässer 62
▁gewachsen 62
▁tritt 62
▁finanziellen 62
▁Gehalt 62
▁relevant 62
▁bewirkt 62
▁inneren 62
▁einz 62
▁stattfindet 62
▁Länge 62
▁Richter 62
▁Kab 62
▁Türkei 62
ikeln 62
▁Auflösung 62
▁Optimismus 62
▁entf 62
langen 62
▁flüss 62
▁Kreaturen 62
▁system 62
▁Krankenschwe 62
▁Motoren 62
srate 62
sprogramm 62
▁mitteilen 62
▁Hindernisse 62
▁ähnliches 62
▁Täuschung 62
loser 62
▁erfasst 62
▁Rechner 62
▁Rollstuhl 62
▁Beschreibung 62
▁Geheimnisse 62
▁Algorithmus 62
▁Koran 62
ianischen 61
▁plus 61
▁Emissionen 61
▁ankommt 61
ächst 61
▁präsentieren 61
▁Vernunft 61
ennen 61
▁Kommentar 61
ahlen 61
brüche 61
ohn 61
ilien 61
alien 61
▁Entschuldigung 61
▁finanziert 61
▁Skulptur 61
ament 61
▁Mittelpunkt 61
▁schickten 61
▁Hardware 61
temperatur 61
▁verboten 61
ils 61
achtet 61
▁klass 61
osh 61
▁Datenbank 61
▁Widerspruch 61
grenzen 61
▁Hu 61
▁Einrichtung 61
▁Reichweite 61
▁Trinkwasser 61
▁Fettleibigkeit 61
ktoren 61
▁verzweifelt 61
▁einschließlich 61
▁flie 61
ziel 61
▁Verletzungen 61
▁wiederher 61
▁erstaunlichen 61
▁Dichter 61
greifen 61
▁Schokolade 61
▁gewaltige 61
▁zugeben 61
▁berühmten 61
▁liest 61
▁Aufzeichnungen 61
▁Neun 61
▁wahrschein 61
▁mult 61
▁Balance 61
▁englischen 61
▁britischen 61
▁Einzelnen 61
▁individuellen 61
▁Schild 61
▁gerecht 61
▁Möbel 61
▁Objekten 61
▁Verbraucher 61
älter 61
▁risk 61
material 61
oper 61
meister 61
krä 61
ister 61
▁überqueren 61
yt 61
▁Alex 61
▁scheitern 61
ähn 61
▁Fin 61
▁geringer 61
▁Ersatz 61
▁Wale 61
▁widmen 61
▁Laser 61
▁symbol 61
ehrt 61
▁Ignoranz 61
▁Chinas 61
▁Früh 61
bewusstsein 61
gels 61
▁Nachmittag 61
▁gewöhnlich 61
▁Winkel 61
▁Normal 61
▁LED 61
▁fürchte 61
istischer 61
belt 61
▁Poesie 61
▁Alternativen 61
▁Farm 60
▁LKW 60
Ber 60
▁Manager 60
▁vielmals 60
▁Prozesses 60
▁spannen 60
▁wüsste 60
▁Amy 60
qualität 60
▁Wüsten 60
▁Vietnam 60
▁Mer 60
bie 60
lagen 60
▁eingeschlossen 60
▁29 60
-1 60
', 60
▁Reihenfolge 60
▁Angestellten 60
▁legten 60
▁Offensichtlich 60
▁Filter 60
folgen 60
voller 60
▁Nor 60
▁3, 60
▁Ski 60
strom 60
wege 60
kinder 60
stete 60
urch 60
▁kre 60
▁Lunge 60
gress 60
▁schlägt 60
▁würdest 60
▁tro 60
Ger 60
anlage 60
▁Ted 60
spezi 60
lichem 60
▁10, 60
▁Van 60
maschinen 60
▁krit 60
ließ 60
ianer 60
aufnahme 60
▁Solche 60
▁Handlung 60
▁Bay 60
▁lächerlich 60
▁städtischen 60
theorie 60
▁definitiv 60
▁genaue 60
▁Original 60
▁Doppel 60
oß 60
▁Held 60
ikationen 60
cl 60
▁fotografiert 60
▁radikal 60
▁überwachen 60
wohl 60
▁Vorhersagen 60
▁hierfür 60
▁Bescheid 60
äche 60
▁wodurch 60
beu 60
fangen 60
▁beschleunigen 60
ranten 60
▁untersch 60
▁Erkenntnisse 60
orgen 60
öpfen 60
▁Gewinner 60
▁Symbole 60
▁Dreh 60
▁Arzneimittel 60
able 60
▁Königreich 60
wechsel 60
▁Genauso 60
▁Verwand 60
ätze 60
▁Brand 60
▁Friedens 60
▁Derek 60
▁Management 59
▁verbrennen 59
ool 59
produ 59
bereit 59
▁zutiefst 59
sage 59
racht 59
▁Hey 59
▁Ir 59
bür 59
häu 59
lösung 59
▁warm 59
▁Auffassung 59
iegel 59
▁Horizont 59
▁unterst 59
leg 59
▁Sicher 59
ätte 59
spl 59
▁Gelände 59
▁sicherzustellen 59
▁erstaunt 59
Bl 59
▁Interessanter 59
▁großartiger 59
▁Gef 59
Kl 59
▁Umgebungen 59
stieg 59
si 59
euten 59
▁tiefen 59
▁gekl 59
▁Mary 59
▁18. 59
▁Dopamin 59
weit 59
▁biologisch 59
▁Sil 59
lösen 59
▁steigern 59
▁Vieh 59
▁Tendenz 59
▁Zehn 59
▁wür 59
▁erfand 59
▁36 59
▁komplette 59
▁Menschenrechte 59
▁human 59
altete 59
▁individuelle 59
▁Ang 59
▁Besitzer 59
▁vertrau 59
blasen 59
▁Blasen 59
▁Sterblichkeit 59
▁bezieht 59
gebung 59
▁betonen 59
person 59
see 59
▁August 59
illa 59
▁leichte 59
eidet 59
▁Col 59
ücht 59
iste 59
▁Simulation 59
▁miss 59
▁Anreiz 59
▁Nächstes 59
sell 59
issenschaftler 59
▁Kart 59
▁Sprecher 59
▁Kolonie 59
Wow 59
otten 59
▁Tut 59
▁eingeb 59
▁Wel 59
▁basieren 59
▁Taliban 59
▁eröffnen 59
änglich 59
▁vergrößern 59
▁unterrichtet 59
▁Unabhängigkeit 59
▁glück 59
▁Kalorien 59
umpf 59
▁Ray 59
ungslos 59
bogen 59
▁studierte 59
▁Luxus 59
▁Sturm 59
▁Zweiten 59
▁chron 59
▁Chirurgen 59
á 59
▁Kommentare 58
▁Gore 58
▁Flut 58
▁Produkten 58
▁Erfindungen 58
▁Rauch 58
▁brennen 58
▁Solarenergie 58
fachen 58
iter 58
ocht 58
▁Nick 58
▁Verantwort 58
führ 58
▁mobil 58
▁Op 58
▁gesucht 58
wohn 58
▁Säugetiere 58
▁Grundlagen 58
▁Methan 58
▁auswählen 58
▁darzustellen 58
stellungen 58
appe 58
▁Hass 58
▁Win 58
llten 58
▁blieben 58
board 58
▁Tur 58
▁elektr 58
▁Laptops 58
▁virtuelle 58
kind 58
▁drüber 58
▁Standards 58
▁Bedauern 58
indungen 58
iment 58
bliche 58
▁ausreichend 58
▁aufzunehmen 58
▁Heilung 58
▁Sä 58
ish 58
alls 58
▁Howard 58
▁Blogs 58
5. 58
▁son 58
prü 58
raf 58
rufen 58
▁wild 58
▁Neugier 58
▁Platten 58
▁Farb 58
▁Drittens 58
▁frag 58
▁Wohnung 58
führten 58
▁Hypothese 58
Mein 58
▁geeignet 58
ya 58
▁Unglück 58
▁umsetzen 58
▁Feuerwehr 58
bieren 58
une 58
wechseln 58
▁klug 58
▁Don 58
▁breit 58
▁anzunehmen 58
▁Atome 58
▁Brücken 58
▁Primaten 58
▁umgekehrt 58
▁Lab 58
▁Sprechen 58
▁farb 58
▁Prot 58
▁Individuum 58
▁Könnten 58
▁beizubringen 58
▁MT 58
gleichen 58
▁verletz 58
▁Rhythmus 58
amil 58
▁Stabilität 58
umenten 58
▁Hilfsmittel 58
▁Deb 58
atisch 58
ope 58
▁Tropfen 58
äst 58
▁Wür 58
▁Einkommens 58
▁Steine 58
atik 58
kampf 58
▁Schlagzeilen 58
do 58
♫ 58
fühlen 58
▁Ungefähr 58
▁Babies 58
akten 58
▁Zentimeter 58
▁Extra 58
▁Lügen 58
▁Schwefel 58
β 58
▁Weißen 57
▁Phantom 57
zie 57
nten 57
vention 57
firmen 57
▁Arbeitsplätze 57
sektor 57
▁Pläne 57
station 57
▁Rennen 57
▁biz 57
lesen 57
▁Spannung 57
zusp 57
öpfe 57
▁Dimension 57
▁intensiv 57
▁tr 57
▁Kreise 57
uk 57
▁Leser 57
▁iPod 57
▁schmutz 57
▁Restaurants 57
▁Diskussionen 57
▁übers 57
▁getragen 57
▁Nar 57
utzt 57
▁jedenfalls 57
▁defin 57
▁Beobachtung 57
▁jagen 57
ruck 57
▁merkte 57
▁ermutigen 57
▁Explosion 57
hafter 57
▁Unsicherheit 57
▁männliche 57
▁tötet 57
agert 57
▁anzuwenden 57
hang 57
▁lese 57
▁ober 57
▁industrielle 57
fordern 57
▁Mais 57
▁Käse 57
▁Psychologen 57
trag 57
▁getrieben 57
linien 57
▁effektiver 57
▁Neg 57
lett 57
▁Höhen 57
hir 57
▁verurteilt 57
▁Besser 57
▁beteiligen 57
liste 57
▁vierten 57
▁gedreht 57
kräfte 57
▁anal 57
faktoren 57
▁Kopie 57
▁niemandem 57
▁flach 57
▁Eric 57
▁Endes 57
▁Jedoch 57
delt 57
▁Interaktionen 57
▁klassische 57
▁Erlaubnis 57
▁transportieren 57
▁großem 57
▁wüssten 57
▁einzigartige 57
air 57
▁schlie 57
▁Sklaven 57
▁besie 57
plätze 57
▁Stau 57
eide 57
uts 57
▁eigentlichen 57
▁Motto 57
▁lei 57
aster 57
▁korrekt 57
▁Flaschen 57
▁regel 57
ürzen 57
ordnet 57
Spiel 57
▁bzw 57
▁Papa 57
freiheit 57
▁Anhänger 57
ikal 57
▁maß 57
▁Stickstoff 57
▁Halb 57
film 57
raft 57
▁aktivieren 57
▁Klimawandels 57
▁Passwörter 57
▁Kritik 56
▁sorgfältig 56
verschmutzung 56
▁fantastischen 56
genden 56
▁erwähnte 56
▁Gesichts 56
was 56
▁globaler 56
anst 56
▁bewiesen 56
▁Notwendigkeit 56
▁gestohlen 56
▁mon 56
▁großartiges 56
▁Dikt 56
▁dür 56
▁Fil 56
gra 56
▁eingestellt 56
vir 56
▁Fer 56
führte 56
▁lauter 56
ieber 56
▁Song 56
▁Exp 56
legte 56
▁dringend 56
▁Gerüst 56
▁Besonder 56
▁wiegt 56
▁vollen 56
ograph 56
▁Gefangen 56
▁Sur 56
▁interview 56
▁Hafen 56
▁Men 56
▁gelingt 56
akter 56
▁Impfstoff 56
▁geleitet 56
▁beschleunigt 56
▁Urknall 56
▁Irgend 56
kurs 56
▁Oper 56
▁mittel 56
▁nochmals 56
▁Weiß 56
▁konsumieren 56
ino 56
▁Lie 56
▁warf 56
einhalb 56
▁kal 56
▁Lego 56
▁Mod 56
▁versagt 56
▁Werbe 56
Ch 56
seit 56
rategie 56
▁keinerlei 56
swer 56
▁Anwalt 56
▁teure 56
onom 56
▁Gest 56
▁en 56
▁Kleider 56
ringt 56
terten 56
gn 56
stock 56
▁Strecke 56
▁Schizophrenie 56
senden 56
▁Wall 56
▁zivil 56
▁rob 56
▁Leder 56
waffen 56
▁Gesetzen 56
▁redet 56
▁falten 56
▁Berechnung 56
lebt 56
chn 56
▁Lass 56
älen 56
▁rü 56
▁Reis 56
▁verkaufte 56
▁kom 56
▁Felder 56
änderung 56
▁warst 56
▁euer 56
stheorie 56
▁Größen 56
▁Bären 56
▁Glaube 56
▁Wichtigkeit 56
▁Personal 56
▁sendet 56
▁Töchter 56
▁Robotern 56
▁Großeltern 56
▁Entropie 56
▁öffnete 55
▁Brennstoff 55
▁Allein 55
▁landwirtschaft 55
▁freue 55
▁überdenken 55
▁sol 55
▁aktiviert 55
▁Juli 55
kins 55
aufnahmen 55
wichtig 55
▁Anliegen 55
nern 55
▁besserer 55
▁Besonders 55
▁geplant 55
▁sub 55
fält 55
▁akzeptiert 55
▁draussen 55
▁Pan 55
▁minimal 55
4. 55
mitteln 55
fordert 55
komm 55
Up 55
▁schlechtes 55
ickte 55
auber 55
▁Schne 55
▁Freizeit 55
▁durchlaufen 55
hls 55
▁Gestalt 55
▁Chem 55
▁Substanz 55
ypen 55
▁Li 55
▁Mittag 55
▁Ele 55
▁klinische 55
amer 55
▁Zwill 55
Ab 55
▁Veröffent 55
▁Buches 55
▁Konstruktion 55
▁ch 55
▁zuletzt 55
▁techn 55
▁beantwortet 55
▁Branche 55
▁baten 55
▁Aussehen 55
▁erkannten 55
▁Wirbel 55
▁55 55
▁Anw 55
ifiziert 55
▁wiederver 55
▁drinnen 55
▁Patent 55
▁notwend 55
▁gelben 55
▁Krankenhäuser 55
konomie 55
riff 55
llig 55
anter 55
▁repräsentieren 55
nung 55
treten 55
▁streiten 55
gezogen 55
▁Böse 55
zwei 55
aj 55
staaten 55
▁ir 55
▁religiöse 55
mlich 55
▁leistungs 55
▁Kortex 55
icks 55
▁aufstehen 55
De 55
ieben 55
ackt 55
▁EU 55
▁schweren 55
▁Investoren 55
▁verp 55
▁ausgew 55
aturen 55
▁Rettung 55
▁Impuls 55
zentren 55
▁Alexander 55
▁Dankeschön 55
ign 55
Fre 55
▁Streben 55
▁weinen 55
▁Sendung 55
ultur 55
▁Haltung 55
▁mithilfe 55
▁Initiative 55
▁Merkmale 55
▁verrückten 55
ini 55
▁Indiens 55
▁berechnet 55
ätz 55
probe 55
▁Tank 55
▁Sklaverei 55
▁Orchester 55
.: 55
/& 55
▁Offen 54
▁4, 54
riebe 54
nehm 54
vis 54
▁häss 54
▁finanziell 54
ifizieren 54
▁Liter 54
▁kleineren 54
schnitte 54
▁fürchten 54
▁Stat 54
▁ph 54
▁Foundation 54
▁erstmals 54
rinzip 54
▁intelligent 54
▁Pilot 54
uchten 54
▁leise 54
▁verwendeten 54
▁State 54
schuss 54
fort 54
▁fokussieren 54
▁Größenordnung 54
setzte 54
twor 54
▁einzigartigen 54
▁Kategorie 54
▁erwachsen 54
▁Einzige 54
▁überle 54
▁spezi 54
Modell 54
▁Teppich 54
Plan 54
ony 54
PA 54
usste 54
▁gebunden 54
uft 54
leiten 54
weil 54
9, 54
▁erweitert 54
▁verraten 54
▁süß 54
▁vergewaltigt 54
▁gemeinschaft 54
▁mathematische 54
ilen 54
asien 54
▁gefährliche 54
▁zueinander 54
▁wahrgenommen 54
▁Schwellen 54
▁Getreide 54
▁Vorbild 54
▁schlicht 54
▁fre 54
▁erl 54
▁Bergen 54
▁Anweisungen 54
▁Law 54
▁Vaters 54
öch 54
▁2050 54
rän 54
ivität 54
aucht 54
▁2011 54
basierte 54
▁Insekt 54
▁Posit 54
▁Nebenwirkungen 54
teilung 54
▁Skelett 54
▁ewig 54
▁Konserv 54
rand 54
ible 54
▁meint 54
▁tau 54
▁Last 54
▁Mühe 54
▁gefolgt 54
▁ide 54
dlichen 54
schriften 54
▁Plätze 54
▁lokal 54
▁halfen 54
▁Durchmesser 54
▁Wortes 54
▁gift 54
▁finanzielle 54
▁Ag 54
▁Lehrerin 54
▁Kollege 54
derte 54
▁Klass 54
▁Black 54
yle 54
▁Erzähler 54
▁beschränkt 54
▁Verschmutzung 54
skraft 54
▁böse 54
▁Pin 54
▁Lichts 54
sph 54
▁normales 54
▁Kandidaten 54
Mit 54
▁europäischen 54
▁RB 54
▁kombiniert 54
▁FBI 54
8, 53
kologie 53
▁Programmierer 53
ützen 53
ror 53
▁durchaus 53
▁Freiwilligen 53
▁Char 53
ilde 53
▁schlimmste 53
bricht 53
▁Selektion 53
▁coole 53
▁Analogie 53
▁Wider 53
▁gestr 53
▁kommenden 53
▁erlaubte 53
bol 53
zeigen 53
▁Klar 53
que 53
▁motivieren 53
▁angeboten 53
preis 53
rein 53
illionen 53
ission 53
ßig 53
7, 53
▁Väter 53
rauch 53
agten 53
▁entfernten 53
▁Rande 53
▁Nervensystem 53
passen 53
▁verletzen 53
geworfen 53
▁persönlicher 53
standen 53
▁Antrieb 53
wort 53
▁37 53
▁Rasse 53
ließt 53
▁harten 53
▁fossilen 53
▁fassen 53
uckt 53
▁näch 53
go 53
lässt 53
▁Schreib 53
assten 53
urf 53
eifen 53
▁glückliche 53
ags 53
▁pr 53
▁Bürgerkrieg 53
▁lügen 53
reißen 53
’ 53
▁bricht 53
▁Türen 53
▁verr 53
das 53
▁William 53
▁Unfälle 53
▁schneiden 53
▁eingebaut 53
▁Wolke 53
acher 53
▁abgesch 53
nungs 53
▁verheiratet 53
▁hal 53
▁Zehen 53
▁mel 53
▁typische 53
haftes 53
▁Ü 53
▁Wohnzimmer 53
▁Karikatur 53
▁jedermann 53
▁daneben 53
▁Vertrag 53
imen 53
zus 53
▁zentralen 53
kund 53
▁schrecklichen 53
▁Äthiopien 53
▁nütz 53
ibel 53
▁erreichte 53
▁Rassen 53
▁Jesus 53
forscher 53
ühren 53
▁Ost 53
hh 53
erung 53
▁riesiger 53
▁Quantenmechanik 53
▁pu 53
anische 53
zutreten 53
▁Slums 53
▁Versprechen 53
▁Wörtern 53
▁Yeah 53
▁Pilz 53
ausen 53
ect 53
▁Seife 53
▁Dschihad 53
▁durchgehen 52
▁aktu 52
gerufen 52
samer 52
▁Em 52
▁entsetz 52
üge 52
▁Kochen 52
▁einführen 52
▁Weizen 52
▁Verbr 52
▁mitgebracht 52
▁Leistungs 52
▁Annahmen 52
ivers 52
vermögen 52
▁fehlen 52
teils 52
▁anziehen 52
fügt 52
▁technisch 52
▁erfolgreiche 52
▁emotionalen 52
▁flogen 52
▁Tiefsee 52
▁Meiner 52
▁äußer 52
▁außerordentlich 52
▁wichtiges 52
▁natürlicher 52
▁Computers 52
na 52
▁Drucker 52
▁Profit 52
▁Sinnes 52
▁befand 52
▁abl 52
▁Temp 52
▁Dörfer 52
▁Polizisten 52
So 52
schu 52
sal 52
appt 52
▁Nelson 52
dieren 52
▁tatsächlichen 52
▁Jazz 52
▁Traditionen 52
▁SS 52
derten 52
▁Schlangen 52
nell 52
▁Kunststoff 52
▁herstellt 52
▁Fasern 52
ärt 52
▁gewaltigen 52
▁solches 52
▁direkte 52
▁Hell 52
▁Raumes 52
▁fol 52
▁programmiert 52
▁No 52
▁rückwärts 52
inter 52
werken 52
▁Anlage 52
Gen 52
organ 52
▁Wen 52
8. 52
▁sorgt 52
▁auss 52
▁Dro 52
▁Fangen 52
▁wartete 52
▁angewandt 52
▁nutzte 52
▁architekton 52
▁geringe 52
▁benötigte 52
ets 52
ichts 52
kriegen 52
gebieten 52
erte 52
assung 52
▁Koordin 52
▁gewohnt 52
aktion 52
▁kraft 52
▁Magnet 52
▁elektronische 52
▁umfasst 52
schließen 52
▁bescheiden 52
▁teilt 52
▁Heimatstadt 52
klasse 52
▁Ufer 52
splan 52
▁Leit 52
▁Elektroden 52
▁klinischen 52
Ges 52
jahr 52
▁Gumm 52
▁Körpern 52
▁Anderen 52
bezogen 52
▁Stufen 52
▁jenes 52
sters 52
▁Verrück 52
hst 52
zä 52
endete 52
▁Raub 52
▁Chr 52
▁gelegt 52
▁lächeln 52
▁verblüffend 52
▁Nährstoffe 52
▁sau 52
▁Phosphor 52
▁wandern 52
▁frie 52
▁Märkten 52
▁Drohnen 52
welle 52
▁trainiert 52
▁Rhyth 52
▁Glamour 52
ütze 51
▁freuen 51
▁Sl 51
▁einfallen 51
▁kle 51
▁Wurzel 51
▁ausprobieren 51
di 51
▁geschm 51
zw 51
▁Hum 51
▁brut 51
vin 51
▁globales 51
▁hey 51
▁Dü 51
Komm 51
▁Kolonien 51
▁hingegen 51
Naja 51
▁Irgendwie 51
▁schuldig 51
▁physisch 51
tend 51
▁Wohnungen 51
▁ruh 51
▁II 51
zenten 51
▁aufregende 51
ates 51
empf 51
Ihr 51
üs 51
▁SP 51
▁erle 51
▁Garage 51
▁sonder 51
▁Angesicht 51
4, 51
▁repräsent 51
▁aufgestellt 51
richtungen 51
▁Behörden 51
▁Johnson 51
sichts 51
▁bringe 51
▁klop 51
▁Konzentration 51
armen 51
▁Beute 51
becken 51
▁Ratte 51
▁anderswo 51
gelöst 51
herapie 51
ämen 51
▁pflanzen 51
gesetzt 51
▁denkst 51
▁Gener 51
▁verknüpft 51
park 51
▁Anpassung 51
▁gemeint 51
▁Silicon 51
schieden 51
▁Interessantes 51
spar 51
▁auft 51
▁neuesten 51
▁tatsächliche 51
dre 51
▁Schätzung 51
▁0 51
elbe 51
ült 51
reiber 51
werden 51
bett 51
▁Berührung 51
▁aufwuchs 51
▁kognitive 51
▁Flüchtlinge 51
▁mächtige 51
gänge 51
▁automat 51
▁bo 51
ird 51
▁bild 51
▁abhängt 51
▁Innenstadt 51
vol 51
zone 51
▁furchtbar 51
▁bestätigen 51
▁Kolle 51
▁Ins 51
▁Spezial 51
▁3.000 51
▁Stammes 51
▁Schach 51
3. 51
viertel 51
▁2.000 51
ikalen 51
▁Andererseits 51
äne 51
▁verdoppeln 51
ügen 51
orischen 51
▁verbreitete 51
sex 51
▁Amb 51
frieden 51
▁physikalischen 51
▁Güter 51
▁Funk 51
▁binden 51
sion 51
▁Merkmal 51
code 51
gst 51
amerikanischen 51
▁schwarzes 51
AIDS 51
▁ag 51
▁restlichen 51
ause 51
örung 51
atienten 51
▁auszur 51
▁Überwachung 51
▁verborgen 51
▁typischen 51
altungen 51
▁bislang 51
gefallen 51
▁Seiden 51
▁freund 51
▁spontan 51
▁Sw 51
▁Angelegenheit 51
aktivität 51
▁gestiegen 51
▁Hö 51
eilt 51
ationale 51
▁Zuhören 51
lette 51
eld 51
gespräch 51
▁transportiert 51
▁Spanien 51
▁Tauch 51
▁Führungs 51
▁Erkrankung 51
schlägen 51
▁sa 51
▁Long 51
▁Bombe 51
▁Sel 51
▁woanders 51
▁Tiger 51
▁Stimm 51
▁schufen 51
▁sowieso 51
▁Rettungs 51
riminellen 51
▁Ford 50
ieg 50
▁Atlantik 50
.' 50
▁möglichst 50
▁führenden 50
▁aufhalten 50
iche 50
▁klare 50
▁7. 50
▁Mögliche 50
▁auszuprobieren 50
▁ausprobiert 50
▁Line 50
▁Wahnsinn 50
Netz 50
▁Konkurrenz 50
▁Verkehrs 50
▁zuhause 50
low 50
CA 50
▁Ärger 50
kunst 50
▁Interpretation 50
baum 50
ungsweise 50
▁überl 50
izierten 50
▁Bakterium 50
▁Warte 50
▁willkommen 50
▁Hack 50
deuten 50
▁elegan 50
rief 50
behalten 50
springen 50
ützten 50
▁bot 50
▁abends 50
▁alltä 50
▁Kam 50
▁solle 50
▁Pferde 50
ungsmittel 50
▁2,5 50
▁anspruchs 50
medizin 50
▁veröffentlich 50
umpen 50
▁Durchbruch 50
▁menschlich 50
▁lehrt 50
▁müsst 50
krebs 50
▁Mi 50
▁Hall 50
ierst 50
findet 50
▁visu 50
▁MRT 50
▁schmal 50
▁Abl 50
▁wachsenden 50
mögliche 50
ollen 50
▁wachsende 50
▁Kapazität 50
rün 50
▁Brian 50
Bo 50
▁Haushalt 50
ua 50
▁ausgedrückt 50
groß 50
▁South 50
▁anfingen 50
▁Erzählung 50
▁integr 50
▁Distanz 50
tent 50
▁jederzeit 50
▁integriert 50
Problem 50
▁Kühe 50
eute 50
schei 50
▁Os 50
lers 50
mitte 50
▁hinterher 50
En 50
▁Betrieb 50
gehensweise 50
▁kritische 50
▁Einschränkungen 50
▁Hektar 50
▁Treppe 50
▁Inder 50
‘ 50
rieren 50
▁stra 50
wick 50
▁vermuten 50
▁landet 50
▁größeres 50
ammen 50
itären 50
▁Werkzeugen 50
reis 50
uchs 50
imieren 50
▁entsprechend 50
▁Bestandteil 50
▁Jur 50
▁Hersteller 50
pfel 50
blatt 50
▁Sich 50
oskop 50
ehe 50
strahl 50
▁stol 50
▁Notfall 50
ical 50
▁staatlichen 50
▁kommun 50
▁Landschaften 50
▁riesig 50
▁wette 50
▁Hühner 50
▁Verbrauch 50
▁größtenteils 50
ächter 50
chern 50
▁Interviews 50
▁Stolz 50
▁Schweigen 50
▁technologische 50
▁griech 50
inne 50
▁10. 50
▁pf 50
Co 50
▁indische 50
▁vorschlagen 50
▁jegliche 50
▁Gramm 50
▁Ernte 50
▁beschrieb 50
adem 50
büchern 50
▁beherrschen 50
ött 50
▁Juden 50
Me 50
▁Schad 50
arre 50
▁präzise 50
ones 50
▁veröffentlichte 50
▁Netzwerken 50
▁Mike 50
aker 50
▁Affe 50
▁einbringen 50
leuchten 50
lehnen 50
▁Lincoln 50
▁Rakete 50
▁Rauschen 50
▁Schwimmen 50
zucht 50
osit 50
▁Atomenergie 50
▁Passwort 50
lück 49
▁Davon 49
übergreifen 49
ampagne 49
▁leg 49
amt 49
▁einig 49
kontrolle 49
▁angewendet 49
▁Entwicklungen 49
▁bedeutsam 49
▁international 49
▁gewöhnliche 49
schiff 49
etisch 49
▁inf 49
bek 49
▁Newton 49
▁Ozeans 49
▁31 49
▁rad 49
strahlung 49
zähl 49
▁Dokument 49
▁Wohin 49
maß 49
▁geglaubt 49
▁jahrelang 49
▁News 49
▁verwirklichen 49
▁integrieren 49
▁Meile 49
▁Termin 49
▁trugen 49
▁verschm 49
▁nutz 49
baut 49
▁wohnen 49
▁vertreten 49
▁anhören 49
▁Att 49
▁kor 49
▁Yo 49
▁zusammenfassen 49
übt 49
atischen 49
steigt 49
ließend 49
▁Geben 49
▁Wander 49
äge 49
▁festhalten 49
kosysteme 49
▁Algen 49
▁kart 49
▁Sing 49
▁Sech 49
▁Pla 49
▁analysiert 49
▁Camp 49
▁isst 49
▁streben 49
drückt 49
fahrung 49
▁interpretieren 49
▁intelligenten 49
▁grauen 49
▁Fotografie 49
▁eventuell 49
▁betrachte 49
elev 49
▁Ring 49
fro 49
Zeit 49
▁negativen 49
asten 49
männer 49
▁Balken 49
▁angeb 49
▁hierbei 49
▁Lange 49
▁kleinsten 49
▁Einführung 49
▁Vent 49
▁verleihen 49
▁empfangen 49
▁existierte 49
▁Amate 49
▁Absichten 49
▁Sy 49
onds 49
▁März 49
▁erlebte 49
▁müde 49
achtung 49
▁Lin 49
aben 49
▁klet 49
▁Log 49
üss 49
ehme 49
region 49
▁Projekts 49
▁Insulin 49
spielt 49
▁Kont 49
▁vielfält 49
▁Antarktis 49
▁übernommen 49
▁zustimmen 49
Also 49
▁durcheinander 49
▁wenigsten 49
▁verbl 49
ational 49
▁Frequenz 49
▁Konzert 49
füllen 49
fang 49
▁Shanghai 49
▁moralisch 49
▁veranst 49
▁Kliniken 49
▁massive 49
ink 49
gebrochen 49
ogramm 49
▁Infektion 49
▁berühm 49
▁Bol 49
▁bedeutende 49
▁muslimischen 49
kop 49
▁zuzuhören 49
▁Briefe 49
▁politischer 49
masse 49
▁Strö 49
lange 49
▁Schein 49
▁kollektiven 49
onien 49
▁Sn 49
Industrie 49
▁diagnostiziert 49
anzug 49
▁schenken 49
▁Transformation 49
▁Brown 49
kunden 49
▁ew 49
sent 49
▁rational 49
▁Meeresspiegel 49
▁ausgestorben 49
▁person 49
▁Ethik 49
▁Stra 49
▁berücksichtigt 49
▁gelähmt 49
▁Brooklyn 49
– 49
▁geflogen 48
▁Vort 48
▁negativ 48
▁niedr 48
ris 48
omin 48
▁liebsten 48
▁Räumen 48
etts 48
▁untersuchten 48
▁umgesetzt 48
▁aufre 48
▁absolute 48
griffen 48
▁festzustellen 48
▁Inf 48
▁Finden 48
▁handelte 48
▁schätze 48
▁halbes 48
▁Urlaub 48
▁Wichtiges 48
▁stehlen 48
sslich 48
▁Kanal 48
quenz 48
otische 48
brochen 48
etro 48
▁zwang 48
leitungen 48
ci 48
zeich 48
reibt 48
kst 48
▁öffentlicher 48
▁recherch 48
▁350 48
aks 48
▁beschäftigte 48
▁Fußgänger 48
leute 48
▁bequem 48
▁männlichen 48
▁psychische 48
▁Mandela 48
rage 48
hek 48
stamm 48
▁Genetik 48
▁steuert 48
▁fange 48
ruhe 48
▁historischen 48
▁hö 48
▁Bern 48
▁hebt 48
▁romant 48
▁Versch 48
haupt 48
▁Hä 48
ständige 48
ologisches 48
▁Tafel 48
grö 48
▁gelaufen 48
▁meinten 48
▁Zeichnung 48
▁starteten 48
▁Tar 48
Os 48
amera 48
▁zahl 48
▁Rückseite 48
ämpft 48
▁Weisen 48
▁experimentieren 48
emin 48
▁Formel 48
▁Neue 48
▁DVD 48
▁zweit 48
sprechen 48
unge 48
▁hing 48
▁Zwang 48
▁generell 48
▁Fol 48
▁identifiziert 48
▁Korea 48
▁ansonsten 48
▁Wh 48
"? 48
▁Streifen 48
rücke 48
enke 48
▁Jahrhunderte 48
▁beeindruckt 48
▁Anwälte 48
alteten 48
ichtig 48
▁Verm 48
sto 48
▁Parteien 48
OL 48
▁Nano 48
▁Rate 48
▁Sag 48
volles 48
▁Parlament 48
▁Sterben 48
▁Ursachen 48
▁logisch 48
▁Ebenso 48
▁Disziplin 48
schaltet 48
▁recyc 48
▁Himmels 48
▁unabhängige 48
▁bedroh 48
▁unmittelbar 48
▁britische 48
nost 48
üte 48
▁rechnen 48
frau 48
▁Sonder 48
diert 48
▁drückt 48
▁Hong 48
yr 48
▁golden 48
▁Parks 48
▁motiviert 48
° 48
▁Wasch 48
▁unheimlich 48
▁versorgt 48
tage 48
▁konvention 48
hte 48
▁Störung 48
aste 48
▁gesunken 48
▁Bell 48
▁Pizza 48
▁gewaltig 48
▁wesentlichen 48
▁Wahr 48
▁bestätigt 48
▁Ap 48
▁trans 48
▁Ego 48
minen 48
▁Minen 48
▁schmerzhaft 48
▁Matrix 48
▁Fang 48
▁prim 48
ialen 48
▁Treibhausgase 48
▁Fischen 48
▁ermöglichte 48
▁sicheren 48
▁Second 48
▁Bestandteile 48
▁fordern 48
▁formt 48
▁gehst 48
▁herr 48
höhe 48
▁Ausschnitt 48
▁North 48
▁Bogen 48
▁andererseits 48
ester 48
▁Töne 48
▁Hang 48
▁garantiert 48
▁eurer 48
▁eineinhalb 48
zü 48
▁Robotik 48
▁angezogen 48
bestand 48
▁riecht 48
brauch 48
▁charakter 48
▁untereinander 48
▁Fried 48
▁Fahrt 48
▁Küchen 48
aps 48
mil 48
▁Premierminister 48
▁Führungskräfte 48
▁Verwandten 48
▁JH 48
▁Verletzlichkeit 48
▁Diejenigen 47
▁Nutz 47
▁bemerkenswer 47
▁generieren 47
▁institution 47
▁eurem 47
'000 47
▁Prakt 47
würdig 47
kehrt 47
seln 47
▁Sprit 47
▁Beispielen 47
▁emotional 47
▁geformt 47
▁Henry 47
schern 47
▁Genome 47
▁Artenvielfalt 47
▁künstlichen 47
IP 47
bem 47
▁freiwillig 47
▁Grundstück 47
rück 47
Regierung 47
euerung 47
▁Autobahn 47
▁herumzu 47
▁nebeneinander 47
Tech 47
▁Schulden 47
▁Geschw 47
▁begleitet 47
▁drittens 47
▁erschienen 47
▁teilten 47
▁Magen 47
▁stieß 47
▁Tum 47
▁beseitigen 47
▁ankam 47
▁toller 47
▁Wichtig 47
▁Skulpturen 47
▁weiblichen 47
▁aufweisen 47
▁abs 47
hlung 47
▁Erden 47
spunkte 47
▁Hauses 47
▁Gelegenheiten 47
reuen 47
▁Cola 47
▁Blitz 47
▁Teller 47
▁verläuft 47
▁Skala 47
▁spezifischen 47
▁Sucht 47
atsch 47
periment 47
fällig 47
▁Ausgabe 47
▁fotografieren 47
▁Fein 47
▁Aktivisten 47
▁enthü 47
▁Earth 47
produkte 47
▁raten 47
▁Eigentum 47
▁philosoph 47
menschen 47
▁ignoriert 47
▁schuf 47
brett 47
ituation 47
▁akzept 47
▁nimm 47
▁Therapien 47
▁Vorder 47
▁holte 47
▁Berlin 47
ianische 47
aur 47
euchten 47
He 47
▁graben 47
Ne 47
▁Polar 47
▁Zelt 47
▁46 47
last 47
▁langweil 47
▁Wi 47
▁Feynman 47
▁gefährdet 47
▁Journalist 47
bewohner 47
▁belieb 47
schafts 47
maßnahmen 47
äufe 47
▁Behandlungen 47
▁jünger 47
▁Hausaufgaben 47
▁Meeting 47
▁vereint 47
schätzung 47
▁wünsche 47
eiger 47
orische 47
▁Quadratmeter 47
▁Experimenten 47
▁faszinierende 47
▁skal 47
▁Human 47
▁schmerz 47
▁sech 47
fa 47
esst 47
▁Richtlinien 47
▁wohlhaben 47
▁Naturschutz 47
▁Frühstück 47
bewegungen 47
länder 47
Source 47
▁übersehen 47
wertung 47
▁grund 47
▁weitaus 47
▁Hem 47
haut 47
amerikanische 47
▁ausgelöst 47
▁industriellen 47
▁untere 47
▁Reformen 47
▁Zutaten 47
▁zweier 47
▁Bildungssystem 47
▁po 47
▁Anwesenheit 47
▁umgewandelt 47
▁verwirrt 47
wä 47
▁optim 47
▁Benjamin 47
▁womöglich 47
▁Völkermord 47
▁Tony 47
▁Mount 47
▁mod 47
▁Mythos 47
▁konstruiert 47
▁wär 47
stecken 47
▁Cap 47
oge 47
▁42 47
▁Umlauf 47
▁sinkt 47
▁Rau 47
▁ältesten 47
ody 47
▁Git 47
quot 47
▁2: 47
ton 47
▁stärksten 47
▁Rituale 47
▁Koll 47
▁County 47
▁LG 47
▁SW 47
▁Probanden 47
▁Abraham 47
how 46
▁Republikaner 46
entwicklung 46
▁100- 46
ätigen 46
▁Europä 46
▁engagieren 46
▁Zugriff 46
bas 46
▁30.000 46
▁Av 46
▁geprägt 46
liegen 46
▁japan 46
▁Zus 46
▁Automobil 46
▁Bin 46
▁Glaubens 46
iag 46
halter 46
▁Kons 46
Hier 46
proben 46
▁vari 46
sagen 46
Bitte 46
▁drucken 46
enter 46
tin 46
▁unglaubliches 46
▁Kevin 46
ehm 46
räum 46
ail 46
räger 46
▁normaler 46
▁anrufen 46
Met 46
üre 46
▁zusehen 46
▁Gandhi 46
▁Ergebnissen 46
▁ausbreiten 46
mmt 46
▁kauften 46
▁Bil 46
▁Leinwand 46
▁verschaffen 46
▁folgte 46
▁Beginnen 46
schie 46
▁Bambus 46
rollen 46
binden 46
gewiesen 46
sy 46
dlicher 46
▁Abwasser 46
▁begriffen 46
▁Schalter 46
▁Kreb 46
ivi 46
sens 46
▁Stephen 46
▁sammelt 46
▁fügen 46
▁Asp 46
locken 46
▁toten 46
▁dünn 46
▁nerv 46
▁Frosch 46
▁Chile 46
rechts 46
anda 46
▁Jugendlichen 46
ani 46
▁Cre 46
log 46
▁su 46
▁erschafft 46
▁ausgestattet 46
▁spezifische 46
▁packen 46
▁entscheidet 46
Aut 46
Vor 46
ids 46
▁anzufangen 46
teln 46
▁min 46
ständigen 46
▁lin 46
otte 46
▁Christen 46
▁Alpha 46
▁liefen 46
▁Elend 46
▁Steuern 46
▁englische 46
okrat 46
▁stamm 46
▁mathematischen 46
atter 46
▁Vorhersage 46
▁Kategorien 46
riebs 46
▁Anzeige 46
▁vergrößert 46
arer 46
ämpfen 46
▁Variationen 46
9. 46
▁Botschaften 46
uhr 46
▁versetzt 46
▁stat 46
Zu 46
▁verarbeitet 46
▁Zivilisationen 46
▁Graph 46
▁beinhalten 46
▁Konflikten 46
▁fuer 46
▁Detroit 46
▁zwanzig 46
▁Trag 46
▁Häusern 46
▁Schöne 46
▁Tiefen 46
verständnis 46
▁Strassen 46
▁Nu 46
▁48 46
▁Letztendlich 46
▁Sar 46
▁negative 46
▁Ath 46
▁Schafe 46
lichsten 46
▁Archiv 46
ola 46
▁tier 46
▁Sat 46
ürme 46
▁Pack 46
▁Irgendwann 46
lam 46
kopf 46
▁ausger 46
ray 46
▁ind 46
krise 46
hängt 46
▁fundamentale 46
meer 46
▁demokratische 46
▁verpflichtet 46
▁Eingang 46
▁Schweiz 46
zog 46
ästhesie 46
Weißt 46
▁Erdgas 46
▁Pyramide 46
▁Cricket 46
▁Gleichungen 46
▁Geometrie 46
▁Riff 46
▁Engel 46
▁Delfine 46
▁Comics 46
▁Nieren 46
spiegel 45
▁sichere 45
produkt 45
▁verfü 45
▁Brenn 45
▁erstmal 45
Nullsummen 45
Unternehmen 45
▁Eng 45
hmen 45
▁Rechten 45
▁Erbe 45
▁italien 45
reden 45
sprech 45
ürt 45
▁Wett 45
▁Kritiker 45
▁Jeff 45
jähriges 45
▁diskutiert 45
▁Autom 45
▁orient 45
▁inne 45
▁Künstlern 45
▁IBM 45
▁Hoffentlich 45
▁Kram 45
▁Expedition 45
▁hinab 45
▁ignor 45
▁bas 45
box 45
▁Ironie 45
cen 45
▁Herbst 45
▁rollen 45
▁wunder 45
▁merkwürdig 45
▁magnet 45
▁Vergessen 45
▁Rick 45
▁langfristige 45
▁reiche 45
tech 45
▁kurzes 45
branche 45
öcke 45
▁mot 45
bus 45
▁McDonald 45
▁Del 45
Techn 45
▁hoffnungs 45
diger 45
▁käme 45
▁Charlie 45
herum 45
sammlung 45
forder 45
ämmer 45
▁Zunge 45
▁wü 45
▁teurer 45
auch 45
▁Nachdenken 45
▁Lippen 45
▁interessierte 45
▁Soldat 45
▁kopieren 45
▁Source 45
▁Texte 45
▁transparent 45
auben 45
▁Sondern 45
▁här 45
▁beliebigen 45
spunkt 45
▁Bundes 45
vort 45
▁kontinuier 45
▁platzieren 45
sichtig 45
▁Kra 45
▁Flu 45
sah 45
▁Gegner 45
▁Anspruch 45
▁Histor 45
▁Stirn 45
reut 45
▁Grab 45
▁riechen 45
förmige 45
▁vergleichbar 45
▁schwamm 45
errt 45
:" 45
stechnologie 45
▁sign 45
▁vereinen 45
▁Schlussfol 45
▁Blume 45
▁November 45
▁Diag 45
▁Anf 45
▁Gig 45
▁Phasen 45
szeit 45
▁gelungen 45
▁Grau 45
▁Trennung 45
▁suche 45
dichte 45
▁log 45
teilte 45
troll 45
einheit 45
eitete 45
▁finanz 45
▁Überfluss 45
▁verwandt 45
▁Daraus 45
▁Andrew 45
erie 45
usion 45
rif 45
▁4. 45
▁simulieren 45
▁x 45
▁zweiter 45
▁weisen 45
▁krei 45
▁post 45
▁Genie 45
▁agieren 45
oter 45
▁Erzählungen 45
usst 45
fung 45
▁vorkommt 45
Zahl 45
▁Mord 45
▁innovativ 45
▁Bor 45
▁Filmen 45
▁Dörfern 45
▁Truppen 45
▁Indonesien 45
legung 45
Ach 45
▁Einladung 45
▁sk 45
drehen 45
▁Überzeugungen 45
▁Besonderes 45
▁Albert 45
▁Carolina 45
▁Klänge 45
▁endgült 45
ado 45
lö 45
▁kalten 45
ähl 45
häng 45
▁Nukle 45
▁abgel 45
ektor 45
▁erheben 45
▁dunkler 45
▁Krankenhäusern 45
amin 45
▁Stärken 45
▁schwanger 45
▁Tempel 45
▁Cloud 45
▁Origami 45
▁harm 45
▁Koralle 45
geschrieben 44
▁Umweltschutz 44
▁Up 44
▁Prüfung 44
▁herausfanden 44
▁gesundheit 44
▁verbr 44
▁kostengünst 44
flügel 44
▁Son 44
regel 44
▁rasch 44
▁wollt 44
▁12. 44
▁gewöhnlichen 44
zehn 44
▁Jet 44
▁Gru 44
▁2020 44
▁Anzug 44
▁Erweiterung 44
zept 44
▁tendieren 44
▁Las 44
▁Grand 44
regend 44
▁quant 44
▁Kleine 44
▁? 44
▁Zusätzlich 44
▁Sowjetunion 44
▁ruft 44
▁raffin 44
set 44
geladen 44
ita 44
▁preis 44
▁verwende 44
▁ehren 44
gliche 44
▁Finanzierung 44
▁Dampf 44
▁1998 44
▁vergeben 44
▁Blei 44
olly 44
▁Lebensstil 44
▁verringert 44
▁lohnt 44
entwick 44
▁Gehirnen 44
▁kognitiven 44
▁Mitleid 44
▁Jäger 44
▁Redner 44
▁fördert 44
▁Darf 44
▁befanden 44
▁starkes 44
mehr 44
▁hungrig 44
eise 44
unst 44
▁Plat 44
kugel 44
▁Nebel 44
öst 44
▁Forschungen 44
▁Kreuzung 44
▁Pilze 44
▁Spezi 44
zähler 44
▁schul 44
▁seltsamen 44
▁Experte 44
▁gerufen 44
▁verschwand 44
▁Eint 44
▁bestimmtes 44
▁aufstellen 44
schlossen 44
▁immen 44
▁Kurse 44
▁durchzu 44
li 44
▁Roh 44
▁konzentrierte 44
ila 44
▁frisch 44
ahmen 44
dungs 44
▁Würfel 44
▁ungleich 44
mitglieder 44
▁örtlichen 44
▁wirtschaftlich 44
▁gelbe 44
äuschen 44
▁Forschern 44
▁beruht 44
▁192 44
Ent 44
▁Erfolge 44
aner 44
wahr 44
Boot 44
▁ausgest 44
sammelt 44
▁Feinde 44
iete 44
▁Demonstration 44
wollen 44
▁umwandeln 44
▁Meinungs 44
ads 44
▁einher 44
▁Bausteine 44
▁Gravitation 44
straße 44
▁emp 44
▁ergreifen 44
▁Beat 44
▁Seide 44
▁Ganzes 44
▁Pion 44
▁kleinste 44
▁gigant 44
▁impl 44
▁Saudi 44
▁leidet 44
▁oftmals 44
afrika 44
▁Tsunami 44
artikel 44
▁gespeichert 44
▁Recycling 44
llung 44
▁Behandlungs 44
▁Gründer 44
▁lok 44
▁niedrigen 44
steckt 44
tell 44
▁Ressource 44
▁Zuhörer 44
ätzt 44
▁Tänzer 44
▁Entweder 44
▁Ideal 44
▁Profil 44
▁leitet 44
▁Bald 44
bleiben 44
▁benannt 44
▁eintreten 44
▁berücksichtigen 44
▁isoliert 44
▁islamischen 44
▁Mitteln 44
▁Erschaffung 44
▁Spender 44
▁gewaltt 44
frequenz 44
▁veränderten 44
▁Singapur 44
▁nette 44
▁Ängste 44
▁Fledermäuse 44
itor 44
▁Welches 44
▁gestoßen 44
▁Pharma 44
eister 44
▁erfor 44
▁wärmer 44
ifest 44
▁193 44
▁litt 44
▁frustr 44
▁Szenario 44
▁untersuchte 44
▁Nerv 44
▁zeichnete 44
▁Applaus 44
▁Aristoteles 44
skop 44
▁Meeresboden 44
▁zert 44
▁Studierende 44
▁Syrien 44
▁Tausend 43
▁verschieben 43
▁historische 43
▁Trau 43
kennen 43
▁Produ 43
▁aktiven 43
▁beurteilen 43
sitzen 43
▁einfachste 43
analyse 43
dach 43
ragten 43
drück 43
▁angeblich 43
▁Elite 43
▁demokrat 43
▁euren 43
▁tätig 43
▁beschaffen 43
▁erstens 43
uchte 43
ämpf 43
▁Voraus 43
▁NA 43
▁Hierarchie 43
orgt 43
glie 43
omb 43
fft 43
▁Haust 43
▁lust 43
zieh 43
Or 43
▁forschen 43
q 43
▁Emp 43
▁JA 43
▁zurzeit 43
▁30- 43
▁erre 43
▁Gerü 43
grenz 43
perten 43
▁läch 43
rid 43
▁Gall 43
wär 43
ättern 43
gemeinschaft 43
▁unber 43
samm 43
Schau 43
▁ermutigt 43
Institut 43
verlust 43
▁manipulieren 43
▁komplexes 43
yd 43
▁sitze 43
fter 43
▁Sha 43
▁folgendermaßen 43
▁Stimmung 43
regionen 43
▁greift 43
▁Begeisterung 43
brecher 43
▁Rohr 43
graben 43
eilung 43
öden 43
▁einzelnes 43
▁beliebte 43
bell 43
lad 43
▁Wünsche 43
läufe 43
▁elf 43
öten 43
▁Umfang 43
arter 43
▁angegriffen 43
▁Astro 43
▁Behälter 43
oto 43
▁ähnelt 43
▁Jones 43
▁begraben 43
terte 43
▁verdr 43
▁mischen 43
ähnliche 43
▁Amazon 43
▁tauschen 43
iat 43
▁einladen 43
▁Monster 43
▁irgendeinen 43
▁optimal 43
ifikation 43
▁Schachtel 43
▁Ecken 43
▁Rauchen 43
steller 43
cel 43
▁versagen 43
gänger 43
pra 43
ockt 43
mittag 43
▁Gewissen 43
▁Verz 43
▁Bewer 43
amas 43
aka 43
▁Hundert 43
▁gereist 43
▁vorlesen 43
mäßige 43
klin 43
umpe 43
▁gemeinnütz 43
▁Kino 43
▁riefen 43
gas 43
zeichnete 43
▁typisch 43
▁Prioritäten 43
▁wuchsen 43
▁versetzen 43
▁genannten 43
ragende 43
▁Biosphäre 43
inz 43
▁Nachts 43
enken 43
▁nirgendwo 43
▁chem 43
▁gäng 43
raktion 43
▁Tinte 43
,000 43
▁wa 43
▁ult 43
▁herausgestellt 43
▁Bronx 43
alisten 43
häuser 43
▁Sied 43
▁sur 43
laub 43
▁Hab 43
mie 43
▁Herzinfarkt 43
▁Schwein 43
Gott 43
▁Gelb 43
▁obere 43
▁vergangen 43
▁Charaktere 43
▁Angenommen 43
▁Grenz 43
drücken 43
▁Fingern 43
▁16. 43
▁Lebensunterhalt 43
van 43
▁treffe 43
Fi 43
▁Ment 43
zo 43
ächte 43
▁Faszin 43
▁Bürgern 43
▁Anstrengung 43
▁Durchfall 43
▁beruh 43
▁PR 43
▁verlässt 43
▁belohnt 43
▁Zigaretten 43
▁Fiktion 43
äuren 43
▁entnehmen 43
▁38 43
▁Bruno 43
wal 43
▁Meme 43
▁Trauer 43
ografische 43
▁Redwood 43
LA 43
▁markiert 43
▁SETI 43
▁Sender 43
▁Trainings 43
▁Keller 43
▁bereiten 43
useum 43
▁Mobilität 43
▁Femin 43
noten 43
äuben 43
▁1900 43
▁Geht 43
▁Neuseeland 43
▁synchron 43
▁hinterfragen 43
▁TK 43
ünst 42
▁kurzfrist 42
▁Flüsse 42
▁Bemühungen 42
▁herausstellt 42
▁Freiwillige 42
▁Nähr 42
tschaften 42
▁demokratischen 42
▁schockiert 42
heil 42
abschluss 42
felder 42
▁Furcht 42
▁ökonomische 42
igere 42
▁Orbit 42
pass 42
üpfen 42
namen 42
abeth 42
mente 42
programme 42
these 42
▁anderthalb 42
▁Träumen 42
▁aufgezeichnet 42
▁Techniker 42
▁typ 42
▁Versionen 42
ikale 42
▁absichtlich 42
▁Erinner 42
grenzung 42
▁gefühlt 42
▁Freitag 42
▁Erfüllung 42
▁8. 42
▁gründeten 42
▁gezeichnet 42
▁stattfand 42
▁Square 42
hnte 42
▁gesteuert 42
▁Mechanismen 42
▁klasse 42
▁Emm 42
▁gerichtet 42
▁Taxi 42
stunden 42
▁Wirk 42
5, 42
▁weiterzu 42
▁stud 42
▁Persön 42
▁Verletzung 42
recken 42
gesehen 42
▁weitgehend 42
▁peinlich 42
istisches 42
▁Campus 42
▁Note 42
▁auslösen 42
imit 42
▁Liebes 42
ologin 42
▁Kokain 42
ikum 42
▁größ 42
▁Dasselbe 42
▁Jan 42
alog 42
strecken 42
▁Sü 42
arf 42
▁Tatsachen 42
BC 42
west 42
▁is 42
old 42
ungsf 42
wies 42
▁Watson 42
▁Que 42
Ste 42
▁potenzie 42
▁Mü 42
▁Interface 42
▁instinktiv 42
▁Denkens 42
▁Rap 42
zy 42
▁gez 42
▁Notiz 42
teilten 42
= 42
dimensionalen 42
▁Beschäftigung 42
äte 42
eichen 42
▁Weltwirtschaft 42
pol 42
▁Geschlechter 42
▁Letzte 42
▁Geduld 42
▁verhaftet 42
▁Geographic 42
ript 42
ance 42
▁bereitet 42
▁Pfad 42
füllt 42
schaut 42
▁endete 42
▁2012 42
▁Mobiltelefon 42
▁rel 42
▁entsprechen 42
▁Abt 42
▁Verbesserungen 42
Al 42
▁Scheitern 42
sorge 42
antwort 42
gemein 42
▁Metaphern 42
▁ah 42
▁Millimeter 42
▁physikalische 42
▁Erscheinung 42
▁taucht 42
▁psychologische 42
▁result 42
▁Hom 42
▁ueber 42
abil 42
Amer 42
gerissen 42
▁absor 42
▁Lektionen 42
▁radikale 42
▁Angelegenheiten 42
▁Mentor 42
▁pflanz 42
▁Fremde 42
geist 42
▁Stre 42
.- 42
▁Kong 42
▁kreativer 42
▁bedarf 42
▁Out 42
Um 42
▁Tastatur 42
nutzung 42
▁Rente 42
▁Raums 42
aufgabe 42
▁Sahara 42
setz 42
▁Haup 42
▁Lücken 42
▁opt 42
▁schweben 42
▁Scott 42
▁demselben 42
▁Empfänger 42
brach 42
▁Strafe 42
Eine 42
gerte 42
▁kooperieren 42
▁Ze 42
▁Nordpol 42
▁Geschäftsmodell 42
▁bezahl 42
achs 42
gesundheit 42
▁Bananen 42
▁ökonomischen 42
etik 42
▁Quer 42
▁Ausnahmen 42
ögen 42
▁Stapel 42
App 42
sw 42
▁li 42
duktion 42
▁Korallenriffe 42
inseln 42
osphäre 42
▁Parkinson 42
▁unangenehm 42
omaten 42
▁SO 42
▁Einstellungen 42
▁Scheibe 42
▁symmetr 42
▁Flaggen 42
▁Kühlschrank 42
▁kollektiv 42
▁körperliche 42
▁Chor 42
▁JF 42
▁regulieren 42
▁Data 42
▁fluoresz 42
▁EM 42
▁anstren 41
▁Clinton 41
▁Einzelne 41
▁langfristig 41
▁bekl 41
▁Demokraten 41
▁gewün 41
⁄ 41
▁rettet 41
▁redete 41
bewegen 41
▁Stud 41
▁Ausl 41
▁Partnerschaft 41
▁Zeitspanne 41
▁190 41
zeuge 41
▁dünne 41
aß 41
▁Raumschiff 41
bit 41
▁200.000 41
▁waschen 41
▁Mün 41
▁Agenda 41
ifiz 41
▁Fass 41
▁Geräten 41
▁bekannter 41
▁Ema 41
geschichten 41
wahl 41
merk 41
▁Betrachtung 41
▁anz 41
▁Elekt 41
▁damal 41
städte 41
stechn 41
▁Kilometern 41
▁Griechenland 41
swerte 41
▁verstärkt 41
dose 41
▁Gewinne 41
▁Wildnis 41
▁International 41
reaktion 41
▁intuitiv 41
▁angewiesen 41
▁Service 41
ba 41
▁antreibt 41
▁sagst 41
▁Seitdem 41
sweise 41
ktivität 41
▁einfluss 41
▁Langzeit 41
▁Optionen 41
▁kosm 41
för 41
▁begehen 41
tein 41
farbe 41
▁Gleichzeitig 41
▁tägliche 41
kern 41
▁realisieren 41
steten 41
▁verwendete 41
▁versteckte 41
▁könntest 41
▁unglücklich 41
eigung 41
▁IQ 41
bewusst 41
▁wonach 41
ruktur 41
verse 41
▁vergleicht 41
üchtern 41
▁Gitter 41
▁bewaff 41
▁Bestes 41
▁Repräsent 41
▁hyper 41
landschaft 41
inkt 41
▁eingeschränkt 41
▁Stu 41
▁Max 41
▁Brut 41
▁Caf 41
andte 41
▁Zeitschriften 41
▁merkt 41
▁durften 41
▁Übersetzung 41
hod 41
▁bewohn 41
AA 41
▁Hütte 41
▁Verfassung 41
▁nutze 41
▁Beleuchtung 41
bü 41
wel 41
▁springt 41
▁Guer 41
▁Dokumente 41
▁5. 41
▁Flucht 41
hema 41
▁aktuell 41
▁Erstes 41
▁Mau 41
imb 41
▁Nationalpark 41
▁teilte 41
gingen 41
▁Rückgang 41
▁Chips 41
▁volle 41
▁Schäd 41
▁Schwelle 41
indet 41
▁Alphabet 41
▁et 41
▁Fallschirm 41
▁moral 41
▁kritischen 41
heken 41
▁subt 41
▁Gross 41
▁Herrn 41
▁Erw 41
bindung 41
dere 41
▁Letzten 41
▁glücklichen 41
▁auszusehen 41
ffiz 41
nose 41
▁Lande 41
▁wertvolle 41
▁Ernährungs 41
ildete 41
klar 41
ikanischen 41
bal 41
▁wahrhaftig 41
▁etabl 41
▁sag 41
öpf 41
▁Impf 41
▁Schlimmste 41
ragt 41
iefel 41
▁extreme 41
▁Brad 41
▁Verteidigung 41
▁seh 41
▁72 41
stü 41
halle 41
▁laden 41
▁15. 41
▁Wochenende 41
▁stärken 41
▁Zä 41
▁demonstrieren 41
▁mächt 41
ischte 41
tschaft 41
eits 41
▁identisch 41
▁bevorzugen 41
Achse 41
▁verbergen 41
▁Hoffnungen 41
wäl 41
vas 41
▁Roten 41
märkte 41
▁bösen 41
offen 41
▁Trocken 41
▁steckte 41
▁markieren 41
▁liber 41
entlich 41
ernt 41
▁bean 41
farben 41
eiß 41
▁Götter 41
▁profession 41
▁ernten 41
▁Reform 41
annter 41
▁Standort 41
▁Tunnel 41
▁jahr 41
▁gemäß 41
▁angeschlossen 41
ücke 41
▁abstrakte 41
▁vern 41
▁letz 41
▁tote 41
▁Solarzellen 41
7. 41
▁Zentr 41
▁Elternteil 41
▁Landwir 41
▁Coll 41
▁Helium 41
▁Krähen 41
▁Gesichtsaus 41
▁Penn 41
▁Diät 41
prozent 41
▁bemerkten 41
▁RM 41
▁öst 40
Meine 40
▁Brennstoffe 40
▁Teilnahme 40
▁Lehren 40
▁vorgeschlagen 40
itis 40
verarbeitung 40
▁Qual 40
▁Biomasse 40
andten 40
▁Vollzeit 40
▁dringen 40
▁organ 40
▁engag 40
▁angesprochen 40
▁20- 40
orfen 40
▁null 40
▁konkurrieren 40
▁glaub 40
▁unterm 40
▁Strich 40
▁reine 40
▁Aussterben 40
▁Betriebs 40
methode 40
blicher 40
▁5000 40
▁künstlich 40
▁fehler 40
▁Dein 40
reen 40
Mo 40
istik 40
istent 40
▁Fan 40
▁frustriert 40
▁entwarf 40
unen 40
▁Gi 40
ology 40
▁versichern 40
spuren 40
▁Kilogramm 40
▁Batterien 40
zung 40
▁Herzkrankheiten 40
▁günst 40
▁beunruhigt 40
▁trop 40
▁Chinesisch 40
▁Gefühlen 40
insel 40
▁beten 40
▁Unsinn 40
▁siehst 40
▁Mah 40
zess 40
ächern 40
▁Geschäftsm 40
▁gelegentlich 40
▁traum 40
▁neutr 40
▁festen 40
▁Denker 40
▁ehe 40
▁lud 40
▁spazieren 40
▁IT 40
▁Ausgang 40
▁löschen 40
▁zust 40
▁schlage 40
▁nähern 40
▁Tomaten 40
▁Sorte 40
▁Wissenschafts 40
▁Erklärungen 40
▁Cartoons 40
▁grob 40
▁Aufregung 40
▁Mobiltelefone 40
platten 40
▁geringen 40
▁Besucher 40
▁Penis 40
▁weise 40
▁verblüffen 40
▁unsichtbaren 40
▁Coca 40
▁stre 40
itte 40
▁gu 40
effekt 40
läuft 40
▁Produktions 40
▁Bildes 40
gestaltung 40
▁Verhandlungen 40
▁widersp 40
▁Draht 40
länge 40
▁Fä 40
▁Wes 40
Mann 40
▁Mall 40
▁melden 40
▁Aufklärung 40
ingu 40
▁Protest 40
▁Anlagen 40
▁Sonntag 40
▁Bü 40
sl 40
▁2030 40
acheln 40
Groß 40
andid 40
▁Kontro 40
▁zufällige 40
▁erneuerbare 40
▁Dienste 40
▁Doug 40
▁verschmelzen 40
zeigt 40
▁verständ 40
▁vergleich 40
▁Mäusen 40
▁abnehmen 40
▁Folien 40
▁Ozeanen 40
▁hyp 40
▁Eingriff 40
▁aussuchen 40
▁klang 40
ars 40
echten 40
sor 40
kün 40
ergie 40
eicher 40
verfahren 40
▁OP 40
▁körperlich 40
▁abgeben 40
▁Kriminalität 40
▁kontakt 40
edizin 40
▁langes 40
fabrik 40
▁mutig 40
▁hohem 40
▁wechsel 40
▁6. 40
▁klassischen 40
▁Rezession 40
▁isol 40
▁Meistens 40
▁Prozentsatz 40
▁gefährlichen 40
▁enttäuscht 40
▁beigetragen 40
▁Act 40
heits 40
▁Renn 40
▁schie 40
▁aß 40
▁Büros 40
ähnlichen 40
▁dokumentieren 40
▁Zweite 40
▁Künste 40
▁wunderbares 40
posit 40
sparen 40
▁Is 40
▁Geschäftsführer 40
▁Brü 40
▁Tasman 40
blase 40
flossen 40
öre 40
▁mar 40
Über 40
▁entlassen 40
▁Amt 40
ati 40
iften 40
▁niedrige 40
iedr 40
▁Müttern 40
▁Errungen 40
möglichen 40
▁möchtest 40
Ko 40
▁Philosoph 40
▁Behinderungen 40
endet 40
▁Vom 40
▁koordin 40
saal 40
▁Missbrauch 40
hä 40
▁befriedigen 40
lem 40
▁Master 40
▁Geister 40
energie 40
▁rosa 40
▁Schwarzen 40
▁Journal 40
gien 40
▁Beobachtungen 40
▁worin 40
obi 40
▁mysteri 40
▁Dod 40
▁zusätzlichen 40
▁Krab 40
▁Weihnachts 40
▁Biene 40
▁schreien 40
▁ident 40
▁systematisch 40
iot 40
▁Ren 40
▁Thunfisch 40
▁Twe 40
▁Halluzinationen 40
kette 39
▁wachte 39
▁Monterey 39
▁Witze 39
wegs 39
orf 39
ühle 39
schü 39
rachten 39
▁Berkeley 39
grenze 39
▁Angestellte 39
▁entscheidenden 39
▁Übertragung 39
▁saubere 39
lass 39
sender 39
ollt 39
▁pflegen 39
▁3000 39
▁aufgegeben 39
iller 39
▁Schaffen 39
▁zuständig 39
▁Designern 39
▁Joseph 39
▁Rund 39
▁hervorbringen 39
▁Auseinander 39
▁brü 39
▁Priester 39
▁130 39
▁Meerwasser 39
▁mikrob 39
▁überqu 39
schichten 39
▁Temperaturen 39
▁Parasiten 39
▁konstruieren 39
freie 39
▁strö 39
dru 39
▁Palm 39
▁gefiel 39
▁aufhört 39
▁aßen 39
▁Wiederaufbau 39
▁wahnsinnig 39
▁spür 39
▁günstig 39
▁43 39
▁Tok 39
▁Atlanta 39
ennung 39
6, 39
▁Versuchs 39
▁umsonst 39
▁Gor 39
irdischen 39
▁gebrauchen 39
▁Louis 39
▁Einz 39
▁Hol 39
▁düster 39
▁Chemotherapie 39
▁Angiogenese 39
▁deines 39
▁treu 39
▁ansah 39
▁Disney 39
text 39
Effekt 39
▁wegzu 39
▁bege 39
▁umbringen 39
▁Bindung 39
▁Mustern 39
reibungen 39
▁veranl 39
nit 39
▁Dün 39
▁zusammengefasst 39
▁Sollte 39
▁üblichen 39
messer 39
▁abläuft 39
▁verstärken 39
▁Mozart 39
▁unendliche 39
▁überlegt 39
▁Kunde 39
▁erkläre 39
▁April 39
ormal 39
▁Virginia 39
ringe 39
▁Darin 39
▁bestanden 39
▁riskieren 39
▁verbleiben 39
▁erwei 39
▁anzupassen 39
iforn 39
▁Harry 39
▁Dich 39
▁Oma 39
▁Leonardo 39
▁Bedingung 39
▁befreit 39
▁Kunstwerk 39
▁atember 39
▁Verteidigungs 39
brot 39
▁Diam 39
▁glamourös 39
stra 39
vier 39
möglichkeit 39
▁Schaut 39
abend 39
▁landes 39
▁befür 39
▁dynam 39
kton 39
sterreich 39
▁konstru 39
▁Kaffe 39
▁Ankunft 39
▁wiederzu 39
▁Genauigkeit 39
10 39
Krieg 39
▁Zusammenbruch 39
▁Cartoon 39
wegen 39
dam 39
▁Falsch 39
echte 39
▁Mitgefühls 39
▁platziert 39
mäßigen 39
ata 39
▁bearbeiten 39
▁Engl 39
▁jüd 39
▁Kannst 39
motor 39
▁klaren 39
▁Vakuum 39
▁hunderten 39
▁Hof 39
odelle 39
▁Dilemma 39
▁aufzugeben 39
far 39
wen 39
▁mitmachen 39
ahren 39
▁geleistet 39
ategor 39
folgung 39
▁Melodie 39
▁modell 39
▁Deine 39
▁Comic 39
jekte 39
▁Schweizer 39
▁koennen 39
▁Rohstoffe 39
sper 39
▁errichtet 39
▁austauschen 39
katastrophen 39
▁Exper 39
▁1,2 39
iele 39
▁Q 39
▁Äußer 39
▁Kön 39
▁Vertreter 39
ly 39
haftigkeit 39
▁Bühnen 39
▁erwartete 39
▁Vermächtnis 39
row 39
frauen 39
Show 39
▁Hans 39
▁gespannt 39
▁schickt 39
▁weist 39
▁Project 39
▁Verarbeitung 39
eier 39
orene 39
üchtig 39
▁südlich 39
ähm 39
▁Paare 39
orientierte 39
act 39
▁Argumente 39
▁erzeug 39
▁Arthur 39
▁Habe 39
▁Jahrhunderten 39
▁Ferne 39
abhäng 39
▁nord 39
▁stimmte 39
60 39
Team 39
letter 39
▁Südpol 39
▁Vorgehensweise 39
Moment 39
▁sammelten 39
ssinn 39
▁Philosophen 39
▁inner 39
▁Freundes 39
personen 39
ütteln 39
▁tiefgrün 39
▁Angriffe 39
▁Spar 39
▁Brit 39
▁hy 39
▁ero 39
▁erwischt 39
▁Sus 39
▁Taucher 39
besitz 39
ückt 39
▁Aufgrund 39
▁dün 39
▁aufgew 39
▁Kreatur 39
▁Republik 39
▁detaill 39
▁weiten 39
▁virtu 39
ameras 39
▁Messungen 39
▁Sicherlich 39
gan 39
uzen 39
▁unbeh 39
▁Söhne 39
▁Künstlerin 39
appte 39
ktur 39
▁Kompromiss 39
▁psychischen 39
▁Währung 39
▁autor 39
▁Mücken 39
▁Abed 39
gewöhn 38
faktor 38
eres 38
▁Beteiligung 38
fass 38
bon 38
▁region 38
▁Wright 38
rauchen 38
▁verpassen 38
▁Begriffe 38
▁zehntausende 38
andt 38
▁legal 38
dringen 38
▁Flie 38
arin 38
ave 38
Computer 38
▁amerikanischer 38
gesagt 38
▁Gem 38
▁brauch 38
▁Autob 38
▁Hochzeit 38
▁Hal 38
▁ausgeht 38
▁Anstrengungen 38
bedarf 38
▁Erdöl 38
▁Haken 38
▁klicken 38
▁Off 38
skrise 38
▁Rückkehr 38
▁lege 38
▁DP 38
▁Lei 38
▁Kas 38
uden 38
▁ultimative 38
▁teilzunehmen 38
▁River 38
▁Aufwand 38
▁verbrachten 38
▁Betrachter 38
▁Kenn 38
▁umwelt 38
städ 38
▁effiziente 38
▁Nah 38
▁Pandemie 38
krankungen 38
▁stimme 38
▁Tansania 38
▁intellektuelle 38
▁Videospiel 38
smuster 38
itation 38
ührt 38
▁Busch 38
▁Jugendliche 38
▁abt 38
▁44 38
sprojekt 38
uz 38
▁phänomen 38
dreht 38
▁gänzlich 38
▁betrachteten 38
▁begeben 38
lecht 38
bro 38
level 38
▁Wassers 38
arbeitung 38
▁Cor 38
urb 38
strahlen 38
▁Abschnitt 38
reibe 38
▁Honig 38
griff 38
▁Gewehr 38
▁experimente 38
Amerikaner 38
▁20, 38
▁verkauften 38
▁anzubieten 38
▁Vari 38
abilität 38
▁Bed 38
blog 38
▁eröff 38
▁Farmer 38
▁Intelligen 38
▁verständlich 38
▁Tra 38
▁Jagd 38
▁eigener 38
▁Lateinamerika 38
▁Simul 38
schulen 38
otter 38
▁Einnahmen 38
▁beschul 38
▁Obst 38
▁Fir 38
▁zeitgenöss 38
▁Individu 38
▁Konsequenz 38
ineering 38
▁Membran 38
ieß 38
aser 38
onder 38
▁Essenz 38
▁begrü 38
▁ähneln 38
▁schieben 38
▁talent 38
▁Aktien 38
▁Tolle 38
▁kostenlose 38
gur 38
▁argumentieren 38
▁Sieht 38
ckten 38
blichen 38
▁schnellen 38
▁Reflex 38
▁Falten 38
▁begriff 38
▁Innere 38
oy 38
▁folgten 38
zählt 38
ächtig 38
▁Acc 38
leb 38
▁verknüpfen 38
rohen 38
schuhe 38
▁Kämpfe 38
▁proj 38
kunde 38
▁Mumbai 38
iffen 38
derweise 38
ählte 38
▁anony 38
▁Link 38
MA 38
ärer 38
▁Schwimm 38
ismen 38
▁entkommen 38
▁relev 38
▁Vögeln 38
länd 38
▁anschließend 38
küste 38
▁Universen 38
▁Phys 38
▁üblicherweise 38
▁verdien 38
öff 38
▁Komponente 38
▁persönliches 38
▁einzelner 38
▁wilde 38
▁kr 38
▁deut 38
▁hasse 38
▁zukünft 38
▁Voraussetzungen 38
weichen 38
oche 38
▁Mand 38
▁angebracht 38
etze 38
▁Strasse 38
gesellschaften 38
wasserstoff 38
passt 38
unts 38
gemäß 38
▁Zusch 38
▁Oben 38
▁wählten 38
▁Flüchtlings 38
▁übernimmt 38
▁anschließen 38
▁präsentiert 38
▁erfolgreichen 38
▁Are 38
▁Waisen 38
▁inspirierend 38
▁Action 38
▁Infektionen 38
kanal 38
▁jüngeren 38
sucht 38
▁ausser 38
▁verge 38
▁malte 38
▁Sarah 38
▁visuell 38
▁tre 38
ärzte 38
▁Vorurteile 38
▁Führungsp 38
▁gener 38
ätige 38
ampf 38
zweif 38
stu 38
▁Pinguin 38
▁loswerden 38
▁Blinden 38
Wel 38
unterschiede 38
▁Ehren 38
sern 38
▁wörtlich 38
lingen 38
front 38
▁organisierten 38
▁islam 38
▁Weihnachten 38
▁Jerusalem 38
bären 38
▁Grönland 38
▁besaß 38
▁Netze 38
▁Niger 38
▁natürliches 38
▁Hi 38
setzungen 38
▁herausfand 38
▁Ig 38
▁natur 38
▁Gestein 38
fle 38
▁Kä 38
▁Route 38
▁Einsamkeit 38
▁körperlichen 38
▁anerk 38
▁Hind 38
▁erholen 38
▁Aqu 38
▁Ideologie 38
▁ausgesprochen 38
▁vie 38
▁anfühlt 38
▁aktive 38
ersonen 38
▁Ware 38
ssysteme 38
▁Fertig 38
tum 38
▁eis 38
▁allmählich 38
▁Einsicht 38
▁Misser 38
andelte 38
änner 38
▁aufgehört 38
ümer 38
▁Brett 38
▁Zwecke 38
unn 38
▁Tit 38
▁bemühen 38
emonie 38
▁gemerkt 38
▁beruf 38
▁fert 38
Feld 38
▁Essens 38
ünd 38
▁Programmieren 38
▁Isa 38
▁Rover 38
▁Delfin 38
▁Tatt 38
▁Normen 37
packen 37
ols 37
▁alternative 37
eitet 37
▁Vermut 37
▁anerkennen 37
dehnt 37
ichtung 37
steine 37
sprung 37
▁herzlichen 37
▁sexy 37
izierte 37
▁zusammenkommen 37
▁Motorrad 37
▁element 37
▁wortwörtlich 37
üsselt 37
▁zahlreiche 37
▁Chemiker 37
▁schle 37
mten 37
▁Rekord 37
zieren 37
▁komplizierten 37
▁komische 37
▁Fortbewegung 37
tausenden 37
▁existierenden 37
liegenden 37
▁Mrd 37
▁stundenlang 37
ynamik 37
hoch 37
möglich 37
▁Trainer 37
▁Nummern 37
▁Kindergarten 37
▁Belast 37
▁Regime 37
▁tödlich 37
▁komm 37
▁geschenkt 37
▁vorüber 37
▁führe 37
▁gedauert 37
▁respektieren 37
▁res 37
rav 37
▁Clip 37
▁Parkplatz 37
▁generiert 37
▁rut 37
▁starker 37
gers 37
▁Schaltkreise 37
zurufen 37
▁Schale 37
▁unterbrochen 37
▁Kühl 37
▁moderner 37
▁Raster 37
▁zeich 37
ps 37
▁Variante 37
▁Haft 37
ober 37
ory 37
▁beängstigend 37
leger 37
irdische 37
▁elektronischen 37
▁Lü 37
orenen 37
ES 37
▁Vide 37
▁Ill 37
reiter 37
▁alltäglichen 37
▁Linse 37
▁anger 37
▁Alltags 37
▁Briten 37
atom 37
▁Suppe 37
luft 37
▁zutrifft 37
▁Jen 37
▁Lautsprecher 37
statt 37
ampe 37
▁Real 37
▁kontroll 37
▁Hebel 37
▁Dumm 37
▁klappt 37
▁Pille 37
▁antreiben 37
▁horizont 37
▁ständ 37
▁Sm 37
stellungs 37
▁sprich 37
▁Umsetzung 37
bri 37
▁Seattle 37
▁Daniel 37
▁Sach 37
paar 37
▁verlaufen 37
▁kopiert 37
▁intelligenter 37
▁bös 37
▁Schlamm 37
schrän 37
▁ordentlich 37
▁Favor 37
zin 37
▁Wik 37
▁Unbek 37
▁potentiell 37
ares 37
▁multipl 37
▁Kosm 37
einern 37
aute 37
▁Blutz 37
▁scharf 37
▁vielversprechen 37
neter 37
▁hinzugefügt 37
stream 37
▁behauptet 37
▁verließen 37
ählten 37
▁Hawaii 37
ehrten 37
▁dreieinhalb 37
▁vorder 37
▁Astronomen 37
▁Celsius 37
▁Partikel 37
bahnen 37
augen 37
ippt 37
▁beruhigen 37
▁zun 37
EC 37
rey 37
lässig 37
ppel 37
▁dumme 37
athie 37
▁Hormon 37
Menschen 37
▁Veranstaltung 37
▁Schöpfung 37
▁ungewöhn 37
▁Virtu 37
gült 37
▁überwältigen 37
▁gelb 37
▁leere 37
▁französische 37
▁hinweisen 37
ämpfer 37
▁informieren 37
▁ökologischen 37
mü 37
▁erwecken 37
▁hochwert 37
6. 37
▁spenden 37
▁my 37
immern 37
▁herausfordern 37
▁Auslöser 37
▁Anthrop 37
ision 37
▁blut 37
▁34 37
▁Epidem 37
▁Grü 37
▁unbekannten 37
▁Dollars 37
▁Cholera 37
▁beacht 37
▁vornehmen 37
▁Positionen 37
mmel 37
Tal 37
▁Bälle 37
▁Takt 37
▁dynamisch 37
Syndrom 37
▁lieb 37
▁Haushalts 37
ammern 37
▁geschw 37
kle 37
▁filmen 37
ideos 37
▁wahrhaft 37
kter 37
▁Geschwister 37
▁Fotografen 37
▁Steinen 37
▁drastisch 37
▁Everest 37
räte 37
strö 37
▁Hindernis 37
impf 37
▁unsichtbare 37
▁Jemen 37
▁schlauer 37
▁Phänomene 37
nie 37
uliert 37
▁gelie 37
▁schwe 37
▁160 37
▁Ägypter 37
bürger 37
▁annähernd 37
▁aufgefallen 37
▁Beachten 37
▁grö 37
fresser 37
rimin 37
▁Perspektiven 37
▁erreichten 37
▁Kamel 37
▁Entscheid 37
regeln 37
▁Hühnchen 37
▁kritisch 37
▁Harmonie 37
▁anfangs 37
▁übersch 37
otyp 37
NG 37
anw 37
▁unbesch 37
▁erlernen 37
▁Übungen 37
aar 37
▁Shir 37
▁Therap 37
korn 37
▁Filmemacher 37
dienste 37
▁Informatik 37
▁Foie 37
▁Comedy 37
▁Indus 37
▁netten 36
▁unternommen 36
lim 36
sprobleme 36
atmen 36
▁fällen 36
denten 36
▁aufbl 36
▁Vern 36
▁nördlichen 36
▁AG 36
▁gelandet 36
▁schnellsten 36
▁Space 36
▁Aussicht 36
▁Betrag 36
▁Moore 36
▁herauskommen 36
▁weitergeben 36
enntnis 36
▁Ingenieuren 36
▁redeten 36
▁zusammenbringen 36
▁Optim 36
▁Wa 36
Shir 36
▁erstellten 36
▁theor 36
chem 36
▁Montag 36
▁lö 36
▁Wunden 36
▁angenehm 36
▁orig 36
▁Kil 36
▁Logo 36
▁zahlt 36
▁benennen 36
▁kehrte 36
▁Digital 36
▁rannte 36
▁informiert 36
lauben 36
▁flexibel 36
▁Konversation 36
▁Nämlich 36
▁jedesmal 36
▁verdamm 36
iarden 36
▁Reporter 36
mod 36
herstellung 36
▁Gesten 36
▁Hunderten 36
▁abhängen 36
▁bewahr 36
▁Baumkronen 36
▁Bundesstaat 36
▁wid 36
▁Apart 36
▁Hot 36
▁Reparatur 36
▁Krebszellen 36
▁Linken 36
Gesch 36
kar 36
gründe 36
ER 36
▁geliebt 36
▁offiz 36
▁herkommen 36
edia 36
▁Bit 36
▁Shakespeare 36
▁Agrar 36
planung 36
▁Ruder 36
ützte 36
▁Glukose 36
zepte 36
kilometer 36
▁breite 36
iversität 36
stung 36
auto 36
änderungen 36
loses 36
eitung 36
erei 36
▁zeichnet 36
▁gelegen 36
archie 36
▁blö 36
▁Zeitschrift 36
▁geschossen 36
▁gemeinnützige 36
▁schmelzen 36
▁korru 36
▁bahnbrechen 36
▁auftritt 36
sprachen 36
hai 36
▁praktische 36
▁AM 36
▁Kasten 36
▁Rechnung 36
da 36
▁Stere 36
ux 36
▁Komplex 36
▁militärische 36
▁Endeffekt 36
▁Jul 36
▁vereinfach 36
▁Verluste 36
▁konzentr 36
▁weitergegeben 36
rolle 36
iale 36
▁Vorbereitung 36
regierung 36
mitt 36
rägen 36
zir 36
▁Hülle 36
▁verwandelte 36
▁breiten 36
blau 36
▁parallel 36
ring 36
▁überholt 36
▁Museums 36
▁40.000 36
▁IM 36
spitze 36
spolitik 36
▁Soll 36
▁Verbün 36
▁kost 36
▁massiven 36
orden 36
bor 36
▁Serv 36
▁Kontrast 36
ildern 36
▁Schultern 36
händler 36
apfen 36
streifen 36
▁Frucht 36
▁gewissem 36
▁enge 36
▁Arbeitsm 36
▁verwir 36
ücken 36
bur 36
▁för 36
▁hunderttausende 36
▁Molekul 36
reite 36
▁unbegrenz 36
bär 36
uste 36
▁jugend 36
hor 36
▁Förderung 36
▁unzu 36
orp 36
▁Spitz 36
▁Dritte 36
▁bewerkstelligen 36
▁Kosmos 36
▁Atomen 36
▁Treibhaus 36
▁Relativität 36
Bewegung 36
▁Schuh 36
▁Steigerung 36
▁Ästhetik 36
komme 36
▁Gol 36
▁schwierigsten 36
dungen 36
▁lautete 36
▁aneinander 36
▁hervorrufen 36
▁Erspar 36
▁Tinten 36
▁erd 36
▁Berufe 36
Ä 36
▁Han 36
▁vorant 36
sbe 36
▁Mig 36
▁Runde 36
▁Pubertät 36
▁Notaufnahme 36
▁medizin 36
▁gefilmt 36
▁Fuss 36
▁Dankbarkeit 36
▁Irland 36
▁beleid 36
▁gefl 36
▁offensichtliche 36
▁hiermit 36
▁Inhalts 36
hielten 36
▁Neigung 36
▁galt 36
▁Feier 36
▁Funktionsweise 36
anntes 36
ader 36
▁europäische 36
räumt 36
zettel 36
▁versehen 36
▁Tageslicht 36
▁Rechenschaft 36
▁bewundern 36
▁gemalt 36
▁Kälte 36
▁Belastung 36
3, 36
▁Popul 36
informationen 36
▁Deck 36
▁Pil 36
▁katastrophal 36
▁Eind 36
▁Mahlzeiten 36
mor 36
▁vernachläss 36
▁leb 36
▁geradezu 36
▁klettern 36
▁Steuerung 36
1, 36
í 36
tzt 36
Dies 36
ußt 36
▁stattgefunden 36
▁übern 36
▁sang 36
▁Winde 36
▁ausüben 36
▁Wähler 36
▁Hemisphäre 36
▁inspir 36
ignale 36
▁fundamental 36
Daten 36
▁Schauspiel 36
▁Gewohnheiten 36
uel 36
imiert 36
artiger 36
▁bezogen 36
▁Kondome 36
▁Grösse 36
▁Zoo 36
▁Magazine 36
▁Geschehen 36
▁Monats 36
▁Rose 36
krankheiten 36
▁Elefant 36
eiern 36
Pe 36
bele 36
Bild 36
▁vorbereiten 36
▁Untert 36
▁häufigsten 36
▁Sehvermögen 36
weckt 36
▁Überlegen 36
▁Ekel 36
▁Herzschlag 36
▁Bass 36
▁Atmen 36
▁Schön 36
reuung 36
▁Ram 36
▁Säulen 36
▁Behinderung 36
▁Luther 36
ube 36
▁Jord 36
▁israel 36
NC 36
Vortrag 36
▁Kyros 36
▁LT 36
▁Erderwärmung 35
▁Larry 35
▁drängen 35
▁maximal 35
▁unverm 35
mungen 35
▁verfügbaren 35
Maschine 35
▁Landkarte 35
▁Regulierung 35
▁Gelder 35
▁einzugehen 35
▁Allen 35
▁verpasst 35
werks 35
team 35
▁verschwanden 35
▁Projektes 35
▁warteten 35
▁irre 35
nütz 35
▁Fäden 35
cer 35
▁synth 35
tausend 35
▁Bedien 35
▁nachvoll 35
▁4.000 35
▁Webseiten 35
▁begrenz 35
dimension 35
▁Zero 35
üstet 35
▁entwarfen 35
okratie 35
iehen 35
▁tempor 35
▁Installation 35
▁bewertet 35
▁Union 35
▁Varianten 35
hundert 35
▁Gefähr 35
▁Erwachsener 35
Kann 35
stiegen 35
▁Griechen 35
▁Ther 35
Druck 35
▁nachhaltigen 35
▁brilli 35
konz 35
tiere 35
Jetzt 35
▁ineinander 35
▁ergab 35
▁Mauern 35
▁anlegen 35
▁Jane 35
▁Politikern 35
▁Zone 35
▁Highschool 35
▁schienen 35
opft 35
▁Ikon 35
▁Ketten 35
▁Craig 35
▁rechtzeitig 35
▁beiseite 35
▁richtet 35
▁schläft 35
▁Letzt 35
▁Lieb 35
▁Zustände 35
chtern 35
boot 35
▁bewegten 35
▁Ansammlung 35
▁Dutzende 35
▁reflektieren 35
Land 35
betrieben 35
▁japanischen 35
▁Klische 35
sterben 35
▁Geträn 35
▁rauf 35
loss 35
▁fehlte 35
▁Hinterkopf 35
äumen 35
▁Schiffe 35
▁Bäcker 35
▁heiligen 35
Cl 35
▁Referenz 35
▁ungewöhnliche 35
▁besonderes 35
artigkeit 35
▁erforder 35
▁fett 35
otischen 35
▁besiegen 35
▁Sei 35
▁liefer 35
▁kostete 35
▁regnet 35
▁einbauen 35
klass 35
▁pri 35
▁–, 35
eme 35
▁aufnimmt 35
▁Blüte 35
▁Akademiker 35
▁Konz 35
..." 35
▁Fahren 35
zeugung 35
▁Kräften 35
▁Non 35
▁gegenwärtigen 35
▁Olymp 35
▁Hauptstadt 35
▁intens 35
umb 35
llo 35
▁beraten 35
▁Homosexu 35
Kön 35
▁Sieg 35
▁abspielen 35
hall 35
▁molekularen 35
▁Hil 35
hlte 35
schrecken 35
▁zustande 35
Seite 35
▁Programmen 35
sprüche 35
▁Ähnliches 35
rist 35
▁theoretisch 35
Per 35
▁Paradigma 35
▁2002 35
▁selekt 35
fähiger 35
diag 35
▁vollständige 35
▁Älterwerden 35
▁unvor 35
▁derselbe 35
▁verteidigen 35
▁bildeten 35
▁gewidmet 35
esh 35
▁Back 35
▁spektakul 35
▁Supernova 35
▁bedecken 35
▁Fleck 35
▁implant 35
echnet 35
▁mö 35
bauer 35
ches 35
▁UV 35
fähigen 35
ynam 35
uen 35
▁offensicht 35
eck 35
▁East 35
ächen 35
▁verantwortungs 35
spitzen 35
▁Zwischenzeit 35
▁beeinfl 35
rott 35
▁stren 35
revolution 35
▁benötigten 35
▁stört 35
▁tötete 35
Mensch 35
iologen 35
ätig 35
▁Domin 35
▁erheblich 35
▁entschloss 35
▁motiv 35
▁Patente 35
mot 35
▁Kommt 35
▁mochten 35
▁wieviele 35
icke 35
digungen 35
äufer 35
▁Pri 35
uver 35
IS 35
▁Lampen 35
▁zurückzukehren 35
▁ernste 35
▁Feder 35
▁kollab 35
mittler 35
▁empfind 35
▁älteste 35
▁Volkes 35
▁kommst 35
fiel 35
▁sprang 35
▁Grundschule 35
+ 35
▁universell 35
▁befolgen 35
▁Unsicht 35
▁Demokrat 35
ifizierung 35
üm 35
▁Än 35
▁fesseln 35
alie 35
▁Edward 35
omben 35
▁Ziemlich 35
kungen 35
üttet 35
▁schönsten 35
zum 35
▁Zielen 35
▁besuchten 35
▁Enthü 35
▁Ladung 35
pon 35
▁mikroskop 35
aya 35
▁Kompl 35
rah 35
echan 35
▁Glühbirnen 35
▁Fossilien 35
▁Gir 35
▁dauerhaft 35
Theorie 35
▁üblich 35
▁Anal 35
▁schätzt 35
▁Jupiter 35
▁vorzubereiten 35
isser 35
▁Dreie 35
▁fantastisches 35
▁Bach 35
frü 35
▁Krä 35
▁Sens 35
ronen 35
▁Pflicht 35
▁zwangsläufig 35
▁Venus 35
▁schwimmt 35
steck 35
mass 35
▁behin 35
anke 35
haie 35
▁Ever 35
▁Elektron 35
▁Stellt 35
▁Hätte 35
▁Bösen 35
▁individu 35
▁Bruchteil 35
▁Arbeitskräfte 35
▁Bestand 35
▁Drohne 35
▁iran 35
▁Smartphone 35
▁Story 34
sammeln 34
▁Suchen 34
legten 34
iar 34
▁Kok 34
künfte 34
▁ausbilden 34
▁Schaffung 34
▁Erzählen 34
▁weite 34
apital 34
▁Behauptung 34
▁Raumfahrt 34
▁Kolon 34
gefangen 34
▁Innovations 34
Sh 34
▁Verpflichtung 34
▁Wille 34
orientierten 34
▁Subst 34
ieten 34
▁ganzer 34
▁Frustration 34
▁Kreation 34
▁Genoms 34
▁Reduktion 34
▁dauernd 34
antas 34
reib 34
sicherheit 34
▁erwiesen 34
gelegt 34
val 34
hus 34
▁angreifen 34
▁unbewusst 34
hyd 34
autos 34
▁wandeln 34
▁450 34
▁dest 34
ichtigkeit 34
▁tiefsten 34
▁fließend 34
schirm 34
ombe 34
glas 34
tex 34
▁kluge 34
▁bevorzu 34
▁schaden 34
▁aufwachsen 34
▁Schlechte 34
▁beschädigt 34
▁Rö 34
▁Ell 34
orge 34
flich 34
ängern 34
▁sexuell 34
▁mentale 34
▁kollabor 34
▁Talente 34
▁Ehrlich 34
▁Stoffe 34
Fahr 34
spartner 34
▁hob 34
▁stop 34
▁Lehrplan 34
ta 34
▁Linsen 34
▁Verzerr 34
fä 34
▁Nachkommen 34
▁magische 34
▁unvoll 34
▁vorherigen 34
▁Globus 34
▁Tätigkeiten 34
ßten 34
auce 34
▁Brille 34
von 34
▁sank 34
▁MS 34
▁Sher 34
▁offiziell 34
ush 34
▁Sonnensystems 34
▁versteckten 34
sätzliche 34
▁ment 34
▁begangen 34
westen 34
schieben 34
▁musikalische 34
▁UC 34
rechnung 34
ultiv 34
▁gehörte 34
ffer 34
kuchen 34
▁Server 34
▁interessiere 34
▁arbeit 34
flasche 34
▁digital 34
histor 34
▁Time 34
▁erleicht 34
▁unzählige 34
▁Absatz 34
flicht 34
▁Eigentums 34
▁Bezahlung 34
hode 34
▁sichern 34
deutet 34
▁Außenwelt 34
▁Turm 34
▁Gebilde 34
▁Huhn 34
blicken 34
▁Weiße 34
▁Tote 34
▁Dienstag 34
▁Lobby 34
▁marsch 34
Qaida 34
▁Tran 34
▁Erzähl 34
etiker 34
▁Molekülen 34
usk 34
yer 34
itäre 34
▁Lehm 34
ütten 34
▁On 34
▁Mang 34
▁Plankton 34
▁Verwaltung 34
▁freier 34
Entwick 34
▁belegen 34
▁fortsch 34
ithm 34
▁evolution 34
▁tiefgreifen 34
igma 34
speicher 34
imul 34
▁Ret 34
hler 34
▁ansteigen 34
▁Abfolge 34
▁Ingenieurs 34
▁kürze 34
▁Embry 34
▁Child 34
▁Thailand 34
99 34
▁simul 34
ärmen 34
▁geometr 34
Hallo 34
▁Momenten 34
▁verbrannt 34
▁fühlst 34
▁absoluten 34
▁mitzu 34
gesetze 34
illt 34
▁Maßstä 34
aktor 34
▁perman 34
sey 34
▁zerst 34
Q 34
▁leihen 34
ikaner 34
▁Visualisierung 34
▁These 34
eher 34
▁Sed 34
iefer 34
facht 34
▁Haushalte 34
▁wesentliche 34
▁Wendepunkt 34
▁befäh 34
▁kollektive 34
▁widerstehen 34
▁Südamerika 34
▁FDA 34
▁platz 34
▁hilflos 34
ED 34
schön 34
▁Verwir 34
besten 34
▁mancher 34
▁bedient 34
▁ginge 34
▁erwachsene 34
▁Denkt 34
▁MA 34
▁Spezialisten 34
▁chirurg 34
▁geistige 34
▁Play 34
▁anbauen 34
▁mess 34
banken 34
▁leitete 34
bauten 34
quote 34
▁Einzelt 34
▁imitieren 34
▁Neugierde 34
▁einzur 34
▁mächtiger 34
▁Paradox 34
▁warte 34
▁Ethn 34
▁Täter 34
▁Has 34
▁Schlei 34
dacht 34
▁Sierra 34
▁flü 34
▁probiert 34
äger 34
anger 34
züglich 34
auff 34
▁sorg 34
ahme 34
▁unend 34
decke 34
▁akust 34
▁Maler 34
▁Musikstück 34
▁Marsch 34
▁Akteure 34
▁Akzent 34
▁derjenige 34
verständ 34
äuse 34
-3 34
▁Heu 34
fischen 34
▁Äquator 34
▁15- 34
▁Bot 34
▁klin 34
▁Reaktor 34
ummeln 34
200 34
▁Stell 34
bu 34
hielt 34
aufgaben 34
▁1: 34
▁Bedrohungen 34
▁sammelte 34
▁Lieben 34
▁junges 34
▁Vulkan 34
▁Wesent 34
▁quad 34
▁Alice 34
▁Phoenix 34
zun 34
▁Mamm 34
mmert 34
▁demüt 34
▁Vis 34
sionen 34
erkrankungen 34
▁liebten 34
▁Adopt 34
▁schützt 34
awatt 34
▁Ersten 34
▁überaus 34
▁Stewart 34
ölfe 34
▁künft 34
▁Senioren 34
igment 34
▁Sylvia 34
▁Macher 34
▁Mammographie 34
40 33
▁niger 33
unsch 33
▁Dias 33
▁minus 33
▁Entscheiden 33
▁invest 33
version 33
▁98 33
schwem 33
feuer 33
▁Norm 33
▁dominiert 33
▁ego 33
eignen 33
stä 33
▁verfl 33
▁Luftfahrt 33
ildeten 33
▁Alan 33
flüge 33
▁Zehntel 33
▁gemeinsames 33
Mach 33
▁unnöt 33
▁Carl 33
essim 33
▁Segel 33
▁Infrarot 33
sammelten 33
▁Basen 33
sgeschichte 33
▁brei 33
▁überflüss 33
▁tippen 33
ennungs 33
▁Ander 33
▁spekul 33
▁überzeug 33
▁ernsthafte 33
▁aufger 33
weiten 33
▁Por 33
▁Zentren 33
▁verbringe 33
▁skeptisch 33
▁Glühbirne 33
▁Wussten 33
▁Asthma 33
▁decken 33
▁..." 33
gewalt 33
▁genauen 33
▁füttern 33
▁rauchen 33
▁Sollten 33
▁antworteten 33
▁Berichte 33
dringt 33
▁Becher 33
▁Streich 33
mas 33
▁Demokratien 33
▁baue 33
▁Performance 33
▁romantische 33
▁Jh 33
▁Bege 33
▁Verg 33
▁Geschäftswelt 33
▁mitbringen 33
spanne 33
kreislauf 33
▁ausgelöscht 33
▁Beijing 33
▁Nervenzelle 33
▁Hit 33
scheidungen 33
▁White 33
▁intellektuellen 33
mark 33
▁betrachtete 33
ftig 33
mach 33
▁schmeckt 33
ftigen 33
▁umgebracht 33
▁verlangsamt 33
▁Platte 33
▁Heraus 33
mess 33
äub 33
▁6.000 33
▁Jenn 33
▁innovative 33
▁zulassen 33
▁Fremd 33
garten 33
Design 33
▁Lyn 33
▁gefü 33
▁Verschwendung 33
▁geschnitten 33
▁Regal 33
▁verschwenden 33
▁verfügt 33
▁schar 33
▁Panzer 33
kriege 33
▁besaßen 33
Jährigen 33
▁fehlenden 33
▁nachdachte 33
▁Gur 33
▁Olympischen 33
▁städtische 33
fuß 33
▁Erdoberfläche 33
▁Agen 33
▁Intensität 33
▁kol 33
wol 33
zeichnungen 33
▁verrichten 33
▁Lev 33
▁glob 33
▁erschrecken 33
▁protest 33
rät 33
▁14. 33
▁Alaska 33
▁verursachte 33
▁anfällig 33
äden 33
▁legit 33
unkt 33
rufe 33
▁vorhers 33
ano 33
▁ziehe 33
tzu 33
ungsvermögen 33
▁woraus 33
▁Tel 33
▁Polen 33
atzen 33
▁ablaufen 33
▁einverstanden 33
▁Bert 33
▁met 33
▁Bauer 33
▁starr 33
iler 33
▁längere 33
ähren 33
unken 33
▁hör 33
Jahr 33
ó 33
ächlich 33
ätt 33
▁Zylinder 33
leitung 33
▁wuer 33
▁140 33
ventionen 33
wider 33
emsen 33
zeu 33
▁gewinn 33
▁Arab 33
▁Bezirk 33
▁ökologische 33
ruft 33
ugh 33
▁Schaf 33
▁Montana 33
▁Berater 33
▁Krisen 33
▁verlangsamen 33
▁Nike 33
rennen 33
▁Handt 33
studien 33
▁Bab 33
such 33
ächtige 33
▁Saat 33
▁argument 33
red 33
orientiert 33
▁wein 33
▁Ziegen 33
▁Klei 33
▁interakt 33
Part 33
Str 33
▁1930 33
▁dergleichen 33
▁Fehlern 33
▁Wohlergehen 33
▁erfolgreicher 33
▁erfü 33
▁Gib 33
▁absol 33
Spieler 33
azin 33
▁aufsteigen 33
▁Hast 33
▁auswendig 33
obb 33
▁stap 33
▁nahen 33
▁geistigen 33
ula 33
bericht 33
▁Georg 33
▁Klick 33
atischer 33
▁--, 33
▁Health 33
▁beliebige 33
itativ 33
▁Samstag 33
▁transform 33
reserv 33
▁Zeilen 33
lte 33
▁Steven 33
▁hervorragend 33
Is 33
ingst 33
dels 33
▁aufzeigen 33
▁begegnet 33
▁Ablauf 33
▁elektromagnet 33
▁akademischen 33
▁Flecken 33
▁andauern 33
▁Kriterien 33
▁einzuführen 33
▁ä 33
▁Killer 33
rägt 33
▁religiös 33
▁organisierte 33
▁Akteur 33
obby 33
▁Teig 33
▁ausgerichtet 33
ektoren 33
▁depressiv 33
ietet 33
▁Mart 33
▁Ansätze 33
▁Input 33
▁netter 33
▁abgeschnitten 33
▁häus 33
schlüsse 33
▁optimieren 33
▁Einfl 33
▁eingesperrt 33
▁anre 33
spekt 33
▁herunterladen 33
▁Hüfte 33
aktoren 33
▁Nachthimmel 33
iesen 33
▁Them 33
opfer 33
▁Schalt 33
▁Kognit 33
▁reflektiert 33
▁vermischt 33
▁Palä 33
schlä 33
▁verbringt 33
▁Veteranen 33
▁Kennedy 33
▁Delhi 33
▁Dor 33
ape 33
▁Kurven 33
wald 33
▁beweist 33
▁Hochschul 33
sport 33
▁Myzel 33
ikator 33
ppich 33
▁Stunt 33
▁beeindruckende 33
▁Pik 33
frem 33
▁Libanon 33
▁Hefe 33
▁Moskitos 33
zenz 33
▁Connectome 33
▁billige 32
präsi 32
▁überprüft 32
▁ung 32
▁Invest 32
▁part 32
▁Herde 32
▁Ofen 32
ittel 32
▁seltenen 32
wesens 32
▁Rohstoff 32
▁unternehmer 32
▁denk 32
▁afghan 32
▁Amerikanern 32
▁unbekannte 32
▁Baumwolle 32
▁begeistern 32
▁Piloten 32
computer 32
▁Ans 32
fahrzeuge 32
läufer 32
▁Passag 32
▁Worüber 32
krie 32
▁stress 32
▁Py 32
▁Canyon 32
▁Bad 32
▁hel 32
orgnis 32
ogene 32
agos 32
▁Überblick 32
▁Kombin 32
▁toler 32
▁biologischer 32
▁Chromosomen 32
▁umzuwandeln 32
▁Überlebens 32
jenigen 32
▁1999 32
▁angerufen 32
▁einsam 32
▁Anrufe 32
Software 32
▁Schnittstelle 32
ählen 32
▁überschreiten 32
▁Kump 32
iffe 32
▁Visionen 32
▁deuten 32
▁Indian 32
▁DR 32
aku 32
▁bewe 32
▁Plattformen 32
▁umstritten 32
ätten 32
▁Model 32
▁Züge 32
▁--- 32
▁Seg 32
iene 32
wecken 32
wiesen 32
ransplant 32
gebnisse 32
▁Wäldern 32
▁kämpft 32
▁Einklang 32
schießen 32
▁Professoren 32
▁bombar 32
▁Skelettmus 32
fähige 32
usster 32
▁chaot 32
steh 32
▁jüngste 32
hnten 32
▁erzogen 32
etr 32
strukturen 32
▁geschlafen 32
scheln 32
▁Puzz 32
Min 32
▁bräuchten 32
▁Regenwasser 32
systems 32
▁Impfstoffe 32
▁Defin 32
▁brill 32
▁Seien 32
▁praktischen 32
▁Todesfälle 32
▁brillante 32
rett 32
äres 32
▁Grupp 32
kör 32
▁reichte 32
mutter 32
▁Fantast 32
▁Aufruf 32
▁900 32
▁Kansas 32
iser 32
▁räum 32
▁Datensatz 32
▁Audio 32
▁mark 32
▁weitergehen 32
▁Resonanz 32
▁Imper 32
▁Had 32
▁verrück 32
spir 32
▁Aluminium 32
lampe 32
wich 32
▁Nr 32
▁Album 32
▁Bemerken 32
häusern 32
▁Sterber 32
opt 32
▁gesteckt 32
▁Schätzungen 32
▁anonym 32
genau 32
▁Puppen 32
▁Apparat 32
antasie 32
▁direkten 32
ema 32
▁Gewe 32
▁Bauen 32
▁ausgestellt 32
▁Pant 32
otograf 32
▁as 32
marsch 32
icherheit 32
▁furch 32
▁Dalai 32
verbindung 32
bungs 32
▁schwache 32
edes 32
imon 32
▁installieren 32
▁ermut 32
▁zit 32
▁professionelle 32
▁IP 32
▁Untergrund 32
▁bemüht 32
slos 32
▁line 32
▁Lebenszeit 32
gesp 32
▁Appar 32
Roboter 32
verl 32
▁Verk 32
▁formuliert 32
▁Kontinente 32
oden 32
▁erraten 32
▁Schulsystem 32
▁stetig 32
▁Geschlechts 32
▁Herrschaft 32
afeln 32
▁besorgen 32
ktes 32
Reg 32
▁Bedürfnissen 32
orbenen 32
achse 32
liessen 32
▁schütteln 32
▁standard 32
▁programm 32
▁Repl 32
▁ausgeführt 32
ingung 32
▁Sin 32
▁Boote 32
▁star 32
▁Pra 32
orter 32
ichtes 32
ielten 32
▁Kohlen 32
▁illegale 32
ichert 32
▁herausge 32
▁Ut 32
itiv 32
iga 32
▁wilden 32
▁lern 32
schreiten 32
▁west 32
▁übergehen 32
▁Reihen 32
▁chines 32
▁verwalten 32
▁Mohammed 32
behand 32
störungen 32
▁interaktiv 32
▁schlimme 32
arben 32
▁unf 32
▁explod 32
iologie 32
IN 32
We 32
▁Bart 32
▁Schirm 32
▁hierzu 32
Cola 32
▁lehrte 32
▁verpflich 32
▁47 32
▁akadem 32
▁Cous 32
▁muslim 32
▁Ruhm 32
▁Net 32
etschen 32
rig 32
▁notwendigen 32
▁Tele 32
RA 32
ollywood 32
dite 32
▁Lex 32
▁stimuliert 32
▁blei 32
▁installiert 32
▁veränder 32
▁Delphin 32
ärkt 32
▁Telefone 32
inst 32
verbindungen 32
▁nötigen 32
ournal 32
▁Ero 32
verletz 32
zulegen 32
▁übereinstimmen 32
▁ausländ 32
▁überw 32
́ 32
abor 32
musik 32
▁Bergsteiger 32
kontakt 32
▁Ross 32
olut 32
▁Wänden 32
▁Pet 32
lichste 32
▁beweg 32
▁Cortex 32
▁Früchte 32
▁übertrieben 32
dring 32
▁Beschränkungen 32
▁Vorgänge 32
▁wahrzunehmen 32
▁experiment 32
Te 32
▁Abends 32
▁prü 32
▁Minderheit 32
▁anti 32
▁Global 32
▁Mutationen 32
zwungen 32
ädt 32
▁Dünger 32
▁energie 32
▁Rab 32
▁Liber 32
▁Schwangerschaft 32
▁übermitteln 32
biologie 32
oles 32
▁beher 32
▁einfl 32
▁WK 32
▁historisch 32
geschnitten 32
▁Selbstvertrauen 32
▁Social 32
▁Dosis 32
sych 32
▁Mädchens 32
▁präfront 32
▁assoziiert 32
▁teilhaben 32
▁universelle 32
▁kleben 32
▁Hau 32
▁Rückmeldung 32
ucks 32
▁Ausb 32
▁Recherche 32
ischten 32
▁Rasen 32
▁heter 32
▁Arzn 32
flut 32
▁Detektor 32
▁korrigieren 32
anner 32
▁jüngere 32
ku 32
▁hochgeladen 32
▁Antikörper 32
▁Tumore 32
▁Diplomatie 32
▁TEDTalks 32
▁Blutgefä 32
▁Ausschau 31
▁lachten 31
agenturen 31
▁Jay 31
▁Klimak 31
▁Aussagen 31
▁umweltfreund 31
alys 31
ursache 31
schäden 31
fuhr 31
▁eingenommen 31
baus 31
krit 31
opol 31
▁Abkommen 31
▁erreich 31
▁Afghan 31
▁Universitäts 31
▁konkur 31
▁gleichermaßen 31
▁Flugzeugen 31
▁Renaissance 31
▁'9 31
▁staatliche 31
▁profit 31
▁Lampe 31
▁ästh 31
▁süchtig 31
▁Anblick 31
▁Anstelle 31
▁wow 31
▁sauer 31
deutend 31
▁nötige 31
▁Ostküste 31
▁filtern 31
▁1,3 31
ae 31
▁essent 31
▁töteten 31
▁Konstru 31
▁Kasse 31
▁einzufangen 31
▁Ethanol 31
▁anb 31
▁fahre 31
▁ausschalten 31
Danke 31
▁Halt 31
▁Schwierigkeit 31
▁Bra 31
massen 31
▁Pier 31
▁müh 31
iefen 31
▁trinkt 31
▁Silber 31
▁Mittelklasse 31
▁Industrien 31
▁Polizist 31
▁vernünftig 31
▁Beach 31
▁bewunder 31
phase 31
▁auftaucht 31
▁teuren 31
▁Arter 31
Ut 31
▁Zweig 31
scheiden 31
▁siehe 31
▁eth 31
labor 31
▁aktiver 31
▁differenz 31
▁Ausgangspunkt 31
▁wandert 31
rel 31
umor 31
▁initi 31
▁derart 31
▁Wur 31
▁produz 31
▁Mä 31
▁befr 31
▁gelten 31
▁psychologischen 31
▁schwachen 31
▁neuron 31
▁Partnern 31
▁Sammler 31
▁Gemeinsamkeiten 31
berechtigung 31
▁denjenigen 31
▁Busse 31
eigt 31
▁evolutionären 31
▁Spinne 31
▁allgegenwärtig 31
▁intuit 31
▁Hammer 31
forscht 31
▁völl 31
▁Pick 31
beg 31
krank 31
Mar 31
glück 31
▁christ 31
zimmern 31
▁Akte 31
orts 31
seher 31
▁klüger 31
▁Prü 31
▁kat 31
ahre 31
▁Bang 31
rechnen 31
▁Astronomie 31
▁Wit 31
▁auslöst 31
▁individuell 31
▁blo 31
▁Materials 31
▁französischen 31
▁draht 31
ves 31
▁Übersetz 31
imum 31
▁Animationen 31
eucht 31
▁Umsatz 31
▁180 31
▁kriegt 31
su 31
▁Zumindest 31
▁Mörder 31
▁intelligen 31
▁begrenzten 31
▁abschneiden 31
allt 31
▁May 31
▁Kopenhagen 31
wendet 31
▁Klarheit 31
▁Größer 31
gier 31
▁schoss 31
▁Überre 31
▁Leucht 31
sebene 31
umer 31
Arm 31
ümm 31
▁Gri 31
▁strateg 31
Do 31
▁Baut 31
▁ausrichten 31
unsten 31
": 31
▁Gebir 31
▁Toleranz 31
viele 31
▁Basketball 31
▁Abkürz 31
bildern 31
krankheit 31
Nicht 31
schnitten 31
▁Vordergrund 31
▁Händler 31
erry 31
▁kontro 31
prinzip 31
▁Peer 31
gsten 31
▁Angel 31
▁trauen 31
▁dezentr 31
▁fundamentalen 31
▁Modellen 31
mechan 31
flation 31
▁Blu 31
neur 31
▁eingebettet 31
▁gesamtes 31
▁Schlechtes 31
rechen 31
▁vernünftige 31
ritte 31
▁ausgedacht 31
▁gedeihen 31
▁fremde 31
üh 31
▁Lernens 31
▁künstlerische 31
▁entwick 31
letten 31
▁Geste 31
▁Betroffen 31
bänder 31
▁Spezie 31
▁fehlende 31
ikations 31
rins 31
quis 31
▁wolle 31
▁Com 31
▁Wahrheiten 31
legenen 31
sol 31
▁altmod 31
▁Tu 31
ometer 31
ware 31
gläub 31
▁Austral 31
▁Reifen 31
▁Windenergie 31
▁60.000 31
▁unmittel 31
▁Gründung 31
▁Columbia 31
▁Cour 31
stationen 31
ehnt 31
▁Kosovo 31
▁Fülle 31
▁Slum 31
▁Bangladesch 31
▁verhandeln 31
▁unauf 31
abdruck 31
höhung 31
Med 31
▁dien 31
▁Anfangs 31
▁visueller 31
hrer 31
▁Anatomie 31
▁Urheber 31
▁zugelassen 31
▁Hosp 31
▁Lewis 31
▁Nobelprei 31
▁Vitamin 31
rier 31
steuern 31
▁unterdrücken 31
Mon 31
▁Amerikanischen 31
▁Philadelphia 31
▁aussergewöhn 31
▁trau 31
▁Tante 31
▁Meetings 31
▁willen 31
▁Münze 31
▁Kontinenten 31
▁aufzuhören 31
kehrte 31
▁Stab 31
▁gucken 31
Mag 31
Mart 31
▁Zeile 31
spart 31
▁Schlafzimmer 31
▁Schildkrö 31
figur 31
▁Banker 31
▁ideal 31
▁Kanten 31
wandern 31
▁erfuhren 31
▁zudem 31
▁Research 31
▁enttäu 31
▁Telekommun 31
▁leistet 31
▁unbekannt 31
biot 31
osn 31
▁eingerichtet 31
▁Bereitschaft 31
▁demonstr 31
▁tust 31
versicherung 31
eug 31
▁Cents 31
papier 31
▁Nullen 31
fahrts 31
▁Fünftel 31
▁heimlich 31
Unter 31
▁Jün 31
▁spiritu 31
▁traurige 31
▁Hamburger 31
▁Vorlieben 31
ebene 31
▁Hormone 31
▁freundlich 31
▁Ausbreitung 31
zeitalter 31
▁Jefferson 31
▁Goldene 31
ehle 31
▁Träger 31
lebens 31
▁Arktis 31
▁vernetzt 31
▁hervorheben 31
flaster 31
▁Station 31
ozi 31
rechner 31
▁frisst 31
äule 31
▁Fischfang 31
▁Kommand 31
uchtet 31
▁Veranst 31
Haben 31
▁Lese 31
▁187 31
▁Unmögliche 31
ull 31
▁Tesla 31
▁Stadium 31
▁Spermien 31
▁Fortpflanzung 31
▁Sky 31
▁Leichen 31
finanz 31
warten 31
▁Nä 31
beam 31
▁Unterscheidung 31
schafter 31
▁Zusammenspiel 31
▁belohnen 31
▁fröh 31
▁Videok 31
▁Ty 31
virus 31
▁umgibt 31
▁Werkstatt 31
▁witzig 31
▁Nic 31
psych 31
▁Urheberrecht 31
▁Operations 31
▁umdrehen 31
▁sende 31
▁zusammensetzen 31
▁mathematisch 31
▁Symmetrien 31
fest 31
▁Kaninchen 31
▁McC 31
▁Mikrofon 31
▁Widerstands 31
stud 31
▁nachahmen 31
stufe 31
▁bedenkt 31
▁LHC 31
▁vorange 31
▁seltener 31
▁Julian 31
▁Dirigen 31
▁Nahrungskette 31
▁Karo 31
▁feuern 31
▁Abholzung 31
stau 31
▁Blüten 31
oplan 31
▁Vertrauens 31
▁TEDx 31
▁Libellen 31
▁Schleim 31
▁Arabisch 31
▁Snowden 31
▁Schleimpilz 31
▁bill 30
▁derzeitigen 30
▁geheimnis 30
▁Solange 30
▁gesetz 30
▁befasst 30
infekt 30
wohnern 30
▁herausstellte 30
aterialien 30
▁Justiz 30
lichten 30
konom 30
ökonom 30
▁ausdrück 30
▁Intern 30
iard 30
mack 30
unklar 30
▁verviel 30
▁Orig 30
agement 30
▁designen 30
▁Tem 30
▁Wettbewerbs 30
nummer 30
affen 30
▁überwältigt 30
lichte 30
▁Häuf 30
▁ehemalige 30
▁fügt 30
kol 30
▁Hydro 30
▁Adresse 30
schirme 30
▁Ech 30
ampen 30
ächten 30
Mill 30
unternehmer 30
▁tauchte 30
▁schließe 30
▁verbesserte 30
▁Oklahoma 30
▁Lebensstandard 30
▁Helikopter 30
AR 30
▁bele 30
▁befestigt 30
▁Prop 30
ollte 30
▁Zudem 30
▁trock 30
▁Lebensformen 30
▁Ausbruch 30
▁Dschungel 30
▁tödliche 30
▁Jac 30
▁beheben 30
▁spezialisiert 30
▁berichtete 30
▁Ähnlichkeit 30
Geb 30
▁fokussiert 30
▁u 30
▁geschätzt 30
oton 30
basis 30
dat 30
wechselt 30
Her 30
▁Vernetzung 30
ftet 30
▁Wichtige 30
ckel 30
asern 30
formation 30
ferenz 30
▁Dur 30
kühlt 30
▁Samm 30
abr 30
▁Club 30
▁Etik 30
▁sichtbaren 30
▁Grafiken 30
▁dokumentiert 30
▁wün 30
▁lasen 30
▁Od 30
▁Beer 30
▁Vorsitzen 30
▁Kul 30
▁Wahrnehm 30
schungen 30
▁Sandwich 30
▁Sänger 30
klet 30
▁nachher 30
▁Fot 30
▁Internationale 30
zwingen 30
▁entschuldigen 30
▁Ungerechtigkeit 30
▁einbeziehen 30
▁grü 30
studium 30
▁kulturell 30
üten 30
▁aufgeteilt 30
▁gerissen 30
▁Comm 30
▁beit 30
▁höch 30
▁schick 30
▁organische 30
pack 30
▁Dreck 30
▁Investment 30
▁unterbrechen 30
meter 30
▁enger 30
▁Scheiben 30
Jährige 30
stär 30
▁statistisch 30
gebnis 30
rifft 30
▁Pau 30
▁einheit 30
idee 30
▁belegt 30
emen 30
▁kämpften 30
▁hässlich 30
fred 30
▁Richt 30
tö 30
miss 30
▁Milo 30
äum 30
▁Jar 30
▁kooper 30
verteilung 30
verstand 30
Gut 30
▁beider 30
▁geheim 30
▁Äl 30
▁Buddha 30
klässler 30
▁wunderbarer 30
▁Bir 30
Nach 30
äss 30
rigen 30
▁zukommen 30
▁Community 30
▁Spektrums 30
view 30
stimmen 30
eingenommen 30
▁Schulbildung 30
▁ausn 30
▁kürz 30
▁machbar 30
▁mensch 30
▁Biotechnologie 30
▁schrittweise 30
▁Pfeil 30
▁Zeugen 30
äuber 30
männ 30
▁latein 30
▁Kambodscha 30
▁fünfte 30
▁Zoll 30
▁Freien 30
▁Et 30
▁herauskommt 30
▁umkreisen 30
▁Synthese 30
ragenden 30
▁52 30
▁aussterben 30
risiko 30
▁Priorität 30
▁transformieren 30
atürlich 30
▁Strahl 30
▁heranz 30
▁verschrieben 30
geschlagen 30
▁Faust 30
▁Babbage 30
geleitet 30
allgemein 30
▁kriege 30
rachen 30
▁185 30
eng 30
ienten 30
fu 30
chnungen 30
olog 30
fizit 30
▁nachhalt 30
orient 30
▁Spielern 30
▁Wäsche 30
▁ausdenken 30
real 30
ittert 30
▁gesendet 30
▁unerwartete 30
Gruppe 30
appar 30
wohner 30
▁Blindheit 30
▁Wohltätigkeit 30
▁Sun 30
ssystems 30
▁Disziplinen 30
einrichtungen 30
▁Mountain 30
fäh 30
gieb 30
gespräche 30
▁schüchtern 30
▁Dien 30
olzen 30
▁Ritual 30
stunde 30
ford 30
▁Mahlzeit 30
▁Kennen 30
▁Spruch 30
▁veranschau 30
▁ermordet 30
▁Gefangenen 30
▁plötz 30
▁erstaun 30
▁Spass 30
▁Verkaufs 30
▁Dol 30
▁regener 30
▁gründlich 30
▁Food 30
▁unfair 30
▁leuchtet 30
▁Programmier 30
▁einerseits 30
▁Gattung 30
▁wählt 30
▁not 30
▁Shr 30
▁errech 30
viel 30
▁äußeren 30
▁vernetzen 30
▁Dom 30
▁magischen 30
▁fordert 30
▁Tsch 30
▁Modern 30
zten 30
▁Lar 30
▁südlichen 30
▁dramatische 30
▁Ehrlichkeit 30
▁vertrauens 30
▁Tausch 30
ble 30
▁Nobelpreis 30
▁blockiert 30
▁spieler 30
▁Bedeut 30
▁Gegenüber 30
▁Oliver 30
▁Hätten 30
▁ther 30
▁Stämmen 30
▁ziel 30
▁Neuron 30
gs 30
▁Demut 30
pflanzt 30
▁Vorgehen 30
zonen 30
▁setze 30
▁Evan 30
▁spürt 30
Je 30
rinken 30
▁grus 30
job 30
▁richt 30
▁merkten 30
▁fil 30
▁älterer 30
▁scannen 30
atterie 30
▁American 30
▁verank 30
▁Voraussagen 30
▁geschäft 30
▁unglaublicher 30
▁Immobilien 30
flaschen 30
▁stimm 30
ikro 30
ziele 30
glied 30
▁Befehl 30
▁verspreche 30
▁Umkehr 30
▁Michigan 30
Am 30
▁erfährt 30
▁Interessant 30
▁Spielzeuge 30
▁Ärztin 30
▁Image 30
stellige 30
rats 30
schwar 30
▁Integrität 30
zeitig 30
▁Hoff 30
▁Rind 30
Diese 30
▁Einsen 30
▁gefördert 30
▁korre 30
▁50- 30
▁Dipl 30
▁Immig 30
▁Mutation 30
▁Psychiater 30
▁Teleskope 30
▁Mitternacht 30
▁MoMA 30
▁Skizzen 30
iertem 30
▁Tropen 30
spruch 30
▁angeben 30
▁klinge 30
▁Beweg 30
erkennen 30
▁Mysterium 30
konfl 30
▁widersprüch 30
▁leichten 30
▁testeten 30
▁Erdn 30
▁Patientin 30
▁Provinz 30
▁kompletten 30
ehlen 30
Schrift 30
werker 30
Fir 30
▁Lachs 30
▁Museen 30
▁betrunken 30
ittern 30
▁AT 30
▁MO 30
▁Einschränkung 30
ancen 30
▁Anforderungen 30
pal 30
▁überwacht 30
▁Bangalore 30
schränken 30
omm 30
▁Bauchspeicheld 30
ördern 30
▁Nadeln 30
▁Cyberk 30
4- 30
▁schwul 30
rüsen 30
▁Arduino 30
▁NSA 30
oney 29
nachrichten 29
Emissionen 29
▁Vorstand 29
anor 29
▁entmut 29
▁lokaler 29
▁passte 29
onte 29
▁Armuts 29
▁Konsens 29
▁Glob 29
▁Är 29
▁Dokt 29
ehmt 29
▁ter 29
▁Russen 29
▁bereitstellen 29
▁Apollo 29
gelder 29
▁gewiss 29
▁Notizen 29
konzept 29
▁Cat 29
▁erwarte 29
Leute 29
▁reduz 29
▁sequenz 29
ographische 29
▁Ult 29
▁jeweiligen 29
cus 29
▁Polymer 29
▁ethischen 29
▁Broad 29
▁geliefert 29
packt 29
Par 29
▁Listen 29
▁Willkommen 29
▁drahtlose 29
Wor 29
kamera 29
▁diskut 29
IA 29
partner 29
▁Bemerk 29
emente 29
▁Abschied 29
aller 29
▁verlegen 29
ume 29
genie 29
wachs 29
ourcen 29
▁gekostet 29
▁externe 29
▁hiervon 29
▁Vogelgrippe 29
▁kürzer 29
zuhalten 29
▁Lebensweise 29
▁kön 29
▁begrüßen 29
▁uh 29
liebe 29
▁unausweich 29
▁antwortet 29
▁reist 29
herrschaft 29
Vielleicht 29
wirkungen 29
▁merkwür 29
▁hattest 29
▁gewartet 29
▁Besprech 29
▁Klienten 29
▁Portugal 29
▁improv 29
▁Ausdrucks 29
langt 29
▁Lastwagen 29
uan 29
▁besprechen 29
▁hol 29
▁sexuellen 29
cin 29
▁vermehren 29
▁manipuliert 29
aron 29
▁Mineralien 29
▁96 29
▁holt 29
▁evolutionäre 29
▁Nett 29
▁fasst 29
▁Organis 29
▁langfristigen 29
▁spezifisch 29
▁Rü 29
uld 29
▁Unterschieden 29
▁Spaghetti 29
▁Breite 29
▁Hosen 29
▁stimul 29
▁öffentliches 29
▁gesundes 29
▁Kuba 29
anzig 29
▁Marihuana 29
▁zufälligen 29
▁Acker 29
lichere 29
rüstung 29
▁entfernte 29
ferenzen 29
▁Jungfrau 29
▁eBay 29
▁Abbild 29
▁Digit 29
med 29
▁les 29
▁rechtliche 29
▁Bestimm 29
▁Instinkt 29
fi 29
izität 29
▁laufe 29
▁einfachsten 29
▁Koffer 29
▁Künst 29
▁genossen 29
▁Umfragen 29
▁berü 29
amerikan 29
▁örtliche 29
nehmer 29
▁hohes 29
▁stiegen 29
▁jüngsten 29
▁vorm 29
▁Pillen 29
ören 29
▁Sehn 29
große 29
gefü 29
unehmen 29
▁Netzwerks 29
agent 29
▁Galerie 29
aschine 29
alent 29
▁gleicher 29
▁Ord 29
▁immerhin 29
▁Nennen 29
▁kompeten 29
agd 29
▁äußere 29
▁Morgens 29
Ad 29
▁freiwill 29
orger 29
▁Lama 29
▁Mön 29
▁sollst 29
▁herauskam 29
wach 29
▁trennt 29
lag 29
▁Fav 29
▁Lat 29
ices 29
▁Lizenz 29
▁Deut 29
▁monat 29
▁deutsche 29
▁Aktionen 29
▁Neutr 29
imme 29
▁zusamm 29
▁überprü 29
immung 29
Beh 29
▁technologischen 29
▁Rechenleistung 29
▁deutschen 29
▁blockieren 29
bevölkerung 29
▁verwei 29
▁grausam 29
▁Ereignissen 29
▁Fortschritts 29
iatrie 29
▁übliche 29
▁gefr 29
▁Quell 29
▁Verschw 29
▁Meeren 29
▁Drachen 29
▁gegenseitige 29
sser 29
bchen 29
▁Staates 29
▁klatschen 29
▁zufolge 29
vertreter 29
▁Landung 29
▁gegenwärtige 29
popul 29
▁Wandels 29
▁voraussagen 29
▁starren 29
▁Faden 29
methoden 29
ria 29
▁astronom 29
▁subjekt 29
▁Chirurgie 29
▁Nik 29
▁grosser 29
bereiche 29
▁kompon 29
▁musikal 29
▁versteh 29
leun 29
ulare 29
▁mechanische 29
▁Sensor 29
▁Mex 29
vieren 29
▁aggressiv 29
king 29
▁unab 29
▁Barrel 29
▁spart 29
▁beseitigt 29
▁Nat 29
▁Sack 29
▁Erträge 29
ussten 29
üpf 29
▁flücht 29
▁stürzen 29
▁Zut 29
eißen 29
▁Peking 29
▁Portrait 29
orm 29
stadium 29
▁Pist 29
flanz 29
▁med 29
▁medizinischer 29
▁ausgerottet 29
▁Versorg 29
▁Ron 29
▁Spanisch 29
würdigkeit 29
▁extremen 29
▁Wissenschaften 29
▁Neuer 29
▁Nochmal 29
▁stützen 29
▁Buddh 29
geschn 29
▁genial 29
▁Strat 29
▁überwältigend 29
ruhen 29
mischen 29
▁Tö 29
ichere 29
▁fremd 29
schlägt 29
▁Geldes 29
▁Zukunfts 29
▁opfern 29
inie 29
ologischer 29
▁ergänzen 29
▁spirituellen 29
leistungs 29
▁dynamische 29
▁rechtfertigen 29
▁Fell 29
sphase 29
▁simpel 29
Gener 29
aktionen 29
▁3- 29
ßend 29
lief 29
▁Säugetieren 29
schützer 29
reicher 29
▁Rassismus 29
geborenen 29
▁Latein 29
▁Befreiung 29
iftung 29
▁inneh 29
Einkommen 29
iving 29
▁Herzens 29
▁Wisst 29
▁schaffe 29
▁Leone 29
▁Unge 29
▁weinte 29
▁Set 29
▁Football 29
stimmt 29
▁Mittelschicht 29
▁ID 29
▁verabschieden 29
▁Schä 29
▁Vorlesungen 29
▁betrügen 29
läuf 29
utet 29
stat 29
▁erziehen 29
▁Central 29
▁Lee 29
▁Szenen 29
▁Trommel 29
schütter 29
instr 29
wohnen 29
▁Zul 29
beten 29
▁Ähnlich 29
▁Jill 29
aufwärts 29
▁vir 29
▁Zufl 29
▁Läden 29
bä 29
ye 29
ausbildung 29
▁verwurz 29
▁Larven 29
▁offener 29
▁Rang 29
blätter 29
▁PowerPoint 29
▁Röhren 29
▁empfindlich 29
Fil 29
▁Krokod 29
hunder 29
Bomben 29
▁gleicht 29
▁Crow 29
▁Daraufhin 29
▁inspirierte 29
▁organischen 29
▁Versuchung 29
vey 29
▁verdeutlichen 29
ffel 29
▁Palästina 29
Hand 29
▁abgelegenen 29
▁Kapitän 29
▁Laun 29
▁beschränken 29
▁beschäd 29
hmt 29
▁zü 29
▁operieren 29
▁Anbau 29
▁Krieger 29
▁Selbstwert 29
bio 29
rochen 29
▁erzähl 29
▁konst 29
▁Kette 29
▁Gesichtern 29
▁Verträge 29
wohnheiten 29
biert 29
▁Köder 29
▁Joshua 29
sprogramme 29
▁Variation 29
▁Emily 29
wale 29
äug 29
▁Alten 29
flex 29
▁Wach 29
▁Zensur 29
▁Nathan 29
▁Erfassung 29
▁Interviewer 29
▁Edinburgh 29
▁Neurogenese 29
▁Lagos 28
▁ultim 28
▁bast 28
mitglied 28
ernährung 28
▁Kör 28
▁Tyrann 28
▁seltene 28
▁Näch 28
▁Index 28
anien 28
▁ägypt 28
▁Weltw 28
▁Berat 28
▁Hemd 28
▁kommerzielle 28
▁allerersten 28
▁russischen 28
▁kommerziellen 28
▁Zorn 28
▁Bildhauer 28
▁reproduzieren 28
▁umgeht 28
reift 28
▁Blue 28
▁Nächsten 28
Ph 28
▁Vegas 28
sieht 28
▁seither 28
▁ausgehend 28
▁Path 28
▁entschlüsseln 28
nicht 28
oxid 28
▁Größenordnungen 28
▁Warnung 28
▁Scherz 28
inal 28
▁Beit 28
grade 28
▁beschweren 28
▁deprimiert 28
älte 28
▁ran 28
▁Unterhaltungs 28
inos 28
▁Szenarien 28
klus 28
stür 28
▁beobachteten 28
auert 28
▁heilige 28
▁Begegnung 28
▁breiter 28
▁Stühle 28
▁Gestern 28
▁Pfer 28
Stunden 28
▁praktizieren 28
▁traditionell 28
▁multin 28
ähmen 28
▁spürte 28
▁Physiologie 28
▁Hypothesen 28
gerlich 28
straßen 28
▁Blutgefäße 28
▁RS 28
▁unwohl 28
▁gewöhn 28
▁reinigen 28
▁Grav 28
▁fixiert 28
▁erhöhten 28
▁mittlere 28
▁empfehlen 28
▁ausgesucht 28
beit 28
▁plan 28
National 28
▁ähnlicher 28
▁gestoppt 28
gestalten 28
▁Solarzelle 28
▁Poly 28
eilchen 28
▁Unterbrech 28
Version 28
▁Fert 28
▁geheime 28
▁günstiger 28
wände 28
▁Süß 28
▁Wurm 28
▁einzut 28
▁zir 28
nest 28
entzündung 28
spüren 28
▁Gesam 28
tzahl 28
▁wechselt 28
▁Frösche 28
rinde 28
▁vertrieben 28
andeln 28
ragte 28
▁lebendige 28
▁Ausge 28
pläne 28
▁kontrollierte 28
ankungen 28
▁Orangen 28
▁Hypot 28
▁Amts 28
▁anfühlen 28
▁Rä 28
▁Verf 28
▁bez 28
▁bewerben 28
▁erwarteten 28
▁erfreut 28
▁unerwartet 28
▁geniale 28
▁auftauchte 28
▁mass 28
ramme 28
▁regionale 28
isiko 28
▁erhoben 28
▁Scheiße 28
▁aufpassen 28
kindern 28
▁Heilmittel 28
▁tödlichen 28
▁arch 28
▁unges 28
fehler 28
stellern 28
▁schnitt 28
▁Keith 28
▁konzept 28
▁fortfahren 28
iers 28
läu 28
▁kommuniziert 28
igungs 28
▁Paradies 28
nungen 28
spann 28
▁Arbei 28
▁erstellte 28
▁Kalten 28
schafft 28
▁Begrün 28
▁atom 28
▁NGOs 28
weich 28
gewinnung 28
▁Auftreten 28
▁fünften 28
cover 28
▁tanz 28
▁Peru 28
▁unerwar 28
mechanismus 28
lernte 28
▁patent 28
bul 28
▁Expansion 28
▁Plast 28
▁Versicherung 28
▁großzüg 28
arta 28
▁gewannen 28
▁verbundenen 28
▁Mix 28
Webs 28
▁absurd 28
▁Beschleunigung 28
abt 28
ller 28
▁Schaltkreis 28
▁Börsen 28
▁Kollaps 28
▁Volumen 28
hirn 28
▁Säu 28
▁Sign 28
plos 28
▁zö 28
▁lächer 28
▁entsprechende 28
▁vorherzusagen 28
▁Lebensdauer 28
▁positiver 28
▁engagiert 28
▁Ann 28
▁übergeben 28
▁verga 28
▁Fusion 28
verfolgen 28
▁Unten 28
fein 28
örtlich 28
umpt 28
▁zerstör 28
▁Ausrottung 28
▁Ster 28
▁Kästchen 28
▁schalten 28
▁beruhen 28
▁Beispielsweise 28
▁explodieren 28
▁greifbar 28
tu 28
▁schlag 28
▁autonome 28
▁mechan 28
flogen 28
chron 28
▁Halte 28
▁import 28
ehlt 28
fahrzeug 28
sprechend 28
eigert 28
ivile 28
▁Raten 28
arbeitete 28
gehörigkeit 28
ikatoren 28
▁flo 28
▁versammeln 28
▁Install 28
aktive 28
verhältnisse 28
▁Afr 28
raining 28
▁Wettbewer 28
▁Kanad 28
▁ablehnen 28
▁Ursprün 28
▁Gärten 28
kammer 28
schwung 28
etrie 28
wertet 28
▁Kopfschmerzen 28
▁Aller 28
▁Diplomat 28
▁Immun 28
schicken 28
▁fe 28
▁Barmherzigkeit 28
▁Unglaub 28
▁wack 28
▁intellektu 28
▁erfanden 28
gru 28
griffe 28
▁hung 28
▁Moskiton 28
wäsche 28
▁Vorhaben 28
ässig 28
Tag 28
▁dokument 28
utzer 28
▁problem 28
▁hübsch 28
ästh 28
▁angehalten 28
rust 28
hemen 28
▁Kürzlich 28
▁unschuldig 28
▁irren 28
▁Zeugs 28
▁Beachtung 28
▁wahres 28
pert 28
setze 28
▁Kollision 28
▁Zeitraffer 28
▁Dänemark 28
▁faul 28
dustri 28
▁UNO 28
▁bar 28
▁drittes 28
▁Dunkeln 28
oos 28
▁Gesang 28
▁Schmetter 28
▁Stoß 28
▁Fakultät 28
rekord 28
▁zerstörer 28
▁Halten 28
▁Obdach 28
gefähr 28
stuhl 28
▁Zivilisten 28
▁Vie 28
agn 28
wählen 28
amente 28
Weil 28
▁Bist 28
▁glatt 28
oi 28
zusetzen 28
▁emotion 28
▁Nov 28
etter 28
▁OECD 28
▁Bruttoinland 28
sprodukt 28
▁Schatz 28
allappen 28
Ah 28
ington 28
▁hilf 28
▁chaotisch 28
▁Käfig 28
▁wagen 28
▁massiv 28
gender 28
▁vernichten 28
afe 28
▁Kathedr 28
▁Urban 28
izip 28
▁wiegen 28
▁Diego 28
▁nähert 28
▁Lind 28
▁erhöhte 28
Afrika 28
▁bestehenden 28
▁Vergleichen 28
▁Abgrund 28
üster 28
▁Ultraschall 28
▁Gefühls 28
iversum 28
▁Seltsam 28
▁rekrut 28
ikanische 28
wuchs 28
▁herrschen 28
▁Befehle 28
▁Anekd 28
▁Börse 28
öhnen 28
▁Kanäle 28
▁wegnehmen 28
▁Artef 28
▁Konzentr 28
▁gebl 28
ysen 28
▁Milchstraße 28
atorium 28
▁schloss 28
attent 28
▁Seen 28
▁holten 28
è 28
teleskop 28
▁Zusammensetzung 28
▁Zwie 28
▁Strang 28
▁Reflekt 28
▁Dicht 28
ktive 28
fiz 28
▁andauernd 28
▁str 28
▁Schlä 28
▁Geck 28
▁empor 28
ups 28
▁Princeton 28
zz 28
▁Mik 28
▁Bud 28
▁lehnte 28
irur 28
vorstellungen 28
▁Carnegie 28
▁Angeb 28
▁Nektar 28
▁verabschie 28
▁Goliath 28
▁Barrieren 28
isation 28
▁internationaler 28
▁Beob 28
ständigkeit 28
▁Libyen 28
▁verzwei 28
▁Lebensräume 28
▁Brokkoli 28
▁Säule 28
▁Helm 28
▁Beutel 28
▁Kolumb 28
▁Wolfram 28
▁CP 28
▁erschreckend 28
geordnete 28
▁Ehr 28
▁Bewertungen 28
riminierung 28
▁Isolation 28
▁fettleib 28
vögel 28
mangel 28
▁Bast 28
▁Kontinu 28
▁Fluktu 28
▁Imker 28
▁Reichen 28
▁Tasse 28
erkennung 28
sparungen 28
▁Marathon 28
usp 28
▁Kiribati 28
▁Coch 28
▁Apps 28
▁YR 28
▁sen 27
▁landeten 27
▁betrat 27
▁Len 27
neu 27
▁erwerben 27
imal 27
▁abhalten 27
▁Remix 27
▁geschlossenen 27
▁MI 27
▁komprim 27
stest 27
▁Eben 27
▁perfektes 27
▁WI 27
Des 27
▁Vorschläge 27
▁auszubilden 27
▁Analpha 27
▁Wohltätigkeits 27
▁höherer 27
▁hundertt 27
▁Hotels 27
▁betreibt 27
▁Innern 27
ennte 27
▁Handgelenk 27
▁Bruch 27
▁unabhängigen 27
▁rech 27
▁liebst 27
ennten 27
richtig 27
▁Cro 27
▁Räder 27
organismen 27
▁reisten 27
erten 27
ravio 27
▁Gesamtheit 27
▁1995 27
ahll 27
▁zusammengesetzt 27
▁ernährt 27
önen 27
▁Alarm 27
oppel 27
▁technischer 27
▁längst 27
ähler 27
▁idealen 27
▁angelegt 27
attform 27
stücken 27
▁wohnt 27
▁Mitarbeitern 27
▁Stockwerke 27
helfen 27
klang 27
▁interess 27
ettbewerb 27
▁fielen 27
▁geriet 27
▁Präsenz 27
▁bräuchte 27
▁veran 27
▁beeindrucken 27
▁sauberes 27
▁rest 27
▁Prostatakrebs 27
▁Salat 27
▁Lebensmitteln 27
▁mächtigen 27
Konferenz 27
▁Schimpanse 27
▁Orang 27
ügel 27
▁küssen 27
drungen 27
▁dreck 27
▁giftigen 27
▁fröhlich 27
▁zurückbringen 27
▁versprochen 27
▁passiv 27
▁naiv 27
chteten 27
▁verlegt 27
schle 27
ged 27
▁ertragen 27
regung 27
▁Psyche 27
ulation 27
äufig 27
▁Orgasmus 27
▁Periode 27
▁Kerle 27
eignete 27
reger 27
▁bearbeitet 27
▁Nanotechnologie 27
▁aufbaut 27
bstoff 27
▁Spinn 27
gesteuer 27
▁Danny 27
leib 27
▁täten 27
istor 27
▁wiederbele 27
kurve 27
▁Durcheinander 27
▁erz 27
▁herz 27
ienst 27
▁Blogger 27
▁Ferien 27
Preis 27
ures 27
▁Ban 27
▁Mittlerweile 27
▁Erschein 27
beine 27
oleranz 27
▁Wieviele 27
▁hü 27
▁Bibliot 27
▁verbieten 27
▁Seelen 27
eulen 27
ießt 27
▁anschaue 27
▁Unglaublich 27
▁Moderne 27
kelett 27
▁gr 27
▁Teleg 27
▁Zeich 27
▁Franzosen 27
▁betrug 27
▁funktionierten 27
▁Säugl 27
▁verärgert 27
▁Märchen 27
ront 27
▁Punk 27
▁bewege 27
▁schnellste 27
twicklung 27
▁Dorfes 27
▁Klimaanlage 27
▁Plakat 27
icket 27
essel 27
▁wählte 27
▁vorherrschen 27
▁hinausgehen 27
▁Schlachtfeld 27
▁Sad 27
handlungen 27
▁Kub 27
SA 27
oster 27
▁Integration 27
▁Flexibilität 27
▁Francis 27
▁Cr 27
▁Franklin 27
▁RNA 27
▁Überprü 27
▁Nairobi 27
▁serv 27
▁Zaun 27
ratzen 27
▁illegalen 27
▁hie 27
okal 27
verhältnis 27
äle 27
▁Ente 27
▁Ausrichtung 27
▁sonderlich 27
denz 27
▁Atomkraft 27
▁Massachusetts 27
▁hervorzubringen 27
▁Entwickler 27
▁olymp 27
kennung 27
fährt 27
förmig 27
Lasst 27
Ok 27
▁Unrecht 27
ummer 27
▁fremden 27
▁Asteroid 27
▁Wol 27
▁mitein 27
aul 27
▁elektron 27
kos 27
ota 27
▁Royal 27
iessen 27
▁Stimul 27
▁unvorstellbar 27
▁ethische 27
▁wahrsten 27
ölz 27
gungen 27
▁stür 27
▁Zunahme 27
▁vorstellt 27
fertig 27
phil 27
▁Roger 27
▁simpl 27
▁Korre 27
macher 27
▁Sprech 27
▁Weit 27
istan 27
umente 27
intens 27
effizien 27
▁auswirken 27
▁erzielt 27
▁Dächer 27
äht 27
▁missbraucht 27
▁umfassende 27
▁Funken 27
basierten 27
▁überlegte 27
▁Pennsylvania 27
▁Genuss 27
▁Deng 27
▁richtiger 27
▁Ba 27
▁Schiffen 27
▁Dia 27
▁verläss 27
▁Stimulation 27
▁Donner 27
▁albern 27
▁Manifest 27
olen 27
▁großzügig 27
ritter 27
▁Diagramme 27
▁fürchter 27
▁Himalaya 27
awa 27
▁Produzenten 27
▁Westküste 27
▁Kirchen 27
▁behaup 27
400 27
▁Chin 27
sä 27
▁unaus 27
▁Fertigkeiten 27
▁Schienen 27
▁Cop 27
inas 27
▁erstaunliches 27
▁auslö 27
zoomen 27
▁Privatleben 27
▁Unterhalt 27
-2 27
▁tauchten 27
▁Carol 27
OK 27
monat 27
▁Schlafen 27
▁Songs 27
platte 27
terung 27
▁Finnland 27
▁Brem 27
▁metap 27
▁Ablenk 27
▁Deutschen 27
▁seri 27
▁Aufl 27
▁Dist 27
▁Becken 27
▁Nimm 27
▁Kir 27
schungs 27
endung 27
▁optische 27
ifizierte 27
▁Bedeutungen 27
100 27
▁ständigen 27
▁tagsüber 27
▁Nächte 27
▁Frequenzen 27
▁Hunderttausende 27
▁Handvoll 27
kosystemen 27
▁Amerikan 27
▁Heroin 27
mütter 27
▁Tuberkulose 27
üben 27
zügigkeit 27
▁perfektion 27
ährung 27
verwaltung 27
▁kathol 27
erz 27
▁Nasen 27
▁Dog 27
▁Schande 27
▁Browser 27
▁tanzt 27
▁Sem 27
▁warfen 27
▁zerstörte 27
iness 27
▁fordere 27
▁rennt 27
▁arabische 27
▁Warren 27
▁Übert 27
▁Grammatik 27
▁Weißt 27
▁Entschul 27
▁berühr 27
▁glänzen 27
Studenten 27
gehalt 27
▁engen 27
ente 27
diges 27
▁Get 27
▁Waschmaschine 27
stisch 27
▁Johnny 27
▁ES 27
ehrer 27
▁Schöpfer 27
mädchen 27
▁Full 27
▁öl 27
Universität 27
▁Maria 27
ieden 27
▁bloße 27
lehrer 27
▁langem 27
▁konzip 27
handels 27
▁Scanner 27
▁Bohr 27
▁lehr 27
▁Quallen 27
▁Thunfische 27
▁Partnerschaften 27
hörigen 27
▁infolge 27
▁angelangt 27
▁nationaler 27
▁Präzision 27
▁kümmerte 27
▁Schlussendlich 27
▁Entfernungen 27
▁Sonde 27
▁Autonomie 27
stap 27
▁Körpersprache 27
ßte 27
▁effektive 27
bekämpfung 27
skrankheiten 27
▁rekonstruieren 27
fekt 27
gerungen 27
▁objekt 27
▁herumlaufen 27
sphäre 27
▁Abhandlung 27
▁Ostafrika 27
▁nä 27
studenten 27
sichtlich 27
▁app 27
▁Cur 27
▁Transa 27
▁vorgeht 27
üttelt 27
▁verwirrend 27
‟ 27
▁Orientierung 27
üft 27
▁Can 27
achteil 27
▁Zir 27
▁molekul 27
▁Mater 27
ckchen 27
▁eindrucks 27
▁Lähmung 27
▁luden 27
▁ener 27
▁regelrecht 27
find 27
ipl 27
▁Schoß 27
ingo 27
▁kur 27
▁simple 27
itur 27
▁Misch 27
▁Fahrten 27
▁TEDTalk 27
rone 27
Studie 27
▁disk 27
▁überraschte 27
▁Parameter 27
but 27
▁DJ 27
▁genet 27
itar 27
hälfte 27
mikro 27
▁Augenb 27
▁Überlebenden 27
▁Gefäß 27
oparden 27
▁wöch 27
▁Bron 27
amma 27
▁Stopp 27
▁freigesetzt 27
▁Urin 27
▁Erlebnisse 27
▁Zähnen 27
▁Authentizität 27
▁JC 27
waschen 27
▁Propaganda 27
▁Fib 27
▁Saurier 27
Gay 27
▁Force 26
▁Wiederholung 26
rechten 26
▁politisches 26
rategien 26
ampag 26
▁AS 26
▁begründet 26
hinter 26
▁Hop 26
▁Teils 26
▁110 26
▁86 26
▁sorgte 26
▁aufrechter 26
ixt 26
▁leite 26
▁Ticket 26
▁BMW 26
stausch 26
achter 26
▁loszu 26
▁Steck 26
arität 26
▁Bewertung 26
zepten 26
▁einhundert 26
▁synthetische 26
▁Transp 26
▁erweiterte 26
▁ansteckend 26
▁Strahlen 26
astung 26
▁Abbau 26
feldern 26
▁Enzy 26
▁Gesetzes 26
eitungen 26
▁Schleife 26
▁angezeigt 26
adox 26
kons 26
▁allererste 26
▁festgelegt 26
▁gescheitert 26
▁1997 26
▁problematisch 26
▁KA 26
Arch 26
▁freut 26
▁Wunde 26
▁Liz 26
▁ren 26
▁ermitteln 26
male 26
▁Vereinbarung 26
gäng 26
▁Fahrräder 26
yo 26
▁Akzeptanz 26
▁dichten 26
▁Lithium 26
▁Französisch 26
▁Kot 26
bart 26
▁körper 26
▁missb 26
▁Sho 26
▁durchbrechen 26
▁Toronto 26
▁direk 26
Wei 26
gehenden 26
vest 26
spannen 26
▁Santa 26
▁dauer 26
▁reichhalt 26
▁Simon 26
▁Sek 26
▁Bucht 26
würd 26
▁Warten 26
onica 26
Alles 26
!", 26
▁sc 26
▁Emotion 26
▁Mythen 26
80 26
▁kehren 26
▁unterdrückt 26
ätsel 26
▁illustr 26
▁MR 26
▁Bow 26
eignet 26
▁Kie 26
▁Brennstoffen 26
▁Grüne 26
▁grüner 26
▁Bruce 26
spiels 26
tier 26
▁heut 26
▁Pian 26
▁van 26
idd 26
ürz 26
aft 26
üsseln 26
▁Gerichts 26
▁wußte 26
winkel 26
▁geschaut 26
▁gewusst 26
halts 26
▁erwähnten 26
▁Behauptungen 26
▁aufzeichnen 26
▁solltest 26
▁Fäl 26
▁Illusionen 26
▁gefäl 26
wesend 26
▁Kerzen 26
mte 26
öcken 26
gner 26
ücher 26
▁lü 26
▁SIe 26
▁beständig 26
▁Insbesondere 26
▁Barriere 26
▁Kyoto 26
wendungen 26
schlafen 26
▁Lüge 26
aufl 26
Karte 26
▁beschäftige 26
▁Main 26
▁hartnäck 26
lehre 26
▁Kunstwerke 26
▁brandneu 26
▁Treppen 26
ston 26
angst 26
ideo 26
▁Schwach 26
medien 26
▁übrigen 26
▁Cra 26
▁rettete 26
▁festgehalten 26
▁Freundschaft 26
appy 26
verkauf 26
▁schießt 26
▁Schmuck 26
digten 26
▁Autounfall 26
▁Variablen 26
▁anerkannt 26
rash 26
▁durchdringen 26
▁Verhandlung 26
▁bezahlte 26
ssch 26
▁1994 26
iral 26
▁Kleinen 26
waffe 26
▁Daran 26
▁Schwächen 26
unkten 26
▁Argentinien 26
▁Sudan 26
einsatz 26
▁Anschluss 26
▁befragt 26
▁Nepal 26
▁Tibet 26
▁fotografierte 26
▁indigen 26
ochem 26
▁ehemaligen 26
rence 26
mete 26
▁wohingegen 26
händer 26
Schl 26
Gr 26
▁Bereit 26
▁formal 26
▁aufget 26
▁Flüss 26
▁Hipp 26
elbst 26
▁exponent 26
▁Gliedmaßen 26
▁Beobachter 26
einert 26
▁Intel 26
▁unvorher 26
▁Billion 26
gebildet 26
▁Revolutionen 26
▁Schritten 26
ffekte 26
▁schweigen 26
ession 26
▁typischerweise 26
knochen 26
▁Flammen 26
▁Säugetier 26
▁hüpfen 26
▁staat 26
drom 26
▁Bri 26
ontainer 26
here 26
kart 26
▁Kick 26
▁Connect 26
▁vibr 26
▁gerät 26
▁Beein 26
▁Ärmel 26
jahren 26
ströme 26
▁verkörpert 26
▁reichlich 26
▁Theor 26
▁Vorzüge 26
▁Kopien 26
▁nachdenke 26
▁Hochhaus 26
uns 26
▁andern 26
ffent 26
▁Fo 26
ifte 26
▁ungeachtet 26
spektive 26
▁zufäll 26
ilt 26
▁Agent 26
▁53 26
▁pre 26
▁Gemeinschafts 26
▁Cher 26
ographen 26
▁Val 26
▁erschließen 26
▁Implant 26
▁Stillstand 26
▁Migräne 26
▁Impulse 26
ingenieur 26
▁amerikan 26
▁Kleid 26
▁Ehem 26
reichende 26
▁Albt 26
▁aussahen 26
▁umkehren 26
gewinnen 26
izz 26
hältnis 26
▁kümmer 26
apper 26
dehnung 26
▁Einerseits 26
▁verheer 26
▁AK 26
▁erschwinglich 26
▁Pic 26
▁AD 26
▁stör 26
▁griff 26
▁Relation 26
▁Verlierer 26
▁Zy 26
▁gewöhnen 26
▁Mur 26
▁Wozu 26
▁Wende 26
aa 26
▁Zeitungs 26
▁Spann 26
▁verschicken 26
▁Weniger 26
alin 26
▁Spannungen 26
▁gegenüberstehen 26
▁Industriel 26
▁dichter 26
ädagog 26
Video 26
ständiges 26
ünkt 26
▁auszugeben 26
▁Bonobos 26
ardo 26
▁professionellen 26
▁Täu 26
▁angeordnet 26
ibt 26
▁zurückgeht 26
netzwerk 26
▁verschwendet 26
▁Flusses 26
▁fortw 26
▁radio 26
▁Bosnien 26
▁Zeuge 26
▁Somalia 26
ungsvoll 26
▁gefeiert 26
▁Hubschrauber 26
▁Spreng 26
▁realistisch 26
▁ausländische 26
azif 26
Star 26
▁Konto 26
▁Idiot 26
Chr 26
ärmt 26
ehrte 26
▁Toll 26
▁schwed 26
▁Osteuropa 26
lp 26
wörtern 26
▁Zustimmung 26
örder 26
▁bekommst 26
eiste 26
▁Bündel 26
▁Straft 26
▁Hoden 26
eiert 26
▁entführt 26
▁Lotter 26
atür 26
▁sort 26
▁Teilnehmern 26
▁graf 26
▁bedeutenden 26
büro 26
▁mathematisches 26
Keine 26
▁Spott 26
▁Gewissheit 26
▁schwar 26
▁bewir 26
Mus 26
▁expliz 26
▁Sound 26
▁jün 26
km 26
streit 26
suche 26
eisten 26
lied 26
schir 26
▁Eisenbahn 26
strahlt 26
konsum 26
örungen 26
Maschinen 26
▁Aquarium 26
▁Sympt 26
▁konstant 26
▁Raubtier 26
Men 26
▁Momentan 26
▁umfang 26
arische 26
▁Lok 26
ith 26
▁extrahieren 26
▁Pittsburgh 26
Können 26
▁beunruhigen 26
▁ethnische 26
▁Sexualität 26
omt 26
▁Sim 26
ünder 26
▁wasser 26
▁unschul 26
▁Elfen 26
▁Dürre 26
▁Soziale 26
rahmen 26
▁Namibia 26
▁zweifellos 26
stütz 26
▁friedlich 26
▁Lebenslied 26
ländern 26
zeichneten 26
▁Ellen 26
Sk 26
ç 26
▁dutzende 26
gedanke 26
akteure 26
▁Kernkraft 26
udert 26
▁Tabelle 26
Wieso 26
Komp 26
geordneten 26
▁Films 26
▁detailliert 26
▁1- 26
▁auszutauschen 26
▁verkünden 26
▁Älteren 26
▁beiträgt 26
echter 26
üste 26
▁Führungspersön 26
▁Lob 26
▁Betrüger 26
lernen 26
▁Abwesenheit 26
▁Philip 26
▁Voraussetzung 26
▁Altruismus 26
Eng 26
▁Mes 26
▁Kisten 26
uit 26
▁Sportler 26
stitution 26
▁Galerien 26
orth 26
▁garant 26
▁Schweiß 26
▁Zip 26
▁verbrei 26
▁Tierarten 26
osexu 26
▁zens 26
machte 26
▁Gä 26
▁Karikaturen 26
▁sugger 26
▁Stringtheorie 26
▁gezü 26
▁computer 26
▁anpassungs 26
▁Eiweiß 26
▁Ner 26
isseur 26
räften 26
▁sprit 26
▁Blutdruck 26
▁Vergewaltigung 26
▁Kore 26
▁Lebensjahr 26
▁Anziehungskraft 26
▁Testosteron 26
▁Feuchtigkeit 26
▁trieb 26
▁Belohnungen 26
▁Inform 26
schlossenheit 26
▁Uran 26
▁verur 26
▁Symphonie 26
blik 26
▁Athleten 26
irgt 26
gesteuerte 26
▁Spektro 26
agin 26
besitzer 26
▁Genesung 26
▁Report 26
▁Falken 26
▁Ushahidi 26
▁Süßwasser 26
▁Liberia 26
▁Protozellen 26
▁Mov 26
▁Schifffahrt 26
▁Bundesstaaten 26
zielgerät 26
▁Gehirnare 26
▁EDI 26
▁Doaa 26
▁gedruckt 25
▁ohnehin 25
▁fossile 25
▁Tipp 25
▁sauberer 25
▁stabilisieren 25
▁Corp 25
ttert 25
essour 25
ündet 25
▁traur 25
▁Korn 25
▁Zement 25
▁demokratischer 25
hnung 25
▁abges 25
▁Verwaltungs 25
▁Finanzen 25
ssta 25
▁Rote 25
▁Sputnik 25
▁änderten 25
modelle 25
▁abgebildet 25
sperson 25
▁designt 25
lösungen 25
▁Bran 25
▁Offenbarung 25
▁Hingabe 25
▁getr 25
▁grenzen 25
zusammen 25
▁zurückgelassen 25
▁Erwartung 25
▁Vok 25
▁hübsche 25
▁ungemein 25
▁blaues 25
▁Sequenzen 25
▁Betriebssystem 25
▁konzentrierten 25
▁künstliches 25
inson 25
paare 25
▁Bakter 25
▁Grem 25
▁hom 25
▁Ris 25
▁molekulare 25
▁vereinfachen 25
▁Meld 25
▁winziger 25
▁Word 25
▁Kult 25
▁fügte 25
zutragen 25
▁hierhin 25
▁Touristen 25
raktionen 25
▁Enthusiasmus 25
▁unfähig 25
ruppe 25
▁privat 25
erseits 25
mengen 25
▁Ewigkeit 25
schlug 25
▁nördlich 25
ösung 25
▁mechanischen 25
▁ökonom 25
▁Bem 25
▁durchqu 25
▁Bürgerst 25
▁Gre 25
▁Brie 25
iein 25
reife 25
▁Lady 25
▁blickt 25
▁häufigste 25
▁Pep 25
▁beleu 25
▁Lebensform 25
▁Term 25
hersteller 25
gereicht 25
rog 25
▁hochentwick 25
▁ängstlich 25
▁frühere 25
▁hoffnungslos 25
▁reise 25
zuteilen 25
▁gib 25
▁furchtbaren 25
▁Kalkstein 25
▁kennengelernt 25
▁Zellt 25
▁passten 25
▁elimin 25
▁kämen 25
großen 25
▁Ampel 25
▁FG 25
▁komment 25
▁getrunken 25
▁Stammbaum 25
▁wiederhol 25
listen 25
stru 25
fähigkeiten 25
abhängig 25
▁Amer 25
▁Antidepressiv 25
▁schreckliches 25
▁Japaner 25
▁Kalk 25
▁Kristall 25
▁Stop 25
klav 25
▁erfolgt 25
▁Barbar 25
izen 25
zym 25
▁Lös 25
▁regenerieren 25
schuh 25
▁Sumpf 25
hären 25
▁Irrtum 25
▁ausweiten 25
▁Ausw 25
ieller 25
zigern 25
▁dicke 25
freude 25
▁Konferenzen 25
gro 25
▁passend 25
vater 25
Geschichte 25
▁Ausdauer 25
▁Ehefrau 25
bteilung 25
▁Pas 25
▁Ringe 25
▁Kepler 25
▁Astronauten 25
▁Lerner 25
▁erschossen 25
▁Spring 25
▁Abteilung 25
▁Schuss 25
▁bestrafen 25
▁ausgeschlossen 25
▁digitalisieren 25
▁riesen 25
▁interaktive 25
▁Wide 25
▁Handlungs 25
▁Om 25
▁Cousins 25
▁oberfl 25
▁art 25
ändig 25
stitu 25
▁Lim 25
▁Maske 25
▁Ott 25
▁vermark 25
▁Enden 25
▁zahll 25
▁nützen 25
▁Fazit 25
smodell 25
räglich 25
▁Ähn 25
▁versus 25
▁unangen 25
▁furchtbare 25
▁befestigen 25
standard 25
▁schneidet 25
▁registriert 25
ändert 25
▁Zusammenhänge 25
gedächtnis 25
▁Fehlen 25
ennbar 25
▁realisiert 25
schaff 25
▁weswegen 25
usten 25
summen 25
▁verschafft 25
▁aust 25
▁versprechen 25
▁Außenminister 25
güter 25
▁Spielplatz 25
utzte 25
▁Tennis 25
▁Erleuchtung 25
▁angefertigt 25
ittelt 25
▁Stränge 25
untersuch 25
▁urbane 25
drängt 25
▁verkab 25
grat 25
▁Druckerpresse 25
▁rückgängig 25
▁geantwortet 25
▁begeister 25
▁exp 25
▁Paradigmen 25
▁stell 25
gnost 25
▁fortzu 25
▁vorhersehbar 25
▁Strecken 25
▁Zyklus 25
▁mo 25
▁Boom 25
▁Vereinigung 25
▁Rout 25
▁ökologisch 25
▁Verfügbarkeit 25
▁Langlebigkeit 25
▁beginnend 25
ustr 25
▁aggress 25
▁veraltet 25
▁löste 25
▁Schöpf 25
▁Tierwelt 25
▁Skype 25
▁kosmischen 25
▁Warn 25
▁Desaster 25
▁unkontroll 25
▁Pfleger 25
morgen 25
▁Prozed 25
▁verschiedensten 25
▁beauftragt 25
▁gespendet 25
▁Verst 25
Super 25
▁wertschätzen 25
ührung 25
ena 25
▁improvisieren 25
sky 25
▁Improvisation 25
▁dramatischen 25
▁Hawking 25
▁Zugegeben 25
▁Umwandlung 25
▁vernünft 25
▁tu 25
Licht 25
▁Menschsein 25
lebnis 25
▁fotograf 25
geg 25
▁Zuversicht 25
arbeiteten 25
etzen 25
▁Katrina 25
▁Orleans 25
▁geschahen 25
▁nachhaltiger 25
konstru 25
ässigen 25
▁phys 25
gängen 25
▁Migration 25
▁aufgezogen 25
▁Gesp 25
▁äußern 25
▁fin 25
inf 25
▁erleiden 25
▁Kard 25
egel 25
iep 25
▁Vorfall 25
▁Indianer 25
▁beschützt 25
ildet 25
▁150.000 25
▁verkündete 25
klären 25
▁Krankheits 25
▁Jerry 25
▁warme 25
dis 25
▁Einwohnern 25
bruchs 25
▁übertrag 25
zusagen 25
ites 25
▁Poten 25
▁Kompetenz 25
▁Great 25
▁Susan 25
▁geheimen 25
▁verschlossen 25
▁wanderte 25
▁sangen 25
▁Appl 25
punkten 25
▁Akadem 25
CO 25
▁Wurf 25
▁Publikums 25
▁Laboren 25
▁Schlaganfall 25
▁überwiegend 25
▁Englischen 25
▁Korrel 25
▁verlasse 25
▁Leere 25
▁gezahlt 25
viert 25
▁Erachtens 25
▁aufwachen 25
▁mächtigste 25
▁verkün 25
▁Sohnes 25
Shar 25
▁unabhäng 25
fit 25
▁hinteren 25
isha 25
werkzeug 25
▁Geräuschen 25
▁lecker 25
▁verwunder 25
▁Vorlesung 25
▁angenehme 25
▁austr 25
▁erhalte 25
▁auflösen 25
▁Überrasch 25
feln 25
▁popul 25
▁zugreifen 25
▁6, 25
lor 25
▁Anlass 25
▁Aben 25
▁Kriegen 25
▁ethnischen 25
▁Beck 25
▁Trü 25
▁Unterdrückung 25
▁lauten 25
▁TB 25
gänz 25
osis 25
▁schott 25
▁Sprichwort 25
▁umwerfen 25
▁erschöpft 25
ignal 25
▁seltsames 25
▁Erz 25
▁Verbundenheit 25
sende 25
unterschied 25
▁Moslem 25
▁Ged 25
Kein 25
tau 25
▁Fledermaus 25
▁Gänse 25
fecht 25
bracht 25
▁Akust 25
froren 25
▁elegant 25
Teilchen 25
▁Zonen 25
inte 25
▁ironisch 25
kreisen 25
▁Golden 25
▁jüdischen 25
▁Vorbilder 25
abb 25
▁Ehrfurcht 25
▁Schrei 25
▁Mythologie 25
▁konsumiert 25
ärchen 25
▁Josh 25
▁tox 25
liegt 25
▁gekennzeichnet 25
▁ausserhalb 25
Sind 25
▁Beetho 25
ürtel 25
▁führende 25
rep 25
stellbar 25
▁Turing 25
▁bohren 25
raht 25
▁stechen 25
attung 25
▁Fürsorge 25
▁Einkaufszentrum 25
▁Biok 25
▁buddh 25
▁Zie 25
▁Anwendungs 25
▁Korrid 25
▁Jun 25
▁Sonnenschein 25
▁betrogen 25
▁Schönes 25
▁Rehabilitation 25
▁homosexu 25
▁Sterbe 25
▁Nicole 25
fressen 25
▁paaren 25
schiedene 25
▁Schäden 25
▁Hubble 25
▁Pestizide 25
affe 25
elos 25
▁Führ 25
▁Lokal 25
▁Stipendium 25
▁konfront 25
▁Hochschule 25
▁Philanthropie 25
▁Kugeln 25
flos 25
imation 25
▁willkür 25
röhren 25
▁Mittelalter 25
sverletz 25
▁interagiert 25
▁zusätz 25
▁Bestechung 25
▁interpretiert 25
▁Trä 25
▁Roboters 25
▁Kaker 25
▁Ozon 25
▁abgelegen 25
horn 25
▁Gesprächen 25
▁Fen 25
ISA 25
ährend 25
funktionen 25
jagt 25
▁Einsichten 25
▁Psychologe 25
apier 25
spersonen 25
iegt 25
▁Lord 25
▁Eigent 25
ember 25
▁trank 25
▁telefon 25
▁Schwerpunkt 25
▁aufweist 25
▁Skal 25
faden 25
indert 25
▁Savanne 25
▁Biolumineszenz 25
underung 25
▁Europäer 25
▁Tesz 25
▁adopt 25
▁Check 25
gehirn 25
lings 25
▁Hurrikan 25
eichert 25
förmigen 25
ärten 25
▁zitieren 25
▁Dylan 25
Gesetz 25
örpern 25
▁drückte 25
falt 25
▁gutem 25
▁Piraten 25
lab 25
▁Präsidentschaft 25
▁erneuerbaren 25
bergs 25
rankenhaus 25
▁chinesisches 25
▁Übereinstimmung 25
▁Manipulation 25
imeter 25
ehnte 25
ibri 25
atar 25
nchen 25
liber 25
▁vermischen 25
osaurus 25
▁Töten 25
▁geheiratet 25
▁3: 25
▁Neandert 25
▁eintausend 25
algorit 25
▁Chop 25
▁ausschlaggeben 25
▁Dam 25
▁Nagel 25
aven 25
▁Wilder 25
▁Aufzug 25
▁merkwürdige 25
▁blinde 25
etisches 25
ahe 25
Macht 25
▁Sendungen 25
▁BL 25
aust 25
▁vermisst 25
figuration 25
rüse 25
▁Überwachungs 25
▁Reputation 25
▁Wohnwagen 25
katastrophe 25
▁Costa 25
▁zahlreichen 25
▁mechanisch 25
▁Finanzkrise 25
apfer 25
elas 25
▁flexibl 25
▁kognit 25
▁Knochenmark 25
▁Pfeifen 25
PTCHA 25
▁Lester 25
▁CRISPR 25
▁Nash 24
▁Tenn 24
▁Hybrid 24
▁unterhalt 24
▁Helfen 24
▁allerlei 24
▁Ertrag 24
▁ungeheure 24
pä 24
▁ö 24
gere 24
▁materiellen 24
▁immater 24
▁Dä 24
▁zerfallen 24
▁länd 24
▁innovativen 24
▁Mobil 24
▁beunruhigend 24
▁Vorschriften 24
zyklen 24
▁SR 24
▁leist 24
▁russ 24
▁derzeitige 24
▁Entdecker 24
sprü 24
▁Abweichung 24
Im 24
▁Intimität 24
▁Mitgliedern 24
▁Nachforschungen 24
▁Badezimmer 24
häuft 24
▁Quant 24
▁wahrer 24
▁Soweit 24
▁Codes 24
▁Aminos 24
▁Ham 24
▁Frag 24
▁Schriften 24
▁erlaubten 24
geräu 24
▁jährliche 24
▁packt 24
▁Knöpfe 24
▁Windows 24
▁neigt 24
▁Jeans 24
anteil 24
▁Speich 24
▁lade 24
▁Programms 24
▁mil 24
▁empfand 24
▁regeln 24
▁Miniatur 24
▁360 24
▁Eröffnung 24
▁tradition 24
▁zuverlässig 24
bewegt 24
▁Spaziergang 24
▁25.000 24
▁Herzleiden 24
▁Eingriffe 24
ET 24
Epidemie 24
▁bittet 24
▁nonverb 24
▁zuzugeben 24
▁eindringen 24
▁kultureller 24
▁scha 24
letz 24
▁Schrecken 24
Virus 24
▁Medic 24
leitet 24
▁abgestimmt 24
▁erfordern 24
▁einzustellen 24
zeln 24
atiker 24
▁Unterstütz 24
▁stu 24
undeutlich 24
abteilung 24
▁Hilf 24
▁eingebracht 24
ppt 24
▁Araber 24
▁doppelte 24
▁Journalismus 24
▁54 24
tre 24
▁Ehen 24
▁58 24
▁Zugehörigkeit 24
ffnung 24
▁Ast 24
▁vorgef 24
▁Verpackung 24
▁speichert 24
▁Jamie 24
schne 24
geregt 24
fischer 24
▁Stan 24
▁bestellen 24
▁Dek 24
▁loszuwerden 24
▁Freiheiten 24
ziger 24
▁auszuführen 24
flüss 24
▁Mediziner 24
▁125 24
▁Banjo 24
▁Sammeln 24
ragung 24
▁gegenseit 24
▁Betrug 24
zugs 24
▁Treffer 24
▁Skept 24
▁Gouverneur 24
▁zwe 24
▁Schwier 24
▁Kampagnen 24
ness 24
▁technologischer 24
▁anzusprechen 24
▁vernetzten 24
El 24
ID 24
▁eingebunden 24
▁Wieviel 24
▁Verschiebung 24
sprozesses 24
▁anklicken 24
▁Linux 24
▁kommerzie 24
sprozesse 24
▁navig 24
▁Proteinen 24
objekt 24
entr 24
äubt 24
eah 24
wendung 24
▁Apot 24
besp 24
▁Anzeigen 24
iese 24
▁verschickt 24
▁Todesstrafe 24
äuscht 24
osse 24
stem 24
▁Lohn 24
▁betritt 24
▁gratis 24
zusuchen 24
▁schen 24
▁Buff 24
▁überstehen 24
▁ziem 24
▁Hippocampus 24
spiegelt 24
▁Gymn 24
▁offenes 24
▁kombin 24
▁Freud 24
▁Letztlich 24
teren 24
▁drücke 24
▁gere 24
▁transp 24
gon 24
Herr 24
▁untergraben 24
asa 24
▁Anim 24
▁Motiv 24
▁Guatemala 24
▁Atheisten 24
▁Wil 24
Labor 24
DNA 24
▁Kibera 24
hahn 24
gebenheiten 24
▁herauf 24
▁diejenige 24
akteur 24
▁Enzyklopädie 24
▁Unternehmern 24
▁ausführ 24
▁muß 24
Film 24
messen 24
azi 24
▁schei 24
quent 24
übertragung 24
▁Aktu 24
▁beschleun 24
Lass 24
Revolution 24
iro 24
▁Schrau 24
▁mittler 24
▁folgender 24
▁befürchten 24
moral 24
▁unvermeidbar 24
▁Hygiene 24
▁Impl 24
▁Amph 24
play 24
▁Pixel 24
▁vorgehen 24
▁9. 24
▁Darwins 24
Ü 24
▁beispiell 24
▁kennenlernen 24
▁Rus 24
afel 24
▁Mobilfunk 24
▁Schiffs 24
▁beachtet 24
EA 24
▁Bisher 24
▁grösste 24
▁Hirns 24
▁Flow 24
Raum 24
ohnen 24
▁Bleistift 24
itations 24
▁bildete 24
physik 24
ichtungs 24
▁klugen 24
▁replizieren 24
▁separ 24
▁Julia 24
▁13. 24
▁Schilder 24
▁Ble 24
▁Arizona 24
▁Marktes 24
▁Sowohl 24
▁Grundsatz 24
faser 24
▁Thermo 24
▁Differenz 24
▁Prognosen 24
▁Insgesamt 24
▁größerer 24
▁Versicherungs 24
▁national 24
▁entwirft 24
▁beeinträchtigt 24
▁Stroh 24
lob 24
▁heißer 24
▁Fox 24
▁beängst 24
sendung 24
▁spr 24
▁verleiht 24
▁schock 24
▁greif 24
▁Kontakte 24
▁Labyrinth 24
▁Puls 24
wehr 24
riz 24
▁überschritten 24
▁Zun 24
▁erklärten 24
▁entsprach 24
▁Impfung 24
▁It 24
▁Hungersnot 24
▁biegen 24
▁Kenntnisse 24
trock 24
▁müsse 24
äfte 24
Da 24
▁Event 24
▁Vorhang 24
▁Vergewalt 24
▁Initiativen 24
▁zoomen 24
grammen 24
▁Unmengen 24
▁Company 24
▁erfolgreichsten 24
▁beruflich 24
getragen 24
▁getreten 24
asser 24
interesse 24
▁anzut 24
▁Kreditkarten 24
▁Hyp 24
▁digitales 24
▁mehrmals 24
▁Fitness 24
▁industrie 24
berry 24
US 24
orium 24
isl 24
sergebnisse 24
▁eingefangen 24
anntlich 24
▁Uner 24
▁Kreide 24
lieder 24
▁feste 24
▁empfindet 24
▁Heben 24
▁Botschafter 24
eder 24
▁Econom 24
fon 24
▁Petr 24
▁benöt 24
bens 24
▁Tonne 24
▁Intervention 24
amerikas 24
undet 24
▁Paläst 24
esc 24
▁bestraft 24
▁instabil 24
okratische 24
endeten 24
iti 24
▁Angesichts 24
▁Vorh 24
▁Leitung 24
▁begab 24
ied 24
▁Erleichterung 24
▁Heiligen 24
führern 24
arbeite 24
wind 24
schwimmen 24
geheim 24
▁erlebten 24
▁absoluter 24
▁ansehe 24
▁Jahrtausende 24
▁herkommt 24
▁trö 24
Kultur 24
▁Gebete 24
Wann 24
▁Teich 24
skreis 24
verschwendung 24
boter 24
ettes 24
▁emotionales 24
▁schlechtesten 24
figuren 24
▁BR 24
▁Margaret 24
▁bindet 24
▁Williams 24
arischen 24
ausch 24
chtete 24
fassung 24
▁erstreckt 24
äußer 24
▁Traurigkeit 24
dentum 24
▁Inner 24
▁Meditation 24
▁gewähren 24
▁Patri 24
▁sozio 24
▁geehrt 24
▁befre 24
1- 24
▁Gand 24
▁Würmer 24
▁SB 24
finder 24
▁Mob 24
▁Bulgar 24
▁Tuch 24
ario 24
▁Saison 24
▁Leidenschaften 24
▁50. 24
▁Rept 24
gorit 24
▁willkürlich 24
▁Satellit 24
▁Amsterdam 24
▁menschlichem 24
▁Gase 24
▁ausgelegt 24
▁bereichern 24
▁proportional 24
▁Cass 24
▁diplomat 24
▁Gewichts 24
versagen 24
▁soeben 24
etit 24
▁Barack 24
▁abgenommen 24
kun 24
kolonie 24
stärke 24
Fiction 24
▁Alli 24
hältnissen 24
▁Jud 24
▁zuversichtlich 24
▁Brig 24
iffern 24
▁hellen 24
▁Zimbabwe 24
reit 24
▁Samuel 24
▁Handzeichen 24
Mama 24
ero 24
▁Jas 24
geboren 24
perto 24
xu 24
gin 24
▁verletzlich 24
▁begleiten 24
▁Festival 24
aba 24
▁Dreieck 24
obil 24
▁militär 24
▁Förder 24
hofft 24
▁eindeut 24
▁Kondom 24
▁behindert 24
omie 24
takt 24
▁Feldern 24
▁längste 24
▁verfügbare 24
▁lo 24
▁digitaler 24
digte 24
▁weggehen 24
finde 24
▁festzuhalten 24
renzen 24
▁Transplantation 24
▁Oktopus 24
▁Magneten 24
familie 24
▁sicht 24
▁reißen 24
▁Socken 24
held 24
ordentliche 24
▁verschreiben 24
▁beinhal 24
▁SJ 24
▁Hürden 24
sha 24
▁untersuche 24
▁Rabbi 24
mische 24
▁verschle 24
sstud 24
▁verbesser 24
opath 24
▁Fließ 24
▁Malerei 24
▁kündigte 24
▁Natasha 24
▁Friede 24
▁Niederlanden 24
▁bestimmter 24
opul 24
erstör 24
Stud 24
liegende 24
▁Falt 24
▁Airb 24
▁Prothesen 24
ulierung 24
pfeiler 24
▁Führungskraft 24
▁bla 24
izenz 24
ifizierten 24
ymph 24
nosen 24
▁Kämpf 24
▁Honigbienen 24
uldig 24
▁Keim 24
▁mex 24
▁gele 24
▁Gewohnheit 24
▁Onk 24
meisters 24
olitik 24
▁DM 24
▁operiert 24
▁Transition 24
wün 24
▁Übergewicht 24
▁AO 24
▁RL 24
▁Wandert 24
Bos 24
▁HG 24
▁schlief 23
▁CC 23
▁Reduz 23
ikanern 23
▁Neocortex 23
▁schockierend 23
öhren 23
▁füllt 23
▁brennt 23
▁daraufhin 23
▁fortschritt 23
ambia 23
▁Risikokapital 23
rete 23
▁Vermutung 23
▁hervorgebracht 23
▁zerbrechlich 23
▁profitiert 23
▁Able 23
▁Zehntausende 23
▁imstande 23
▁arbeitenden 23
freien 23
▁erwähne 23
riert 23
▁Stick 23
▁streng 23
▁Zuallererst 23
▁abgest 23
▁DARPA 23
▁gestört 23
▁höheres 23
▁Michelangelo 23
▁Gebrauchs 23
▁mitge 23
▁anfassen 23
▁männlich 23
ettbewerbs 23
studio 23
▁sequenzieren 23
▁Sor 23
▁Derzeit 23
▁grünes 23
fasst 23
ikel 23
▁Möglich 23
▁Synth 23
▁nützliche 23
zeut 23
▁Laborator 23
▁Herzlichen 23
schleife 23
agan 23
▁ruiniert 23
ätzte 23
▁befragen 23
BS 23
▁dichte 23
▁jetzigen 23
▁unmittelbare 23
▁Hudson 23
schneidet 23
dar 23
äumt 23
▁Benutzung 23
▁Graffiti 23
rik 23
▁Besondere 23
ih 23
▁lustige 23
enzen 23
▁Avenue 23
▁angenehmer 23
▁aufregender 23
▁jeglicher 23
▁abzuschließen 23
▁Vegetation 23
mä 23
▁1991 23
▁einheim 23
▁zurückblicken 23
locke 23
▁heiratete 23
▁prob 23
▁aufnahm 23
▁Fruchtfliegen 23
▁Pur 23
▁Lungenkrebs 23
▁entsprechenden 23
▁Eimer 23
▁Span 23
▁Vorführung 23
▁AR 23
▁Whit 23
▁Schwarm 23
Wür 23
▁Prozessen 23
änglichen 23
▁geschlechts 23
strogen 23
▁weltw 23
▁etablieren 23
▁unwahrschein 23
▁Ira 23
ülen 23
ristall 23
▁mangeln 23
▁verdanken 23
▁einfangen 23
▁Silikon 23
▁Flossen 23
▁Erhe 23
▁imitiert 23
ioden 23
▁Cocktail 23
ohlen 23
▁kämpfte 23
▁Ursprünge 23
▁solar 23
▁nirgends 23
zwe 23
▁Nebene 23
▁mor 23
▁Mont 23
inea 23
▁DD 23
▁Vit 23
▁Sieb 23
rupp 23
▁serviert 23
now 23
▁Society 23
▁deutet 23
▁geprü 23
iertel 23
▁planet 23
Spe 23
▁populär 23
rädern 23
▁Lichtjahre 23
physiker 23
ilz 23
▁missh 23
nee 23
soldaten 23
▁Folter 23
▁Abu 23
▁musikalischen 23
▁fortsetzen 23
lehr 23
▁Japanisch 23
▁angep 23
händ 23
▁Inhalten 23
▁erläutern 23
het 23
▁Klicks 23
▁beizutragen 23
▁Kaiser 23
▁dis 23
itektur 23
▁Vinci 23
▁spirituelle 23
▁Sony 23
▁250.000 23
schä 23
▁beschissen 23
▁gebrau 23
Sand 23
Rest 23
▁zehnmal 23
▁Portland 23
ulver 23
▁Folglich 23
bis 23
▁Wilson 23
▁400.000 23
▁Ausweg 23
▁Verbrecher 23
▁logische 23
▁klarer 23
Millionen 23
sitze 23
▁abstrakten 23
▁materielle 23
▁Dokumentation 23
▁fertiggestellt 23
sammlungen 23
▁zweitgrößte 23
▁besetzt 23
größer 23
▁NO 23
▁primitive 23
▁Sav 23
reifer 23
▁schwieriges 23
▁uralte 23
▁wiederholte 23
▁Romantik 23
▁ungen 23
▁anschau 23
▁Zeichnen 23
bezirk 23
▁Taiwan 23
▁Pfeffer 23
ingend 23
▁ideale 23
▁aufzur 23
▁geschei 23
istr 23
etwas 23
▁angreift 23
▁Helfer 23
▁verbundene 23
zusehen 23
atro 23
schatz 23
▁Invasion 23
utsch 23
▁ep 23
▁besagte 23
▁4- 23
▁herkömm 23
reckt 23
▁überraschende 23
Gemeinschaft 23
▁primitiv 23
▁Monsun 23
llungen 23
▁Est 23
▁Nachbarschaften 23
uropä 23
▁heftig 23
▁Richtlinie 23
hoden 23
▁Enten 23
▁langleb 23
projekte 23
▁univers 23
ffizient 23
▁uralten 23
▁Kelly 23
▁überzeugend 23
▁verdeutlicht 23
werkzeuge 23
▁Transistoren 23
▁einzeln 23
▁Supercomputer 23
▁Pool 23
▁wundern 23
iatr 23
▁eingreifen 23
▁Sturz 23
ansatz 23
▁zitiere 23
▁unster 23
▁Grundsätzlich 23
▁hoffte 23
▁ausgesehen 23
▁flachen 23
▁Ihm 23
▁Opfern 23
▁Sporen 23
▁Kiefer 23
▁hinterließ 23
▁verwund 23
▁schmilzt 23
ays 23
▁Schwe 23
12 23
weiß 23
▁Vol 23
hou 23
▁viereinhalb 23
verlauf 23
▁verursachten 23
▁Power 23
▁eingeben 23
beispiel 23
▁jährlichen 23
▁Äquivalent 23
sätz 23
▁traten 23
▁bester 23
▁immun 23
▁kons 23
statten 23
▁verblüfft 23
zeichne 23
▁kennenzulernen 23
▁aufgefordert 23
▁lehnen 23
örper 23
urer 23
▁hindern 23
▁Prävention 23
▁billigen 23
▁Camer 23
▁Walk 23
seligkeit 23
kleber 23
icro 23
▁Dra 23
▁Toyota 23
▁export 23
▁Pipel 23
▁57 23
▁on 23
▁halbiert 23
▁Imp 23
invest 23
▁Hip 23
behörden 23
▁unzureich 23
▁beschrän 23
▁angekl 23
▁Ausrede 23
▁reag 23
▁Gesundheitspf 23
ulu 23
▁einbezogen 23
ower 23
ammer 23
▁brauchst 23
▁Mexico 23
▁antun 23
imik 23
isc 23
oir 23
▁Dynam 23
▁Arbeitskraft 23
▁Entwürfe 23
anfall 23
▁sicheres 23
▁Kammer 23
schritt 23
▁Brustkorb 23
▁Spons 23
▁afrikan 23
▁furcht 23
▁Früherkennung 23
▁Nenn 23
▁reagierte 23
▁strahlen 23
▁Micro 23
ally 23
▁Großstadt 23
▁Londoner 23
▁unbequem 23
▁abz 23
eif 23
▁garantieren 23
kas 23
▁tiefgreifend 23
abad 23
nitten 23
▁beläst 23
▁packte 23
▁tanzten 23
▁Datenmengen 23
asso 23
▁73 23
▁palästinens 23
stechnik 23
▁Tech 23
zahlt 23
▁plur 23
▁selbsts 23
▁Obdachlosen 23
▁NBA 23
mond 23
▁einsetzt 23
allel 23
▁Erhol 23
CH 23
arien 23
▁anregen 23
▁fabel 23
▁fernen 23
▁hinterlässt 23
izei 23
▁Verpflichtungen 23
osev 23
▁lädt 23
Zentrum 23
▁Frühjahr 23
▁Rating 23
▁abgespielt 23
▁Ausgangs 23
rim 23
▁Edu 23
▁Annäher 23
▁abn 23
▁perfe 23
▁ärmer 23
ünstler 23
▁Dean 23
▁Walter 23
position 23
pil 23
werfer 23
▁militärischen 23
▁Moschee 23
imes 23
esselt 23
▁Seu 23
▁1993 23
emissionen 23
▁anstecken 23
irr 23
▁Weihnachtsmann 23
raben 23
schöpfung 23
▁DI 23
andert 23
300 23
ped 23
▁viermal 23
▁Muss 23
▁feier 23
▁Grundsätze 23
▁Schuppen 23
kommens 23
▁Coun 23
▁besonderer 23
▁gehor 23
ätigt 23
▁Erreichen 23
▁TR 23
▁Welchen 23
▁Trin 23
▁Lebenser 23
▁Bestimmung 23
▁Achill 23
urop 23
▁Dichtkunst 23
▁stören 23
▁erkl 23
▁Medical 23
▁Yale 23
▁1984 23
weisung 23
▁Jahreszeiten 23
▁Erbgut 23
waren 23
▁Mechan 23
sweisen 23
▁Feucht 23
▁Kapit 23
▁kanad 23
▁Seifen 23
▁geladen 23
urg 23
zieher 23
Bür 23
niveau 23
▁Ungleichgewicht 23
▁nu 23
▁kar 23
▁keineswegs 23
▁Porn 23
▁objektive 23
▁Color 23
bäume 23
▁Verkäufer 23
▁Fernbedien 23
▁englisch 23
▁Mechanik 23
▁Treib 23
ährungs 23
▁Zuge 23
cr 23
▁abzuhalten 23
azität 23
cam 23
▁Betrach 23
▁ED 23
▁ableiten 23
ourc 23
▁Mis 23
▁Navig 23
▁Signatur 23
dass 23
▁Vorschein 23
▁isolieren 23
▁erwachsenen 23
▁Cy 23
alanc 23
ritts 23
elfen 23
▁Id 23
Bank 23
▁mobilisieren 23
▁steckten 23
▁Venezuela 23
▁besprochen 23
Th 23
ois 23
akistan 23
▁Holocaust 23
anch 23
gerten 23
▁Beamten 23
▁verängst 23
▁Unternehm 23
▁hinüber 23
▁Liebeslied 23
▁Fal 23
▁ausgesch 23
▁Parlaments 23
▁wecken 23
oria 23
▁Archä 23
▁Europas 23
▁assozi 23
▁kind 23
▁Tw 23
▁Anthropologen 23
▁Geor 23
▁Höchst 23
▁Titelseite 23
▁Fossil 23
▁meistern 23
obelpreis 23
▁Skand 23
▁Truppe 23
sprecher 23
▁Rinder 23
▁erstaunlicher 23
▁Abweich 23
fanden 23
▁winziges 23
▁Brüdern 23
▁Brunnen 23
▁Venedig 23
▁Rechteck 23
▁Gyrus 23
▁Areale 23
▁passende 23
▁Käufer 23
▁Volt 23
▁Schlimm 23
ierens 23
▁medit 23
▁Jog 23
moleküle 23
▁Wag 23
▁Ladungen 23
▁Analysis 23
▁Terrain 23
lauen 23
saft 23
▁Ras 23
Ide 23
▁Gefängnisse 23
▁befördert 23
umph 23
▁Dung 23
▁schlossen 23
▁Mammut 23
▁Kriminelle 23
▁Kürze 23
▁Berges 23
▁5- 23
▁aufbewahr 23
ween 23
▁30. 23
La 23
▁Zeigen 23
▁kompliziertes 23
▁AIMS 23
▁abgelehnt 23
▁Rechnen 23
▁loslassen 23
Dimensionen 23
riss 23
▁Waldes 23
▁Dosen 23
▁Mast 23
Inseln 23
uder 23
▁Anonym 23
▁Nordkorea 23
▁Ballast 23
▁Synapsen 23
raucht 23
▁Großbritanniens 23
▁Meeresschutz 23
▁Dallas 23
▁Kopfhör 23
iversen 23
▁PH 23
▁Atomwaffen 23
▁Key 23
beziehungen 23
gewandt 23
▁Urteil 23
▁Flüchtling 23
▁gefroren 23
▁Schlauch 23
▁Tamiflu 23
▁Korallenriff 23
▁Avatar 23
omon 23
▁Bestäuber 23
▁Chinesische 23
▁brasilianischen 23
▁Bonus 23
▁Knorpel 23
▁Kaulqu 23
▁Church 23
▁Khan 23
▁Ahm 23
Arab 23
BA 23
▁Einwander 23
▁Giussani 23
▁Protozelle 23
▁Gehirnaktivität 23
▁FO 23
▁iPad 23
rüsenkrebs 23
flora 23
▁Supraleiter 23
Jeopardy 23
aurant 22
▁Kell 22
korde 22
effizienz 22
▁Vin 22
▁einkaufen 22
▁Gewinnen 22
▁entw 22
▁ahnen 22
▁mithalten 22
▁Geschäftsleute 22
gelte 22
▁1500 22
▁nutzlos 22
▁Inzwischen 22
▁39 22
▁Tanzen 22
kündigt 22
flugzeug 22
▁Lebenszyklus 22
teuer 22
▁jemandes 22
▁1996 22
▁cooler 22
▁mentalen 22
Liebe 22
▁innerlich 22
▁Zusammenfassung 22
▁linear 22
▁Chromos 22
▁Glass 22
▁explodiert 22
▁Photosynthese 22
▁bereitgestellt 22
▁Nutzern 22
▁iron 22
▁Idioten 22
▁Exemplar 22
fenster 22
▁2000. 22
▁Assistenten 22
sig 22
47 22
▁Haw 22
Ding 22
▁Leib 22
▁Trade 22
ttern 22
aufbau 22
▁Nich 22
▁intensive 22
schiffe 22
▁auftau 22
▁rausgehen 22
▁Endlich 22
▁Befür 22
minüt 22
Prozess 22
kühlen 22
▁Paket 22
▁asiatischen 22
▁Ec 22
▁Häupt 22
▁Dav 22
▁Tierreich 22
▁rannten 22
schär 22
▁vielfältig 22
▁schlaue 22
iftet 22
▁verfolg 22
▁resistent 22
▁potentielle 22
eigenschaften 22
▁repar 22
▁verschlechter 22
Stat 22
▁gewisses 22
wood 22
▁wunderschönes 22
ifornien 22
ivial 22
▁zusammenbringt 22
künstler 22
▁Soft 22
▁neusten 22
▁Visu 22
▁erwider 22
ezie 22
▁Besessenheit 22
▁ablenken 22
▁sexueller 22
ographischen 22
▁Qualitäten 22
▁Komplikationen 22
▁verlieben 22
Lie 22
▁amüs 22
bereitung 22
▁Wod 22
▁Genial 22
▁Protonen 22
interess 22
▁schwei 22
▁Metalle 22
materialien 22
▁lagern 22
▁ach 22
cast 22
▁Spiritu 22
▁Sexual 22
wart 22
▁189 22
Für 22
▁Worauf 22
▁produzierte 22
▁analys 22
▁Senf 22
ilden 22
▁Universal 22
▁entsetzt 22
rafik 22
▁Haustier 22
still 22
▁weitergeht 22
▁Abstammung 22
serie 22
behör 22
▁genehm 22
▁enthielt 22
dimensionale 22
werf 22
eift 22
▁verlangte 22
▁Pa 22
ardian 22
▁schlepp 22
ivileg 22
▁Menschenrecht 22
rib 22
▁Rebellen 22
▁Bestraf 22
▁hochzu 22
nutz 22
▁Wiederver 22
▁2015 22
Stiftung 22
▁unterrichte 22
izer 22
valu 22
▁Süßigkeiten 22
▁Anleitung 22
▁18- 22
hauen 22
nes 22
▁Iron 22
motiv 22
▁Schei 22
pfchen 22
▁entschul 22
ahle 22
▁verdiente 22
▁scheiter 22
▁wähle 22
▁schaltet 22
day 22
▁SA 22
▁Format 22
irgend 22
▁Lav 22
ners 22
▁high 22
mitglie 22
▁interne 22
▁brillanten 22
▁Unterfangen 22
▁welch 22
▁USD 22
▁herrschte 22
▁auffallen 22
▁ander 22
▁Beteil 22
rotten 22
ätigung 22
Nie 22
▁Jersey 22
biet 22
▁Realitäten 22
gedanken 22
▁Zufälle 22
▁räumliche 22
Stadt 22
ona 22
▁einzubeziehen 22
▁künstlerischen 22
ätzchen 22
▁zuviel 22
▁Abbildung 22
▁Karibik 22
apar 22
eife 22
▁Pentagon 22
▁Kau 22
▁Setzen 22
▁202 22
lles 22
▁spiegelt 22
tausende 22
scheide 22
▁Genozi 22
▁funktionierende 22
▁Sebastian 22
ipher 22
▁gewähr 22
▁strategische 22
wicht 22
▁ausgeglichen 22
mart 22
▁locker 22
oms 22
▁begegnete 22
xon 22
iets 22
▁Werde 22
▁irgendwel 22
lekü 22
ature 22
▁überzogen 22
▁herkömmlichen 22
‚ 22
▁pumpen 22
▁bürger 22
▁verfasst 22
▁bißchen 22
ziell 22
erson 22
▁Multim 22
▁konk 22
▁Verschwörung 22
ipend 22
▁Ostasien 22
▁SARS 22
▁Graphen 22
▁Kalender 22
▁elekt 22
▁Anbieter 22
bot 22
▁vermehrt 22
▁Segen 22
▁tagtäglich 22
jahre 22
▁unterschätzen 22
▁Unsterblichkeit 22
▁fliegende 22
▁gehörten 22
▁üpp 22
wälder 22
▁beherrscht 22
▁durchläuft 22
getreten 22
▁Breit 22
▁Tunesien 22
▁humanitäre 22
▁Atombombe 22
▁nukleare 22
Unser 22
▁erhältlich 22
▁Stehen 22
▁zerbrech 22
▁Aug 22
▁gigantische 22
beute 22
▁Kapazitäten 22
gets 22
▁grossartige 22
EG 22
▁Komponisten 22
▁Teen 22
jemand 22
▁schrift 22
liefer 22
▁blauer 22
▁einschalten 22
▁wiederhole 22
▁Teilchenphysik 22
tokoll 22
▁konkrete 22
ärme 22
▁Bits 22
▁drehe 22
▁Weltanschau 22
fotos 22
▁authentisch 22
▁grenz 22
aufwand 22
▁ausl 22
eglich 22
▁internen 22
▁gespart 22
eistungen 22
getrieben 22
▁Hundes 22
jekten 22
▁ablegen 22
▁verfolgten 22
hew 22
stätten 22
▁durchgemacht 22
▁gesegnet 22
orbene 22
▁innov 22
▁CNN 22
▁Wolkenkratz 22
haar 22
▁laufenden 22
▁zuhört 22
▁Fußabdruck 22
▁Uniform 22
▁Textil 22
▁Beschäft 22
▁TEDster 22
▁Vorträgen 22
▁Menschenleben 22
ibr 22
abl 22
führungen 22
MS 22
▁5, 22
▁WHO 22
▁gegeneinander 22
andem 22
▁erkranken 22
▁verwickelt 22
▁Websites 22
▁Anfängen 22
▁Sofort 22
igmat 22
▁Enttäu 22
▁Aspekten 22
nd 22
umgebung 22
▁stößt 22
▁signifikant 22
▁Paten 22
oment 22
▁öffneten 22
▁Verleger 22
Professor 22
▁angetan 22
▁kop 22
▁Agnes 22
▁ta 22
▁Ziege 22
sensor 22
▁Darstellungen 22
ärbt 22
▁naht 22
field 22
▁Merk 22
▁Videospielen 22
elebr 22
▁ausgeklügel 22
ibilität 22
arks 22
▁Eure 22
▁gi 22
▁hättest 22
▁potent 22
▁Schott 22
▁erneuer 22
.... 22
▁97 22
▁ausgerechnet 22
▁spektakulär 22
frikanischen 22
▁vorspielen 22
▁augenblicklich 22
▁Millise 22
▁klären 22
▁Delphine 22
▁reiz 22
▁Gab 22
▁hinsehen 22
ärben 22
▁drehten 22
▁erbl 22
würmer 22
grä 22
▁Dokumentarf 22
▁vollem 22
▁Gange 22
auschen 22
▁wirk 22
▁Kampfes 22
akzept 22
▁verflochten 22
dep 22
ochten 22
▁Identitäten 22
▁vorhandenen 22
▁Bah 22
▁zitiert 22
▁Beratung 22
▁deprim 22
▁Propheten 22
▁filmte 22
▁nackt 22
▁kalte 22
▁Perfektion 22
▁British 22
ibirien 22
▁Tagebuch 22
▁68 22
▁Press 22
wurf 22
▁Aur 22
fund 22
▁zunimmt 22
▁Arabischen 22
▁Unbehagen 22
scheid 22
▁immernoch 22
▁Pinsel 22
▁Ganges 22
▁gefressen 22
▁Wiederhol 22
▁verdrah 22
ölkern 22
▁festlegen 22
▁würdet 22
▁zutreffen 22
▁Intellekt 22
wechs 22
▁führ 22
▁geringsten 22
ieu 22
▁experimentell 22
.", 22
▁Evolutions 22
flö 22
▁Vulk 22
▁Maul 22
▁em 22
▁physi 22
uläre 22
ilm 22
▁Phän 22
▁sähen 22
atschen 22
önt 22
reislauf 22
uge 22
▁max 22
▁Spü 22
▁Klebeband 22
elege 22
▁betr 22
▁Assozi 22
▁myst 22
etischer 22
▁vorführen 22
▁weißer 22
▁Holl 22
▁Zettel 22
indungs 22
verk 22
kreuz 22
äften 22
▁Hann 22
otypen 22
ridge 22
▁Pav 22
▁Neokortex 22
▁füt 22
▁satt 22
▁rebell 22
▁zugenommen 22
pte 22
▁Tourismus 22
▁jähr 22
▁Lebzeiten 22
ütlich 22
▁Tugend 22
▁konkre 22
▁Geo 22
echen 22
▁geringere 22
▁30, 22
Ur 22
▁selbständig 22
▁diagnostizieren 22
▁injizieren 22
▁transplant 22
disziplin 22
▁Interventionen 22
dler 22
era 22
konferenz 22
▁Südost 22
▁Flü 22
eserv 22
▁Antennen 22
▁zurückgreifen 22
▁dauerhafte 22
schaffung 22
Will 22
▁Rucksack 22
▁Bat 22
▁startet 22
frikan 22
ereien 22
ammlung 22
▁Ungew 22
feier 22
▁Zuletzt 22
▁Vict 22
▁Murray 22
urteilung 22
▁Röhre 22
elegen 22
▁kritisiert 22
▁Budgets 22
▁primit 22
RN 22
▁Magnetfeld 22
ption 22
▁Plut 22
▁Menschenaffen 22
ji 22
▁Schokoladen 22
ehmlich 22
glicher 22
▁Übel 22
▁Frageb 22
▁Fiction 22
▁absolutes 22
▁Mind 22
ocks 22
▁einbinden 22
▁Prog 22
Orig 22
▁Unendlichkeit 22
▁Bhutan 22
▁82 22
▁gehandelt 22
▁Syd 22
▁afro 22
▁erschuf 22
presse 22
ous 22
▁rollt 22
▁Hosent 22
▁indirekt 22
▁lös 22
yramiden 22
▁stärkere 22
mergen 22
▁Vorher 22
▁robust 22
▁Opern 22
▁Frakt 22
gebra 22
PN 22
▁Anweis 22
kaufen 22
▁Diss 22
eutung 22
lon 22
olz 22
hemat 22
▁Colle 22
▁Hochzeits 22
▁Kartoffeln 22
▁Sym 22
▁licht 22
▁nuklearen 22
glieren 22
▁Grundidee 22
▁Absolventen 22
▁Kompromisse 22
▁unterr 22
helden 22
▁Innov 22
brä 22
iner 22
kenntnis 22
▁schrumpfen 22
Sei 22
▁Surfer 22
▁Intensivstation 22
▁Krümm 22
▁Elementen 22
▁krieg 22
▁Comp 22
▁Eich 22
▁Veget 22
ork 22
räder 22
▁12- 22
ftige 22
meisterschaft 22
vens 22
▁Ple 22
▁Flickr 22
▁Jean 22
▁rechner 22
▁Kamele 22
▁Turk 22
▁komplettes 22
▁verschmutzen 22
▁Buckel 22
reckte 22
rien 22
▁mitgeben 22
▁gestimmt 22
▁Bunker 22
Bet 22
bedingte 22
ripte 22
bühne 22
▁unbeabsichtig 22
ension 22
▁Bret 22
▁Butter 22
▁schmecken 22
bergen 22
stöcke 22
ransport 22
▁RIS 22
▁Skel 22
flag 22
▁Meerest 22
▁ehrgeiz 22
▁tw 22
▁Schnurrbart 22
yan 22
oud 22
▁Free 22
kollegen 22
perspektive 22
▁Prüfungen 22
▁Nutzpflanzen 22
▁Psychopathen 22
illin 22
iley 22
▁Gemü 22
▁Papiere 22
▁Neanderthaler 22
▁Schri 22
▁Verschlüssel 22
▁Lakota 22
▁ELA 22
▁Atrazin 22
▁Beutelwolf 22
▁Phtal 22
‒ 22
matik 22
▁StoryCorps 22
glades 22
bereiten 21
▁organis 21
▁91 21
▁priv 21
▁Rel 21
immel 21
800 21
▁begrün 21
ld 21
wiegend 21
▁spont 21
Bot 21
▁41 21
▁Ven 21
dens 21
▁'8 21
▁train 21
▁Hard 21
iza 21
zyklus 21
gor 21
chtz 21
▁authent 21
▁gehei 21
▁pack 21
stil 21
Con 21
achst 21
▁KI 21
▁Sud 21
heor 21
iffer 21
hole 21
▁verwirr 21
▁fantast 21
elta 21
▁Atmo 21
▁Moder 21
▁Dür 21
oot 21
Bei 21
▁verknü 21
▁Ti 21
600 21
ksh 21
beob 21
rix 21
Stra 21
ftware 21
▁Jahrz 21
alem 21
▁Dunkel 21
oni 21
▁59 21
core 21
wusst 21
▁Famil 21
▁JL 21
▁krie 21
ward 21
Hop 21
uth 21
entrum 21
äuft 21
arden 21
▁beobachte 21
aris 21
▁Stär 21
▁Fortsch 21
ezi 21
▁Hungers 21
▁Snow 21
▁belie 21
▁Vag 21
Gel 21
▁vi 21
blei 21
▁religi 21
▁Unterdrück 21
DA 21
hten 21
sächlich 21
▁kan 21
▁NG 21
TO 21
riffe 21
▁beeintr 21
▁Miner 21
▁Dok 21
osoph 21
▁Eth 21
stitut 21
▁Gemeinsam 21
hnt 21
All 21
aza 21
hu 21
uba 21
cul 21
▁moment 21
wörter 21
▁mikro 21
EN 21
▁Schlagz 21
Als 21
▁Yor 21
zis 21
riminelle 21
▁NR 21
▁MM 21
bewer 21
opter 21
▁Eu 21
brü 21
HS 21
Com 21
iva 21
▁Brun 21
blikum 21
bec 21
▁Integr 21
▁4: 21
acke 21
kord 21
ksam 21
▁zei 21
geiz 21
duz 21
▁RG 21
Prin 21
lös 21
▁BP 21
▁Transplant 21
olumines 21
RNA 21
▁Instr 20
raun 20
▁künstler 20
ählt 20
istenten 20
▁Wün 20
völker 20
bliot 20
sehe 20
▁vergrößer 20
▁Präsent 20
▁koll 20
▁Fel 20
ustern 20
▁französ 20
▁Ox 20
äme 20
rugen 20
uchsen 20
▁hoff 20
gste 20
andels 20
iels 20
örter 20
▁Clo 20
▁Nav 20
▁verstär 20
operation 20
ämpfung 20
yse 20
beziehen 20
▁Auss 20
ordent 20
▁Einkaufs 20
▁grös 20
einbar 20
indern 20
alitäten 20
asi 20
leicht 20
▁erschwing 20
wärt 20
▁Prov 20
▁rie 20
▁Dete 20
oppelt 20
▁Polit 20
üttern 20
ymp 20
▁Interess 20
gefasst 20
) 20
▁angel 20
▁Erb 20
▁Blind 20
▁Männ 20
wander 20
dachte 20
ablen 20
▁befest 20
▁zut 20
iland 20
▁männ 20
kes 20
▁Ert 20
back 20
▁Goog 20
▁Konkur 20
▁verlang 20
▁bein 20
folgt 20
akul 20
▁wesent 20
▁beur 20
▁syn 20
gefunden 20
reien 20
quenzen 20
eiler 20
▁gesen 20
pern 20
iber 20
▁Perfekt 20
▁Mathemat 20
steuropa 20
▁hüb 20
▁Gefä 20
yramide 20
mmun 20
onanz 20
▁Ident 20
▁Beam 20
▁Opt 20
raucher 19
schöpf 19
zeugt 19
allererst 19
▁entschl 19
äglich 19
undes 19
herr 19
[...]
