<unk>	0
<s>	0
</s>	0
<brk>	0
en	-0
er	-1
ch	-2
▁d	-3
in	-4
ie	-5
▁w	-6
un	-7
▁s	-8
ich	-9
▁e	-10
an	-11
st	-12
as	-13
ei	-14
▁die	-15
▁a	-16
▁un	-17
▁m	-18
▁ein	-19
te	-20
▁S	-21
ge	-22
▁i	-23
on	-24
▁v	-25
ir	-26
sch	-27
▁h	-28
▁n	-29
▁z	-30
ll	-31
▁und	-32
▁das	-33
ar	-34
gen	-35
ten	-36
▁b	-37
es	-38
▁D	-39
hr	-40
▁A	-41
▁W	-42
▁zu	-43
▁k	-44
▁M	-45
▁der	-46
or	-47
ein	-48
at	-49
it	-50
em	-51
der	-52
▁in	-53
▁E	-54
au	-55
▁wir	-56
▁au	-57
▁ist	-58
icht	-59
▁I	-60
de	-61
den	-62
al	-63
ach	-64
ier	-65
▁f	-66
lich	-67
▁G	-68
ben	-69
▁g	-70
ber	-71
▁B	-72
el	-73
▁ge	-74
ur	-75
▁ich	-76
ter	-77
▁U	-78
▁K	-79
▁es	-80
▁F	-81
ung	-82
le	-83
se	-84
▁an	-85
▁er	-86
▁P	-87
▁sie	-88
▁den	-89
sen	-90
▁Un	-91
▁Sie	-92
▁L	-93
ür	-94
mm	-95
ro	-96
▁T	-97
um	-98
nen	-99
ig	-100
▁nicht	-101
▁ver	-102
ls	-103
▁dass	-104
eit	-105
▁von	-106
re	-107
▁be	-108
is	-109
▁eine	-110
ck	-111
ser	-112
▁auf	-113
▁H	-114
▁Und	-115
ann	-116
▁ha	-117
▁so	-118
tz	-119
▁V	-120
eh	-121
▁mit	-122
ion	-123
ind	-124
▁wie	-125
▁R	-126
isch	-127
am	-128
enn	-129
▁N	-130
▁als	-131
ra	-132
▁war	-133
▁sch	-134
▁sich	-135
us	-136
kt	-137
ent	-138
▁l	-139
▁o	-140
eu	-141
▁Ich	-142
▁J	-143
▁Z	-144
▁t	-145
ft	-146
ahr	-147
ol	-148
über	-149
▁sind	-150
ön	-151
be	-152
ehr	-153
▁haben	-154
▁für	-155
lle	-156
▁j	-157
ste	-158
▁hat	-159
▁man	-160
▁aus	-161
ag	-162
▁um	-163
and	-164
iel	-165
il	-166
▁St	-167
ik	-168
än	-169
ff	-170
▁über	-171
▁"	-172
▁kön	-173
eine	-174
▁p	-175
▁Das	-176
▁Die	-177
och	-178
ut	-179
▁Es	-180
▁wer	-181
llen	-182
▁Wir	-183
tw	-184
sten	-185
▁Sch	-186
▁In	-187
▁Ge	-188
om	-189
hl	-190
▁da	-191
eil	-192
▁Er	-193
▁diese	-194
▁was	-195
▁dem	-196
▁im	-197
igen	-198
ern	-199
hen	-200
▁O	-201
▁-	-202
▁ihr	-203
▁wenn	-204
bt	-205
▁uns	-206
sp	-207
▁einen	-208
rei	-209
chen	-210
mmen	-211
▁dies	-212
ieren	-213
▁C	-214
▁Ver	-215
ensch	-216
ne	-217
▁können	-218
▁des	-219
▁unser	-220
▁je	-221
ien	-222
▁werden	-223
▁Jahr	-224
▁oder	-225
wei	-226
iv	-227
▁Pro	-228
ungen	-229
rau	-230
▁vor	-231
zu	-232
ehen	-233
ige	-234
▁sein	-235
▁Ar	-236
elt	-237
iert	-238
scha	-239
▁An	-240
rü	-241
ation	-242
▁ander	-243
▁kann	-244
▁aber	-245
▁wo	-246
▁auch	-247
▁1	-248
▁Mensch	-249
▁einer	-250
men	-251
▁Aber	-252
▁einem	-253
gt	-254
▁Be	-255
▁nach	-256
anz	-257
▁mein	-258
ken	-259
ort	-260
▁mach	-261
▁Ein	-262
uch	-263
hnen	-264
▁nur	-265
▁wird	-266
▁etw	-267
▁bei	-268
▁sehr	-269
ischen	-270
▁hier	-271
▁all	-272
00	-273
ör	-274
▁Menschen	-275
os	-276
ht	-277
▁dar	-278
ibt	-279
aus	-280
fen	-281
▁ent	-282
hn	-283
▁--	-284
▁mich	-285
urch	-286
▁st	-287
äch	-288
▁gibt	-289
issen	-290
▁Re	-291
▁le	-292
▁–	-293
ot	-294
▁wur	-295
▁dann	-296
lau	-297
▁Le	-298
ät	-299
▁also	-300
▁sp	-301
hal	-302
ill	-303
tzt	-304
ab	-305
eute	-306
und	-307
▁En	-308
ru	-309
▁noch	-310
og	-311
dern	-312
ing	-313
schaft	-314
▁etwas	-315
bl	-316
ick	-317
rie	-318
ommen	-319
▁her	-320
mmer	-321
tet	-322
et	-323
ang	-324
▁sehen	-325
▁habe	-326
▁wei	-327
▁vie	-328
▁Welt	-329
▁sa	-330
▁Sp	-331
▁Als	-332
▁mir	-333
▁dieser	-334
ul	-335
▁mehr	-336
bei	-337
heit	-338
▁durch	-339
▁kl	-340
ische	-341
roß	-342
ers	-343
op	-344
▁sag	-345
▁re	-346
mal	-347
lichen	-348
keit	-349
we	-350
▁gen	-351
all	-352
acht	-353
▁Was	-354
▁viel	-355
ank	-356
▁Wenn	-357
he	-358
."	-359
ffen	-360
▁Leben	-361
her	-362
liche	-363
▁Au	-364
▁2	-365
üs	-366
▁alle	-367
är	-368
cht	-369
uss	-370
fach	-371
▁ganz	-372
klich	-373
▁zum	-374
▁wurde	-375
end	-376
▁mö	-377
▁unter	-378
▁Zeit	-379
ess	-380
fü	-381
▁wür	-382
ri	-383
ze	-384
▁Ihnen	-385
ähr	-386
rin	-387
bst	-388
ass	-389
assen	-390
▁machen	-391
tzen	-392
▁ste	-393
oll	-394
▁groß	-395
ech	-396
▁ab	-397
▁zwei	-398
▁wirklich	-399
▁Gesch	-400
for	-401
fl	-402
▁einfach	-403
▁immer	-404
▁meine	-405
▁bes	-406
ungs	-407
wer	-408
ob	-409
rück	-410
▁weil	-411
▁r	-412
▁am	-413
▁kon	-414
inge	-415
tern	-416
bar	-417
▁tun	-418
chte	-419
ekt	-420
mmt	-421
▁fü	-422
▁Also	-423
art	-424
schie	-425
ner	-426
äu	-427
aten	-428
nte	-429
ad	-430
▁neu	-431
▁müs	-432
▁hatte	-433
iz	-434
▁Ihr	-435
ist	-436
inden	-437
▁unsere	-438
▁bis	-439
ap	-440
lie	-441
▁dieses	-442
ehmen	-443
che	-444
elbst	-445
leich	-446
▁hin	-447
per	-448
▁keine	-449
ück	-450
eiten	-451
gel	-452
ger	-453
glich	-454
▁Leute	-455
im	-456
▁ihre	-457
▁Gr	-458
▁wissen	-459
ionen	-460
iger	-461
▁müssen	-462
rach	-463
stell	-464
hlen	-465
unkt	-466
sa	-467
▁diesem	-468
▁soll	-469
est	-470
dem	-471
▁Man	-472
omp	-473
▁viele	-474
pt	-475
▁waren	-476
▁Art	-477
ßen	-478
▁dam	-479
itte	-480
olog	-481
ke	-482
▁♫	-483
▁sagte	-484
▁sagen	-485
▁Dinge	-486
lt	-487
▁diesen	-488
gend	-489
rä	-490
▁Zu	-491
▁Ges	-492
unden	-493
▁Jahren	-494
blem	-495
▁weiter	-496
▁beg	-497
▁lie	-498
▁bin	-499
ild	-500
sam	-501
▁eines	-502
du	-503
zen	-504
age	-505
▁andere	-506
einen	-507
▁gew	-508
kommen	-509
ats	-510
▁Or	-511
▁So	-512
hm	-513
▁Vor	-514
▁Kon	-515
ver	-516
▁jetzt	-517
ed	-518
▁zei	-519
▁ko	-520
▁anderen	-521
ität	-522
ster	-523
▁wieder	-524
▁Kin	-525
▁Wie	-526
lan	-527
▁eigen	-528
ichte	-529
det	-530
ichtig	-531
lleicht	-532
▁Bei	-533
auf	-534
nis	-535
▁glau	-536
▁würde	-537
geb	-538
▁Problem	-539
▁alles	-540
pp	-541
▁zur	-542
zi	-543
▁Aus	-544
ün	-545
▁selbst	-546
▁nie	-547
▁Der	-548
▁damit	-549
▁Ch	-550
▁du	-551
eg	-552
sehen	-553
▁verb	-554
▁ar	-555
▁wen	-556
auen	-557
eln	-558
▁geht	-559
yst	-560
änder	-561
▁Mill	-562
under	-563
▁gem	-564
ast	-565
ler	-566
spiel	-567
▁vers	-568
▁Jahre	-569
ande	-570
▁ob	-571
halten	-572
tes	-573
ystem	-574
▁zurück	-575
▁ber	-576
ale	-577
▁Frau	-578
▁Auf	-579
beit	-580
▁ger	-581
off	-582
▁muss	-583
kl	-584
▁denn	-585
ragen	-586
inn	-587
▁wel	-588
rö	-589
pf	-590
mer	-591
ßer	-592
▁zw	-593
angen	-594
▁gut	-595
nten	-596
äre	-597
▁Um	-598
schl	-599
amen	-600
▁Ne	-601
igkeit	-602
▁schon	-603
ächlich	-604
ran	-605
▁heraus	-606
von	-607
zeu	-608
des	-609
aar	-610
▁verst	-611
▁Kinder	-612
lei	-613
▁möchte	-614
vor	-615
rit	-616
ok	-617
stellen	-618
ell	-619
ierte	-620
fahr	-621
▁son	-622
▁ihnen	-623
▁best	-624
zent	-625
▁vielleicht	-626
echn	-627
ahl	-628
ringen	-629
▁zusa	-630
▁Dies	-631
▁Her	-632
▁letz	-633
ationen	-634
ert	-635
▁pass	-636
▁Teil	-637
▁zusammen	-638
▁3	-639
imm	-640
▁Geh	-641
▁Ide	-642
atsächlich	-643
ha	-644
▁brau	-645
▁pro	-646
▁drei	-647
▁davon	-648
▁Fl	-649
zie	-650
▁dort	-651
ade	-652
fe	-653
..	-654
ug	-655
▁arbei	-656
alen	-657
hne	-658
▁Dank	-659
▁Nun	-660
uchen	-661
rechen	-662
alt	-663
▁Land	-664
▁gleich	-665
ant	-666
▁heute	-667
halb	-668
▁Hier	-669
▁hatten	-670
agen	-671
▁genau	-672
form	-673
000	-674
▁inter	-675
kte	-676
atür	-677
▁Techn	-678
▁Wissen	-679
▁Geschichte	-680
▁Kl	-681
cken	-682
wo	-683
att	-684
▁einige	-685
esen	-686
▁bet	-687
▁Bild	-688
ater	-689
▁kein	-690
ichten	-691
weise	-692
mlich	-693
ändern	-694
aut	-695
eld	-696
anden	-697
▁jem	-698
aum	-699
net	-700
▁ihn	-701
▁könnte	-702
zä	-703
▁Arbeit	-704
schen	-705
▁For	-706
▁ir	-707
rage	-708
ennen	-709
atz	-710
▁Nach	-711
ud	-712
▁Diese	-713
ielen	-714
▁Bl	-715
ologie	-716
▁wollen	-717
▁Unter	-718
▁Gen	-719
ine	-720
war	-721
unde	-722
oren	-723
▁paar	-724
irn	-725
▁meiner	-726
▁Mit	-727
▁woll	-728
▁gehen	-729
▁wurden	-730
▁Inter	-731
reich	-732
▁einz	-733
▁wahr	-734
▁darüber	-735
fr	-736
▁nun	-737
rag	-738
qu	-739
▁Ko	-740
ak	-741
▁Wei	-742
▁Je	-743
wick	-744
äd	-745
▁werde	-746
unktion	-747
für	-748
▁ben	-749
?"	-750
tlich	-751
▁besser	-752
utzen	-753
▁sondern	-754
▁tatsächlich	-755
hren	-756
schieden	-757
▁verw	-758
eich	-759
▁Ber	-760
gar	-761
▁Beispiel	-762
▁grö	-763
▁Da	-764
▁ange	-765
hör	-766
ährend	-767
▁zie	-768
atur	-769
▁Ü	-770
ache	-771
▁weiß	-772
fol	-773
▁gab	-774
▁unserer	-775
▁Geb	-776
atürlich	-777
ativ	-778
eisten	-779
▁gu	-780
▁seine	-781
▁Ab	-782
▁Se	-783
ah	-784
hin	-785
ander	-786
änd	-787
▁Wasser	-788
▁bede	-789
▁bek	-790
▁wäre	-791
▁5	-792
▁leben	-793
akt	-794
▁neue	-795
ode	-796
▁Fre	-797
schei	-798
▁dazu	-799
▁vom	-800
ult	-801
▁Aut	-802
schein	-803
▁denke	-804
▁Ste	-805
▁will	-806
▁gef	-807
teil	-808
▁19	-809
▁Al	-810
▁hät	-811
ite	-812
▁irgend	-813
achen	-814
öglich	-815
gie	-816
eite	-817
▁finden	-818
br	-819
▁denken	-820
me	-821
▁entwick	-822
▁Grund	-823
▁kommen	-824
▁sogar	-825
▁denen	-826
utz	-827
▁macht	-828
▁einmal	-829
▁20	-830
öff	-831
▁hei	-832
ittel	-833
▁gegen	-834
ma	-835
▁Mon	-836
▁Wer	-837
▁zwischen	-838
▁Tag	-839
▁lang	-840
▁Ent	-841
▁ges	-842
▁gerade	-843
ften	-844
▁gemacht	-845
▁Des	-846
▁glaube	-847
ierung	-848
▁erzä	-849
▁funktion	-850
▁wichtig	-851
▁Frauen	-852
▁geben	-853
▁Gehirn	-854
▁interess	-855
ark	-856
▁kommt	-857
▁Im	-858
erson	-859
äh	-860
ingen	-861
▁Frage	-862
▁ex	-863
▁Lebens	-864
geben	-865
rank	-866
▁erst	-867
▁Über	-868
ika	-869
enden	-870
rün	-871
keiten	-872
▁Mal	-873
▁ohne	-874
lück	-875
▁bedeu	-876
▁mus	-877
ys	-878
▁jeder	-879
▁näch	-880
▁4	-881
▁letzten	-882
gan	-883
hem	-884
▁nichts	-885
tschaft	-886
fer	-887
▁zeigen	-888
andel	-889
▁ihren	-890
▁würden	-891
alten	-892
ellen	-893
▁dafür	-894
▁verl	-895
ic	-896
weg	-897
ate	-898
achte	-899
▁konnte	-900
▁passiert	-901
▁verschieden	-902
od	-903
▁Daten	-904
▁ersten	-905
▁sieht	-906
gef	-907
chten	-908
gehen	-909
äl	-910
ay	-911
▁Prozent	-912
▁Reg	-913
cher	-914
ikan	-915
▁meisten	-916
▁Med	-917
gr	-918
▁verstehen	-919
nell	-920
ßt	-921
▁Ex	-922
▁während	-923
immt	-924
▁daran	-925
ss	-926
▁Eine	-927
rupp	-928
ischer	-929
▁Millionen	-930
▁Ihre	-931
▁besch	-932
aufen	-933
▁etwa	-934
▁Me	-935
iele	-936
▁mal	-937
stand	-938
▁warum	-939
▁erste	-940
ße	-941
▁lassen	-942
sel	-943
▁sicher	-944
▁sollte	-945
▁10	-946
▁Hand	-947
hrt	-948
zeit	-949
▁Ph	-950
gew	-951
ord	-952
sicht	-953
▁mensch	-954
▁sollten	-955
▁schw	-956
ts	-957
▁natürlich	-958
bs	-959
agt	-960
ign	-961
yp	-962
jekt	-963
▁Idee	-964
ivers	-965
licher	-966
ogen	-967
iere	-968
▁meinen	-969
ergie	-970
erst	-971
ucht	-972
stellt	-973
▁meinem	-974
▁könnten	-975
elle	-976
ompu	-977
▁Geld	-978
▁Person	-979
fte	-980
▁schnell	-981
ce	-982
▁gel	-983
▁wollte	-984
▁komp	-985
▁ja	-986
▁Raum	-987
igt	-988
ält	-989
wir	-990
▁Schl	-991
ia	-992
▁gesch	-993
▁geb	-994
▁ganze	-995
tro	-996
▁große	-997
▁Weg	-998
▁Ä	-999
ide	-1000
aupt	-1001
ramm	-1002
▁jemand	-1003
pro	-1004
schied	-1005
▁Wo	-1006
▁Mar	-1007
ckt	-1008
ös	-1009
llt	-1010
▁Ger	-1011
▁sprechen	-1012
örper	-1013
▁ziemlich	-1014
ären	-1015
innen	-1016
▁scha	-1017
onder	-1018
▁klein	-1019
▁ins	-1020
.000	-1021
ange	-1022
▁War	-1023
▁ihrer	-1024
▁bekommen	-1025
ollar	-1026
▁Inform	-1027
als	-1028
lung	-1029
richt	-1030
▁arbeiten	-1031
wie	-1032
äng	-1033
▁dabei	-1034
adt	-1035
▁ging	-1036
ktiv	-1037
▁sagt	-1038
▁Pl	-1039
▁kam	-1040
kun	-1041
▁hör	-1042
ernen	-1043
io	-1044
ierten	-1045
▁System	-1046
twort	-1047
omputer	-1048
▁darauf	-1049
tt	-1050
▁nehmen	-1051
scheinlich	-1052
amil	-1053
str	-1054
eist	-1055
olut	-1056
▁Kre	-1057
utter	-1058
dien	-1059
ele	-1060
ktur	-1061
laub	-1062
▁Plan	-1063
enz	-1064
ahm	-1065
äter	-1066
▁Univers	-1067
orden	-1068
mus	-1069
▁Wissenschaft	-1070
▁bereit	-1071
finden	-1072
▁Ende	-1073
Qu	-1074
olit	-1075
▁Ro	-1076
reiben	-1077
▁Gem	-1078
▁weniger	-1079
rad	-1080
▁Kind	-1081
▁Mann	-1082
▁Min	-1083
▁doch	-1084
urz	-1085
▁kleinen	-1086
▁El	-1087
▁schl	-1088
pl	-1089
fühl	-1090
fall	-1091
▁Stra	-1092
▁Dollar	-1093
▁vier	-1094
".	-1095
id	-1096
kunft	-1097
▁Entw	-1098
ker	-1099
▁Mus	-1100
▁Dann	-1101
▁Men	-1102
▁bedeutet	-1103
▁Bo	-1104
▁Verb	-1105
lo	-1106
▁We	-1107
▁Mein	-1108
▁Qu	-1109
arbei	-1110
▁unseren	-1111
rat	-1112
▁Y	-1113
▁Famil	-1114
▁US	-1115
▁Technologie	-1116
sst	-1117
ennt	-1118
▁sol	-1119
▁dir	-1120
ial	-1121
itz	-1122
asch	-1123
usst	-1124
orgen	-1125
annt	-1126
▁Rei	-1127
▁Computer	-1128
▁ung	-1129
▁Sache	-1130
▁Möglich	-1131
ganis	-1132
▁Denn	-1133
▁Energie	-1134
▁Sta	-1135
▁dachte	-1136
äft	-1137
▁welche	-1138
▁All	-1139
▁bringen	-1140
ruck	-1141
no	-1142
tete	-1143
gl	-1144
▁Lie	-1145
▁ihm	-1146
▁Te	-1147
▁seit	-1148
▁kleine	-1149
▁brauchen	-1150
▁möglich	-1151
▁eigentlich	-1152
▁gesehen	-1153
nit	-1154
▁sei	-1155
oment	-1156
ga	-1157
ald	-1158
tr	-1159
ive	-1160
raft	-1161
▁Män	-1162
achsen	-1163
uten	-1164
▁Fall	-1165
▁gest	-1166
▁großen	-1167
▁Seite	-1168
▁Gew	-1169
▁wenig	-1170
▁se	-1171
▁Am	-1172
unter	-1173
fin	-1174
▁jeden	-1175
ätz	-1176
ition	-1177
▁Weise	-1178
",	-1179
▁Ha	-1180
schw	-1181
isten	-1182
iges	-1183
▁6	-1184
▁en	-1185
our	-1186
icher	-1187
▁Groß	-1188
▁Schu	-1189
▁ausge	-1190
alis	-1191
▁Stadt	-1192
schaften	-1193
▁ganzen	-1194
opf	-1195
▁200	-1196
...	-1197
nung	-1198
▁fin	-1199
legen	-1200
kten	-1201
▁schle	-1202
▁keinen	-1203
ard	-1204
▁außer	-1205
▁De	-1206
▁hätte	-1207
▁hoch	-1208
halt	-1209
▁voll	-1210
▁Licht	-1211
Ich	-1212
▁al	-1213
folg	-1214
▁Woch	-1215
▁Körper	-1216
▁Danke	-1217
▁Menge	-1218
▁Zukunft	-1219
raf	-1220
hlt	-1221
wegen	-1222
▁Tage	-1223
▁später	-1224
ust	-1225
öffent	-1226
▁gesagt	-1227
▁Grupp	-1228
stellung	-1229
▁versuchen	-1230
▁fün	-1231
ultur	-1232
fft	-1233
ernt	-1234
▁Ged	-1235
▁gern	-1236
ip	-1237
eht	-1238
ähn	-1239
leben	-1240
▁glauben	-1241
iss	-1242
achten	-1243
rieben	-1244
▁Ort	-1245
denken	-1246
▁Kar	-1247
▁Ja	-1248
▁Ma	-1249
ormal	-1250
▁Buch	-1251
▁verm	-1252
wohl	-1253
▁Vers	-1254
▁Entwick	-1255
undheit	-1256
▁vielen	-1257
▁Fil	-1258
▁beim	-1259
th	-1260
lex	-1261
▁unglaub	-1262
hol	-1263
essen	-1264
▁Spiel	-1265
▁Vielen	-1266
iar	-1267
▁Son	-1268
asse	-1269
▁Den	-1270
▁Augen	-1271
gang	-1272
▁Gemein	-1273
lekt	-1274
▁stellen	-1275
▁te	-1276
öl	-1277
▁konnten	-1278
eten	-1279
ausen	-1280
alität	-1281
eilen	-1282
▁heißt	-1283
▁fest	-1284
fahren	-1285
gramm	-1286
▁eigenen	-1287
▁oft	-1288
▁gehör	-1289
▁lernen	-1290
▁besonder	-1291
▁Stud	-1292
▁get	-1293
▁sozi	-1294
ahmen	-1295
▁fast	-1296
▁funktioniert	-1297
elfen	-1298
ständ	-1299
zeug	-1300
ruktur	-1301
nehmen	-1302
▁fünf	-1303
▁indem	-1304
aden	-1305
▁Untern	-1306
setzen	-1307
reichen	-1308
▁wunder	-1309
▁jedes	-1310
▁nä	-1311
▁Moment	-1312
▁schaffen	-1313
▁Natur	-1314
▁Pat	-1315
ändert	-1316
ließ	-1317
▁rie	-1318
ges	-1319
ph	-1320
eile	-1321
reis	-1322
allen	-1323
▁Afr	-1324
▁Sprach	-1325
inner	-1326
▁größ	-1327
stoff	-1328
▁Mutter	-1329
ium	-1330
▁Erde	-1331
▁Schul	-1332
▁Warum	-1333
▁Jetzt	-1334
ritt	-1335
▁gute	-1336
▁Ob	-1337
▁offen	-1338
▁8	-1339
▁lange	-1340
▁schwer	-1341
oten	-1342
zeich	-1343
▁Haus	-1344
▁Probleme	-1345
satz	-1346
▁nutzen	-1347
▁Milliar	-1348
▁gl	-1349
ause	-1350
kel	-1351
▁Wahr	-1352
gefähr	-1353
hle	-1354
ho	-1355
ib	-1356
▁Du	-1357
▁Internet	-1358
▁Produ	-1359
▁Hin	-1360
▁Gesell	-1361
ott	-1362
echs	-1363
nisse	-1364
eiden	-1365
▁seiner	-1366
lichkeit	-1367
▁Gesundheit	-1368
iker	-1369
zahl	-1370
spro	-1371
wusst	-1372
isches	-1373
kon	-1374
volut	-1375
▁wahrscheinlich	-1376
▁sah	-1377
▁aller	-1378
▁Kam	-1379
▁helfen	-1380
so	-1381
ett	-1382
ahlen	-1383
▁allen	-1384
esser	-1385
▁Vide	-1386
▁7	-1387
euten	-1388
ammen	-1389
▁weit	-1390
eim	-1391
itu	-1392
▁weg	-1393
▁anders	-1394
fä	-1395
▁c	-1396
▁fol	-1397
▁Ang	-1398
▁einge	-1399
ED	-1400
▁genug	-1401
ko	-1402
▁Lehr	-1403
▁zeigt	-1404
ünst	-1405
▁herum	-1406
▁schön	-1407
▁unserem	-1408
chmal	-1409
▁neuen	-1410
duz	-1411
▁frü	-1412
▁Form	-1413
▁wicht	-1414
▁erzählen	-1415
▁Bil	-1416
▁klar	-1417
volution	-1418
fangen	-1419
mp	-1420
dent	-1421
▁Stu	-1422
gleich	-1423
heiten	-1424
▁nächsten	-1425
glichen	-1426
▁USA	-1427
▁ne	-1428
ossen	-1429
▁verk	-1430
unst	-1431
▁begann	-1432
▁kennen	-1433
yn	-1434
ina	-1435
▁100	-1436
▁9	-1437
ren	-1438
raum	-1439
liches	-1440
▁Gegen	-1441
▁15	-1442
▁Dar	-1443
▁Mo	-1444
kay	-1445
rieg	-1446
welt	-1447
▁größer	-1448
▁50	-1449
▁wus	-1450
schaffen	-1451
▁ungefähr	-1452
▁Met	-1453
▁we	-1454
▁Amer	-1455
▁30	-1456
zess	-1457
scheid	-1458
▁betrach	-1459
▁jede	-1460
gangen	-1461
▁star	-1462
land	-1463
▁bauen	-1464
ron	-1465
▁Design	-1466
ösen	-1467
▁Nicht	-1468
umen	-1469
kennen	-1470
▁Wor	-1471
andeln	-1472
ehn	-1473
▁richtig	-1474
hunder	-1475
▁blei	-1476
▁bevor	-1477
setzt	-1478
▁Lu	-1479
▁Bür	-1480
▁New	-1481
▁Rob	-1482
zieh	-1483
reffen	-1484
▁Kunst	-1485
▁Selbst	-1486
▁gemein	-1487
▁liegt	-1488
▁Planeten	-1489
▁verändern	-1490
▁bisschen	-1491
öt	-1492
▁recht	-1493
igkeiten	-1494
▁normal	-1495
▁hö	-1496
▁Ideen	-1497
▁Leuten	-1498
▁Fäh	-1499
▁Schw	-1500
mmun	-1501
▁Zus	-1502
ens	-1503
▁Su	-1504
▁Vie	-1505
▁seinen	-1506
▁Projekt	-1507
äche	-1508
▁gar	-1509
▁Musik	-1510
chn	-1511
ffe	-1512
▁Forsch	-1513
ere	-1514
sche	-1515
▁fal	-1516
▁kurz	-1517
eut	-1518
▁beh	-1519
forder	-1520
▁Schule	-1521
▁Fot	-1522
▁Mater	-1523
asst	-1524
bo	-1525
▁Informationen	-1526
llig	-1527
ände	-1528
▁Für	-1529
▁überall	-1530
▁TED	-1531
ädchen	-1532
▁Erfahr	-1533
dig	-1534
▁Di	-1535
ktion	-1536
▁stehen	-1537
omen	-1538
▁sagten	-1539
▁At	-1540
▁ro	-1541
mpf	-1542
▁Pu	-1543
utzt	-1544
▁Mu	-1545
anken	-1546
▁Mode	-1547
▁ern	-1548
mittel	-1549
▁inner	-1550
mö	-1551
ütz	-1552
ringt	-1553
itzen	-1554
▁gehört	-1555
▁Arten	-1556
ismus	-1557
▁Unternehmen	-1558
▁Wirtschaft	-1559
▁versuch	-1560
▁Punkt	-1561
▁Kopf	-1562
▁erkl	-1563
▁Krank	-1564
los	-1565
▁hinter	-1566
▁darum	-1567
▁anzu	-1568
ienten	-1569
▁nennen	-1570
▁Lin	-1571
▁Antwort	-1572
▁schwier	-1573
immen	-1574
▁Fragen	-1575
▁Milliarden	-1576
▁Männer	-1577
▁musste	-1578
▁eben	-1579
sy	-1580
▁Zwei	-1581
▁ihrem	-1582
▁Bi	-1583
▁reden	-1584
ks	-1585
▁Meine	-1586
pr	-1587
anzen	-1588
▁Exper	-1589
gesch	-1590
je	-1591
twor	-1592
▁sel	-1593
▁Gebäu	-1594
eren	-1595
rieb	-1596
▁Mädchen	-1597
änger	-1598
▁Vort	-1599
▁anderes	-1600
▁Br	-1601
izin	-1602
mand	-1603
▁Dieses	-1604
ief	-1605
zept	-1606
▁Netz	-1607
▁dich	-1608
▁Geschichten	-1609
scheiden	-1610
▁bereits	-1611
cke	-1612
▁bem	-1613
fang	-1614
▁Glück	-1615
auer	-1616
▁hal	-1617
▁großart	-1618
bringen	-1619
▁euch	-1620
▁Jahrhunder	-1621
▁Universum	-1622
gung	-1623
▁Richt	-1624
olle	-1625
▁Bü	-1626
▁de	-1627
▁Bed	-1628
gem	-1629
amens	-1630
▁entwickelt	-1631
▁fragen	-1632
▁Afrika	-1633
einander	-1634
voll	-1635
▁erkennen	-1636
▁Minuten	-1637
▁erreichen	-1638
öhn	-1639
▁Auto	-1640
▁frag	-1641
▁Zusammen	-1642
▁steht	-1643
▁besonders	-1644
zei	-1645
▁Lös	-1646
▁halten	-1647
▁Gesellschaft	-1648
▁pl	-1649
▁erh	-1650
▁oben	-1651
▁namens	-1652
sk	-1653
▁spielen	-1654
ome	-1655
▁Gl	-1656
inde	-1657
▁Verhalten	-1658
▁entde	-1659
▁hätten	-1660
▁Familie	-1661
▁benutzen	-1662
▁verschiedene	-1663
▁Kor	-1664
if	-1665
▁gerne	-1666
ilfe	-1667
inen	-1668
▁seinem	-1669
▁ü	-1670
pen	-1671
ielt	-1672
erv	-1673
▁Film	-1674
mit	-1675
annte	-1676
zentr	-1677
indung	-1678
▁machte	-1679
aun	-1680
▁Oder	-1681
andelt	-1682
etz	-1683
▁hören	-1684
nahm	-1685
werk	-1686
▁Kön	-1687
▁darin	-1688
▁Indien	-1689
▁Entscheid	-1690
▁ho	-1691
▁na	-1692
▁Them	-1693
▁ähn	-1694
ahn	-1695
deut	-1696
▁Unser	-1697
▁Gruppe	-1698
▁Herz	-1699
▁Macht	-1700
oter	-1701
▁Fol	-1702
akter	-1703
ient	-1704
▁sechs	-1705
rom	-1706
▁glob	-1707
▁statt	-1708
unge	-1709
▁Stück	-1710
▁Video	-1711
▁Far	-1712
▁bef	-1713
▁Flug	-1714
▁wohl	-1715
▁beein	-1716
euer	-1717
grund	-1718
▁Doch	-1719
schnit	-1720
▁Beweg	-1721
▁Ergeb	-1722
▁Fir	-1723
▁Fü	-1724
bare	-1725
▁jedem	-1726
▁Organis	-1727
ölker	-1728
richten	-1729
▁braucht	-1730
▁Dem	-1731
geln	-1732
kehr	-1733
▁Angst	-1734
▁bestimm	-1735
urs	-1736
onen	-1737
▁Bilder	-1738
▁Vielleicht	-1739
▁Eltern	-1740
let	-1741
bild	-1742
▁gesam	-1743
ließlich	-1744
ings	-1745
▁Patienten	-1746
was	-1747
▁Weil	-1748
▁entwickeln	-1749
mals	-1750
▁Durch	-1751
▁ch	-1752
endet	-1753
▁richt	-1754
▁Ur	-1755
setz	-1756
ächt	-1757
dr	-1758
▁erf	-1759
anten	-1760
▁ries	-1761
▁vorstellen	-1762
ume	-1763
▁Sprache	-1764
üt	-1765
ock	-1766
heor	-1767
▁tro	-1768
ützen	-1769
ase	-1770
▁Luft	-1771
▁Beg	-1772
führt	-1773
sych	-1774
▁Bau	-1775
▁mag	-1776
▁Sü	-1777
▁glück	-1778
▁Gefühl	-1779
▁Kultur	-1780
system	-1781
▁Freund	-1782
ikro	-1783
punkt	-1784
▁Möglichkeit	-1785
▁Beh	-1786
▁flie	-1787
genommen	-1788
ezie	-1789
▁Eigen	-1790
▁Vater	-1791
▁Stunden	-1792
▁bewegen	-1793
▁einigen	-1794
▁erhalten	-1795
uer	-1796
▁irgendwie	-1797
▁Str	-1798
gte	-1799
ante	-1800
ym	-1801
ider	-1802
urop	-1803
iken	-1804
icherheit	-1805
▁verschiedenen	-1806
reten	-1807
ässt	-1808
▁Arm	-1809
ersön	-1810
▁beiden	-1811
▁erw	-1812
▁hoff	-1813
▁manchmal	-1814
annen	-1815
zug	-1816
haupt	-1817
zeugen	-1818
▁ändern	-1819
▁Veränder	-1820
esse	-1821
okrat	-1822
▁Rück	-1823
▁Städ	-1824
ure	-1825
▁alt	-1826
▁wollten	-1827
ohn	-1828
gal	-1829
▁Wort	-1830
▁führen	-1831
▁Bereich	-1832
äten	-1833
stehen	-1834
▁frei	-1835
▁drau	-1836
amm	-1837
▁Grün	-1838
▁besten	-1839
▁Neu	-1840
▁abs	-1841
▁Gener	-1842
▁stell	-1843
gestellt	-1844
▁Meer	-1845
▁einzige	-1846
▁nämlich	-1847
ack	-1848
err	-1849
teten	-1850
▁Regierung	-1851
vest	-1852
▁erk	-1853
▁bemer	-1854
▁einzel	-1855
▁Roboter	-1856
▁Yor	-1857
▁Hause	-1858
blik	-1859
▁Part	-1860
tel	-1861
▁Sinn	-1862
▁vert	-1863
isk	-1864
▁for	-1865
▁Sachen	-1866
tens	-1867
▁Gott	-1868
ow	-1869
eig	-1870
▁unbe	-1871
▁unterschied	-1872
▁Bezieh	-1873
▁Masch	-1874
▁Gesicht	-1875
zt	-1876
bte	-1877
▁verwenden	-1878
▁verändert	-1879
häng	-1880
▁Sol	-1881
▁eher	-1882
▁per	-1883
▁unglaublich	-1884
one	-1885
zin	-1886
zustellen	-1887
▁sage	-1888
▁dr	-1889
▁innerhalb	-1890
führ	-1891
hlte	-1892
stens	-1893
ehe	-1894
▁...	-1895
▁Komp	-1896
▁Krebs	-1897
▁beginnen	-1898
gabe	-1899
▁fand	-1900
▁China	-1901
▁öffent	-1902
▁menschlichen	-1903
▁Kindern	-1904
erweise	-1905
▁Po	-1906
reifen	-1907
▁Gebäude	-1908
▁gemeinsam	-1909
▁Hö	-1910
▁Pol	-1911
▁welch	-1912
▁Heraus	-1913
▁wegen	-1914
onnen	-1915
▁überhaupt	-1916
druck	-1917
tem	-1918
▁los	-1919
▁Ziel	-1920
denten	-1921
▁brach	-1922
sent	-1923
enzen	-1924
icken	-1925
▁getan	-1926
▁Länder	-1927
nov	-1928
hemat	-1929
▁Fahr	-1930
berfl	-1931
▁Werk	-1932
▁Gleich	-1933
▁bl	-1934
▁Dieser	-1935
schlossen	-1936
mme	-1937
uf	-1938
▁Bab	-1939
▁gr	-1940
uß	-1941
▁Arch	-1942
erikan	-1943
▁gleichen	-1944
eint	-1945
führen	-1946
▁beob	-1947
▁abge	-1948
▁ansch	-1949
arten	-1950
▁zwar	-1951
▁versucht	-1952
ai	-1953
erk	-1954
▁schauen	-1955
son	-1956
ffekt	-1957
igten	-1958
▁To	-1959
völker	-1960
ivi	-1961
abor	-1962
racht	-1963
▁Lage	-1964
▁18	-1965
▁Kn	-1966
▁Mat	-1967
▁Anfang	-1968
▁Entwicklung	-1969
ont	-1970
ingt	-1971
ative	-1972
▁verd	-1973
▁allem	-1974
▁weltw	-1975
han	-1976
▁Nacht	-1977
▁polit	-1978
ende	-1979
▁Grö	-1980
▁Okay	-1981
▁Stellen	-1982
kü	-1983
▁Wochen	-1984
▁Material	-1985
▁Par	-1986
▁Krieg	-1987
▁Umwelt	-1988
▁treffen	-1989
▁Ant	-1990
▁Bes	-1991
▁lei	-1992
▁aufge	-1993
▁Herausforder	-1994
amp	-1995
ute	-1996
▁jen	-1997
entr	-1998
riff	-1999
▁lin	-2000
ängt	-2001
▁40	-2002
fel	-2003
▁Bet	-2004
▁rau	-2005
blikum	-2006
haus	-2007
▁niemand	-2008
▁auszu	-2009
imen	-2010
▁Zum	-2011
eigen	-2012
St	-2013
wert	-2014
dlich	-2015
nahme	-2016
▁Chr	-2017
▁Rest	-2018
▁Lehrer	-2019
▁meines	-2020
▁mussten	-2021
▁Erfahrung	-2022
▁bel	-2023
ument	-2024
baren	-2025
▁Prozess	-2026
achst	-2027
eister	-2028
▁Tiere	-2029
▁wusste	-2030
oss	-2031
uren	-2032
av	-2033
▁dre	-2034
▁Dingen	-2035
▁folgen	-2036
wär	-2037
enne	-2038
▁Prä	-2039
möglich	-2040
auso	-2041
innern	-2042
▁kamen	-2043
sie	-2044
▁Tier	-2045
▁weitere	-2046
elig	-2047
ras	-2048
▁Kap	-2049
▁entf	-2050
▁nächste	-2051
ötz	-2052
▁Essen	-2053
min	-2054
▁Nu	-2055
▁Pap	-2056
ranken	-2057
▁leicht	-2058
▁Publikum	-2059
▁Verein	-2060
▁produz	-2061
▁vö	-2062
sein	-2063
▁Dam	-2064
▁Freunde	-2065
ächst	-2066
▁Frei	-2067
▁Mittel	-2068
▁fühlen	-2069
▁12	-2070
▁Dr	-2071
arbeit	-2072
ager	-2073
▁beko	-2074
▁tut	-2075
▁erre	-2076
ehl	-2077
ans	-2078
▁Klim	-2079
▁Grunde	-2080
▁Geschäft	-2081
▁ster	-2082
▁Tages	-2083
achstum	-2084
▁solche	-2085
▁Sicherheit	-2086
▁Co	-2087
▁jed	-2088
anach	-2089
annten	-2090
▁Denken	-2091
ragt	-2092
▁ersch	-2093
▁fl	-2094
tell	-2095
antwort	-2096
▁'	-2097
ziehen	-2098
▁exist	-2099
iet	-2100
itze	-2101
rieden	-2102
▁Struktur	-2103
▁unten	-2104
▁Programm	-2105
▁eigene	-2106
▁vorher	-2107
ransp	-2108
▁Inst	-2109
▁menschliche	-2110
▁Pf	-2111
▁falsch	-2112
▁worden	-2113
▁Situ	-2114
nahmen	-2115
▁aufzu	-2116
▁wor	-2117
▁Kont	-2118
ational	-2119
sph	-2120
falls	-2121
▁unters	-2122
▁erstaun	-2123
▁Res	-2124
▁Vert	-2125
▁deren	-2126
▁lässt	-2127
▁letzte	-2128
▁Unterschied	-2129
▁Möglichkeiten	-2130
▁York	-2131
ations	-2132
▁Boden	-2133
▁erwar	-2134
sätz	-2135
▁Pr	-2136
▁Mikro	-2137
▁wären	-2138
▁bringt	-2139
▁damals	-2140
▁jedoch	-2141
▁Ster	-2142
▁verschw	-2143
▁hervor	-2144
hält	-2145
iment	-2146
lungs	-2147
▁Lassen	-2148
▁obwohl	-2149
xt	-2150
ian	-2151
▁Typ	-2152
▁erlau	-2153
izieren	-2154
▁Gedanken	-2155
▁or	-2156
anke	-2157
stet	-2158
rauen	-2159
▁Hilfe	-2160
▁grund	-2161
haft	-2162
ksam	-2163
▁völlig	-2164
▁schreiben	-2165
troll	-2166
sichtlich	-2167
ax	-2168
drück	-2169
ienen	-2170
statt	-2171
zellen	-2172
▁gleiche	-2173
▁mo	-2174
▁Nein	-2175
imme	-2176
▁berü	-2177
▁Polit	-2178
▁Schwe	-2179
▁Fern	-2180
▁Ander	-2181
▁Thema	-2182
ötzlich	-2183
▁fragte	-2184
▁Job	-2185
▁Sek	-2186
▁Staaten	-2187
are	-2188
▁25	-2189
elten	-2190
▁Fort	-2191
▁direkt	-2192
▁bleiben	-2193
Was	-2194
opp	-2195
▁DN	-2196
innt	-2197
bauen	-2198
langen	-2199
uche	-2200
▁hunder	-2201
fluss	-2202
▁Elekt	-2203
ahren	-2204
wesen	-2205
▁Woche	-2206
▁lösen	-2207
▁dessen	-2208
▁entscheiden	-2209
ue	-2210
▁Kü	-2211
▁teil	-2212
iziert	-2213
▁Markt	-2214
ologien	-2215
▁Haupt	-2216
get	-2217
▁Li	-2218
▁ph	-2219
blick	-2220
bau	-2221
ließen	-2222
▁sollen	-2223
▁besteht	-2224
▁erinner	-2225
bung	-2226
inger	-2227
▁suchen	-2228
▁funktionieren	-2229
▁Monate	-2230
ehm	-2231
▁Sk	-2232
▁stark	-2233
rakt	-2234
▁verbesser	-2235
▁betrachten	-2236
mot	-2237
▁Viele	-2238
scht	-2239
▁Oze	-2240
cen	-2241
ograf	-2242
▁Neur	-2243
hören	-2244
ausende	-2245
▁genauso	-2246
bes	-2247
fort	-2248
wirk	-2249
zogen	-2250
alien	-2251
▁Namen	-2252
zip	-2253
▁Tr	-2254
ikaner	-2255
▁teilen	-2256
▁Ho	-2257
gebung	-2258
▁zuvor	-2259
flanzen	-2260
lin	-2261
ählen	-2262
schnitt	-2263
trem	-2264
ament	-2265
ilden	-2266
▁Ländern	-2267
licht	-2268
▁persön	-2269
erstör	-2270
▁schwierig	-2271
iff	-2272
▁ged	-2273
▁Nahr	-2274
▁zehn	-2275
arbeitet	-2276
ub	-2277
osit	-2278
▁Kat	-2279
▁Per	-2280
▁Kraft	-2281
▁Zellen	-2282
▁stellt	-2283
▁interessant	-2284
▁Gesetz	-2285
▁sprach	-2286
▁Ist	-2287
rifft	-2288
▁langsam	-2289
elbe	-2290
▁benöt	-2291
zeigt	-2292
▁Tats	-2293
▁Autos	-2294
▁führt	-2295
▁trotz	-2296
▁ermö	-2297
▁Familien	-2298
▁gefunden	-2299
spr	-2300
aren	-2301
vers	-2302
▁Team	-2303
▁Lösung	-2304
wend	-2305
▁Ihren	-2306
▁Medik	-2307
ond	-2308
aktion	-2309
▁gescha	-2310
▁zweite	-2311
▁unseres	-2312
ool	-2313
chter	-2314
heorie	-2315
▁Liebe	-2316
äuf	-2317
cker	-2318
atten	-2319
weisen	-2320
▁Erfolg	-2321
▁verbunden	-2322
▁Engl	-2323
▁Prin	-2324
▁größten	-2325
▁Fähigkeit	-2326
man	-2327
ore	-2328
▁Go	-2329
▁Modell	-2330
▁sieben	-2331
rop	-2332
spiele	-2333
▁bitte	-2334
▁sterben	-2335
▁Ind	-2336
ieten	-2337
▁kaufen	-2338
telligen	-2339
sta	-2340
▁Is	-2341
zeuge	-2342
berfläche	-2343
▁Bru	-2344
gegen	-2345
▁Wahl	-2346
▁amerikan	-2347
alter	-2348
▁Heute	-2349
▁Labor	-2350
▁komplex	-2351
aw	-2352
bene	-2353
▁Bro	-2354
itein	-2355
jekte	-2356
▁scheint	-2357
Das	-2358
▁Fr	-2359
iven	-2360
igung	-2361
▁Innov	-2362
▁liebe	-2363
tworten	-2364
▁größte	-2365
aler	-2366
bten	-2367
spir	-2368
▁anderer	-2369
reiten	-2370
▁lesen	-2371
▁Gol	-2372
▁Mil	-2373
gaben	-2374
▁Unsere	-2375
▁draußen	-2376
▁herauszu	-2377
auft	-2378
▁Hoff	-2379
▁Zahl	-2380
▁Archite	-2381
▁welches	-2382
▁Bewegung	-2383
▁Wissenschaftler	-2384
▁Stand	-2385
sprochen	-2386
af	-2387
line	-2388
▁Gemeinschaft	-2389
▁dein	-2390
▁führ	-2391
▁Bedeut	-2392
▁beeinfl	-2393
völkerung	-2394
▁Na	-2395
jähr	-2396
▁eins	-2397
▁hast	-2398
wohn	-2399
äuft	-2400
unehmen	-2401
▁mitein	-2402
▁erinnern	-2403
ffiz	-2404
▁Sehen	-2405
▁Är	-2406
▁nahm	-2407
▁Europ	-2408
ware	-2409
▁gro	-2410
▁Jeder	-2411
▁gelernt	-2412
▁schließlich	-2413
dust	-2414
iver	-2415
▁Alter	-2416
▁gewesen	-2417
jen	-2418
ünstler	-2419
▁Medien	-2420
▁erschaffen	-2421
ity	-2422
bend	-2423
▁Eis	-2424
agieren	-2425
ochen	-2426
lassen	-2427
▁fanden	-2428
▁hinein	-2429
ance	-2430
▁bewusst	-2431
▁Natürlich	-2432
ose	-2433
inne	-2434
▁sehe	-2435
▁Ozean	-2436
▁passieren	-2437
zw	-2438
bel	-2439
▁60	-2440
iko	-2441
olz	-2442
ehler	-2443
▁essen	-2444
▁erklären	-2445
▁glücklich	-2446
ift	-2447
▁80	-2448
immer	-2449
▁Reihe	-2450
▁Bürger	-2451
▁gegenüber	-2452
▁Erw	-2453
▁Recht	-2454
▁länger	-2455
▁Verbindung	-2456
reck	-2457
▁Süd	-2458
▁Führ	-2459
▁Muster	-2460
In	-2461
sieht	-2462
▁erle	-2463
aß	-2464
ese	-2465
▁Technik	-2466
▁Tatsache	-2467
älter	-2468
▁Char	-2469
▁Wert	-2470
wasser	-2471
▁erfolg	-2472
▁jemals	-2473
▁Schritt	-2474
▁wachsen	-2475
▁Studenten	-2476
▁Jahrhundert	-2477
äß	-2478
fern	-2479
▁Vir	-2480
▁bist	-2481
▁daraus	-2482
▁Wahrheit	-2483
itut	-2484
lett	-2485
rain	-2486
reibt	-2487
gewöhn	-2488
gliche	-2489
▁gebaut	-2490
▁schwar	-2491
▁Kranken	-2492
▁unterst	-2493
▁geworden	-2494
▁nimmt	-2495
▁schlecht	-2496
Sch	-2497
▁CA	-2498
▁qu	-2499
▁übr	-2500
älfte	-2501
gessen	-2502
▁hinaus	-2503
▁konzentr	-2504
▁Blut	-2505
▁Technologien	-2506
▁Ris	-2507
▁deshalb	-2508
fäh	-2509
▁Fa	-2510
▁fr	-2511
ividu	-2512
gefühl	-2513
▁Alles	-2514
▁miteinander	-2515
▁br	-2516
▁möchten	-2517
▁nachdem	-2518
▁Richtung	-2519
▁aussehen	-2520
▁wissenschaft	-2521
itäten	-2522
▁Anzahl	-2523
ja	-2524
mo	-2525
oral	-2526
zeugt	-2527
▁neben	-2528
ämp	-2529
▁Platz	-2530
▁mache	-2531
▁Alle	-2532
▁beginnt	-2533
▁verloren	-2534
▁Tatsächlich	-2535
▁bew	-2536
▁kleines	-2537
▁anfangen	-2538
ve	-2539
lauf	-2540
▁Test	-2541
eid	-2542
örter	-2543
▁Blick	-2544
▁kleiner	-2545
rän	-2546
ativen	-2547
▁Einige	-2548
▁versch	-2549
ator	-2550
▁sofort	-2551
weis	-2552
merksam	-2553
zus	-2554
igit	-2555
▁Erk	-2556
▁tief	-2557
dustrie	-2558
ktu	-2559
ängen	-2560
▁Sicht	-2561
▁einzu	-2562
▁Stimme	-2563
▁danach	-2564
▁findet	-2565
▁gezeigt	-2566
▁schrieb	-2567
▁plötzlich	-2568
▁hil	-2569
▁Krankheit	-2570
rift	-2571
rauch	-2572
▁Aufgabe	-2573
▁bi	-2574
wand	-2575
▁Ihrem	-2576
▁stellte	-2577
▁überras	-2578
▁Forschung	-2579
▁Bildung	-2580
▁Deshalb	-2581
asen	-2582
spekt	-2583
▁Viel	-2584
▁laufen	-2585
▁Umgebung	-2586
▁Mot	-2587
änden	-2588
▁wert	-2589
▁guten	-2590
▁Fuß	-2591
unkte	-2592
▁Ihrer	-2593
▁Gewalt	-2594
▁Städte	-2595
▁beschäft	-2596
fon	-2597
▁raus	-2598
▁Gal	-2599
zeitig	-2600
lang	-2601
▁Bel	-2602
▁Teile	-2603
▁genannt	-2604
▁ind	-2605
kraft	-2606
▁bekommt	-2607
▁Veränderung	-2608
▁Vorstellung	-2609
echan	-2610
esent	-2611
▁fort	-2612
edizin	-2613
▁Rolle	-2614
▁schau	-2615
▁allein	-2616
wusstsein	-2617
öst	-2618
▁Mag	-2619
▁höher	-2620
▁entfernt	-2621
gn	-2622
si	-2623
aszin	-2624
raten	-2625
▁Bedeutung	-2626
sm	-2627
ezi	-2628
▁acht	-2629
▁grün	-2630
▁Mitte	-2631
▁Reise	-2632
▁verwendet	-2633
▁nachzu	-2634
▁Situation	-2635
prä	-2636
▁egal	-2637
▁Größe	-2638
sprechen	-2639
Wir	-2640
unk	-2641
urt	-2642
▁kü	-2643
▁tö	-2644
ines	-2645
▁tat	-2646
durch	-2647
gende	-2648
▁Kamer	-2649
▁aktiv	-2650
▁Hälfte	-2651
▁Wirklich	-2652
ct	-2653
änge	-2654
▁sonst	-2655
▁Während	-2656
▁Demokrat	-2657
del	-2658
▁bewe	-2659
▁Sonnen	-2660
▁Mathemat	-2661
ame	-2662
▁Tem	-2663
▁Foto	-2664
▁samm	-2665
ies	-2666
dete	-2667
▁elekt	-2668
ierungen	-2669
radition	-2670
▁benutzt	-2671
▁Realität	-2672
▁veröffent	-2673
▁nachdenken	-2674
▁Aktiv	-2675
▁gefähr	-2676
rate	-2677
▁199	-2678
recht	-2679
▁niemals	-2680
▁Fä	-2681
ändig	-2682
äuser	-2683
▁hoffe	-2684
▁Meinung	-2685
▁Straßen	-2686
elte	-2687
▁Fisch	-2688
▁beide	-2689
▁reich	-2690
▁Ru	-2691
iten	-2692
▁Nie	-2693
▁Tür	-2694
▁Herausforderung	-2695
▁Dro	-2696
▁rei	-2697
zü	-2698
▁Erd	-2699
▁öff	-2700
▁Tele	-2701
sphäre	-2702
ysik	-2703
ichtet	-2704
ierend	-2705
▁beste	-2706
▁jemanden	-2707
Pro	-2708
fekt	-2709
ment	-2710
▁geh	-2711
immel	-2712
teilt	-2713
trolle	-2714
▁Studie	-2715
▁Vortrag	-2716
▁soziale	-2717
▁erreicht	-2718
▁weltweit	-2719
az	-2720
äss	-2721
▁Kil	-2722
▁bekam	-2723
▁techn	-2724
wirtschaft	-2725
gten	-2726
▁Nord	-2727
▁bekannt	-2728
▁verrück	-2729
▁erfolgreich	-2730
▁Entscheidungen	-2731
▁Ju	-2732
lant	-2733
affen	-2734
▁mögen	-2735
▁Information	-2736
▁Bar	-2737
▁kre	-2738
▁alten	-2739
▁extrem	-2740
ppe	-2741
tzut	-2742
ritten	-2743
▁gingen	-2744
ey	-2745
omb	-2746
eutzut	-2747
▁zeige	-2748
eutzutage	-2749
▁Entwicklungs	-2750
app	-2751
lage	-2752
▁Schü	-2753
▁rein	-2754
▁komplett	-2755
▁ur	-2756
ette	-2757
uchs	-2758
▁toll	-2759
▁ziehen	-2760
▁Prinzip	-2761
▁ru	-2762
ogra	-2763
▁DNA	-2764
▁kontroll	-2765
▁Rad	-2766
▁Tat	-2767
▁Chem	-2768
▁Kolle	-2769
▁daher	-2770
▁hinzu	-2771
arbeiten	-2772
▁gegeben	-2773
▁Wachstum	-2774
kre	-2775
▁Kal	-2776
▁Straße	-2777
▁Amerika	-2778
▁genommen	-2779
ertig	-2780
▁blau	-2781
tu	-2782
▁Bä	-2783
alls	-2784
tten	-2785
ehmer	-2786
▁Medizin	-2787
▁ak	-2788
dessen	-2789
▁fahren	-2790
nt	-2791
itel	-2792
▁Gef	-2793
iegen	-2794
▁Geist	-2795
▁Sonne	-2796
▁entst	-2797
▁schneller	-2798
▁wichtiger	-2799
rab	-2800
▁lau	-2801
ologen	-2802
▁Preis	-2803
bildung	-2804
▁Kosten	-2805
lekü	-2806
findet	-2807
▁stand	-2808
▁Zahlen	-2809
orf	-2810
▁11	-2811
arkt	-2812
antast	-2813
jenigen	-2814
▁Bakter	-2815
▁machten	-2816
roh	-2817
rech	-2818
▁zer	-2819
▁empf	-2820
▁Strom	-2821
▁setzen	-2822
ari	-2823
▁Nur	-2824
schul	-2825
stück	-2826
schieht	-2827
▁interessiert	-2828
istan	-2829
▁brachte	-2830
▁geschieht	-2831
▁Vereinigten	-2832
ister	-2833
ätzen	-2834
▁Einz	-2835
ftware	-2836
▁Nachrichten	-2837
▁herauszufinden	-2838
legt	-2839
rans	-2840
▁Gel	-2841
stein	-2842
▁geboren	-2843
▁Oberfläche	-2844
▁Meter	-2845
▁Hinter	-2846
▁Papier	-2847
struktur	-2848
▁Schauen	-2849
rim	-2850
▁Bücher	-2851
▁liegen	-2852
▁fliegen	-2853
▁Ergebnis	-2854
▁Fähigkeiten	-2855
ile	-2856
inz	-2857
zte	-2858
▁App	-2859
▁Maß	-2860
▁Firma	-2861
▁nennt	-2862
▁faszin	-2863
gebracht	-2864
▁Zeu	-2865
▁Goog	-2866
▁Fehler	-2867
▁früher	-2868
Die	-2869
gor	-2870
isse	-2871
▁bas	-2872
uchten	-2873
wissen	-2874
▁Europa	-2875
▁absolut	-2876
viel	-2877
auern	-2878
▁Jahrz	-2879
▁stimmt	-2880
indungen	-2881
▁Maschine	-2882
▁Gesundheits	-2883
▁Do	-2884
▁000	-2885
▁Sau	-2886
▁Tod	-2887
▁tot	-2888
ollen	-2889
▁Stat	-2890
▁enor	-2891
▁Beziehung	-2892
▁Generation	-2893
ieg	-2894
▁90	-2895
itzt	-2896
obil	-2897
ällt	-2898
▁bed	-2899
daten	-2900
▁Ganz	-2901
▁Kommun	-2902
▁Fortsch	-2903
ons	-2904
▁Har	-2905
abhäng	-2906
essour	-2907
▁Zeich	-2908
▁gesamte	-2909
▁einfache	-2910
amer	-2911
samm	-2912
▁Tro	-2913
▁Von	-2914
▁Männ	-2915
▁neues	-2916
▁lieben	-2917
!"	-2918
imp	-2919
schlag	-2920
schlagen	-2921
▁zerstör	-2922
wirkungen	-2923
▁wirtschaft	-2924
ssen	-2925
itter	-2926
▁nein	-2927
▁Druck	-2928
▁dachten	-2929
▁begannen	-2930
hand	-2931
ikel	-2932
iegel	-2933
▁erfor	-2934
▁sozialen	-2935
glie	-2936
▁Ding	-2937
▁Hoch	-2938
gendes	-2939
▁Hoffnung	-2940
▁geschrieben	-2941
üss	-2942
sell	-2943
▁lok	-2944
▁digit	-2945
tler	-2946
twas	-2947
▁Karte	-2948
merksamkeit	-2949
dert	-2950
ämpfen	-2951
▁Wieder	-2952
co	-2953
▁Auch	-2954
▁übert	-2955
ikation	-2956
▁tragen	-2957
▁zuerst	-2958
▁anstatt	-2959
▁gesprochen	-2960
fess	-2961
eller	-2962
▁heut	-2963
▁Psych	-2964
▁verurs	-2965
▁Evolution	-2966
▁Aufmerksamkeit	-2967
ime	-2968
▁OK	-2969
isst	-2970
verb	-2971
igens	-2972
üssel	-2973
▁gebe	-2974
▁Produkt	-2975
▁Experiment	-2976
▁Revolution	-2977
▁Sym	-2978
ussen	-2979
▁Park	-2980
lungen	-2981
▁lern	-2982
▁defin	-2983
▁Politik	-2984
isu	-2985
vent	-2986
▁prä	-2987
▁abzu	-2988
▁Genau	-2989
▁Google	-2990
▁bewegt	-2991
▁großer	-2992
▁Bewusstsein	-2993
atte	-2994
▁gleichzeitig	-2995
auber	-2996
▁ernst	-2997
▁Leiden	-2998
▁Seiten	-2999
▁Schulen	-3000
▁passierte	-3001
ales	-3002
pfen	-3003
▁bein	-3004
indest	-3005
▁sahen	-3006
▁Gruppen	-3007
▁ähnlich	-3008
▁16	-3009
▁Frü	-3010
laufen	-3011
▁älter	-3012
▁Behand	-3013
iot	-3014
▁Ad	-3015
ivil	-3016
nete	-3017
pfer	-3018
▁finde	-3019
▁Erinner	-3020
▁Studien	-3021
▁Bevölkerung	-3022
beh	-3023
▁Gu	-3024
deck	-3025
hnung	-3026
▁Wohl	-3027
▁Künstler	-3028
ama	-3029
ote	-3030
▁Ka	-3031
feld	-3032
hode	-3033
▁Sex	-3034
altung	-3035
▁verlassen	-3036
▁beobachten	-3037
▁Schön	-3038
▁vorbei	-3039
▁bestimmt	-3040
▁wichtige	-3041
▁Demokratie	-3042
▁bestimmten	-3043
iell	-3044
▁Dorf	-3045
▁stud	-3046
▁Zugang	-3047
▁kosten	-3048
▁Versuch	-3049
▁fre	-3050
▁nahe	-3051
▁Super	-3052
▁überw	-3053
▁Ressour	-3054
▁Pflanzen	-3055
kul	-3056
hang	-3057
imul	-3058
stra	-3059
ätze	-3060
▁verfü	-3061
▁versuchte	-3062
▁Ange	-3063
▁Orte	-3064
▁junge	-3065
▁näher	-3066
▁finanz	-3067
▁Mitgefühl	-3068
▁schlechte	-3069
▁gearbeitet	-3070
▁14	-3071
▁Fin	-3072
▁anf	-3073
▁Armut	-3074
▁Wörter	-3075
▁ansehen	-3076
▁Kan	-3077
▁Wel	-3078
mmern	-3079
▁Glau	-3080
elegen	-3081
▁kompl	-3082
▁Monaten	-3083
Wie	-3084
ickt	-3085
▁aut	-3086
▁kur	-3087
ologische	-3088
50	-3089
▁Uhr	-3090
orfen	-3091
▁Wind	-3092
▁Regeln	-3093
▁Spezie	-3094
▁Einfluss	-3095
▁Universität	-3096
▁ehr	-3097
▁Baum	-3098
▁Himmel	-3099
▁bedeuten	-3100
▁Kontrolle	-3101
▁Medikamen	-3102
ins	-3103
eltsam	-3104
▁Regen	-3105
▁ständig	-3106
echt	-3107
▁Sohn	-3108
bracht	-3109
▁inspir	-3110
▁spezie	-3111
▁fantast	-3112
lern	-3113
▁end	-3114
▁Mehr	-3115
▁Webs	-3116
▁natür	-3117
▁intern	-3118
▁Hig	-3119
▁blo	-3120
error	-3121
▁Besch	-3122
▁sitzen	-3123
▁Konzept	-3124
▁bessere	-3125
▁ö	-3126
▁HI	-3127
apan	-3128
herap	-3129
▁bald	-3130
▁falls	-3131
▁medizin	-3132
▁Menschheit	-3133
▁offensichtlich	-3134
letz	-3135
▁erg	-3136
▁verbessern	-3137
ix	-3138
enk	-3139
les	-3140
abel	-3141
▁Hel	-3142
▁Ton	-3143
▁verg	-3144
▁Eines	-3145
▁wider	-3146
▁Morgen	-3147
▁invest	-3148
▁richtige	-3149
▁Oh	-3150
dass	-3151
▁Wür	-3152
▁Phil	-3153
▁prakt	-3154
▁bleibt	-3155
▁Nachbar	-3156
indigkeit	-3157
▁richtigen	-3158
▁He	-3159
ützt	-3160
▁Trä	-3161
▁gek	-3162
▁Bill	-3163
▁Daher	-3164
ständnis	-3165
▁einzelne	-3166
▁Hü	-3167
stes	-3168
▁201	-3169
ierende	-3170
schluss	-3171
▁wussten	-3172
▁Software	-3173
▁vergessen	-3174
▁Krankheiten	-3175
wür	-3176
omat	-3177
ählt	-3178
blich	-3179
gemein	-3180
▁Poliz	-3181
▁ihres	-3182
▁Stelle	-3183
▁bilden	-3184
abil	-3185
arte	-3186
digen	-3187
kommt	-3188
ppen	-3189
rise	-3190
machen	-3191
▁moder	-3192
▁bemerken	-3193
itär	-3194
igner	-3195
ausend	-3196
▁posit	-3197
▁Molekü	-3198
▁großes	-3199
▁Beispiele	-3200
▁Vergangen	-3201
fre	-3202
▁möglichen	-3203
zähl	-3204
▁Kern	-3205
▁Lauf	-3206
to	-3207
▁On	-3208
▁Th	-3209
eits	-3210
ünft	-3211
▁HIV	-3212
▁Spaß	-3213
eitung	-3214
ielten	-3215
▁Orten	-3216
▁Prote	-3217
▁dahin	-3218
▁Können	-3219
▁arbeitete	-3220
sto	-3221
ums	-3222
▁Zw	-3223
dung	-3224
▁anschauen	-3225
▁Ku	-3226
ombin	-3227
▁Tagen	-3228
▁kannst	-3229
▁Grenzen	-3230
▁Schüler	-3231
▁Bus	-3232
schir	-3233
▁John	-3234
▁links	-3235
▁verlieren	-3236
klär	-3237
▁Vol	-3238
quenz	-3239
▁Zeug	-3240
▁Feuer	-3241
▁Firmen	-3242
▁Terror	-3243
▁erzeugen	-3244
▁Nachricht	-3245
▁zumindest	-3246
▁Entscheidung	-3247
▁70	-3248
▁Sc	-3249
orge	-3250
ufen	-3251
▁Galax	-3252
▁denkt	-3253
▁Gebiet	-3254
▁voller	-3255
▁erlaubt	-3256
▁Vergangenheit	-3257
bet	-3258
▁Bot	-3259
uchte	-3260
schung	-3261
▁Relig	-3262
▁deine	-3263
▁echte	-3264
▁fertig	-3265
▁aussieht	-3266
arm	-3267
org	-3268
▁Ord	-3269
ächen	-3270
▁erzählt	-3271
▁Arbei	-3272
▁Wirklichkeit	-3273
▁nachzudenken	-3274
räfte	-3275
▁Miss	-3276
teilen	-3277
▁Chris	-3278
▁erklär	-3279
▁Institut	-3280
▁irgendwo	-3281
go	-3282
aup	-3283
ürz	-3284
▁Ern	-3285
eisen	-3286
▁Hände	-3287
▁Worte	-3288
▁manche	-3289
▁gebracht	-3290
▁Bakterien	-3291
▁Innovation	-3292
igte	-3293
ital	-3294
▁Car	-3295
werfen	-3296
▁Leist	-3297
▁Personen	-3298
mäß	-3299
rig	-3300
▁17	-3301
▁reg	-3302
▁stär	-3303
ierter	-3304
▁Konfl	-3305
▁Spezies	-3306
▁arbeitet	-3307
▁Mathematik	-3308
▁Mü	-3309
rist	-3310
stru	-3311
▁Gut	-3312
▁Jed	-3313
troffen	-3314
▁schreck	-3315
▁Sekunden	-3316
ail	-3317
äte	-3318
merz	-3319
press	-3320
▁Wand	-3321
stelle	-3322
▁Gerät	-3323
▁führte	-3324
▁keiner	-3325
▁sodass	-3326
▁gesamten	-3327
oph	-3328
falt	-3329
ktor	-3330
▁häuf	-3331
▁Ebene	-3332
zeichnet	-3333
▁Nä	-3334
sion	-3335
▁auft	-3336
▁kaum	-3337
folgen	-3338
▁solchen	-3339
▁trotzdem	-3340
▁versuche	-3341
▁produzieren	-3342
mut	-3343
▁dest	-3344
▁traf	-3345
▁winz	-3346
▁Zentr	-3347
▁Geschw	-3348
▁gewalt	-3349
▁morgen	-3350
▁gewinnen	-3351
▁Ergebnisse	-3352
ath	-3353
ckte	-3354
▁Det	-3355
▁Elem	-3356
▁Sign	-3357
▁Theorie	-3358
▁Verantwort	-3359
▁hol	-3360
holen	-3361
ildet	-3362
stern	-3363
▁Baby	-3364
▁Nerv	-3365
ferenz	-3366
▁Stamm	-3367
▁retten	-3368
▁seltsam	-3369
▁befinden	-3370
licherweise	-3371
▁heutzutage	-3372
▁interessante	-3373
met	-3374
altet	-3375
▁Objekt	-3376
▁bestimmte	-3377
▁Amerikaner	-3378
▁bau	-3379
▁umzu	-3380
utzung	-3381
zimmer	-3382
ingungen	-3383
▁Ressourcen	-3384
win	-3385
äst	-3386
▁et	-3387
orben	-3388
▁Monat	-3389
▁nenne	-3390
▁Meeres	-3391
▁zeigte	-3392
▁Arbeits	-3393
▁gekommen	-3394
▁geschehen	-3395
ograph	-3396
▁runter	-3397
▁erfahren	-3398
▁verbinden	-3399
▁Regierungen	-3400
▁Fe	-3401
ball	-3402
▁Gra	-3403
▁riesige	-3404
▁globalen	-3405
▁Wahrscheinlich	-3406
öpf	-3407
▁CO	-3408
▁Rau	-3409
anter	-3410
genie	-3411
werke	-3412
reitet	-3413
▁Frieden	-3414
▁untersuchen	-3415
Un	-3416
fg	-3417
hei	-3418
▁neun	-3419
▁aufre	-3420
osition	-3421
▁Chance	-3422
▁Gefäng	-3423
▁Telefon	-3424
▁einzelnen	-3425
▁unmöglich	-3426
uhr	-3427
bert	-3428
▁Not	-3429
itten	-3430
▁vorh	-3431
ometer	-3432
▁dritte	-3433
▁gefragt	-3434
▁Präsi	-3435
peratur	-3436
▁aufgrund	-3437
ane	-3438
twend	-3439
▁erhö	-3440
sprach	-3441
▁Landes	-3442
▁tä	-3443
aben	-3444
ücht	-3445
▁Gefü	-3446
▁rund	-3447
wenden	-3448
▁Bezug	-3449
▁Linie	-3450
▁Ir	-3451
▁Dien	-3452
assung	-3453
▁entdecken	-3454
▁21	-3455
rägt	-3456
▁Bas	-3457
▁tie	-3458
▁Mark	-3459
▁alte	-3460
▁hilft	-3461
ationalen	-3462
▁Kollegen	-3463
len	-3464
ehme	-3465
▁lebt	-3466
▁irgendw	-3467
▁großartige	-3468
ret	-3469
▁13	-3470
zial	-3471
▁Heim	-3472
▁Kampf	-3473
▁danke	-3474
▁reduz	-3475
ssystem	-3476
▁Nahrung	-3477
tert	-3478
▁Lei	-3479
▁hab	-3480
emand	-3481
schön	-3482
▁Haut	-3483
▁niedr	-3484
▁psych	-3485
▁jungen	-3486
▁sowohl	-3487
▁Gelegen	-3488
▁Partner	-3489
▁Erwachsen	-3490
▁verstanden	-3491
▁herausfinden	-3492
ov	-3493
schu	-3494
indet	-3495
sprün	-3496
▁wann	-3497
▁Außer	-3498
▁Invest	-3499
▁Ordnung	-3500
▁organis	-3501
▁Auswirkungen	-3502
ry	-3503
fghan	-3504
grupp	-3505
▁Oper	-3506
▁zufä	-3507
▁Damit	-3508
▁hörte	-3509
▁Jahres	-3510
▁großartig	-3511
▁entschieden	-3512
Oh	-3513
Sp	-3514
reche	-3515
▁Diag	-3516
▁Disk	-3517
▁läuft	-3518
▁moral	-3519
ständig	-3520
▁leisten	-3521
stre	-3522
leist	-3523
reise	-3524
glicht	-3525
otwend	-3526
▁hinge	-3527
▁erzählte	-3528
ou	-3529
▁he	-3530
asche	-3531
▁Höhe	-3532
▁Verl	-3533
▁Wohn	-3534
▁fing	-3535
▁hält	-3536
▁visu	-3537
▁Geheim	-3538
gleichen	-3539
▁dadurch	-3540
▁zweiten	-3541
▁einander	-3542
▁gestellt	-3543
abr	-3544
gest	-3545
▁198	-3546
stände	-3547
▁Sinne	-3548
▁genet	-3549
▁kommun	-3550
▁rechts	-3551
ationale	-3552
▁sammeln	-3553
ologischen	-3554
▁ermöglicht	-3555
▁normalerweise	-3556
ille	-3557
▁lag	-3558
odell	-3559
motion	-3560
stoffe	-3561
▁Formen	-3562
zunehmen	-3563
▁Glauben	-3564
▁arbeite	-3565
▁öffentlichen	-3566
▁Ak	-3567
▁My	-3568
grün	-3569
▁tau	-3570
volle	-3571
▁Herr	-3572
▁Stre	-3573
astrop	-3574
zahlen	-3575
▁Zivil	-3576
▁Bienen	-3577
▁warten	-3578
▁übrigens	-3579
lam	-3580
▁1,	-3581
wart	-3582
▁Inf	-3583
▁Ker	-3584
schiede	-3585
arbeiter	-3586
▁Million	-3587
▁tradition	-3588
▁geschaffen	-3589
aur	-3590
ven	-3591
▁Brust	-3592
▁Fotos	-3593
▁entwe	-3594
▁einzig	-3595
▁Freiheit	-3596
▁bestehen	-3597
▁außerhalb	-3598
▁diejenigen	-3599
xu	-3600
reg	-3601
ude	-3602
▁ca	-3603
buch	-3604
▁Ben	-3605
▁höch	-3606
▁uner	-3607
nungen	-3608
greifen	-3609
ativität	-3610
▁Methode	-3611
▁befindet	-3612
alle	-3613
▁Büro	-3614
▁Sand	-3615
▁Nummer	-3616
▁Transp	-3617
▁Beziehungen	-3618
▁Krankenhaus	-3619
▁Organisation	-3620
ek	-3621
deten	-3622
rochen	-3623
▁Geburt	-3624
▁verste	-3625
▁Gehirns	-3626
▁Systeme	-3627
▁Reaktion	-3628
par	-3629
▁Vo	-3630
▁of	-3631
schn	-3632
ynam	-3633
zwei	-3634
▁Kur	-3635
▁Arzt	-3636
▁Mich	-3637
▁Wesen	-3638
ffizien	-3639
▁handelt	-3640
▁entdeckt	-3641
▁herunter	-3642
hy	-3643
▁is	-3644
folge	-3645
▁Noch	-3646
▁taten	-3647
▁Ärzte	-3648
▁Gründe	-3649
▁schützen	-3650
leb	-3651
▁Sa	-3652
ießen	-3653
inder	-3654
▁gesp	-3655
▁Fluss	-3656
▁desto	-3657
▁bisher	-3658
▁messen	-3659
▁Entdeck	-3660
▁welcher	-3661
▁Schlüssel	-3662
▁Architektur	-3663
▁sta	-3664
▁Berg	-3665
▁Hirn	-3666
änomen	-3667
▁Geräu	-3668
▁Regel	-3669
▁Jungen	-3670
▁ebenso	-3671
iter	-3672
ährt	-3673
ritte	-3674
▁Liebl	-3675
unächst	-3676
▁Drogen	-3677
▁spielt	-3678
▁einzigen	-3679
▁Maschinen	-3680
▁Verständnis	-3681
Ja	-3682
up	-3683
schte	-3684
aschen	-3685
▁Farbe	-3686
▁König	-3687
▁Beginn	-3688
▁gewöhn	-3689
▁selben	-3690
▁Ingenie	-3691
▁Flugzeug	-3692
stellungen	-3693
▁betrachtet	-3694
arf	-3695
▁Sy	-3696
icks	-3697
▁ant	-3698
▁Fakt	-3699
▁Gespr	-3700
▁unterstützen	-3701
mt	-3702
stä	-3703
ivat	-3704
önen	-3705
ision	-3706
▁Abend	-3707
▁mächt	-3708
isieren	-3709
▁Klimaw	-3710
▁Netzwerk	-3711
orn	-3712
nehm	-3713
onie	-3714
▁Bis	-3715
wärts	-3716
dienen	-3717
liegen	-3718
▁Liste	-3719
▁fühlte	-3720
▁entweder	-3721
tag	-3722
ürf	-3723
▁Lö	-3724
▁äu	-3725
illen	-3726
▁berühm	-3727
▁effekt	-3728
▁herstellen	-3729
▁grü	-3730
▁Gene	-3731
▁Inse	-3732
▁bean	-3733
▁phys	-3734
gebaut	-3735
schirm	-3736
▁Bühne	-3737
▁Punkte	-3738
▁Stunde	-3739
▁Artikel	-3740
War	-3741
apt	-3742
iti	-3743
Nein	-3744
ifor	-3745
stag	-3746
▁Mars	-3747
▁lief	-3748
▁Traum	-3749
▁Verfü	-3750
▁Manchmal	-3751
▁Zeitpunkt	-3752
oo	-3753
zer	-3754
lose	-3755
▁mer	-3756
▁opt	-3757
▁Anal	-3758
▁Name	-3759
▁Finger	-3760
ierenden	-3761
▁dasselbe	-3762
▁getroffen	-3763
▁grundlegen	-3764
lebt	-3765
ügen	-3766
unger	-3767
▁Komm	-3768
▁drin	-3769
achtet	-3770
selben	-3771
▁guter	-3772
▁Herzen	-3773
▁durchge	-3774
▁Individu	-3775
▁Interesse	-3776
▁Behandlung	-3777
bed	-3778
▁setz	-3779
▁erleben	-3780
▁Englisch	-3781
▁erwarten	-3782
rak	-3783
urg	-3784
▁Kä	-3785
such	-3786
maßen	-3787
passen	-3788
▁belie	-3789
▁gutes	-3790
▁Finanz	-3791
▁National	-3792
▁amerikanischen	-3793
ake	-3794
kop	-3795
orgt	-3796
▁San	-3797
▁Muse	-3798
▁Pass	-3799
▁Einer	-3800
▁mehrere	-3801
▁Lösungen	-3802
▁heutigen	-3803
▁Einkommen	-3804
▁Erfahrungen	-3805
▁Jahrhunderts	-3806
amb	-3807
seh	-3808
zut	-3809
iels	-3810
ilien	-3811
▁Lond	-3812
▁Ereig	-3813
▁hundert	-3814
kur	-3815
stütz	-3816
▁cool	-3817
▁inte	-3818
fassen	-3819
▁unver	-3820
▁Einzel	-3821
▁behaup	-3822
▁benutz	-3823
▁wenige	-3824
▁erinnere	-3825
▁Gefängnis	-3826
öse	-3827
will	-3828
▁The	-3829
▁jene	-3830
▁umge	-3831
ritann	-3832
rücken	-3833
▁Poten	-3834
▁Tisch	-3835
▁sowie	-3836
frieden	-3837
▁Lernen	-3838
▁Funktion	-3839
▁Veränderungen	-3840
tra	-3841
unt	-3842
örp	-3843
▁kn	-3844
▁Än	-3845
plan	-3846
▁unge	-3847
▁nahmen	-3848
gefunden	-3849
▁Medikamente	-3850
Es	-3851
vie	-3852
iete	-3853
▁Fel	-3854
▁Mär	-3855
▁Quad	-3856
▁aktu	-3857
barkeit	-3858
▁spricht	-3859
▁schicken	-3860
urm	-3861
eigt	-3862
sser	-3863
istor	-3864
▁früh	-3865
frikan	-3866
entlich	-3867
▁Manche	-3868
▁Wunder	-3869
▁ebenfalls	-3870
▁verkaufen	-3871
▁on	-3872
gnor	-3873
▁500	-3874
▁Fen	-3875
flanz	-3876
fälle	-3877
▁Inner	-3878
▁Kamera	-3879
▁Risiko	-3880
▁Teilen	-3881
▁Hy	-3882
ente	-3883
▁wün	-3884
Warum	-3885
enken	-3886
krieg	-3887
ption	-3888
riere	-3889
▁Wege	-3890
▁Instr	-3891
▁Japan	-3892
▁Jedes	-3893
brechen	-3894
▁Worten	-3895
▁selten	-3896
▁voraus	-3897
▁wählen	-3898
▁Industrie	-3899
▁behandeln	-3900
maß	-3901
▁pr	-3902
eien	-3903
etten	-3904
produ	-3905
▁Ball	-3906
▁krei	-3907
▁fällt	-3908
sichtig	-3909
▁Sommer	-3910
▁Zeiten	-3911
▁ehrlich	-3912
rastruktur	-3913
ikt	-3914
fter	-3915
räge	-3916
▁Ser	-3917
iforn	-3918
▁hart	-3919
▁Haben	-3920
ierungs	-3921
▁Afghan	-3922
▁verhin	-3923
hre	-3924
▁km	-3925
ails	-3926
gien	-3927
umor	-3928
gress	-3929
istisch	-3930
▁Erkennt	-3931
▁gedacht	-3932
▁erfunden	-3933
▁jemandem	-3934
▁einfachen	-3935
▁intelligen	-3936
▁Verantwortung	-3937
ac	-3938
pu	-3939
▁dür	-3940
dings	-3941
isser	-3942
wendung	-3943
▁Bedürf	-3944
▁Schwar	-3945
▁Erstens	-3946
▁geschah	-3947
▁außergewöhn	-3948
▁Eigenschaften	-3949
ilt	-3950
prü	-3951
▁Win	-3952
bewer	-3953
scher	-3954
▁Auge	-3955
alismus	-3956
▁London	-3957
▁wesent	-3958
ritannien	-3959
▁Vergleich	-3960
bald	-3961
▁Kol	-3962
▁erwei	-3963
organis	-3964
zusagen	-3965
▁elektr	-3966
▁Komplex	-3967
▁Designer	-3968
aul	-3969
▁Ok	-3970
pekt	-3971
wech	-3972
seite	-3973
schutz	-3974
▁Junge	-3975
▁Kreis	-3976
▁Werte	-3977
▁komme	-3978
▁Ahnung	-3979
▁Männern	-3980
▁Schönheit	-3981
▁existiert	-3982
▁unglaubliche	-3983
Ver	-3984
lagen	-3985
▁kultur	-3986
▁konzentrieren	-3987
"-	-3988
Ge	-3989
bol	-3990
kam	-3991
webe	-3992
▁för	-3993
unsch	-3994
isiert	-3995
▁Tieren	-3996
▁verbringen	-3997
▁Bu	-3998
▁Wol	-3999
techn	-4000
ütter	-4001
▁Nähe	-4002
▁bill	-4003
▁nutz	-4004
▁äußer	-4005
präsent	-4006
▁lernte	-4007
▁sobald	-4008
▁Städten	-4009
▁Religion	-4010
▁überleben	-4011
▁Intelligen	-4012
enze	-4013
reib	-4014
stieg	-4015
unkel	-4016
▁Ident	-4017
erstoff	-4018
▁öffnen	-4019
▁Zustand	-4020
▁nachhalt	-4021
▁verrückt	-4022
▁wunderbar	-4023
▁Kommunikation	-4024
ka	-4025
inos	-4026
ourn	-4027
▁Mut	-4028
bieren	-4029
▁entsp	-4030
▁Westen	-4031
▁frühen	-4032
▁Biologie	-4033
▁Freunden	-4034
alisierung	-4035
▁Charakter	-4036
▁Cl	-4037
auert	-4038
▁dank	-4039
raucht	-4040
▁zeich	-4041
▁Freude	-4042
▁Physik	-4043
▁fangen	-4044
▁eigenes	-4045
▁Projekte	-4046
▁unabhäng	-4047
britannien	-4048
frage	-4049
stadt	-4050
▁Erst	-4051
ennung	-4052
▁emotion	-4053
▁spreche	-4054
▁gegangen	-4055
▁angefangen	-4056
▁Wirtschafts	-4057
kos	-4058
weil	-4059
▁197	-4060
▁Bio	-4061
hlten	-4062
masch	-4063
▁ident	-4064
itionen	-4065
▁Region	-4066
▁Schutz	-4067
▁Spitze	-4068
▁trifft	-4069
▁Jahrzeh	-4070
▁Antworten	-4071
▁Verfügung	-4072
seit	-4073
▁Dav	-4074
frika	-4075
▁Kurz	-4076
▁perfe	-4077
▁ursprün	-4078
sellschaft	-4079
▁Materialien	-4080
bü	-4081
▁Sh	-4082
▁300	-4083
▁eng	-4084
▁Prot	-4085
▁Wald	-4086
▁gehe	-4087
ochter	-4088
▁Waffen	-4089
▁Produkte	-4090
geg	-4091
▁Mö	-4092
afen	-4093
▁Ins	-4094
▁Arme	-4095
▁hört	-4096
▁fallen	-4097
▁begonnen	-4098
▁entstehen	-4099
▁Sauerstoff	-4100
▁Gelegenheit	-4101
▁kontrollieren	-4102
gier	-4103
ikas	-4104
ielle	-4105
▁Drei	-4106
▁Grad	-4107
orgung	-4108
rachte	-4109
▁Bäume	-4110
▁seines	-4111
▁riesigen	-4112
▁geschafft	-4113
▁Überleben	-4114
▁herzustellen	-4115
▁Infrastruktur	-4116
Er	-4117
▁24	-4118
konom	-4119
▁Nehmen	-4120
▁Schluss	-4121
▁erzeugt	-4122
▁globale	-4123
▁größere	-4124
▁Unterstütz	-4125
▁Leidenschaft	-4126
cebo	-4127
▁Tal	-4128
einer	-4129
uster	-4130
▁Dort	-4131
▁Krie	-4132
▁echt	-4133
▁west	-4134
istenz	-4135
▁Organ	-4136
drücken	-4137
ichtbar	-4138
▁Hunder	-4139
▁chines	-4140
▁genutzt	-4141
▁Interess	-4142
▁beeinflusst	-4143
ärm	-4144
oper	-4145
sinn	-4146
▁Pal	-4147
▁ließ	-4148
▁Zelle	-4149
▁Farben	-4150
▁Massen	-4151
▁akzept	-4152
▁online	-4153
▁Polizei	-4154
▁brauchte	-4155
▁größeren	-4156
▁Geschäfts	-4157
▁aufgenommen	-4158
▁Verbindungen	-4159
▁Pe	-4160
▁Atmo	-4161
▁High	-4162
▁Wider	-4163
haltung	-4164
▁Strate	-4165
▁häufig	-4166
▁Knochen	-4167
▁Tochter	-4168
▁Unterschiede	-4169
ID	-4170
dre	-4171
▁Ep	-4172
▁Del	-4173
lange	-4174
neten	-4175
▁Plast	-4176
setzung	-4177
stellte	-4178
▁Privat	-4179
▁erwähn	-4180
▁Fenster	-4181
▁Ausdruck	-4182
▁reagieren	-4183
▁Kreativität	-4184
▁wichtigsten	-4185
▁Großbritannien	-4186
lef	-4187
kung	-4188
netz	-4189
▁Pil	-4190
▁kor	-4191
▁Kons	-4192
▁Text	-4193
wohner	-4194
▁sogen	-4195
▁bezahl	-4196
▁kämpfen	-4197
▁mittler	-4198
▁Vielfalt	-4199
▁erstaunlich	-4200
▁politischen	-4201
▁überraschen	-4202
▁Entwicklungsl	-4203
ox	-4204
ami	-4205
anda	-4206
▁Opfer	-4207
▁Sport	-4208
▁fühlt	-4209
▁Schlaf	-4210
ettbewer	-4211
sätzlich	-4212
▁ermöglichen	-4213
fs	-4214
rael	-4215
hause	-4216
▁wirk	-4217
utlich	-4218
▁Suche	-4219
eutlich	-4220
▁Altern	-4221
▁Häuser	-4222
▁Rücken	-4223
▁notwend	-4224
geschichte	-4225
▁Werkzeuge	-4226
▁weiterhin	-4227
hö	-4228
text	-4229
▁Mir	-4230
▁Wal	-4231
▁fehl	-4232
riffen	-4233
▁Klasse	-4234
minister	-4235
zeichnen	-4236
▁endlich	-4237
▁schlimm	-4238
▁Nahrungs	-4239
▁Standard	-4240
▁verantwort	-4241
▁beeinflussen	-4242
▁Geschwindigkeit	-4243
ana	-4244
rum	-4245
üsse	-4246
▁typ	-4247
ilder	-4248
▁Denk	-4249
▁Glas	-4250
▁Klei	-4251
▁blie	-4252
▁lust	-4253
▁fühle	-4254
▁Schlag	-4255
▁entlang	-4256
An	-4257
rug	-4258
holt	-4259
▁nöt	-4260
▁Bank	-4261
▁Best	-4262
▁Mond	-4263
▁Seit	-4264
▁okay	-4265
▁Frank	-4266
▁kenne	-4267
▁Ansatz	-4268
istische	-4269
▁Gefühle	-4270
▁handeln	-4271
▁Phänomen	-4272
▁einfacher	-4273
▁produziert	-4274
mel	-4275
geht	-4276
leun	-4277
stab	-4278
▁gilt	-4279
imente	-4280
▁Gehir	-4281
▁Osten	-4282
▁seien	-4283
schauen	-4284
▁langen	-4285
▁dorthin	-4286
▁kompliz	-4287
▁vertrau	-4288
▁deutlich	-4289
▁Kilometer	-4290
▁Erf	-4291
iesen	-4292
sagen	-4293
▁Hall	-4294
▁Letz	-4295
▁nütz	-4296
tember	-4297
▁Todes	-4298
▁hielt	-4299
▁Nichts	-4300
▁Klassen	-4301
▁Statist	-4302
▁Version	-4303
▁Temperatur	-4304
pe	-4305
ain	-4306
Wenn	-4307
orte	-4308
vert	-4309
▁196	-4310
▁Los	-4311
▁Tim	-4312
▁Web	-4313
akten	-4314
artig	-4315
lecht	-4316
▁Körp	-4317
▁Loch	-4318
▁Vari	-4319
iertel	-4320
▁transp	-4321
undament	-4322
▁Gewicht	-4323
▁Afghanistan	-4324
gra	-4325
wahr	-4326
▁Sal	-4327
atter	-4328
heben	-4329
schlä	-4330
▁anal	-4331
▁buch	-4332
▁krit	-4333
fallen	-4334
▁nehme	-4335
▁schaut	-4336
▁erlauben	-4337
▁stellten	-4338
cy	-4339
▁Jo	-4340
▁Rä	-4341
opul	-4342
▁Zit	-4343
bruch	-4344
gorit	-4345
▁abst	-4346
führer	-4347
dit	-4348
renz	-4349
swer	-4350
dimen	-4351
▁Müll	-4352
▁verbl	-4353
änderte	-4354
▁Neuronen	-4355
▁Soldaten	-4356
▁entsteht	-4357
▁erstellen	-4358
ört	-4359
hilfe	-4360
cebook	-4361
umente	-4362
▁Beruf	-4363
▁gaben	-4364
▁Kunden	-4365
▁kostet	-4366
▁ändert	-4367
spektive	-4368
▁Ameisen	-4369
▁Schrift	-4370
▁Facebook	-4371
▁Karriere	-4372
▁Botschaft	-4373
▁behandelt	-4374
▁politische	-4375
▁Zusammenhang	-4376
▁Gesellschaften	-4377
ged	-4378
otyp	-4379
▁zug	-4380
▁Holz	-4381
▁darf	-4382
▁David	-4383
▁spezi	-4384
▁ganzes	-4385
zur	-4386
view	-4387
eitet	-4388
etter	-4389
▁kürz	-4390
andels	-4391
formen	-4392
indust	-4393
nissen	-4394
▁Karten	-4395
▁Kohlen	-4396
▁Einsatz	-4397
▁Zeichen	-4398
▁dagegen	-4399
▁Korallen	-4400
▁entschied	-4401
▁Produktion	-4402
kauf	-4403
omin	-4404
pfel	-4405
▁jün	-4406
fisch	-4407
mögen	-4408
▁krie	-4409
▁Typen	-4410
▁Virus	-4411
▁künst	-4412
▁legen	-4413
▁erhält	-4414
▁leiden	-4415
▁passen	-4416
▁perfekt	-4417
▁Position	-4418
▁verkauft	-4419
▁erforschen	-4420
gere	-4421
gern	-4422
ikal	-4423
acken	-4424
▁Port	-4425
▁Satz	-4426
▁Offen	-4427
änglich	-4428
ifornien	-4429
▁Diskuss	-4430
▁Materie	-4431
alisieren	-4432
industrie	-4433
▁Insekten	-4434
▁betrifft	-4435
▁Ausbildung	-4436
▁Bedingungen	-4437
▁Lebensmittel	-4438
SA	-4439
▁iP	-4440
bank	-4441
▁Bef	-4442
▁and	-4443
▁res	-4444
beweg	-4445
artige	-4446
schrän	-4447
▁Klima	-4448
▁Sterne	-4449
▁Wunsch	-4450
kosystem	-4451
▁afrikan	-4452
▁steigen	-4453
▁Werkzeug	-4454
▁Komplexität	-4455
▁veröffentlicht	-4456
fil	-4457
fit	-4458
oge	-4459
spl	-4460
tend	-4461
älte	-4462
▁saß	-4463
hoden	-4464
▁Gang	-4465
▁Szen	-4466
▁bloß	-4467
▁davor	-4468
▁solch	-4469
okument	-4470
▁Result	-4471
▁verfüg	-4472
zwischen	-4473
▁Niemand	-4474
▁Spielen	-4475
▁alleine	-4476
▁weiteres	-4477
▁Fortschritt	-4478
üh	-4479
vel	-4480
laden	-4481
▁2000	-4482
▁Haar	-4483
▁chem	-4484
recher	-4485
▁Kontakt	-4486
▁letztes	-4487
▁Aufgaben	-4488
▁Qualität	-4489
▁benötigen	-4490
▁Atmosphäre	-4491
▁verursacht	-4492
▁Klimawandel	-4493
▁investieren	-4494
▁Unterstützung	-4495
kn	-4496
▁.	-4497
keln	-4498
▁Dis	-4499
▁Jede	-4500
▁habt	-4501
▁schn	-4502
digung	-4503
ährung	-4504
klärung	-4505
▁Drittel	-4506
▁Gemeinde	-4507
▁gewonnen	-4508
▁überzeugt	-4509
▁beschreiben	-4510
yr	-4511
abe	-4512
how	-4513
▁Kir	-4514
▁Säu	-4515
dingt	-4516
▁Brie	-4517
▁vern	-4518
▁Babys	-4519
▁Titel	-4520
gewicht	-4521
▁Sekunde	-4522
▁Fernsehen	-4523
▁entwickelten	-4524
▁kommunizieren	-4525
uz	-4526
Sie	-4527
etr	-4528
ost	-4529
▁sü	-4530
▁us	-4531
▁Zug	-4532
halte	-4533
▁Heil	-4534
▁spür	-4535
wirken	-4536
▁Ziele	-4537
▁klingt	-4538
▁Profess	-4539
▁begeister	-4540
IDS	-4541
▁Mc	-4542
imal	-4543
▁Nor	-4544
▁vir	-4545
urcht	-4546
▁Auss	-4547
▁Band	-4548
▁Blog	-4549
▁Deut	-4550
▁Will	-4551
atisch	-4552
derung	-4553
vollen	-4554
▁Vogel	-4555
▁dauer	-4556
bereich	-4557
▁leider	-4558
sächlich	-4559
▁schafft	-4560
zubringen	-4561
▁Zweitens	-4562
▁Universums	-4563
▁Intelligenz	-4564
▁Zusammenarbeit	-4565
änn	-4566
▁Kop	-4567
▁See	-4568
appen	-4569
ffent	-4570
losen	-4571
▁Abst	-4572
▁Feld	-4573
▁Hund	-4574
spielt	-4575
schloss	-4576
▁Zentrum	-4577
▁umgehen	-4578
▁Untersuch	-4579
ipp	-4580
ong	-4581
arch	-4582
▁Trans	-4583
▁neuer	-4584
▁zentr	-4585
▁Jugend	-4586
▁Wandel	-4587
▁Mitglie	-4588
▁Schwier	-4589
▁buchstä	-4590
▁unbedingt	-4591
▁überzeugen	-4592
die	-4593
▁su	-4594
ames	-4595
serv	-4596
▁Bud	-4597
▁Zur	-4598
▁rel	-4599
rücke	-4600
▁Auft	-4601
▁Eind	-4602
ournal	-4603
▁Fällen	-4604
▁lautet	-4605
▁Schmerz	-4606
dimension	-4607
▁vermutlich	-4608
▁wunderschön	-4609
▁Organisationen	-4610
asi	-4611
▁Spr	-4612
atell	-4613
auran	-4614
ender	-4615
riffe	-4616
▁Fach	-4617
▁Fein	-4618
▁Stär	-4619
▁erfü	-4620
▁ober	-4621
▁haupt	-4622
hältnis	-4623
▁Spiele	-4624
▁Plastik	-4625
▁rechten	-4626
indestens	-4627
▁Hintergrund	-4628
▁herausgefunden	-4629
▁,	-4630
reu	-4631
eils	-4632
ford	-4633
port	-4634
▁Hor	-4635
▁Mex	-4636
eligi	-4637
▁City	-4638
▁Jobs	-4639
▁West	-4640
▁inst	-4641
▁trau	-4642
aurier	-4643
▁Handy	-4644
▁tolle	-4645
▁Schiff	-4646
▁Forscher	-4647
▁außerdem	-4648
▁dieselbe	-4649
▁wiederum	-4650
▁Identität	-4651
▁vollkommen	-4652
▁durchgeführt	-4653
Du	-4654
anne	-4655
ämpf	-4656
▁20.	-4657
▁Bal	-4658
▁Dre	-4659
▁Red	-4660
frist	-4661
impan	-4662
osoph	-4663
▁Genom	-4664
▁Reich	-4665
athemat	-4666
otograf	-4667
▁Einfach	-4668
▁Vertrauen	-4669
▁verbreitet	-4670
▁übertragen	-4671
▁beschäftigt	-4672
ca	-4673
▁Che	-4674
▁Dir	-4675
▁Rom	-4676
krebs	-4677
▁geha	-4678
▁krank	-4679
steller	-4680
▁drehen	-4681
▁Gesetze	-4682
▁Gründen	-4683
▁Objekte	-4684
▁fragten	-4685
▁verdienen	-4686
▁Landwirtschaft	-4687
0,	-4688
▁Ei	-4689
mung	-4690
▁Ken	-4691
▁Zwe	-4692
▁usw	-4693
▁Statt	-4694
▁sitzt	-4695
▁spiel	-4696
▁antwor	-4697
▁selber	-4698
▁sorgen	-4699
▁erklärt	-4700
▁stecken	-4701
▁Schimpan	-4702
▁besitzen	-4703
▁Problemen	-4704
▁gestalten	-4705
▁sicherlich	-4706
ehnt	-4707
lege	-4708
haben	-4709
▁Fabr	-4710
▁entw	-4711
gument	-4712
▁Basis	-4713
▁Keine	-4714
▁Mobil	-4715
▁absch	-4716
▁wirst	-4717
aterial	-4718
führung	-4719
▁Sorgen	-4720
▁Zuerst	-4721
richtung	-4722
▁geführt	-4723
▁Großteil	-4724
▁benötigt	-4725
▁bezahlen	-4726
▁buchstäblich	-4727
rid	-4728
ruf	-4729
stu	-4730
▁Vö	-4731
▁at	-4732
fält	-4733
ling	-4734
▁Tau	-4735
▁zuk	-4736
ektor	-4737
folgt	-4738
lette	-4739
platz	-4740
▁Brot	-4741
oppelt	-4742
▁Beine	-4743
spieler	-4744
▁Nutzen	-4745
▁bitten	-4746
▁erstes	-4747
▁Modelle	-4748
▁erwartet	-4749
▁individu	-4750
▁Wü	-4751
hört	-4752
▁Eins	-4753
▁Sehr	-4754
▁Masse	-4755
▁Schau	-4756
▁Stoff	-4757
isation	-4758
zeichen	-4759
▁schöne	-4760
▁gelangen	-4761
▁zufällig	-4762
▁sozusagen	-4763
▁natürliche	-4764
ieß	-4765
chtz	-4766
ügel	-4767
▁Fün	-4768
front	-4769
ätsel	-4770
▁Chin	-4771
▁Fest	-4772
▁sinn	-4773
▁Affen	-4774
entwick	-4775
ächtnis	-4776
▁Online	-4777
▁dürfen	-4778
▁hinweg	-4779
isierung	-4780
▁Wichtig	-4781
▁anderem	-4782
▁kümmern	-4783
▁stärker	-4784
istischen	-4785
▁Konferenz	-4786
▁bestimmen	-4787
ada	-4788
▁1.	-4789
▁Fo	-4790
fert	-4791
ötet	-4792
fügen	-4793
hafte	-4794
▁Bett	-4795
▁Graf	-4796
▁läch	-4797
iellen	-4798
▁Stein	-4799
▁Zusch	-4800
▁dreht	-4801
▁hohen	-4802
▁wohin	-4803
teilung	-4804
▁Erzähl	-4805
▁werfen	-4806
aktionen	-4807
▁derzeit	-4808
▁zukünft	-4809
▁modernen	-4810
▁repräsent	-4811
▁Bildschirm	-4812
▁mindestens	-4813
grö	-4814
ice	-4815
▁As	-4816
amin	-4817
▁nah	-4818
▁Rede	-4819
▁Austr	-4820
▁Train	-4821
▁Dienst	-4822
ungskraft	-4823
▁Milliarde	-4824
wissenschaft	-4825
Re	-4826
rt	-4827
▁Hil	-4828
▁mot	-4829
▁Schn	-4830
▁aufw	-4831
▁Beste	-4832
▁hängt	-4833
▁beteil	-4834
▁steckt	-4835
▁täglich	-4836
▁Bildungs	-4837
▁Kindheit	-4838
▁Leistung	-4839
▁erinnert	-4840
▁zurückzu	-4841
▁Präsident	-4842
▁entwerfen	-4843
▁Kalifornien	-4844
▁auseinander	-4845
▁Tw	-4846
mann	-4847
▁Gest	-4848
▁Gold	-4849
▁Irak	-4850
▁ausl	-4851
iertes	-4852
leisch	-4853
▁Kaffe	-4854
▁Motor	-4855
▁Staat	-4856
▁stolz	-4857
herapie	-4858
spielen	-4859
▁Museum	-4860
▁lieber	-4861
▁verwir	-4862
▁wächst	-4863
stellten	-4864
▁Führung	-4865
▁falsche	-4866
forschung	-4867
▁tausende	-4868
inosaurier	-4869
▁Institutionen	-4870
äbe	-4871
iste	-4872
▁150	-4873
▁Rat	-4874
▁daß	-4875
markt	-4876
▁Fische	-4877
▁Gefahr	-4878
▁Themen	-4879
▁religi	-4880
▁verlie	-4881
▁Besonder	-4882
▁irgendwann	-4883
▁verwandeln	-4884
▁öffentliche	-4885
▁interagieren	-4886
,"	-4887
sse	-4888
band	-4889
chern	-4890
▁Fran	-4891
▁Golf	-4892
▁Kann	-4893
▁Paar	-4894
▁disk	-4895
▁weder	-4896
▁Satell	-4897
▁Schwei	-4898
▁verfolgen	-4899
▁interessanter	-4900
gs	-4901
ala	-4902
iag	-4903
▁el	-4904
▁Mos	-4905
▁Syn	-4906
▁rad	-4907
▁Colle	-4908
▁eröff	-4909
▁Geräte	-4910
▁glaubt	-4911
▁testen	-4912
jährigen	-4913
▁Bildern	-4914
▁Kontext	-4915
▁getötet	-4916
▁Teilchen	-4917
▁scheinen	-4918
▁weiteren	-4919
▁einsetzen	-4920
▁Erinnerung	-4921
▁Strukturen	-4922
▁überrascht	-4923
uh	-4924
▁Em	-4925
bern	-4926
klus	-4927
nitt	-4928
uern	-4929
▁ans	-4930
aptop	-4931
krank	-4932
▁Lern	-4933
▁verh	-4934
zeiten	-4935
▁Autor	-4936
▁Falls	-4937
▁fragt	-4938
▁ignor	-4939
▁töten	-4940
ausenden	-4941
▁Verkehr	-4942
pag	-4943
urf	-4944
adem	-4945
ibel	-4946
schm	-4947
▁Tel	-4948
inken	-4949
▁Ecke	-4950
▁laut	-4951
häuser	-4952
jekten	-4953
▁Jungs	-4954
achtung	-4955
geladen	-4956
▁schlie	-4957
alisiert	-4958
▁Depress	-4959
▁Außerdem	-4960
▁hauptsächlich	-4961
riz	-4962
▁halte	-4963
▁weiss	-4964
▁Bauern	-4965
▁verein	-4966
programm	-4967
▁Galaxien	-4968
▁mathemat	-4969
▁Gegenteil	-4970
▁letztendlich	-4971
utt	-4972
anst	-4973
idem	-4974
onom	-4975
wahl	-4976
weit	-4977
▁400	-4978
▁Sep	-4979
▁Tre	-4980
▁tue	-4981
▁dunk	-4982
▁Heimat	-4983
▁Norden	-4984
▁Rahmen	-4985
▁schick	-4986
gendetwas	-4987
▁Lieblings	-4988
▁verbracht	-4989
▁wichtigste	-4990
▁Kohlenstoff	-4991
▁interessieren	-4992
▁möglicherweise	-4993
Der	-4994
ace	-4995
▁Ox	-4996
läss	-4997
macht	-4998
schau	-4999
▁Iran	-5000
▁verr	-5001
▁Bruder	-5002
▁aussch	-5003
▁England	-5004
▁Sprachen	-5005
▁Wahrnehm	-5006
▁nächstes	-5007
▁Aktivität	-5008
▁gegenseit	-5009
▁schließen	-5010
▁begeistert	-5011
hi	-5012
ara	-5013
leg	-5014
dige	-5015
nimmt	-5016
▁Glob	-5017
▁Sein	-5018
▁Kohle	-5019
▁Liter	-5020
▁begeg	-5021
quenzen	-5022
▁Nation	-5023
▁Patient	-5024
▁vorhanden	-5025
▁Verhaltens	-5026
▁gefährlich	-5027
▁vollständig	-5028
eiste	-5029
▁Rich	-5030
▁ausb	-5031
atoren	-5032
▁einst	-5033
▁frage	-5034
▁gener	-5035
▁regel	-5036
jährige	-5037
▁deinen	-5038
▁gehabt	-5039
verständ	-5040
▁Begriff	-5041
▁gewisse	-5042
▁Elektron	-5043
▁besseren	-5044
▁eingesetzt	-5045
▁verhindern	-5046
▁versuchten	-5047
▁Dinosaurier	-5048
Nun	-5049
arb	-5050
ingu	-5051
ions	-5052
wood	-5053
▁Asp	-5054
aktiv	-5055
reite	-5056
▁Boot	-5057
▁Frem	-5058
▁Volk	-5059
bliche	-5060
▁Außen	-5061
▁Filme	-5062
▁Meilen	-5063
▁Stress	-5064
▁Vision	-5065
▁ausgeb	-5066
▁gesund	-5067
▁Militär	-5068
▁basiert	-5069
▁kreativ	-5070
▁schwarz	-5071
▁Experten	-5072
richtungen	-5073
▁schlimmer	-5074
ffentlichkeit	-5075
amt	-5076
hmen	-5077
stau	-5078
▁Con	-5079
▁Bras	-5080
▁Temp	-5081
▁starb	-5082
▁Gewebe	-5083
▁Videos	-5084
▁Zimmer	-5085
▁Fleisch	-5086
▁erzähle	-5087
▁zunehmen	-5088
▁September	-5089
▁Augenblick	-5090
▁existieren	-5091
▁amerikanische	-5092
kan	-5093
kle	-5094
▁MI	-5095
▁Ol	-5096
alte	-5097
bahn	-5098
▁Col	-5099
▁gep	-5100
langt	-5101
▁hohe	-5102
spiels	-5103
▁Folge	-5104
▁Spekt	-5105
▁virtu	-5106
▁Israel	-5107
▁Nerven	-5108
▁bieten	-5109
▁einsch	-5110
▁erster	-5111
▁sauber	-5112
▁stelle	-5113
▁bemerkt	-5114
▁Verstand	-5115
▁gewisser	-5116
▁normalen	-5117
▁wunderbare	-5118
ckten	-5119
▁Aben	-5120
▁Maus	-5121
▁Rand	-5122
▁Sind	-5123
▁gäbe	-5124
schule	-5125
sweise	-5126
▁Brenn	-5127
▁Stift	-5128
▁Haufen	-5129
▁dauert	-5130
▁Elektro	-5131
▁automat	-5132
blichkeit	-5133
▁praktisch	-5134
▁irgendetwas	-5135
pft	-5136
▁35	-5137
ekte	-5138
heim	-5139
omit	-5140
▁Ach	-5141
▁Ehe	-5142
▁Log	-5143
asste	-5144
ängst	-5145
▁eint	-5146
▁priv	-5147
afrika	-5148
kehren	-5149
▁Bitte	-5150
▁absol	-5151
▁holen	-5152
▁teuer	-5153
▁Händen	-5154
▁Sozial	-5155
▁Verletz	-5156
▁schönen	-5157
ternehmen	-5158
▁entworfen	-5159
▁arbeiteten	-5160
▁durchschnitt	-5161
▁unterscheiden	-5162
▁unterschiedlich	-5163
▁UN	-5164
sver	-5165
▁Gar	-5166
▁Sil	-5167
▁Ter	-5168
fahrt	-5169
hingt	-5170
letzt	-5171
echsel	-5172
▁Innen	-5173
▁Schei	-5174
▁kennt	-5175
▁nannte	-5176
▁schaute	-5177
▁wenigen	-5178
▁hunderte	-5179
▁Folgendes	-5180
▁Erkenntnis	-5181
▁verantwortlich	-5182
ädt	-5183
▁NA	-5184
▁Deb	-5185
▁Nan	-5186
swert	-5187
unken	-5188
utzer	-5189
▁Lied	-5190
▁Phys	-5191
▁fiel	-5192
fragen	-5193
mutter	-5194
wiesen	-5195
▁Defin	-5196
▁Laufe	-5197
▁kurze	-5198
▁meist	-5199
chtzeit	-5200
▁Wesent	-5201
▁Stimmen	-5202
▁Gespräch	-5203
▁Schwester	-5204
▁Wettbewer	-5205
Be	-5206
zy	-5207
air	-5208
oth	-5209
▁Uns	-5210
ieben	-5211
▁Beob	-5212
▁herr	-5213
immung	-5214
nehmer	-5215
▁lebte	-5216
agement	-5217
hington	-5218
problem	-5219
▁Mechan	-5220
▁linken	-5221
▁schien	-5222
ologisch	-5223
▁Gedanke	-5224
▁Quadrat	-5225
▁einiger	-5226
▁präsent	-5227
fähigkeit	-5228
▁meistens	-5229
▁beantworten	-5230
mon	-5231
iden	-5232
wegs	-5233
▁kap	-5234
▁neg	-5235
eucht	-5236
ierer	-5237
▁Gras	-5238
▁sexu	-5239
▁Metap	-5240
▁somit	-5241
artigen	-5242
▁Laptop	-5243
▁müsste	-5244
▁Journal	-5245
▁Richard	-5246
▁Spieler	-5247
▁gehalten	-5248
▁Restauran	-5249
▁Schimpansen	-5250
hte	-5251
kor	-5252
▁Zä	-5253
nost	-5254
hlung	-5255
reien	-5256
rennen	-5257
▁könnt	-5258
▁setzt	-5259
schrift	-5260
▁Beweis	-5261
▁Mütter	-5262
▁Steuer	-5263
▁ließen	-5264
▁Algorit	-5265
▁dritten	-5266
▁nochmal	-5267
▁Konflikt	-5268
▁Moleküle	-5269
▁aufhören	-5270
▁Katastrop	-5271
▁angesehen	-5272
▁wichtigen	-5273
▁Landschaft	-5274
▁entspricht	-5275
▁entstanden	-5276
▁hoffentlich	-5277
2-	-5278
▁Ama	-5279
▁Anw	-5280
▁Opt	-5281
mäßig	-5282
▁Fehl	-5283
▁Mund	-5284
▁halb	-5285
agiert	-5286
▁Franc	-5287
▁Radio	-5288
▁Trend	-5289
▁Trotz	-5290
bewesen	-5291
gegeben	-5292
▁eigent	-5293
▁Körpers	-5294
▁bekamen	-5295
▁Individuen	-5296
▁Perspektive	-5297
pret	-5298
äuse	-5299
▁Mem	-5300
▁Toi	-5301
▁kom	-5302
ietet	-5303
ognit	-5304
▁Chir	-5305
▁Dass	-5306
hängig	-5307
▁Ihres	-5308
▁Neben	-5309
▁klass	-5310
▁Andere	-5311
▁Effekt	-5312
▁Rätsel	-5313
▁erlebt	-5314
▁mitten	-5315
maschine	-5316
▁erkannte	-5317
▁fotograf	-5318
▁Gegensatz	-5319
▁Washington	-5320
▁allerdings	-5321
▁vergleichen	-5322
ahe	-5323
bas	-5324
uft	-5325
samt	-5326
▁Fig	-5327
▁zog	-5328
eiger	-5329
eting	-5330
zelle	-5331
▁kauf	-5332
fische	-5333
igsten	-5334
▁Ganze	-5335
▁total	-5336
▁Irgend	-5337
▁Kombin	-5338
▁Minute	-5339
▁berech	-5340
▁hoffen	-5341
▁Gleiche	-5342
▁Twitter	-5343
▁dennoch	-5344
▁Eindruck	-5345
echtigkeit	-5346
▁Politiker	-5347
▁Experimente	-5348
MS	-5349
Ein	-5350
The	-5351
för	-5352
abei	-5353
digt	-5354
▁Bein	-5355
▁Lang	-5356
▁dran	-5357
▁schm	-5358
gruppe	-5359
▁Folgen	-5360
▁Obwohl	-5361
▁Quanten	-5362
▁genauer	-5363
▁Nationen	-5364
▁demokrat	-5365
▁effektiv	-5366
▁Unternehmer	-5367
▁hergestellt	-5368
pte	-5369
ull	-5370
ühr	-5371
▁Ed	-5372
anen	-5373
▁Fle	-5374
▁Gas	-5375
▁Sei	-5376
ischt	-5377
▁Samm	-5378
gewalt	-5379
sionen	-5380
▁Dabei	-5381
▁Dimen	-5382
▁Etwas	-5383
▁Schne	-5384
▁musst	-5385
▁nutzt	-5386
▁roten	-5387
meister	-5388
▁Normal	-5389
▁stammt	-5390
▁College	-5391
▁fördern	-5392
▁gestern	-5393
▁Tausende	-5394
▁Brasilien	-5395
▁irgendein	-5396
▁Medikament	-5397
▁schlechter	-5398
ica	-5399
yse	-5400
test	-5401
wärt	-5402
igend	-5403
ologe	-5404
rippe	-5405
▁Momen	-5406
ständen	-5407
▁Grenze	-5408
▁Kräfte	-5409
wachstum	-5410
▁Gehirne	-5411
▁gelesen	-5412
▁Zeitalter	-5413
▁brauchten	-5414
▁Bewegungen	-5415
▁Satelliten	-5416
▁erscheinen	-5417
gyp	-5418
▁2,	-5419
hmus	-5420
vard	-5421
▁21.	-5422
▁Abs	-5423
▁Akt	-5424
▁Com	-5425
eskop	-5426
ungsk	-5427
▁Impf	-5428
▁Pfer	-5429
▁trin	-5430
▁verf	-5431
▁Insel	-5432
▁lernt	-5433
ordnung	-5434
▁10.000	-5435
▁Fakten	-5436
▁Wellen	-5437
▁analys	-5438
▁schlau	-5439
▁vieler	-5440
▁zahlen	-5441
▁Zuhause	-5442
▁Diagramm	-5443
▁aufbauen	-5444
▁brachten	-5445
▁programm	-5446
▁Eigentlich	-5447
▁Entdeckung	-5448
▁entwickelte	-5449
▁oh	-5450
▁Tie	-5451
rafen	-5452
rasch	-5453
▁Eben	-5454
▁Fett	-5455
▁Zell	-5456
▁zuzu	-5457
riften	-5458
▁Klein	-5459
▁wieso	-5460
vention	-5461
▁Rechte	-5462
▁aufgew	-5463
▁echten	-5464
▁starke	-5465
▁brauche	-5466
▁tausend	-5467
▁welchen	-5468
▁erfinden	-5469
▁Forschungs	-5470
▁reduzieren	-5471
▁beschlossen	-5472
oc	-5473
▁Gi	-5474
ogar	-5475
skop	-5476
acher	-5477
ichen	-5478
▁Atem	-5479
▁Sens	-5480
▁aufs	-5481
▁Klang	-5482
▁Niger	-5483
▁diskut	-5484
▁beinhal	-5485
▁bezahlt	-5486
▁normale	-5487
▁relativ	-5488
▁schlagen	-5489
▁persönlich	-5490
▁verschwinden	-5491
.,	-5492
▁ag	-5493
adel	-5494
aster	-5495
bares	-5496
ähren	-5497
▁Elef	-5498
▁Erleb	-5499
▁Milch	-5500
▁trägt	-5501
▁wahre	-5502
erseits	-5503
rizität	-5504
ruption	-5505
▁Kontin	-5506
▁Zucker	-5507
▁Spiegel	-5508
▁eindeut	-5509
▁Hinsicht	-5510
▁Professor	-5511
▁Australien	-5512
▁verbrachte	-5513
use	-5514
elev	-5515
etrie	-5516
▁Krit	-5517
▁engl	-5518
kosten	-5519
▁Jeden	-5520
▁Krise	-5521
▁Verbr	-5522
▁Staats	-5523
▁integr	-5524
▁lustig	-5525
▁Francis	-5526
▁Nachdem	-5527
▁Vorteil	-5528
▁reichen	-5529
▁Methoden	-5530
▁Mikroben	-5531
▁zunächst	-5532
▁Gemeinden	-5533
▁Lebewesen	-5534
▁gestorben	-5535
▁studieren	-5536
▁verbreiten	-5537
Ar	-5538
ld	-5539
üte	-5540
olly	-5541
▁Hyp	-5542
▁las	-5543
wagen	-5544
▁Blau	-5545
▁männ	-5546
▁rück	-5547
▁zeit	-5548
reisen	-5549
werden	-5550
amerika	-5551
dlichen	-5552
ulieren	-5553
▁Jemand	-5554
▁Linien	-5555
▁vorber	-5556
▁identif	-5557
▁starten	-5558
▁Arbeiten	-5559
▁abhängig	-5560
▁behalten	-5561
▁Organismen	-5562
dru	-5563
ike	-5564
sah	-5565
▁45	-5566
öpfe	-5567
▁Bri	-5568
▁Hom	-5569
rüben	-5570
▁Empf	-5571
▁fuhr	-5572
▁Laden	-5573
▁nötig	-5574
▁wobei	-5575
fordert	-5576
rauchen	-5577
schland	-5578
▁Ausmaß	-5579
▁kurzem	-5580
▁kurzen	-5581
▁tiefer	-5582
▁Ansicht	-5583
▁Details	-5584
▁Mission	-5585
▁Prototyp	-5586
▁Elektrizität	-5587
▁Generationen	-5588
itt	-5589
akte	-5590
ates	-5591
jahr	-5592
ohnt	-5593
▁Jul	-5594
▁Tun	-5595
ösung	-5596
▁Atom	-5597
▁Tanz	-5598
▁getr	-5599
▁jähr	-5600
▁zahl	-5601
▁fängt	-5602
▁halbe	-5603
▁Aspekt	-5604
▁auftau	-5605
▁körper	-5606
▁nieder	-5607
▁Buchsta	-5608
▁gehören	-5609
▁Elemente	-5610
▁entgegen	-5611
▁geändert	-5612
▁kürzlich	-5613
▁schwarze	-5614
▁Netzwerke	-5615
▁vermittel	-5616
▁Interessen	-5617
▁medizinische	-5618
hü	-5619
ham	-5620
osm	-5621
osen	-5622
trag	-5623
wach	-5624
▁Wik	-5625
▁par	-5626
antas	-5627
▁AIDS	-5628
▁fern	-5629
▁Islam	-5630
▁angeb	-5631
▁blieb	-5632
▁heran	-5633
▁lebten	-5634
▁Website	-5635
▁Existenz	-5636
▁Zuschauer	-5637
▁vergangen	-5638
▁zusammenge	-5639
möglichkeiten	-5640
kr	-5641
atik	-5642
▁Hör	-5643
▁fäh	-5644
▁Beim	-5645
▁Code	-5646
eicher	-5647
ischem	-5648
merzen	-5649
▁Angel	-5650
▁Viren	-5651
▁Weile	-5652
▁optim	-5653
rachten	-5654
▁Wetter	-5655
▁drüben	-5656
▁meiste	-5657
▁reicht	-5658
▁zählen	-5659
▁Gedicht	-5660
▁Konflik	-5661
▁begrenz	-5662
▁geschickt	-5663
▁beobachtet	-5664
▁zugänglich	-5665
▁natürlichen	-5666
▁beschäftigen	-5667
by	-5668
hek	-5669
üge	-5670
aust	-5671
ffer	-5672
uman	-5673
▁Pak	-5674
▁Sen	-5675
▁Tex	-5676
▁Tor	-5677
▁Emot	-5678
▁Flag	-5679
▁Ober	-5680
▁Sitz	-5681
▁eure	-5682
▁Ägyp	-5683
aturen	-5684
▁Solar	-5685
▁Tests	-5686
▁passt	-5687
▁wechs	-5688
ografie	-5689
▁Garten	-5690
▁Grafik	-5691
▁Lachen	-5692
▁Persön	-5693
▁Träume	-5694
▁inform	-5695
▁Beweise	-5696
▁Fischer	-5697
▁Weltraum	-5698
▁Vorfahren	-5699
▁Wohlstand	-5700
▁aufregend	-5701
▁beschloss	-5702
▁Geschlecht	-5703
▁Korruption	-5704
▁entsprechen	-5705
umm	-5706
▁Bon	-5707
ancen	-5708
bliot	-5709
usion	-5710
▁plan	-5711
▁rede	-5712
rechte	-5713
▁Armen	-5714
scheint	-5715
▁Streit	-5716
▁Umfeld	-5717
▁Welche	-5718
▁kombin	-5719
▁steigt	-5720
▁erkennt	-5721
▁morgens	-5722
verbrauch	-5723
▁Einstein	-5724
▁komplexe	-5725
▁sprachen	-5726
▁zerstört	-5727
▁Abschluss	-5728
▁Arbeitspl	-5729
▁Emotionen	-5730
▁darstellen	-5731
▁Wahrnehmung	-5732
▁grundlegende	-5733
IP	-5734
ube	-5735
umb	-5736
edia	-5737
klen	-5738
part	-5739
▁Exp	-5740
stung	-5741
▁Dach	-5742
▁Null	-5743
▁dram	-5744
▁klin	-5745
▁mass	-5746
ategor	-5747
▁Zitat	-5748
steigen	-5749
▁Kaffee	-5750
▁spannen	-5751
▁anwenden	-5752
▁ungewöhn	-5753
▁Erklärung	-5754
▁erscheint	-5755
▁verbindet	-5756
issenschaft	-5757
spielsweise	-5758
▁definieren	-5759
▁Mitarbeiter	-5760
▁traditionellen	-5761
aff	-5762
tin	-5763
uck	-5764
ones	-5765
tial	-5766
▁MIT	-5767
omben	-5768
rufen	-5769
▁Kein	-5770
▁stop	-5771
letten	-5772
▁exper	-5773
▁folgt	-5774
▁wuchs	-5775
▁Besitz	-5776
▁School	-5777
▁allgem	-5778
▁dauern	-5779
▁enorme	-5780
▁histor	-5781
bewegung	-5782
ätigkeit	-5783
▁Kapital	-5784
▁Nachbarn	-5785
▁deswegen	-5786
▁beschleun	-5787
▁verfügbar	-5788
▁Architekten	-5789
▁Deutschland	-5790
30	-5791
res	-5792
zon	-5793
▁la	-5794
▁Hei	-5795
▁bat	-5796
▁zut	-5797
onstr	-5798
passt	-5799
▁Kerl	-5800
einbar	-5801
endung	-5802
sichts	-5803
▁Konse	-5804
▁bewer	-5805
▁übrig	-5806
umenten	-5807
wirkung	-5808
▁Mexiko	-5809
▁Quelle	-5810
▁setzte	-5811
▁Maßstab	-5812
▁Theater	-5813
▁ausgest	-5814
▁spielte	-5815
▁verschl	-5816
▁Schatten	-5817
▁verwende	-5818
▁zerstören	-5819
▁Verhältnis	-5820
▁aufzubauen	-5821
▁Schwierigkeiten	-5822
▁Ke	-5823
oler	-5824
▁ruh	-5825
elles	-5826
geber	-5827
olitik	-5828
▁Fälle	-5829
▁Kapit	-5830
▁Times	-5831
▁Zweck	-5832
▁Größen	-5833
▁Berechn	-5834
▁annehmen	-5835
▁erstellt	-5836
▁aufgebaut	-5837
ex	-5838
ton	-5839
herr	-5840
hung	-5841
mord	-5842
enter	-5843
▁Paul	-5844
▁Stau	-5845
▁leid	-5846
räumen	-5847
talien	-5848
▁Kreuz	-5849
▁train	-5850
ersagen	-5851
▁Planet	-5852
▁Voraus	-5853
ographie	-5854
▁Viertel	-5855
▁erwähnt	-5856
▁umgeben	-5857
▁worüber	-5858
▁Freundin	-5859
▁gewissen	-5860
▁schlechten	-5861
▁vermitteln	-5862
▁wesentlich	-5863
20	-5864
läu	-5865
äne	-5866
eise	-5867
▁Sob	-5868
▁Urs	-5869
▁abl	-5870
ehren	-5871
stren	-5872
▁Auff	-5873
▁Russ	-5874
▁beit	-5875
orient	-5876
spruch	-5877
▁Seine	-5878
▁motiv	-5879
▁zieht	-5880
sprache	-5881
▁heißen	-5882
▁schaff	-5883
▁müssten	-5884
▁solcher	-5885
▁Vorstell	-5886
▁nützlich	-5887
▁Bereichen	-5888
▁verhalten	-5889
▁Diskussion	-5890
verständlich	-5891
▁Durchschnitt	-5892
sh	-5893
▁Kr	-5894
▁Sl	-5895
mark	-5896
▁DNS	-5897
▁Tom	-5898
▁ide	-5899
ember	-5900
karte	-5901
räume	-5902
sätze	-5903
zieht	-5904
▁Klin	-5905
▁Orig	-5906
▁Verw	-5907
▁grau	-5908
▁miss	-5909
▁Seele	-5910
▁Sogar	-5911
▁außen	-5912
▁enorm	-5913
▁quasi	-5914
▁unend	-5915
züglich	-5916
▁Chemie	-5917
▁ergibt	-5918
▁formen	-5919
▁kannte	-5920
▁Entfern	-5921
▁Fernseh	-5922
▁Harvard	-5923
▁Kulturen	-5924
versorgung	-5925
▁Verbesser	-5926
▁Erwachsenen	-5927
bi	-5928
vol	-5929
ähm	-5930
▁wü	-5931
▁min	-5932
ement	-5933
gerät	-5934
▁Fünf	-5935
▁höre	-5936
▁nerv	-5937
▁rief	-5938
recken	-5939
▁Anrei	-5940
▁Neues	-5941
▁gross	-5942
▁Batter	-5943
▁treten	-5944
▁zusätz	-5945
▁Komment	-5946
▁Geräusch	-5947
▁schätzen	-5948
▁entdeckte	-5949
ael	-5950
ült	-5951
ehlt	-5952
icro	-5953
igem	-5954
itiv	-5955
▁Les	-5956
▁Sam	-5957
anzös	-5958
gener	-5959
▁Cent	-5960
gehend	-5961
▁Start	-5962
▁Stufe	-5963
▁fähig	-5964
▁still	-5965
▁Damals	-5966
▁Erwart	-5967
▁Gewinn	-5968
▁Riesen	-5969
▁Bestand	-5970
▁Fahrrad	-5971
▁Schnitt	-5972
▁gebeten	-5973
▁Arbeiter	-5974
▁ersetzen	-5975
▁langweil	-5976
▁inspiriert	-5977
▁verbessert	-5978
▁Situationen	-5979
▁schrecklich	-5980
ago	-5981
azi	-5982
fir	-5983
Mail	-5984
aria	-5985
erne	-5986
flug	-5987
mehr	-5988
▁Ill	-5989
▁Jan	-5990
▁Stör	-5991
▁Teen	-5992
▁ille	-5993
▁real	-5994
andert	-5995
▁Vögel	-5996
▁betro	-5997
▁beweg	-5998
▁ermut	-5999
▁vorne	-6000
ikalien	-6001
▁Inhalt	-6002
▁gelöst	-6003
▁stabil	-6004
besonder	-6005
▁Auswahl	-6006
▁Verlust	-6007
▁beinahe	-6008
▁Bereiche	-6009
▁Geheimnis	-6010
▁vermeiden	-6011
▁untersucht	-6012
▁stattdessen	-6013
▁Zivilisation	-6014
▁menschlicher	-6015
pon	-6016
gibt	-6017
ston	-6018
tels	-6019
▁dur	-6020
▁rot	-6021
▁Früh	-6022
▁Trag	-6023
▁heil	-6024
ichter	-6025
jemand	-6026
▁Schle	-6027
▁geist	-6028
▁poten	-6029
itation	-6030
▁Signal	-6031
▁gering	-6032
issionen	-6033
▁Risiken	-6034
▁welchem	-6035
▁überprü	-6036
▁entstand	-6037
▁gefangen	-6038
▁Buchstaben	-6039
▁Definition	-6040
▁Großmutter	-6041
▁unabhängig	-6042
▁Interaktion	-6043
▁persönlichen	-6044
ozi	-6045
rot	-6046
ulen	-6047
▁Rot	-6048
▁inf	-6049
lekul	-6050
linge	-6051
öpfen	-6052
▁Vorh	-6053
▁voran	-6054
ziehung	-6055
▁Doktor	-6056
▁Kampag	-6057
▁Tonnen	-6058
▁ausger	-6059
▁hinten	-6060
▁langer	-6061
▁vergrö	-6062
qualität	-6063
▁Gericht	-6064
▁Zwischen	-6065
▁langfrist	-6066
▁notwendig	-6067
▁schwimmen	-6068
▁persönliche	-6069
put	-6070
frei	-6071
▁19.	-6072
antes	-6073
euern	-6074
euert	-6075
uropä	-6076
weile	-6077
▁Post	-6078
▁Zahn	-6079
fernen	-6080
▁Gutes	-6081
▁Lager	-6082
▁Pingu	-6083
▁Spezi	-6084
▁versp	-6085
diglich	-6086
samkeit	-6087
zentrum	-6088
▁Anteil	-6089
▁Bedroh	-6090
▁Flücht	-6091
▁herein	-6092
gelassen	-6093
▁Element	-6094
▁Student	-6095
▁Werbung	-6096
besondere	-6097
▁besuchen	-6098
▁versteht	-6099
▁verteilt	-6100
▁unterstützt	-6101
▁Wesentlichen	-6102
iein	-6103
seln	-6104
wort	-6105
▁Bem	-6106
▁Kom	-6107
▁wes	-6108
elben	-6109
▁Merk	-6110
▁erwä	-6111
sprung	-6112
▁Hunde	-6113
atische	-6114
▁Leider	-6115
▁Lungen	-6116
▁Nieder	-6117
▁Rechen	-6118
▁Schuld	-6119
▁Zauber	-6120
▁kümmer	-6121
▁Wissens	-6122
▁seitdem	-6123
▁standen	-6124
▁Anderson	-6125
▁Strategie	-6126
▁Tradition	-6127
▁besondere	-6128
▁industrie	-6129
▁westlichen	-6130
▁fantastisch	-6131
▁schwieriger	-6132
▁Erinnerungen	-6133
▁erstaunliche	-6134
com	-6135
ird	-6136
ifiz	-6137
star	-6138
▁Got	-6139
eiter	-6140
teile	-6141
ätter	-6142
▁Vern	-6143
bieten	-6144
leitet	-6145
▁Parad	-6146
▁Süden	-6147
▁World	-6148
▁kolle	-6149
einhalb	-6150
gründet	-6151
▁Willen	-6152
▁bauten	-6153
▁dunkle	-6154
amerikan	-6155
▁berührt	-6156
▁hierher	-6157
▁Kongress	-6158
▁schlafen	-6159
▁verstehe	-6160
▁Anwendung	-6161
▁Operation	-6162
▁beinhaltet	-6163
▁hü	-6164
affe	-6165
etik	-6166
hrop	-6167
▁11.	-6168
▁Brü	-6169
▁dün	-6170
▁mut	-6171
denkt	-6172
fähig	-6173
kreis	-6174
undes	-6175
▁Eier	-6176
▁Kurs	-6177
▁Wurz	-6178
▁expl	-6179
▁mult	-6180
▁spät	-6181
flicht	-6182
▁Stock	-6183
▁Wieso	-6184
reibung	-6185
▁Belohn	-6186
▁Gegend	-6187
▁Schlei	-6188
▁Stärke	-6189
▁Weiter	-6190
▁Wolken	-6191
▁lebens	-6192
▁meinte	-6193
▁Erkrank	-6194
▁Präsent	-6195
▁erhielt	-6196
▁steuern	-6197
▁Echtzeit	-6198
▁beweisen	-6199
▁eindeutig	-6200
▁fundament	-6201
▁beschrieben	-6202
▁feststellen	-6203
▁internationalen	-6204
la	-6205
hls	-6206
▁Ta	-6207
ging	-6208
ilde	-6209
kton	-6210
raht	-6211
▁Teu	-6212
weite	-6213
ässer	-6214
▁Chic	-6215
▁Mess	-6216
▁form	-6217
drückt	-6218
imeter	-6219
testen	-6220
▁Pfund	-6221
▁Stuhl	-6222
▁stehe	-6223
sammelt	-6224
wechsel	-6225
▁Helden	-6226
▁belieb	-6227
▁besagt	-6228
▁bietet	-6229
▁blauen	-6230
▁Galaxie	-6231
▁Respekt	-6232
▁enthält	-6233
▁konstru	-6234
▁darunter	-6235
▁aufnehmen	-6236
▁digitalen	-6237
▁kollektiv	-6238
▁lediglich	-6239
▁Kombination	-6240
▁vorzustellen	-6241
▁wirtschaftliche	-6242
Na	-6243
nü	-6244
ida	-6245
int	-6246
pha	-6247
▁99	-6248
▁Cy	-6249
rang	-6250
▁Skl	-6251
▁etc	-6252
▁syn	-6253
artet	-6254
boden	-6255
staat	-6256
▁Rech	-6257
▁Roll	-6258
▁Schä	-6259
▁Wild	-6260
▁genü	-6261
▁zust	-6262
▁Brief	-6263
▁Darum	-6264
▁innov	-6265
▁sucht	-6266
blichen	-6267
systeme	-6268
▁Christ	-6269
▁Herren	-6270
▁furcht	-6271
▁profit	-6272
▁sparen	-6273
▁liefern	-6274
▁vertraut	-6275
▁entfernen	-6276
▁Instrument	-6277
▁Bedürfnisse	-6278
▁Chemikalien	-6279
▁faszinierend	-6280
pol	-6281
zig	-6282
▁2.	-6283
aser	-6284
mack	-6285
oßen	-6286
reif	-6287
▁Gro	-6288
▁Hem	-6289
▁Ung	-6290
▁You	-6291
nungs	-6292
rimin	-6293
ringe	-6294
rustr	-6295
▁Prim	-6296
▁Rake	-6297
▁neur	-6298
▁seid	-6299
▁stet	-6300
▁trag	-6301
haften	-6302
▁Bauch	-6303
▁Würde	-6304
etische	-6305
▁Danach	-6306
▁Epidem	-6307
▁George	-6308
▁Ozeane	-6309
▁Zufall	-6310
▁singen	-6311
▁Geistes	-6312
▁Malaria	-6313
▁gefällt	-6314
▁lokalen	-6315
▁äußerst	-6316
▁Komponen	-6317
▁folgende	-6318
▁gespielt	-6319
▁speziell	-6320
▁weiterer	-6321
▁ähnliche	-6322
▁Potential	-6323
▁gegründet	-6324
▁gemeinsame	-6325
▁übernehmen	-6326
▁gesellschaft	-6327
bür	-6328
sum	-6329
▁75	-6330
burg	-6331
nose	-6332
bchen	-6333
iveau	-6334
▁2008	-6335
▁Trau	-6336
geregt	-6337
geschw	-6338
ingern	-6339
▁Gehen	-6340
▁Hilfs	-6341
▁Tumor	-6342
▁armen	-6343
▁verab	-6344
andelte	-6345
gruppen	-6346
▁Teufel	-6347
▁gelebt	-6348
▁junger	-6349
▁Bibliot	-6350
▁Charles	-6351
▁Fliegen	-6352
▁Richtig	-6353
▁kriegen	-6354
▁Aufnahme	-6355
▁Lebenser	-6356
▁Mehrheit	-6357
▁kreieren	-6358
▁leichter	-6359
▁Francisco	-6360
▁Philosoph	-6361
▁überwinden	-6362
▁Stattdessen	-6363
▁kompliziert	-6364
far	-6365
ole	-6366
okus	-6367
▁Air	-6368
▁Jun	-6369
▁erz	-6370
grenz	-6371
ippen	-6372
zesse	-6373
▁Allt	-6374
▁Tief	-6375
▁fürs	-6376
nitten	-6377
▁Moral	-6378
▁Platt	-6379
▁Theor	-6380
▁brill	-6381
▁domin	-6382
ließend	-6383
▁Brücke	-6384
▁Mengen	-6385
▁Symbol	-6386
▁durchs	-6387
▁moment	-6388
ffizienz	-6389
sprozess	-6390
vermögen	-6391
▁Einheit	-6392
▁moderne	-6393
▁Deswegen	-6394
▁sichtbar	-6395
▁Grundlage	-6396
▁Kontinent	-6397
▁Südafrika	-6398
▁wirkliche	-6399
▁Überrasch	-6400
▁veränderte	-6401
▁Sicherheits	-6402
▁internationale	-6403
Hey	-6404
fig	-6405
gas	-6406
▁GP	-6407
eier	-6408
lied	-6409
äfte	-6410
▁Gre	-6411
▁Pan	-6412
▁Wäl	-6413
▁fil	-6414
▁Anim	-6415
▁Betr	-6416
▁NASA	-6417
▁Open	-6418
▁Tour	-6419
▁Wein	-6420
fahrer	-6421
▁Kabel	-6422
▁Küste	-6423
▁Weihn	-6424
▁drauf	-6425
wärmung	-6426
zwungen	-6427
▁Blumen	-6428
▁Sobald	-6429
▁Winter	-6430
▁heisst	-6431
▁kognit	-6432
▁verblü	-6433
▁glaubte	-6434
▁grundle	-6435
▁manchen	-6436
unktionen	-6437
▁dahinter	-6438
▁Erfindung	-6439
▁Jahrzehnt	-6440
▁transport	-6441
bevölkerung	-6442
▁verwandelt	-6443
▁Statistiken	-6444
▁akzeptieren	-6445
▁großartigen	-6446
ley	-6447
▁23	-6448
ühen	-6449
▁Ähn	-6450
anger	-6451
▁Astr	-6452
▁arab	-6453
▁brit	-6454
▁Kenia	-6455
▁Links	-6456
▁innen	-6457
▁Gesamt	-6458
▁ausgew	-6459
▁soviel	-6460
▁Momente	-6461
▁Schicks	-6462
▁zeigten	-6463
schriften	-6464
▁Interview	-6465
▁dieselben	-6466
▁erweitern	-6467
▁scheinbar	-6468
▁Gedächtnis	-6469
▁fasziniert	-6470
▁Aktivitäten	-6471
▁Jahrzehnten	-6472
▁Stammzellen	-6473
▁gegenseitig	-6474
▁Gerechtigkeit	-6475
▁funktionierte	-6476
-,	-6477
ags	-6478
ash	-6479
ruh	-6480
berg	-6481
leib	-6482
▁Eng	-6483
▁Rhy	-6484
▁wüs	-6485
▁Gemü	-6486
▁Inte	-6487
▁Nase	-6488
▁froh	-6489
hängen	-6490
llektu	-6491
rieren	-6492
unkten	-6493
▁Gemäl	-6494
▁platz	-6495
spiegel	-6496
▁Fabrik	-6497
▁vieles	-6498
scheidet	-6499
▁erhöhen	-6500
▁gewählt	-6501
losigkeit	-6502
▁Pakistan	-6503
▁Ungleich	-6504
▁mögliche	-6505
▁Gegenwart	-6506
▁Gesichter	-6507
▁angenommen	-6508
▁Einstellung	-6509
▁Innovationen	-6510
▁menschliches	-6511
▁medizinischen	-6512
ips	-6513
lim	-6514
inkt	-6515
krie	-6516
nach	-6517
rett	-6518
stud	-6519
teln	-6520
zipl	-6521
▁Ehr	-6522
▁Seh	-6523
▁Top	-6524
eiern	-6525
igste	-6526
ücken	-6527
▁heiß	-6528
eilung	-6529
gesamt	-6530
kungen	-6531
▁Damen	-6532
▁Einen	-6533
▁Wüste	-6534
▁baute	-6535
▁vorzu	-6536
▁Pflege	-6537
▁bestät	-6538
▁realen	-6539
▁Gebiete	-6540
▁Signale	-6541
▁Zeitung	-6542
arbeitung	-6543
▁Ereignis	-6544
▁Nachhalt	-6545
▁Russland	-6546
▁Vorteile	-6547
▁Literatur	-6548
▁Terrorismus	-6549
▁Fortschritte	-6550
▁unglaublichen	-6551
mar	-6552
orp	-6553
gefü	-6554
urer	-6555
▁600	-6556
▁Bur	-6557
▁Dat	-6558
▁log	-6559
biert	-6560
▁Alex	-6561
▁Mach	-6562
▁mark	-6563
▁rote	-6564
holfen	-6565
▁Erdbe	-6566
▁Hallo	-6567
▁James	-6568
▁Stern	-6569
▁Steve	-6570
▁jener	-6571
▁unbek	-6572
stoffen	-6573
▁Inspir	-6574
▁Neurow	-6575
▁lachen	-6576
▁Lektion	-6577
▁Wechsel	-6578
▁Wirkung	-6579
▁besitzt	-6580
▁Schritte	-6581
▁effizien	-6582
▁elektron	-6583
▁Billionen	-6584
▁allgemein	-6585
unternehmen	-6586
oß	-6587
kal	-6588
osh	-6589
ymp	-6590
förm	-6591
spar	-6592
▁Roh	-6593
▁gra	-6594
ettet	-6595
flekt	-6596
linie	-6597
uhren	-6598
▁arme	-6599
▁länd	-6600
mechan	-6601
▁Immer	-6602
▁Sympt	-6603
▁fährt	-6604
▁vorge	-6605
▁Dunkel	-6606
▁Hunger	-6607
▁Kirche	-6608
▁Kriegs	-6609
▁Säuget	-6610
▁senden	-6611
▁Absicht	-6612
▁Chicago	-6613
▁Michael	-6614
▁ansieht	-6615
erstörung	-6616
▁Erlebnis	-6617
▁Teleskop	-6618
▁Zunächst	-6619
▁besseres	-6620
▁falschen	-6621
▁gefallen	-6622
▁Überzeug	-6623
▁überlegen	-6624
▁bezeichnen	-6625
▁automatisch	-6626
▁geschlossen	-6627
▁Untersuchung	-6628
▁überraschend	-6629
yl	-6630
hnt	-6631
ney	-6632
nütz	-6633
tage	-6634
ulpt	-6635
ward	-6636
▁194	-6637
▁iPh	-6638
reibe	-6639
samen	-6640
▁Dazu	-6641
▁Phot	-6642
▁Verd	-6643
bücher	-6644
ruppen	-6645
▁Blatt	-6646
▁Darwin	-6647
▁Welten	-6648
▁anfing	-6649
▁bedeut	-6650
▁intens	-6651
▁leiten	-6652
▁weißen	-6653
▁bekomme	-6654
▁Webseite	-6655
▁konfront	-6656
▁zeichnen	-6657
▁Elefanten	-6658
▁Transport	-6659
▁behaupten	-6660
▁dargestellt	-6661
▁Informations	-6662
▁grundsätzlich	-6663
Wo	-6664
zz	-6665
bek	-6666
önt	-6667
beln	-6668
esie	-6669
ison	-6670
nern	-6671
▁Eth	-6672
▁Uni	-6673
andid	-6674
räger	-6675
▁Mult	-6676
▁Show	-6677
▁moch	-6678
Dollar	-6679
kelett	-6680
reiche	-6681
▁Dafür	-6682
▁Folie	-6683
▁Wagen	-6684
▁extra	-6685
▁schne	-6686
fliegen	-6687
mitteln	-6688
schicht	-6689
▁Führer	-6690
▁Gottes	-6691
▁willst	-6692
▁Angeles	-6693
▁Hindern	-6694
▁Nigeria	-6695
▁dauerte	-6696
verhalten	-6697
▁hinunter	-6698
▁perfekte	-6699
▁springen	-6700
▁wechseln	-6701
▁gebraucht	-6702
▁zusammenzu	-6703
▁durchführen	-6704
▁aufgewachsen	-6705
▁Vorstellungen	-6706
▁beispielsweise	-6707
anc	-6708
▁ra	-6709
iban	-6710
▁Ass	-6711
▁Dia	-6712
▁Mio	-6713
▁Okt	-6714
▁Pri	-6715
▁Zer	-6716
menge	-6717
üssen	-6718
▁Sozi	-6719
bstoff	-6720
gesetz	-6721
ysikal	-6722
▁Paten	-6723
▁Stahl	-6724
▁Trick	-6725
▁sowas	-6726
▁wofür	-6727
richtet	-6728
▁Löcher	-6729
▁Schwer	-6730
▁fingen	-6731
▁reisen	-6732
atastrop	-6733
▁Afrikas	-6734
▁Chancen	-6735
▁Sternen	-6736
▁führten	-6737
▁überein	-6738
probieren	-6739
▁Bevölker	-6740
▁Metapher	-6741
▁positive	-6742
▁zurückge	-6743
▁beobachte	-6744
▁zufrieden	-6745
see	-6746
wen	-6747
iber	-6748
öser	-6749
▁Krä	-6750
▁SMS	-6751
▁Tri	-6752
▁the	-6753
amour	-6754
noten	-6755
zepte	-6756
▁verz	-6757
System	-6758
bungen	-6759
lernen	-6760
mensch	-6761
quelle	-6762
▁trans	-6763
antasie	-6764
▁Besuch	-6765
▁Handel	-6766
▁Unfall	-6767
▁Völker	-6768
▁landen	-6769
▁merken	-6770
ktivität	-6771
▁Kapitel	-6772
▁Nutzung	-6773
▁drücken	-6774
▁Resultat	-6775
▁digitale	-6776
▁bekannten	-6777
▁berichten	-6778
▁erwachsen	-6779
▁Geburtstag	-6780
▁Prinzipien	-6781
▁Verbrechen	-6782
▁beibringen	-6783
▁Unterhaltung	-6784
▁bemerkenswer	-6785
▁verschwunden	-6786
wissenschaften	-6787
▁Gemeinschaften	-6788
En	-6789
ih	-6790
ics	-6791
▁Ac	-6792
▁Tö	-6793
ores	-6794
▁Dan	-6795
▁Emp	-6796
▁Laut	-6797
▁Ohne	-6798
▁erhe	-6799
zeigen	-6800
▁Micro	-6801
▁Ohren	-6802
▁blaue	-6803
▁umher	-6804
▁Kanada	-6805
▁lokale	-6806
▁trafen	-6807
▁verknü	-6808
▁Annahme	-6809
▁Molekül	-6810
▁starben	-6811
▁zweimal	-6812
▁Teenager	-6813
▁bemerkte	-6814
schmutzung	-6815
▁vertrauen	-6816
▁Jahrzehnte	-6817
▁gemeinsamen	-6818
▁afrikanischen	-6819
ams	-6820
▁ök	-6821
ober	-6822
phen	-6823
steh	-6824
ätzt	-6825
▁Ast	-6826
▁Tit	-6827
▁ult	-6828
▁ums	-6829
hoben	-6830
ordin	-6831
▁Flie	-6832
▁Gute	-6833
▁Stan	-6834
▁Symm	-6835
▁Vier	-6836
▁zuge	-6837
messen	-6838
stechn	-6839
▁Spann	-6840
▁Skulpt	-6841
▁achten	-6842
▁ökonom	-6843
derungen	-6844
schätzen	-6845
▁Aussage	-6846
▁besorgt	-6847
▁durchzu	-6848
▁trinken	-6849
▁unglück	-6850
▁unteren	-6851
▁Männchen	-6852
▁physikal	-6853
▁verstand	-6854
▁kostenlos	-6855
▁schwarzen	-6856
▁sogenannte	-6857
▁Darstellung	-6858
▁irgendjemand	-6859
Le	-6860
cyc	-6861
har	-6862
täu	-6863
ähl	-6864
▁La	-6865
▁ok	-6866
ackt	-6867
azif	-6868
holz	-6869
▁Ans	-6870
▁Lab	-6871
▁Pen	-6872
▁Ven	-6873
Techn	-6874
barer	-6875
behör	-6876
fällt	-6877
ibiot	-6878
▁Gibt	-6879
▁Mart	-6880
▁Soll	-6881
▁baut	-6882
karten	-6883
▁Bevor	-6884
▁Phase	-6885
▁Popul	-6886
▁Wikip	-6887
▁städt	-6888
fession	-6889
▁Amazon	-6890
▁altern	-6891
▁hörten	-6892
▁Anstatt	-6893
▁Verwand	-6894
▁einiges	-6895
▁hielten	-6896
▁solange	-6897
▁verlang	-6898
schneiden	-6899
▁Versuche	-6900
▁beeindru	-6901
▁geholfen	-6902
▁genügend	-6903
leistungen	-6904
▁Weltkrieg	-6905
▁darstellt	-6906
▁komplexen	-6907
▁Regierungs	-6908
▁antwortete	-6909
▁speziellen	-6910
▁Ausstellung	-6911
▁Schließlich	-6912
▁Nachhaltigkeit	-6913
zn	-6914
äum	-6915
anal	-6916
ehrt	-6917
ilen	-6918
ombe	-6919
▁Alt	-6920
▁Cha	-6921
▁erm	-6922
▁mil	-6923
eidet	-6924
gangs	-6925
lager	-6926
zweif	-6927
▁2007	-6928
▁Fast	-6929
▁Rett	-6930
▁Stad	-6931
▁Voll	-6932
▁isol	-6933
▁jung	-6934
▁lebe	-6935
dienst	-6936
muster	-6937
ranche	-6938
schaut	-6939
▁Asien	-6940
▁Noten	-6941
▁Treib	-6942
▁günst	-6943
▁staat	-6944
ahnsinn	-6945
▁Aktion	-6946
▁Anders	-6947
▁Anwend	-6948
▁Bundes	-6949
▁Märkte	-6950
▁Strand	-6951
▁grünen	-6952
▁mechan	-6953
▁sozial	-6954
▁worauf	-6955
leistung	-6956
omputern	-6957
▁Musiker	-6958
▁offenen	-6959
▁Regionen	-6960
▁Schweden	-6961
ordentlich	-6962
▁Verstehen	-6963
▁betroffen	-6964
▁langsamer	-6965
▁Widerstand	-6966
▁biologische	-6967
▁konzentriert	-6968
stö	-6969
andt	-6970
▁Ost	-6971
aktor	-6972
preis	-6973
▁YouT	-6974
▁tats	-6975
chtern	-6976
freund	-6977
modell	-6978
zählen	-6979
▁Hotel	-6980
▁Magie	-6981
▁Paris	-6982
▁Räume	-6983
▁Samen	-6984
▁enden	-6985
▁super	-6986
▁weiße	-6987
▁wisst	-6988
▁woher	-6989
gedacht	-6990
ktionen	-6991
▁Abfall	-6992
▁Eigent	-6993
▁anhand	-6994
▁dunkel	-6995
▁europä	-6996
▁wirken	-6997
▁Bericht	-6998
▁Merkmal	-6999
▁erkannt	-7000
▁nannten	-7001
▁stoppen	-7002
▁tatsäch	-7003
▁treiben	-7004
▁Hunderte	-7005
▁Kampagne	-7006
▁beschrän	-7007
▁Schicksal	-7008
▁betreiben	-7009
▁enthalten	-7010
▁gebrochen	-7011
▁versteckt	-7012
▁Sonnenlicht	-7013
▁Präsentation	-7014
▁organisieren	-7015
▁Klassenzimmer	-7016
2.	-7017
ire	-7018
▁27	-7019
ugen	-7020
ästh	-7021
ücke	-7022
▁Tab	-7023
▁Tur	-7024
füllt	-7025
iritu	-7026
kehrt	-7027
▁Biom	-7028
▁Rock	-7029
▁Zent	-7030
▁frem	-7031
▁land	-7032
▁merk	-7033
duktiv	-7034
ynamik	-7035
▁Motiv	-7036
▁dynam	-7037
▁fehlt	-7038
▁schwe	-7039
isierte	-7040
rittens	-7041
rüstung	-7042
standen	-7043
sterben	-7044
ältigen	-7045
örtlich	-7046
▁Boston	-7047
▁Mangel	-7048
▁nachts	-7049
▁Debatte	-7050
▁Schaden	-7051
▁YouTube	-7052
▁positiv	-7053
▁verkauf	-7054
▁Antibiot	-7055
▁Argument	-7056
▁Geschenk	-7057
▁wertvoll	-7058
▁Ernährung	-7059
▁Geräusche	-7060
▁Wikipedia	-7061
▁beteiligt	-7062
▁teilweise	-7063
▁Ereignisse	-7064
▁Frankreich	-7065
▁Wettbewerb	-7066
▁moralische	-7067
▁verglichen	-7068
▁öffentlich	-7069
gesellschaft	-7070
▁nachgedacht	-7071
▁unterrichten	-7072
wahrscheinlich	-7073
ias	-7074
▁Mr	-7075
▁Sm	-7076
▁Wh	-7077
groß	-7078
plos	-7079
tere	-7080
▁Mel	-7081
▁Pra	-7082
▁Sel	-7083
▁kop	-7084
athie	-7085
okuss	-7086
weich	-7087
▁1000	-7088
dliche	-7089
linien	-7090
mittag	-7091
nommen	-7092
punkte	-7093
▁Wegen	-7094
▁anget	-7095
▁repar	-7096
▁wirkt	-7097
▁Alters	-7098
▁Futter	-7099
▁Grippe	-7100
▁freien	-7101
▁hinauf	-7102
▁hängen	-7103
▁rechte	-7104
ollywood	-7105
▁Mittler	-7106
▁Quellen	-7107
▁traurig	-7108
▁Freiwill	-7109
▁begegnen	-7110
▁schreibt	-7111
▁Marketing	-7112
▁einfaches	-7113
▁Restaurant	-7114
▁Unterricht	-7115
▁ausgesetzt	-7116
▁voneinander	-7117
cin	-7118
own	-7119
▁ew	-7120
azin	-7121
gelt	-7122
▁pri	-7123
▁2010	-7124
▁Koll	-7125
▁Ruhe	-7126
▁Span	-7127
▁Verp	-7128
bringt	-7129
▁Fokus	-7130
▁lande	-7131
▁Atlant	-7132
▁Darauf	-7133
▁Status	-7134
▁iPhone	-7135
▁suchte	-7136
ieinhalb	-7137
▁gekauft	-7138
▁weshalb	-7139
scheinend	-7140
▁Anführer	-7141
▁bewirken	-7142
▁reagiert	-7143
▁umfassen	-7144
oberfläche	-7145
▁derselben	-7146
▁Entfernung	-7147
▁University	-7148
▁grundlegend	-7149
geschwindigkeit	-7150
hof	-7151
lad	-7152
frau	-7153
▁GPS	-7154
▁zit	-7155
ience	-7156
rüche	-7157
teils	-7158
▁Ehem	-7159
▁Repu	-7160
▁entz	-7161
gebiet	-7162
werken	-7163
▁Angeb	-7164
▁Armee	-7165
▁Beute	-7166
▁gelie	-7167
ersonen	-7168
tztlich	-7169
▁Kindes	-7170
▁erhöht	-7171
▁grosse	-7172
▁heilen	-7173
▁system	-7174
▁100.000	-7175
▁Kategor	-7176
▁Schicht	-7177
▁bestand	-7178
▁doppelt	-7179
▁neugier	-7180
imulation	-7181
▁Schlacht	-7182
▁anschaut	-7183
▁bekannte	-7184
▁glaubten	-7185
▁unmittel	-7186
▁verdient	-7187
▁Programme	-7188
▁Spielzeug	-7189
▁betrieben	-7190
▁reduziert	-7191
▁irgendeine	-7192
▁weltweiten	-7193
▁wenigstens	-7194
▁vergangenen	-7195
▁Bevölkerungs	-7196
▁insbesondere	-7197
▁veröffentlichen	-7198
su	-7199
uar	-7200
van	-7201
zum	-7202
▁Ap	-7203
▁lö	-7204
omas	-7205
▁Dad	-7206
▁Lad	-7207
ahnen	-7208
alent	-7209
stero	-7210
▁2005	-7211
▁Beit	-7212
▁Jung	-7213
▁dick	-7214
▁half	-7215
▁jahr	-7216
▁nett	-7217
manden	-7218
tragen	-7219
unklen	-7220
ätzung	-7221
▁Chaos	-7222
▁Cyber	-7223
▁Feind	-7224
▁Flüss	-7225
▁Fläche	-7226
▁Handys	-7227
▁Intern	-7228
▁Rezept	-7229
▁gelang	-7230
bekommen	-7231
pflanzen	-7232
▁Aspekte	-7233
▁Meister	-7234
▁Zweifel	-7235
▁ergeben	-7236
▁gründen	-7237
▁respekt	-7238
▁Proteine	-7239
▁Zeitraum	-7240
▁besessen	-7241
▁genießen	-7242
▁Computern	-7243
▁Potenzial	-7244
▁bezüglich	-7245
▁folgendes	-7246
▁Depression	-7247
▁Teilnehmer	-7248
▁Persönlichkeit	-7249
dro	-7250
flu	-7251
ampe	-7252
prov	-7253
ärme	-7254
▁Dör	-7255
▁arm	-7256
lesen	-7257
onien	-7258
unruh	-7259
▁Naja	-7260
▁Such	-7261
▁Weis	-7262
▁risk	-7263
finder	-7264
▁relev	-7265
▁Kredit	-7266
▁Presse	-7267
▁Schnee	-7268
▁Stücke	-7269
▁erneut	-7270
▁spüren	-7271
▁überqu	-7272
▁Kameras	-7273
▁Krieges	-7274
▁beenden	-7275
▁verstär	-7276
▁Kleidung	-7277
▁mehreren	-7278
▁momentan	-7279
▁schauten	-7280
ungssystem	-7281
▁Aufnahmen	-7282
▁folgenden	-7283
▁versorgen	-7284
▁Zerstörung	-7285
▁Instrumente	-7286
▁Sonnensystem	-7287
▁kontrolliert	-7288
▁Krankenhäuser	-7289
▁veröffentlich	-7290
tä	-7291
arr	-7292
its	-7293
kst	-7294
▁BG	-7295
▁Äl	-7296
Okay	-7297
deln	-7298
züge	-7299
▁Hat	-7300
▁Pho	-7301
▁ang	-7302
auten	-7303
halts	-7304
icket	-7305
izont	-7306
▁Gerü	-7307
▁Hühn	-7308
▁gele	-7309
▁hieß	-7310
▁kalt	-7311
winkel	-7312
▁1.000	-7313
▁Nadel	-7314
▁angen	-7315
▁gehei	-7316
▁organ	-7317
▁woran	-7318
schafft	-7319
▁Faktor	-7320
▁Rechts	-7321
▁dienen	-7322
▁modern	-7323
▁Gemälde	-7324
▁merkwür	-7325
▁verliert	-7326
▁produktiv	-7327
▁unterwegs	-7328
▁Sichtweise	-7329
▁eingeladen	-7330
▁hinzufügen	-7331
▁intellektu	-7332
▁profession	-7333
▁Konsequenzen	-7334
▁Lebenserwart	-7335
▁ursprünglich	-7336
bie	-7337
ses	-7338
obel	-7339
zten	-7340
▁250	-7341
▁Ära	-7342
inter	-7343
▁Akte	-7344
▁Kart	-7345
▁Witz	-7346
▁hilf	-7347
flanze	-7348
fläche	-7349
gelöst	-7350
uliert	-7351
▁Decke	-7352
▁Optim	-7353
eichern	-7354
▁Extrem	-7355
▁Schalt	-7356
▁Sicher	-7357
▁angeht	-7358
sproblem	-7359
▁Taschen	-7360
▁letzter	-7361
▁dokument	-7362
berflächen	-7363
ussendlich	-7364
▁aufgeregt	-7365
▁basierend	-7366
▁bedeutete	-7367
▁niemanden	-7368
▁Erwachsene	-7369
▁Dimensionen	-7370
▁Erwartungen	-7371
▁Inspiration	-7372
▁verursachen	-7373
▁wiederholen	-7374
sterblichkeit	-7375
▁hinterlassen	-7376
Kon	-7377
Wer	-7378
haf	-7379
iox	-7380
ump	-7381
vin	-7382
rast	-7383
sens	-7384
wald	-7385
▁End	-7386
▁Prü	-7387
▁Stä	-7388
▁wid	-7389
atein	-7390
hängt	-7391
teuer	-7392
▁Klav	-7393
▁Mass	-7394
▁Nest	-7395
▁gebl	-7396
▁komm	-7397
▁rech	-7398
▁trug	-7399
andern	-7400
bilder	-7401
kultur	-7402
▁Aller	-7403
▁Kurve	-7404
▁Lasst	-7405
▁Tiefe	-7406
▁wovon	-7407
schläge	-7408
▁Astero	-7409
▁Detail	-7410
▁Infekt	-7411
▁Machen	-7412
▁Robert	-7413
▁deiner	-7414
▁garant	-7415
▁höhere	-7416
▁Verkauf	-7417
▁Erdbeben	-7418
▁Gebäuden	-7419
▁Gesichts	-7420
▁Physiker	-7421
▁gerettet	-7422
▁lebendig	-7423
▁Wachstums	-7424
▁umzugehen	-7425
▁zunehmend	-7426
technologie	-7427
▁Ingenieure	-7428
▁Reaktionen	-7429
▁Richtungen	-7430
▁bezeichnet	-7431
▁Algorithmen	-7432
▁Verbreitung	-7433
▁Entdeckungen	-7434
▁entscheidend	-7435
2,	-7436
Tal	-7437
kün	-7438
ots	-7439
gste	-7440
irbt	-7441
ront	-7442
takt	-7443
▁Ath	-7444
▁Übr	-7445
endes	-7446
küste	-7447
seher	-7448
▁2009	-7449
▁Juni	-7450
▁Schm	-7451
▁Wann	-7452
▁deut	-7453
▁diag	-7454
decken	-7455
ittelt	-7456
ponent	-7457
▁Große	-7458
▁Scham	-7459
▁Teams	-7460
▁Wicht	-7461
▁veran	-7462
▁Aufbau	-7463
▁Gemüse	-7464
▁Hypoth	-7465
▁Metall	-7466
▁Street	-7467
▁berück	-7468
abilität	-7469
atischen	-7470
aufnahme	-7471
▁General	-7472
▁Mobilte	-7473
▁beunruh	-7474
▁Ägypten	-7475
erkennung	-7476
▁Chinesen	-7477
▁Gebrauch	-7478
▁Trotzdem	-7479
▁erfassen	-7480
▁getrennt	-7481
▁Geschäfte	-7482
▁Ingenieur	-7483
▁Verfahren	-7484
▁irgendwel	-7485
▁eingeführt	-7486
▁Psychologie	-7487
▁eigentliche	-7488
▁inspirieren	-7489
▁vorbereitet	-7490
▁Überraschung	-7491
di	-7492
iat	-7493
zir	-7494
▁Hu	-7495
▁ad	-7496
agte	-7497
back	-7498
▁Hal	-7499
▁Sub	-7500
stete	-7501
vater	-7502
▁Sing	-7503
▁legt	-7504
▁seht	-7505
rimine	-7506
stücke	-7507
wellen	-7508
▁Higgs	-7509
▁Schok	-7510
▁Toten	-7511
▁grüne	-7512
▁mikro	-7513
▁schul	-7514
▁Island	-7515
▁Pollen	-7516
▁deinem	-7517
▁fokuss	-7518
▁zufäll	-7519
ikations	-7520
▁Darüber	-7521
▁Treffen	-7522
▁Verlauf	-7523
▁gezogen	-7524
▁mittels	-7525
▁schmerz	-7526
schreiben	-7527
▁Erinnern	-7528
▁Faktoren	-7529
▁Gegenden	-7530
▁Theorien	-7531
▁anpassen	-7532
▁wünschte	-7533
▁begreifen	-7534
▁definiert	-7535
▁Bibliothek	-7536
▁schwierige	-7537
▁unsichtbar	-7538
▁Herstellung	-7539
▁elektrische	-7540
▁wunderbaren	-7541
▁grundlegenden	-7542
Bo	-7543
züg	-7544
▁Et	-7545
▁Lo	-7546
▁Sä	-7547
dach	-7548
ktes	-7549
same	-7550
ätte	-7551
▁BIP	-7552
▁Box	-7553
▁Lar	-7554
▁Mas	-7555
▁prü	-7556
reift	-7557
these	-7558
ünden	-7559
ünder	-7560
▁Dial	-7561
▁Dsch	-7562
▁Male	-7563
▁Nähr	-7564
▁naja	-7565
bilden	-7566
▁Eisen	-7567
▁Erste	-7568
▁knapp	-7569
fordern	-7570
mitglie	-7571
prozess	-7572
stausch	-7573
▁Flagge	-7574
▁Ganzen	-7575
▁Laufen	-7576
▁Leiter	-7577
▁Schuhe	-7578
▁Thomas	-7579
▁Wahlen	-7580
▁ausser	-7581
▁späten	-7582
▁vorhin	-7583
▁Anstieg	-7584
▁Dokument	-7585
▁Weisheit	-7586
▁ausgeben	-7587
▁besuchte	-7588
▁evolution	-7589
▁spezielle	-7590
schnittlich	-7591
zeichnungen	-7592
▁Dunkelheit	-7593
▁Heutzutage	-7594
▁beeindruck	-7595
▁investiert	-7596
▁Eigenschaft	-7597
▁Terroristen	-7598
▁Normalerweise	-7599
▁dreidimension	-7600
hir	-7601
ora	-7602
ory	-7603
▁zü	-7604
hana	-7605
äden	-7606
▁Ban	-7607
▁Ruf	-7608
▁mel	-7609
betes	-7610
viele	-7611
▁Anti	-7612
▁Trin	-7613
gnügen	-7614
körper	-7615
messer	-7616
▁Berge	-7617
▁Hitze	-7618
▁atmen	-7619
▁rufen	-7620
▁weißt	-7621
eichert	-7622
▁lehren	-7623
▁machst	-7624
schnitts	-7625
▁übersch	-7626
▁Weibchen	-7627
▁ernähren	-7628
▁lebenden	-7629
▁studiert	-7630
▁Afrikaner	-7631
▁Angelegen	-7632
▁Bedrohung	-7633
▁Geschmack	-7634
▁Innerhalb	-7635
▁bekämpfen	-7636
▁denselben	-7637
▁Brustkrebs	-7638
▁genetische	-7639
▁Lebenserwartung	-7640
500	-7641
gut	-7642
hst	-7643
ony	-7644
▁fe	-7645
Aber	-7646
Welt	-7647
fand	-7648
gert	-7649
iens	-7650
park	-7651
zusp	-7652
üren	-7653
aumen	-7654
ächer	-7655
ähern	-7656
▁Arzn	-7657
▁Bang	-7658
▁Bord	-7659
▁auss	-7660
ichtum	-7661
▁Misch	-7662
▁Obama	-7663
▁Zähne	-7664
ichtete	-7665
▁Konsum	-7666
▁Reihen	-7667
▁Schild	-7668
▁kaufte	-7669
▁liebte	-7670
▁neigen	-7671
▁oberen	-7672
▁schlug	-7673
ffizient	-7674
▁Italien	-7675
▁Neugier	-7676
▁entfern	-7677
▁grossen	-7678
▁starken	-7679
▁anhalten	-7680
▁erfüllen	-7681
produktion	-7682
▁Denkweise	-7683
▁Plötzlich	-7684
▁Projekten	-7685
▁anzusehen	-7686
▁verblüffen	-7687
▁vorsichtig	-7688
▁wahrnehmen	-7689
▁Änderungen	-7690
▁Antibiotika	-7691
▁sogenannten	-7692
▁fantastische	-7693
▁zurückkehren	-7694
▁Nachbarschaft	-7695
▁bemerkenswert	-7696
▁interessanten	-7697
Ko	-7698
opt	-7699
▁65	-7700
▁Ve	-7701
▁cm	-7702
▁sä	-7703
▁är	-7704
elen	-7705
emin	-7706
erin	-7707
iums	-7708
▁Mor	-7709
▁Tin	-7710
▁wär	-7711
brech	-7712
heuer	-7713
▁Adam	-7714
▁Camp	-7715
▁Mamm	-7716
▁Nutz	-7717
gänger	-7718
schaff	-7719
öntgen	-7720
▁Autom	-7721
▁Initi	-7722
▁Posit	-7723
▁Sagen	-7724
▁zählt	-7725
griffen	-7726
▁Center	-7727
▁Flügel	-7728
▁Früher	-7729
▁Reisen	-7730
▁konsum	-7731
▁planen	-7732
▁Analyse	-7733
▁Angriff	-7734
▁dankbar	-7735
sprogramm	-7736
▁Problems	-7737
▁Ursprung	-7738
▁erklärte	-7739
lichkeiten	-7740
▁Schmerzen	-7741
▁Schreiben	-7742
▁chemische	-7743
▁ländlichen	-7744
▁wundervoll	-7745
▁beigebracht	-7746
▁Weltbevölkerung	-7747
▁außergewöhnlich	-7748
ban	-7749
ils	-7750
kap	-7751
derm	-7752
raun	-7753
roht	-7754
ßern	-7755
▁Spe	-7756
Spiel	-7757
fühlt	-7758
iness	-7759
llung	-7760
ratet	-7761
stuhl	-7762
▁Brow	-7763
▁Chef	-7764
▁Dipl	-7765
▁Mosk	-7766
▁ment	-7767
▁sens	-7768
▁sorg	-7769
▁vorn	-7770
design	-7771
leicht	-7772
schiff	-7773
schten	-7774
stitut	-7775
örtern	-7776
▁Anruf	-7777
▁Enkel	-7778
▁Immun	-7779
▁Katze	-7780
▁blind	-7781
▁harte	-7782
▁worum	-7783
aktoren	-7784
konomen	-7785
▁Hacker	-7786
▁Januar	-7787
▁Niveau	-7788
▁Yorker	-7789
▁soweit	-7790
▁Inneren	-7791
▁besucht	-7792
▁brechen	-7793
▁schwere	-7794
▁Amerikan	-7795
▁Hinblick	-7796
▁Richtige	-7797
▁Schulter	-7798
▁gesunden	-7799
▁Gespräche	-7800
▁Umständen	-7801
▁ausmachen	-7802
▁erforscht	-7803
ischerweise	-7804
▁Funktionen	-7805
▁beschreibt	-7806
▁Wasserstoff	-7807
▁genetischen	-7808
▁technischen	-7809
▁Privatsphäre	-7810
ipl	-7811
ota	-7812
sun	-7813
tex	-7814
▁0,	-7815
▁pf	-7816
appt	-7817
fung	-7818
iffe	-7819
ight	-7820
soft	-7821
▁Sha	-7822
viert	-7823
▁Aufl	-7824
▁Haie	-7825
▁Knie	-7826
▁Saal	-7827
▁gere	-7828
▁hind	-7829
▁koll	-7830
▁stre	-7831
▁älte	-7832
ffekte	-7833
irgend	-7834
ogramm	-7835
ungsst	-7836
▁Block	-7837
▁Kongo	-7838
▁Sechs	-7839
▁Subst	-7840
▁jenen	-7841
enseits	-7842
▁Sprung	-7843
▁beherr	-7844
▁gewann	-7845
▁schock	-7846
▁wütend	-7847
▁Klavier	-7848
operation	-7849
▁Symptome	-7850
▁Systemen	-7851
▁Training	-7852
▁exponent	-7853
▁gemessen	-7854
▁berechnen	-7855
gehensweise	-7856
▁Mitglieder	-7857
▁Verwendung	-7858
▁kulturelle	-7859
▁glücklicher	-7860
▁konfrontiert	-7861
▁verschiedener	-7862
Je	-7863
Sc	-7864
fäll	-7865
inal	-7866
ters	-7867
▁Fal	-7868
▁Hir	-7869
▁Täu	-7870
▁zwe	-7871
▁Euch	-7872
▁Kohl	-7873
▁Leid	-7874
▁Ritu	-7875
brauch	-7876
melzen	-7877
ächeln	-7878
▁Haiti	-7879
▁Humor	-7880
▁Level	-7881
▁Sorge	-7882
▁bewir	-7883
▁hoher	-7884
▁könne	-7885
▁unvor	-7886
dringen	-7887
▁Chirur	-7888
▁Gipfel	-7889
▁lächer	-7890
▁nervös	-7891
gefallen	-7892
▁Protein	-7893
▁Systems	-7894
▁angehen	-7895
▁französ	-7896
alisierte	-7897
▁Autismus	-7898
▁Behinder	-7899
▁Entschul	-7900
▁Spektrum	-7901
▁anstelle	-7902
▁berühren	-7903
▁höchsten	-7904
▁vielmehr	-7905
▁Vergnügen	-7906
▁ernsthaft	-7907
▁gestartet	-7908
▁gezwungen	-7909
▁kreativen	-7910
▁mitnehmen	-7911
▁Neuigkeiten	-7912
▁chinesische	-7913
▁biologischen	-7914
▁Einrichtungen	-7915
▁Gleichgewicht	-7916
▁Investitionen	-7917
dy	-7918
mat	-7919
vir	-7920
▁DH	-7921
ziel	-7922
▁Haw	-7923
▁Kle	-7924
▁Kuh	-7925
▁Mig	-7926
▁Vag	-7927
▁eth	-7928
eiben	-7929
oppel	-7930
ppich	-7931
ridge	-7932
änner	-7933
▁Bier	-7934
▁Brun	-7935
▁Cart	-7936
▁Mama	-7937
▁Musl	-7938
▁Verm	-7939
▁foss	-7940
anlage	-7941
stoßen	-7942
ziplin	-7943
▁Alpha	-7944
▁Ghana	-7945
▁Guten	-7946
▁alltä	-7947
▁korre	-7948
▁ruhig	-7949
▁öfter	-7950
fassung	-7951
▁Metern	-7952
▁Wälder	-7953
▁gewiss	-7954
▁hassen	-7955
▁kommer	-7956
▁winzig	-7957
▁Letzten	-7958
▁dunklen	-7959
▁erneuer	-7960
▁lernten	-7961
▁molekul	-7962
▁wieviel	-7963
▁Ausnahme	-7964
▁Sensoren	-7965
▁diagnost	-7966
▁gelassen	-7967
▁sinnvoll	-7968
▁verfolgt	-7969
▁vernünft	-7970
▁visuelle	-7971
▁winzigen	-7972
▁Überwach	-7973
▁Belohnung	-7974
▁Microsoft	-7975
▁Plattform	-7976
▁besonderen	-7977
▁dazwischen	-7978
▁Alternative	-7979
▁Oberflächen	-7980
▁zurückgehen	-7981
▁identifizieren	-7982
ep	-7983
Ach	-7984
abl	-7985
hel	-7986
ict	-7987
ino	-7988
uen	-7989
xis	-7990
▁26	-7991
▁28	-7992
▁tr	-7993
ives	-7994
kord	-7995
üter	-7996
chtet	-7997
osexu	-7998
riebs	-7999
ürzen	-8000
▁Arab	-8001
▁Frie	-8002
▁Glet	-8003
▁Grie	-8004
▁gete	-8005
fühlen	-8006
ivileg	-8007
utzend	-8008
wählen	-8009
▁Bibel	-8010
▁Gebur	-8011
▁Polio	-8012
▁manip	-8013
▁saßen	-8014
gebiete	-8015
twortet	-8016
▁Atomen	-8017
▁Geruch	-8018
▁Großen	-8019
▁Muskel	-8020
▁Zurück	-8021
▁kaputt	-8022
▁schaue	-8023
▁stirbt	-8024
▁wenden	-8025
▁Designs	-8026
▁Konstru	-8027
▁Muskeln	-8028
▁Schwarz	-8029
▁Science	-8030
▁Skelett	-8031
▁abgesch	-8032
▁höheren	-8033
▁musikal	-8034
▁stimmen	-8035
▁unerwar	-8036
▁Epidemie	-8037
▁Gefangen	-8038
▁erwähnen	-8039
▁hindurch	-8040
▁seltsame	-8041
▁Nachfrage	-8042
friedenheit	-8043
▁langweilig	-8044
▁regelmäßig	-8045
▁Kapitalismus	-8046
▁Mathematiker	-8047
▁Universitäten	-8048
AR	-8049
Fl	-8050
ds	-8051
oh	-8052
hai	-8053
rel	-8054
änz	-8055
▁Rö	-8056
▁nu	-8057
quem	-8058
▁Don	-8059
▁Mad	-8060
▁att	-8061
▁mon	-8062
▁wem	-8063
ianer	-8064
ioxid	-8065
▁Acht	-8066
▁Base	-8067
▁Dame	-8068
▁Füße	-8069
▁Jack	-8070
▁Manh	-8071
▁Ment	-8072
▁Star	-8073
▁klet	-8074
▁leer	-8075
▁lieb	-8076
rinzip	-8077
▁Autob	-8078
▁Beton	-8079
▁Szene	-8080
▁Tragö	-8081
▁jenem	-8082
▁schei	-8083
▁stieg	-8084
▁verkl	-8085
brochen	-8086
gemacht	-8087
▁Studio	-8088
▁jünger	-8089
▁keines	-8090
▁tanzen	-8091
▁univer	-8092
▁Blätter	-8093
▁Dadurch	-8094
▁Röntgen	-8095
▁Spezial	-8096
▁gesetzt	-8097
reibstoff	-8098
▁Diabetes	-8099
▁Fahrzeug	-8100
▁Prozesse	-8101
▁Stanford	-8102
▁Transpar	-8103
▁gründete	-8104
▁riesiges	-8105
ologischer	-8106
▁Konflikte	-8107
▁Verlangen	-8108
▁Vorschlag	-8109
▁physische	-8110
▁vergleich	-8111
▁angemessen	-8112
▁Komponenten	-8113
▁irgendeinem	-8114
▁elektrischen	-8115
▁wunderschöne	-8116
,5	-8117
Ex	-8118
So	-8119
Man	-8120
ise	-8121
▁Tu	-8122
▁Zy	-8123
pass	-8124
umpf	-8125
▁Sar	-8126
▁Wut	-8127
▁sub	-8128
deckt	-8129
ikale	-8130
leger	-8131
lösen	-8132
ätten	-8133
▁Glüh	-8134
▁Klar	-8135
▁Konz	-8136
▁Wäre	-8137
▁gefl	-8138
▁häss	-8139
eignet	-8140
etisch	-8141
geräte	-8142
leiter	-8143
lichem	-8144
▁Leber	-8145
▁frühe	-8146
▁verpf	-8147
gerufen	-8148
▁Medium	-8149
▁Partei	-8150
▁Proben	-8151
▁Therap	-8152
▁Tränen	-8153
▁bildet	-8154
▁drehte	-8155
▁frustr	-8156
anischen	-8157
tausende	-8158
▁Flächen	-8159
▁Ursache	-8160
▁Verschw	-8161
▁benutze	-8162
▁geteilt	-8163
ianischen	-8164
▁Batterie	-8165
▁heiraten	-8166
alisierten	-8167
▁Bedürfnis	-8168
▁Treibhaus	-8169
▁insgesamt	-8170
▁interpret	-8171
▁mittleren	-8172
▁politisch	-8173
▁Prototypen	-8174
▁Schwestern	-8175
▁ignorieren	-8176
▁Einfachheit	-8177
▁Katastrophe	-8178
▁anscheinend	-8179
▁moralischen	-8180
▁unternehmen	-8181
bit	-8182
edy	-8183
kol	-8184
▁36	-8185
ütte	-8186
▁195	-8187
▁Bob	-8188
▁Fer	-8189
▁Ohr	-8190
▁Rel	-8191
▁rom	-8192
▁ärm	-8193
gespr	-8194
gänge	-8195
kohol	-8196
legte	-8197
orten	-8198
▁1990	-8199
▁Benz	-8200
▁Intu	-8201
▁Last	-8202
▁Näch	-8203
fachen	-8204
klasse	-8205
ordnet	-8206
▁Apple	-8207
▁Indem	-8208
▁Küche	-8209
▁Proje	-8210
▁invol	-8211
▁misst	-8212
▁verur	-8213
▁womit	-8214
▁zwang	-8215
▁Kommen	-8216
▁Marken	-8217
▁Organe	-8218
▁Vertei	-8219
▁eingeb	-8220
▁fliegt	-8221
▁vierte	-8222
funktion	-8223
material	-8224
ständige	-8225
▁Schokol	-8226
▁Spinnen	-8227
▁Vorgang	-8228
▁militär	-8229
▁mächtig	-8230
▁spiritu	-8231
▁änderte	-8232
▁Effizienz	-8233
▁Fundament	-8234
▁neugierig	-8235
▁Jedenfalls	-8236
▁Organismus	-8237
▁Strategien	-8238
▁Präsidenten	-8239
▁Transparenz	-8240
▁organisiert	-8241
▁Medikamenten	-8242
▁mittlerweile	-8243
IS	-8244
üd	-8245
▁AB	-8246
aven	-8247
gült	-8248
räum	-8249
wehr	-8250
▁120	-8251
▁Eur	-8252
▁Nat	-8253
▁Ros	-8254
▁Zie	-8255
▁leg	-8256
▁rum	-8257
asern	-8258
istin	-8259
ortex	-8260
▁Ehre	-8261
▁Hard	-8262
▁arch	-8263
▁umso	-8264
▁welt	-8265
annter	-8266
azifik	-8267
fältig	-8268
▁Figur	-8269
▁geöff	-8270
▁islam	-8271
▁Budget	-8272
▁Höhlen	-8273
▁explod	-8274
▁freund	-8275
▁Anstren	-8276
▁Dutzend	-8277
▁Lächeln	-8278
▁Sequenz	-8279
▁stammen	-8280
▁verletz	-8281
▁wirksam	-8282
ikationen	-8283
▁Liebling	-8284
▁nebenbei	-8285
▁schickte	-8286
▁schwerer	-8287
▁Höhepunkt	-8288
▁Weihnacht	-8289
▁abgesehen	-8290
▁gegenwärt	-8291
▁weibliche	-8292
▁Geschäftsm	-8293
▁reparieren	-8294
▁Philosophie	-8295
▁analysieren	-8296
▁wundervolle	-8297
kä	-8298
▁:	-8299
Gen	-8300
eta	-8301
gin	-8302
iop	-8303
twa	-8304
yto	-8305
öch	-8306
▁Ky	-8307
▁wä	-8308
eige	-8309
enkt	-8310
kopf	-8311
ürzt	-8312
▁Aug	-8313
▁Get	-8314
▁ret	-8315
▁tre	-8316
alley	-8317
etzen	-8318
weils	-8319
äufer	-8320
örder	-8321
▁Ener	-8322
▁Salz	-8323
▁gift	-8324
▁hand	-8325
deuten	-8326
steine	-8327
▁Karik	-8328
▁Knopf	-8329
▁human	-8330
▁japan	-8331
▁mobil	-8332
fischen	-8333
staaten	-8334
▁Bedarf	-8335
▁Daumen	-8336
▁Preise	-8337
▁Rollen	-8338
▁beides	-8339
▁beseit	-8340
▁feiern	-8341
▁muslim	-8342
▁potent	-8343
▁romant	-8344
aufgaben	-8345
mögliche	-8346
▁Schnell	-8347
▁gewöhnt	-8348
▁reflekt	-8349
▁setzten	-8350
▁Biologen	-8351
▁Diagnose	-8352
▁eingehen	-8353
▁leuchten	-8354
▁spannend	-8355
▁verletzt	-8356
▁gesammelt	-8357
▁indischen	-8358
▁infiziert	-8359
▁Motivation	-8360
▁Wichtigste	-8361
▁inzwischen	-8362
▁Konsumenten	-8363
▁Schauspieler	-8364
car	-8365
ish	-8366
▁22	-8367
▁Op	-8368
▁PM	-8369
▁Ug	-8370
▁hy	-8371
Amer	-8372
ammt	-8373
ismen	-8374
reide	-8375
selbe	-8376
ämpft	-8377
▁1950	-8378
▁1980	-8379
▁Bush	-8380
▁Flor	-8381
fällig	-8382
ordnen	-8383
wendet	-8384
▁Carto	-8385
▁Haare	-8386
▁Logik	-8387
▁Mäuse	-8388
▁Staub	-8389
▁Stick	-8390
▁beruh	-8391
▁dient	-8392
▁exakt	-8393
raucher	-8394
wandeln	-8395
▁Katzen	-8396
▁Mannes	-8397
▁echtes	-8398
▁inklus	-8399
▁nahezu	-8400
sammlung	-8401
▁Handeln	-8402
▁enormen	-8403
▁jeweils	-8404
▁lebende	-8405
▁richten	-8406
▁verließ	-8407
▁zurecht	-8408
▁Aufstieg	-8409
▁Gebieten	-8410
▁Mitglied	-8411
▁Schweine	-8412
▁Umstände	-8413
▁Vermögen	-8414
▁eröffnet	-8415
▁hingehen	-8416
▁kleinere	-8417
▁offenbar	-8418
▁sozialer	-8419
▁Übrigens	-8420
▁Einschrän	-8421
▁beitragen	-8422
▁benutzten	-8423
▁empfinden	-8424
▁kommerzie	-8425
▁nachdenkt	-8426
▁ähnlichen	-8427
▁arabischen	-8428
▁experiment	-8429
▁wiederholt	-8430
▁Verbesserung	-8431
▁komplizierter	-8432
▁traditionelle	-8433
hh	-8434
ua	-8435
Reg	-8436
bir	-8437
els	-8438
jet	-8439
▁3.	-8440
ches	-8441
gefä	-8442
komp	-8443
städ	-8444
▁Hon	-8445
▁Tum	-8446
agern	-8447
ektar	-8448
fache	-8449
ohlen	-8450
▁2004	-8451
▁Kühl	-8452
▁ehem	-8453
▁qual	-8454
archie	-8455
eitete	-8456
waffen	-8457
▁Kugel	-8458
▁Marke	-8459
▁Meere	-8460
▁Texas	-8461
▁Wände	-8462
▁drück	-8463
▁heben	-8464
▁leist	-8465
▁simul	-8466
ogenese	-8467
station	-8468
▁Tasche	-8469
▁abstra	-8470
▁fließt	-8471
▁verlor	-8472
▁wahren	-8473
zukommen	-8474
▁Alkohol	-8475
▁Pflanze	-8476
▁Schlagz	-8477
▁geraten	-8478
formation	-8479
▁Fantasie	-8480
▁Konzentr	-8481
▁Pinguine	-8482
▁aktuelle	-8483
▁früheren	-8484
▁kreative	-8485
▁Internets	-8486
▁Resultate	-8487
▁Techniken	-8488
▁Toiletten	-8489
▁antworten	-8490
▁Handlungen	-8491
▁emotionale	-8492
▁gemeinnütz	-8493
▁Anwendungen	-8494
▁Ungleichheit	-8495
▁festgestellt	-8496
NA	-8497
tn	-8498
vo	-8499
aku	-8500
ask	-8501
ios	-8502
ola	-8503
ris	-8504
ule	-8505
▁32	-8506
▁Vi	-8507
errt	-8508
äger	-8509
ätig	-8510
▁Act	-8511
▁Sur	-8512
▁Wen	-8513
▁int	-8514
▁rob	-8515
eifen	-8516
griff	-8517
itute	-8518
ruppe	-8519
twick	-8520
▁1960	-8521
▁Ausl	-8522
▁Feed	-8523
▁fein	-8524
▁flex	-8525
▁frie	-8526
▁rest	-8527
▁tanz	-8528
Wissen	-8529
assten	-8530
lament	-8531
lehnen	-8532
leiten	-8533
raktiv	-8534
wörter	-8535
zenten	-8536
▁Schon	-8537
▁Serie	-8538
▁Wärme	-8539
▁stets	-8540
▁verbr	-8541
anlagen	-8542
gesetzt	-8543
igungen	-8544
politik	-8545
quellen	-8546
▁Glücks	-8547
▁Integr	-8548
▁Klinik	-8549
▁Ratten	-8550
▁Sektor	-8551
▁Vorder	-8552
▁erlaub	-8553
▁innere	-8554
▁keinem	-8555
▁mochte	-8556
▁sonder	-8557
▁Büchern	-8558
▁Erstaun	-8559
▁Fremden	-8560
▁Verzwei	-8561
▁heutige	-8562
▁höchste	-8563
▁tauchen	-8564
▁trocken	-8565
▁zuhören	-8566
▁Schwarze	-8567
▁anbieten	-8568
▁begrenzt	-8569
▁einziges	-8570
▁geworfen	-8571
▁verständ	-8572
▁wahrhaft	-8573
▁Maßnahmen	-8574
▁erhielten	-8575
▁letztlich	-8576
▁verpflich	-8577
▁verrückte	-8578
▁Lebensraum	-8579
▁Unterwasser	-8580
▁verarbeiten	-8581
▁vorgestellt	-8582
▁chinesischen	-8583
▁Durchschnitts	-8584
1.	-8585
PA	-8586
?",	-8587
Ges	-8588
eah	-8589
ood	-8590
▁kg	-8591
▁my	-8592
akul	-8593
eins	-8594
äude	-8595
ünde	-8596
▁Abl	-8597
▁Mac	-8598
▁sym	-8599
Mails	-8600
amera	-8601
lefon	-8602
meter	-8603
werte	-8604
▁2006	-8605
▁Dist	-8606
▁Fels	-8607
▁Live	-8608
▁Serv	-8609
▁Verz	-8610
▁flog	-8611
eigung	-8612
skraft	-8613
▁Gramm	-8614
▁Lesen	-8615
▁Mount	-8616
▁Prior	-8617
▁Stich	-8618
▁Willi	-8619
▁legte	-8620
wachsen	-8621
▁Ebenen	-8622
▁Valley	-8623
▁Würden	-8624
▁danken	-8625
▁durfte	-8626
▁öffnet	-8627
schieben	-8628
▁Ausland	-8629
▁Drucker	-8630
▁Entsteh	-8631
▁Erfolgs	-8632
▁Flederm	-8633
▁Manhatt	-8634
▁anfängt	-8635
▁bedeckt	-8636
▁reicher	-8637
▁unsicht	-8638
▁verbrei	-8639
▁Gedichte	-8640
▁ausgehen	-8641
▁befassen	-8642
▁befreien	-8643
▁gefahren	-8644
▁getestet	-8645
▁geöffnet	-8646
▁jährlich	-8647
▁verliebt	-8648
▁vorwärts	-8649
▁Änderung	-8650
▁überlebt	-8651
▁Versuchen	-8652
▁weltweite	-8653
▁Rückenmark	-8654
▁Versorgung	-8655
▁Verteilung	-8656
▁verstecken	-8657
▁übersetzen	-8658
▁diskutieren	-8659
▁schlimmsten	-8660
▁Unternehmens	-8661
▁hinsichtlich	-8662
▁international	-8663
▁repräsentiert	-8664
Os	-8665
ku	-8666
Und	-8667
aps	-8668
izz	-8669
▁MR	-8670
▁bo	-8671
baut	-8672
oben	-8673
otto	-8674
ämen	-8675
ürze	-8676
▁Bek	-8677
▁Kok	-8678
▁Meg	-8679
▁Pin	-8680
▁Pop	-8681
▁Süß	-8682
▁Zut	-8683
asien	-8684
lässt	-8685
weist	-8686
▁Egal	-8687
▁Jeff	-8688
▁Myth	-8689
▁Stil	-8690
▁stat	-8691
▁trat	-8692
drehen	-8693
pflanz	-8694
spunkt	-8695
steckt	-8696
ührung	-8697
▁Achse	-8698
▁Ernst	-8699
▁Oxyto	-8700
▁alter	-8701
▁lasse	-8702
duktion	-8703
▁Anweis	-8704
▁Bomben	-8705
▁Dialog	-8706
▁Explos	-8707
▁Inseln	-8708
▁Oxford	-8709
▁billig	-8710
▁füllen	-8711
▁wartet	-8712
illionen	-8713
jähriger	-8714
▁Ehemann	-8715
▁Schwanz	-8716
▁Verhand	-8717
▁berühmt	-8718
▁beträgt	-8719
▁gelangt	-8720
▁gelegen	-8721
▁install	-8722
▁kreiert	-8723
setzungen	-8724
▁Bewohner	-8725
▁Erfinder	-8726
▁Gebäudes	-8727
▁Griechen	-8728
▁Therapie	-8729
▁Toilette	-8730
▁ausmacht	-8731
▁freiwill	-8732
▁privaten	-8733
▁schreibe	-8734
▁veränder	-8735
▁Ansichten	-8736
▁ungeheuer	-8737
▁verteilen	-8738
krankheiten	-8739
▁Ausrüstung	-8740
▁ausgegeben	-8741
▁Investition	-8742
▁aufeinander	-8743
▁Berechnungen	-8744
▁schreckliche	-8745
organisationen	-8746
▁beeindruckend	-8747
▁Globalisierung	-8748
Se	-8749
sl	-8750
wä	-8751
dat	-8752
now	-8753
ura	-8754
aker	-8755
baum	-8756
mith	-8757
stat	-8758
verl	-8759
well	-8760
▁Imp	-8761
▁Jer	-8762
▁Lau	-8763
▁san	-8764
ampag	-8765
andem	-8766
anzig	-8767
fasst	-8768
ocken	-8769
steht	-8770
thmus	-8771
▁1970	-8772
▁Etwa	-8773
▁Koch	-8774
▁fair	-8775
▁heim	-8776
auchen	-8777
fällen	-8778
heimer	-8779
▁Frühl	-8780
▁Onkel	-8781
▁Pferd	-8782
▁Waffe	-8783
▁Wasch	-8784
▁selbe	-8785
Projekt	-8786
bezogen	-8787
▁Abhäng	-8788
▁Chines	-8789
▁Fahrer	-8790
▁Martin	-8791
▁Uganda	-8792
▁befest	-8793
▁entwar	-8794
▁höchst	-8795
▁offene	-8796
▁verlei	-8797
▁ältere	-8798
befinden	-8799
schalten	-8800
▁Auftrag	-8801
▁Betrieb	-8802
▁Entwurf	-8803
▁Kohlend	-8804
▁Wurzeln	-8805
▁bevorzu	-8806
▁gelehrt	-8807
▁gesunde	-8808
▁kümmert	-8809
▁niedrig	-8810
schließen	-8811
▁Ausgaben	-8812
▁Betracht	-8813
▁Feedback	-8814
▁Konzepte	-8815
▁zentrale	-8816
▁Abenteuer	-8817
▁Symmetrie	-8818
▁aktuellen	-8819
▁bedeutend	-8820
▁niedriger	-8821
▁positiven	-8822
▁physischen	-8823
▁verringern	-8824
▁Flüssigkeit	-8825
▁kulturellen	-8826
▁Katastrophen	-8827
▁auszudrücken	-8828
▁verschwindet	-8829
▁ausschließlich	-8830
Pl	-8831
For	-8832
afe	-8833
imb	-8834
inf	-8835
ölf	-8836
▁BF	-8837
orth	-8838
reht	-8839
▁Tee	-8840
▁mar	-8841
lever	-8842
orien	-8843
▁Brut	-8844
▁Kond	-8845
▁Kore	-8846
▁Thun	-8847
▁gefr	-8848
eltern	-8849
spanne	-8850
▁Künst	-8851
▁Smith	-8852
▁altes	-8853
▁freie	-8854
▁herab	-8855
▁lasst	-8856
chester	-8857
lechter	-8858
▁Allgem	-8859
▁Magnet	-8860
▁Moskit	-8861
▁Reserv	-8862
▁Szenar	-8863
▁Umgang	-8864
▁global	-8865
▁werdet	-8866
bteilung	-8867
eitungen	-8868
▁Angebot	-8869
▁Lehrern	-8870
▁konserv	-8871
▁schöner	-8872
▁Überall	-8873
▁älteren	-8874
aktivität	-8875
▁Kontroll	-8876
▁Oxytocin	-8877
▁benutzte	-8878
▁jenseits	-8879
▁Fahrzeuge	-8880
▁erledigen	-8881
▁inklusive	-8882
▁komplexer	-8883
▁nationale	-8884
▁schrieben	-8885
bedingungen	-8886
▁ausdrücken	-8887
▁umzusetzen	-8888
▁wirklichen	-8889
▁Mechanismus	-8890
▁einzigartig	-8891
▁Journalisten	-8892
▁irgendwelche	-8893
nä	-8894
Auf	-8895
any	-8896
bru	-8897
cks	-8898
▁Cr	-8899
Bahn	-8900
Jähr	-8901
flie	-8902
ical	-8903
irca	-8904
reut	-8905
unft	-8906
▁700	-8907
▁Anh	-8908
▁Cal	-8909
▁Flu	-8910
▁Nov	-8911
▁hüb	-8912
▁ört	-8913
Inter	-8914
aters	-8915
kunst	-8916
örung	-8917
▁Kosm	-8918
▁Urkn	-8919
▁löst	-8920
▁stra	-8921
azität	-8922
schild	-8923
sitzen	-8924
stands	-8925
▁Probe	-8926
▁derer	-8927
▁Übung	-8928
projekt	-8929
verkehr	-8930
wertung	-8931
▁Astron	-8932
▁Belast	-8933
▁Kandid	-8934
▁Kuchen	-8935
▁Stille	-8936
▁Werden	-8937
gebungen	-8938
gegangen	-8939
icherung	-8940
▁Beitrag	-8941
▁Raketen	-8942
▁ersetzt	-8943
wesenheit	-8944
▁Amerikas	-8945
▁Baseball	-8946
▁Einblick	-8947
▁Hinweise	-8948
▁Reichtum	-8949
▁berühmte	-8950
▁billiger	-8951
▁künstler	-8952
▁Gleichung	-8953
▁Statistik	-8954
▁betreffen	-8955
▁gestaltet	-8956
▁unterhalb	-8957
▁Engagement	-8958
▁Selbstmord	-8959
▁Treibstoff	-8960
▁künstliche	-8961
▁teilnehmen	-8962
▁Blickwinkel	-8963
▁unterhalten	-8964
▁zukünftigen	-8965
▁Wohlbefinden	-8966
▁Zufriedenheit	-8967
Wei	-8968
▁95	-8969
achs	-8970
iene	-8971
izop	-8972
onym	-8973
ular	-8974
uste	-8975
▁Lux	-8976
▁Mün	-8977
▁emp	-8978
▁ras	-8979
arren	-8980
firma	-8981
igant	-8982
iller	-8983
umpen	-8984
▁Ever	-8985
▁Grav	-8986
▁Mahl	-8987
▁Türk	-8988
▁Wird	-8989
▁beru	-8990
▁dumm	-8991
▁hung	-8992
▁intu	-8993
▁oper	-8994
Mensch	-8995
mengen	-8996
straße	-8997
▁Blase	-8998
▁Carol	-8999
▁Hölle	-9000
▁Löwen	-9001
▁Pause	-9002
▁Werke	-9003
▁rüber	-9004
▁spont	-9005
▁zogen	-9006
zugehen	-9007
▁Analog	-9008
▁Nutzer	-9009
▁Option	-9010
▁Praxis	-9011
▁fuhren	-9012
▁kooper	-9013
▁schief	-9014
beziehen	-9015
izophren	-9016
▁Dennoch	-9017
▁Flasche	-9018
▁Handels	-9019
▁Lichter	-9020
▁Muslime	-9021
▁Oktober	-9022
▁fließen	-9023
▁illegal	-9024
▁klingen	-9025
igerweise	-9026
▁behaupte	-9027
▁bewahren	-9028
▁demonstr	-9029
▁gegessen	-9030
▁wünschen	-9031
▁Hollywood	-9032
▁Mikroskop	-9033
▁anzugehen	-9034
▁vergewalt	-9035
▁verlangen	-9036
▁Auswirkung	-9037
▁Elektronen	-9038
▁Population	-9039
▁dramatisch	-9040
▁nachhaltig	-9041
▁technische	-9042
▁zukünftige	-9043
abhängigkeit	-9044
▁allgemeinen	-9045
▁einzusetzen	-9046
▁Nervenzellen	-9047
▁komplizierte	-9048
▁zurückkommen	-9049
▁Bürgermeister	-9050
▁Geschichtener	-9051
--	-9052
KW	-9053
Te	-9054
ci	-9055
wa	-9056
▁y	-9057
ary	-9058
fro	-9059
ius	-9060
ops	-9061
uld	-9062
uth	-9063
▁Id	-9064
Test	-9065
atom	-9066
dest	-9067
gner	-9068
hten	-9069
ippe	-9070
kept	-9071
klar	-9072
raut	-9073
▁Alz	-9074
▁Dün	-9075
▁Ren	-9076
▁Zig	-9077
aller	-9078
chron	-9079
größe	-9080
hafen	-9081
ifest	-9082
krise	-9083
ronen	-9084
▁Gift	-9085
▁Kenn	-9086
▁Life	-9087
▁halt	-9088
grunde	-9089
ingung	-9090
steten	-9091
terung	-9092
undern	-9093
ändler	-9094
ütteln	-9095
▁Mauer	-9096
▁Notiz	-9097
▁Tempo	-9098
▁Titan	-9099
▁block	-9100
▁liebt	-9101
▁linke	-9102
▁theor	-9103
▁zweit	-9104
üchtern	-9105
▁Alltag	-9106
▁Ballon	-9107
▁Benzin	-9108
▁Bäumen	-9109
▁Europä	-9110
▁Fliege	-9111
▁Könnte	-9112
▁Sieben	-9113
▁enttäu	-9114
▁konkur	-9115
gekommen	-9116
▁Ausgang	-9117
▁Letztes	-9118
▁bedroht	-9119
▁greifen	-9120
▁liefert	-9121
▁schönes	-9122
▁suchten	-9123
▁verschm	-9124
▁ärmsten	-9125
▁Bedenken	-9126
▁Schreibt	-9127
▁Vorträge	-9128
▁argument	-9129
▁erkunden	-9130
▁Gletscher	-9131
▁Parlament	-9132
▁visuellen	-9133
▁Entstehung	-9134
▁Standpunkt	-9135
▁entdeckten	-9136
▁nationalen	-9137
▁offensicht	-9138
▁vermittelt	-9139
▁zusätzlich	-9140
▁Gegenstände	-9141
▁nachhaltige	-9142
▁vorhersagen	-9143
▁Kohlendioxid	-9144
▁Schriftsteller	-9145
▁schlussendlich	-9146
zo	-9147
Als	-9148
emp	-9149
way	-9150
hnte	-9151
rott	-9152
zell	-9153
▁800	-9154
▁Imm	-9155
▁Joe	-9156
▁Oft	-9157
dauer	-9158
heber	-9159
kette	-9160
leute	-9161
stimm	-9162
▁Bron	-9163
▁Gand	-9164
▁Hals	-9165
▁Homo	-9166
▁Spur	-9167
▁Tode	-9168
▁befr	-9169
▁hell	-9170
ektion	-9171
garten	-9172
mitten	-9173
summen	-9174
üchtig	-9175
▁Green	-9176
▁Heran	-9177
▁Höhle	-9178
▁Party	-9179
▁Peter	-9180
▁Trink	-9181
▁Volks	-9182
▁Weltw	-9183
▁braun	-9184
▁offiz	-9185
▁tiefe	-9186
stecken	-9187
streben	-9188
▁Berufs	-9189
▁Felsen	-9190
▁Intens	-9191
▁Konkur	-9192
▁Köpfen	-9193
▁Ruanda	-9194
▁Werten	-9195
▁ehemal	-9196
▁festge	-9197
▁Fußball	-9198
▁Inhalte	-9199
▁Magazin	-9200
▁Schädel	-9201
▁Spenden	-9202
▁gewinnt	-9203
▁nutzten	-9204
▁widersp	-9205
▁winzige	-9206
▁Sammlung	-9207
▁Schülern	-9208
▁Speicher	-9209
▁Stiftung	-9210
▁beachten	-9211
▁erlangen	-9212
▁gebildet	-9213
▁schnelle	-9214
▁zugrunde	-9215
▁zweitens	-9216
▁Einheiten	-9217
▁Großvater	-9218
▁Manhattan	-9219
▁Zeitungen	-9220
▁ausführen	-9221
▁hilfreich	-9222
▁hoffnungs	-9223
▁übersetzt	-9224
▁angekommen	-9225
▁aufmerksam	-9226
▁religiösen	-9227
▁virtuellen	-9228
▁überprüfen	-9229
▁Videospiele	-9230
▁angetrieben	-9231
▁profitieren	-9232
▁schwierigen	-9233
▁verbrauchen	-9234
▁Arbeitsplatz	-9235
▁intelligente	-9236
▁Produktivität	-9237
▁unterscheidet	-9238
wissenschaftler	-9239
▁Lebensqualität	-9240
BI	-9241
ET	-9242
va	-9243
ani	-9244
bew	-9245
oto	-9246
rix	-9247
▁Av	-9248
Kopf	-9249
bein	-9250
flei	-9251
igma	-9252
llte	-9253
äser	-9254
▁191	-9255
▁Dez	-9256
▁Jim	-9257
▁Oel	-9258
▁Rio	-9259
▁nör	-9260
rugen	-9261
terte	-9262
▁Appl	-9263
▁Kilo	-9264
▁Mist	-9265
▁Prop	-9266
▁quer	-9267
▁üben	-9268
wecken	-9269
▁Front	-9270
▁Hören	-9271
▁Satur	-9272
▁circa	-9273
▁heiße	-9274
▁schäd	-9275
▁stimm	-9276
▁verle	-9277
▁wirft	-9278
▁Älter	-9279
lichung	-9280
schönen	-9281
zustand	-9282
▁Beinen	-9283
▁Dichte	-9284
▁Diesen	-9285
▁Gerade	-9286
▁Spuren	-9287
▁Trends	-9288
▁treibt	-9289
▁umwelt	-9290
eimittel	-9291
geschäft	-9292
ierendes	-9293
isierten	-9294
reichend	-9295
werkraft	-9296
zweifelt	-9297
ächtigen	-9298
▁fühlten	-9299
zeichnung	-9300
▁Erschein	-9301
▁Gefahren	-9302
▁Illusion	-9303
▁sexuelle	-9304
▁struktur	-9305
▁Alzheimer	-9306
▁Flugzeuge	-9307
▁effizient	-9308
▁erfordert	-9309
▁erinnerte	-9310
▁erzählten	-9311
▁geblieben	-9312
ministerium	-9313
▁Allerdings	-9314
▁Gegenstand	-9315
▁Gestaltung	-9316
organisation	-9317
▁Kooperation	-9318
▁zusätzliche	-9319
▁Depressionen	-9320
▁afrikanische	-9321
▁ungewöhnlich	-9322
▁programmieren	-9323
▁weiterentwick	-9324
▁Menschlichkeit	-9325
▁Nahrungsmittel	-9326
MA	-9327
ln	-9328
ati	-9329
col	-9330
ray	-9331
row	-9332
urr	-9333
vas	-9334
▁TV	-9335
..."	-9336
aver	-9337
dere	-9338
eder	-9339
geld	-9340
puls	-9341
uell	-9342
▁Leg	-9343
▁Sir	-9344
▁ert	-9345
▁irr	-9346
dustr	-9347
orter	-9348
osten	-9349
reter	-9350
ucken	-9351
▁Chip	-9352
▁Lärm	-9353
▁Penn	-9354
binden	-9355
breite	-9356
eidung	-9357
gerung	-9358
handel	-9359
jenige	-9360
▁Beide	-9361
▁Hügel	-9362
▁Käfer	-9363
▁Lehre	-9364
▁Mathe	-9365
▁Nobel	-9366
▁Olymp	-9367
▁Reden	-9368
▁allzu	-9369
▁dicht	-9370
▁lagen	-9371
▁malen	-9372
ildeten	-9373
konstru	-9374
▁Dinger	-9375
▁Einmal	-9376
▁Knoten	-9377
▁Kriege	-9378
▁clever	-9379
▁primit	-9380
▁reiste	-9381
▁spiele	-9382
▁Ärzten	-9383
sichtigt	-9384
▁Dynamik	-9385
▁Figuren	-9386
▁Glühbir	-9387
▁Hinweis	-9388
▁Veranst	-9389
▁Weltall	-9390
▁diesmal	-9391
▁private	-9392
▁trennen	-9393
▁aufrecht	-9394
▁bedenken	-9395
▁gesünder	-9396
▁schießen	-9397
▁Austausch	-9398
▁Intuition	-9399
▁Störungen	-9400
▁Tätigkeit	-9401
▁attraktiv	-9402
▁auftreten	-9403
▁errichten	-9404
▁Asteroiden	-9405
▁allgemeine	-9406
▁beschützen	-9407
▁verbraucht	-9408
▁Anerkennung	-9409
▁ausgebildet	-9410
▁weitermachen	-9411
▁abgeschlossen	-9412
▁sicherstellen	-9413
agd	-9414
gab	-9415
hil	-9416
kes	-9417
mod	-9418
obi	-9419
ßte	-9420
▁33	-9421
▁85	-9422
▁Ah	-9423
▁PC	-9424
▁to	-9425
emen	-9426
flex	-9427
obby	-9428
sitz	-9429
ühle	-9430
▁10-	-9431
▁Anf	-9432
▁Wow	-9433
block	-9434
gehör	-9435
inson	-9436
sorge	-9437
thiop	-9438
üster	-9439
▁2003	-9440
▁Iron	-9441
▁King	-9442
▁Seil	-9443
▁sign	-9444
drücke	-9445
eigern	-9446
fanden	-9447
graben	-9448
ildern	-9449
regung	-9450
werten	-9451
▁Falle	-9452
▁Smart	-9453
▁Welle	-9454
▁begrü	-9455
▁schlä	-9456
▁verne	-9457
flächen	-9458
sträger	-9459
▁20.000	-9460
▁Latein	-9461
▁Pocken	-9462
▁herbei	-9463
▁leeren	-9464
▁tollen	-9465
ensystem	-9466
erkennen	-9467
stimmung	-9468
▁Abstand	-9469
▁Autoren	-9470
▁Geburts	-9471
▁Industr	-9472
▁Pazifik	-9473
▁Punkten	-9474
▁Studium	-9475
▁beendet	-9476
▁erfüllt	-9477
▁nirgend	-9478
▁unangen	-9479
▁zwingen	-9480
▁Empathie	-9481
▁Vortrags	-9482
▁einziger	-9483
▁erzielen	-9484
▁häufiger	-9485
▁zugleich	-9486
▁Übergang	-9487
▁Allgemein	-9488
▁Anzeichen	-9489
▁Flughafen	-9490
▁Mittleren	-9491
▁folgender	-9492
▁Betrachten	-9493
▁Gleichheit	-9494
▁Allgemeinen	-9495
▁Nordamerika	-9496
▁Schwerkraft	-9497
▁mü	-9498
grad	-9499
mmel	-9500
omos	-9501
rien	-9502
yram	-9503
änen	-9504
▁Bew	-9505
▁Hai	-9506
▁Hut	-9507
▁Jon	-9508
▁Vis	-9509
▁ass	-9510
besch	-9511
ipend	-9512
raben	-9513
rateg	-9514
schel	-9515
sucht	-9516
▁Camb	-9517
▁ethn	-9518
▁kosm	-9519
anders	-9520
ativer	-9521
orenen	-9522
ropfen	-9523
▁Absch	-9524
▁Apfel	-9525
▁Behör	-9526
▁Gates	-9527
▁Griff	-9528
▁Kluft	-9529
▁Köpfe	-9530
▁Taten	-9531
▁abend	-9532
▁endet	-9533
▁schie	-9534
▁trage	-9535
▁ultim	-9536
pressiv	-9537
yramide	-9538
▁Besten	-9539
▁Küsten	-9540
▁Saturn	-9541
▁Später	-9542
▁Tenden	-9543
▁Vagina	-9544
▁echter	-9545
▁erfuhr	-9546
▁gigant	-9547
▁kochen	-9548
▁lenken	-9549
▁region	-9550
▁rennen	-9551
▁sinken	-9552
▁tolles	-9553
▁verhei	-9554
▁Äthiop	-9555
designer	-9556
ierender	-9557
tagessen	-9558
zumachen	-9559
▁Florida	-9560
▁dreimal	-9561
▁einzeln	-9562
▁landete	-9563
schaffung	-9564
▁Herkunft	-9565
▁Norwegen	-9566
▁Tragödie	-9567
▁unsicher	-9568
▁Einwohner	-9569
▁Erwärmung	-9570
▁Institute	-9571
▁Kreislauf	-9572
▁angepasst	-9573
▁genetisch	-9574
▁irgendwas	-9575
▁tausenden	-9576
▁vergrößer	-9577
geschritten	-9578
▁Abendessen	-9579
▁ansprechen	-9580
▁bewältigen	-9581
▁chemischen	-9582
▁Operationen	-9583
▁anzuschauen	-9584
▁stattfinden	-9585
▁ursprüngliche	-9586
▁Untersuchungen	-9587
'.	-9588
EC	-9589
LA	-9590
Ist	-9591
lem	-9592
äme	-9593
▁KB	-9594
ardo	-9595
bell	-9596
bole	-9597
rufe	-9598
stel	-9599
stil	-9600
stoß	-9601
uden	-9602
vern	-9603
▁Clo	-9604
▁Mai	-9605
▁Mak	-9606
▁pol	-9607
▁weh	-9608
ampen	-9609
dacht	-9610
iffen	-9611
kamen	-9612
spart	-9613
▁Bahn	-9614
▁Foss	-9615
▁Gast	-9616
▁Güte	-9617
▁Kauf	-9618
▁Matt	-9619
▁Maße	-9620
▁Prem	-9621
▁Sexu	-9622
▁deta	-9623
▁live	-9624
besitz	-9625
gungen	-9626
ildete	-9627
kasten	-9628
reiter	-9629
▁5.000	-9630
▁Digit	-9631
▁Haust	-9632
▁Ignor	-9633
▁Panik	-9634
▁Summe	-9635
▁Sätze	-9636
▁Waren	-9637
▁Woher	-9638
▁kauft	-9639
▁stärk	-9640
▁zwölf	-9641
enschwe	-9642
fleisch	-9643
sonsten	-9644
technik	-9645
▁Kurzem	-9646
▁Liebes	-9647
▁Liefer	-9648
▁Schock	-9649
▁Stimmt	-9650
▁Stämme	-9651
▁Talent	-9652
▁Tricks	-9653
▁akadem	-9654
etischen	-9655
ichteten	-9656
▁Komprom	-9657
▁Umfrage	-9658
▁bewegte	-9659
▁detaill	-9660
▁geredet	-9661
▁komisch	-9662
▁vermute	-9663
katastrop	-9664
▁Amazonas	-9665
▁Dezember	-9666
▁Energien	-9667
▁Fabriken	-9668
▁Frühling	-9669
▁Mischung	-9670
▁Vielzahl	-9671
▁Weltbank	-9672
▁bedienen	-9673
▁beziehen	-9674
▁schaffte	-9675
▁schließt	-9676
▁sicherer	-9677
▁soziales	-9678
▁startete	-9679
wohnheiten	-9680
▁Animation	-9681
▁Cambridge	-9682
▁Erziehung	-9683
▁Fernseher	-9684
▁Fischerei	-9685
▁Meinungen	-9686
▁Schlechte	-9687
▁ermöglich	-9688
▁geschützt	-9689
▁perfekten	-9690
▁täglichen	-9691
▁vorkommen	-9692
▁Leistungen	-9693
▁angeschaut	-9694
▁auftauchen	-9695
▁Mittagessen	-9696
▁effizienter	-9697
▁Abhängigkeit	-9698
▁Erkrankungen	-9699
▁Schreibtisch	-9700
▁Stoffwechsel	-9701
▁leidenschaft	-9702
▁durchzuführen	-9703
▁gewissermaßen	-9704
▁wunderschönen	-9705
Aus	-9706
rav	-9707
ric	-9708
ymm	-9709
äub	-9710
öne	-9711
▁CD	-9712
gäng	-9713
iale	-9714
lass	-9715
▁1,5	-9716
▁17.	-9717
▁Aqu	-9718
▁Dop	-9719
▁Fro	-9720
▁Sus	-9721
▁Tes	-9722
▁geg	-9723
▁jüd	-9724
Masch	-9725
achel	-9726
antom	-9727
bruar	-9728
haber	-9729
otter	-9730
werks	-9731
▁Darm	-9732
▁Dick	-9733
▁Euro	-9734
▁Watt	-9735
▁herz	-9736
▁wach	-9737
haufen	-9738
ierbar	-9739
odelle	-9740
onomie	-9741
▁Appar	-9742
▁Conne	-9743
▁Dauer	-9744
▁Gehör	-9745
▁Hyper	-9746
▁Lücke	-9747
▁Roman	-9748
▁Vietn	-9749
▁anerk	-9750
▁etabl	-9751
▁schme	-9752
▁ständ	-9753
▁weich	-9754
arakter	-9755
gebäude	-9756
setzten	-9757
tragung	-9758
ährungs	-9759
▁50.000	-9760
▁Banken	-9761
▁Poster	-9762
▁Schall	-9763
▁Spiels	-9764
▁Wollen	-9765
▁halben	-9766
▁senken	-9767
▁stoßen	-9768
Programm	-9769
alitäten	-9770
getragen	-9771
▁Februar	-9772
▁Königin	-9773
▁Schlimm	-9774
▁Spitzen	-9775
▁Zentral	-9776
▁beliebt	-9777
▁blicken	-9778
▁empfind	-9779
▁fressen	-9780
▁träumen	-9781
▁verdopp	-9782
▁zweites	-9783
▁züchten	-9784
▁Beschäft	-9785
▁Minister	-9786
▁Privileg	-9787
▁Versagen	-9788
▁bewerten	-9789
▁erledigt	-9790
▁erschien	-9791
▁herrscht	-9792
▁inmitten	-9793
unterricht	-9794
▁Autorität	-9795
▁Bewegungs	-9796
▁Führungsp	-9797
▁Interpret	-9798
▁Offenheit	-9799
▁Regenwald	-9800
▁Strahlung	-9801
▁vielerlei	-9802
▁Bandbreite	-9803
▁Supermarkt	-9804
▁angesichts	-9805
▁ausgewählt	-9806
▁involviert	-9807
▁trainieren	-9808
▁verdoppelt	-9809
▁verhindert	-9810
▁Institution	-9811
▁Zeichnungen	-9812
▁abschließen	-9813
▁finanzieren	-9814
▁kombinieren	-9815
▁zweieinhalb	-9816
▁Bewusstseins	-9817
▁entschlossen	-9818
▁optimistisch	-9819
▁Kommunikations	-9820
▁bemerkenswerte	-9821
aa	-9822
Geh	-9823
aby	-9824
dam	-9825
eis	-9826
ima	-9827
las	-9828
okl	-9829
röh	-9830
wäl	-9831
▁CE	-9832
alem	-9833
bele	-9834
drom	-9835
kern	-9836
strö	-9837
ulin	-9838
utet	-9839
uzin	-9840
wjet	-9841
ähmt	-9842
üben	-9843
▁Big	-9844
▁Grü	-9845
▁Hen	-9846
▁Tja	-9847
▁Wün	-9848
ettel	-9849
flung	-9850
geord	-9851
lings	-9852
ähler	-9853
▁2001	-9854
▁Fund	-9855
▁Hill	-9856
▁Lust	-9857
▁Prof	-9858
▁Rein	-9859
▁beur	-9860
▁fett	-9861
▁lass	-9862
atives	-9863
bergen	-9864
gewebe	-9865
reicht	-9866
uchsen	-9867
▁Füßen	-9868
▁Genen	-9869
▁Kiste	-9870
▁Nahen	-9871
▁Somit	-9872
▁Straf	-9873
▁befür	-9874
▁kämpf	-9875
▁reale	-9876
behörde	-9877
▁Brüder	-9878
▁Keiner	-9879
▁Mandel	-9880
▁Messer	-9881
▁Republ	-9882
▁aussah	-9883
▁kurzer	-9884
▁Anreize	-9885
▁Chirurg	-9886
▁Effekte	-9887
▁Einkauf	-9888
▁Install	-9889
▁beschäd	-9890
▁gefüllt	-9891
▁grösser	-9892
▁kannten	-9893
▁neulich	-9894
▁schwach	-9895
iversität	-9896
ttausende	-9897
▁Benutzer	-9898
▁Business	-9899
▁Direktor	-9900
▁Fettleib	-9901
▁Fotograf	-9902
▁Gewässer	-9903
▁Kontinen	-9904
▁Schlange	-9905
▁ankommen	-9906
▁aufgeben	-9907
▁betreten	-9908
▁spielten	-9909
▁verdammt	-9910
▁Vereinten	-9911
▁anstellen	-9912
▁schafften	-9913
▁speichern	-9914
▁transform	-9915
▁westliche	-9916
Technologie	-9917
▁Elektronik	-9918
▁Wörterbuch	-9919
▁einstellen	-9920
▁geschlagen	-9921
▁revolution	-9922
▁Erforschung	-9923
▁beobachtete	-9924
▁irgendeiner	-9925
▁Überzeugung	-9926
▁Interessante	-9927
▁Studierenden	-9928
▁Verzweiflung	-9929
▁exponentiell	-9930
▁wundervollen	-9931
▁interessantes	-9932
▁ursprünglichen	-9933
aya	-9934
hus	-9935
ors	-9936
ahre	-9937
arzt	-9938
paar	-9939
wich	-9940
▁Dok	-9941
▁Hol	-9942
▁Jes	-9943
▁Kab	-9944
▁Pre	-9945
▁Vul	-9946
▁unf	-9947
ehrte	-9948
ikeln	-9949
loser	-9950
läuft	-9951
obile	-9952
onald	-9953
ource	-9954
srate	-9955
steck	-9956
uropa	-9957
ville	-9958
äufig	-9959
▁simp	-9960
▁wein	-9961
▁wozu	-9962
iegeln	-9963
istent	-9964
ussten	-9965
▁Bruch	-9966
▁Honig	-9967
▁Koran	-9968
▁Kämpf	-9969
▁Länge	-9970
▁Media	-9971
▁Zuhör	-9972
▁beruf	-9973
▁flüss	-9974
▁mater	-9975
▁nukle	-9976
▁tritt	-9977
artiges	-9978
brachte	-9979
laubnis	-9980
sammeln	-9981
stimmen	-9982
▁Ameise	-9983
▁Gehalt	-9984
▁Lieder	-9985
▁Phosph	-9986
▁Schöpf	-9987
▁Türkei	-9988
▁Vorles	-9989
▁prüfen	-9990
andelten	-9991
probleme	-9992
▁Motoren	-9993
▁Planung	-9994
▁Rechner	-9995
▁Richter	-9996
▁Urheber	-9997
▁beginne	-9998
▁bewirkt	-9999
▁erfasst	-10000
▁inneren	-10001
▁verhält	-10002
▁relevant	-10003
▁verfügen	-10004
▁verlangt	-10005
▁Architekt	-10006
▁Auflösung	-10007
▁Führungsk	-10008
▁Kreaturen	-10009
▁Rollstuhl	-10010
▁Schichten	-10011
▁Tausenden	-10012
▁Täuschung	-10013
▁berichtet	-10014
▁einnehmen	-10015
▁gewachsen	-10016
▁mitteilen	-10017
▁probieren	-10018
▁unendlich	-10019
▁ähnliches	-10020
▁Optimismus	-10021
▁Religionen	-10022
▁überlassen	-10023
▁Algorithmus	-10024
▁Geheimnisse	-10025
▁Hindernisse	-10026
▁Immunsystem	-10027
▁stattfindet	-10028
▁Beschreibung	-10029
▁Krankenschwe	-10030
▁finanziellen	-10031
▁entscheidende	-10032
▁fortgeschritten	-10033
yt	-10034
▁ä	-10035
Kön	-10036
krä	-10037
ahme	-10038
belt	-10039
gels	-10040
üten	-10041
▁Are	-10042
▁Cra	-10043
▁Hub	-10044
▁LED	-10045
▁Sec	-10046
▁spr	-10047
Gesch	-10048
formt	-10049
änzen	-10050
▁Brit	-10051
▁Budd	-10052
▁Neun	-10053
▁Tran	-10054
▁Wale	-10055
▁imit	-10056
▁phil	-10057
▁plus	-10058
▁tend	-10059
aufbau	-10060
brüche	-10061
ktoren	-10062
lässig	-10063
uchtet	-10064
▁Laser	-10065
▁Möbel	-10066
▁Robot	-10067
▁Wohlt	-10068
▁Zigar	-10069
▁liest	-10070
▁synth	-10071
grenzen	-10072
hundert	-10073
iversen	-10074
klichen	-10075
ulation	-10076
▁Chinas	-10077
▁Ersatz	-10078
▁Nächst	-10079
▁Poesie	-10080
▁Winkel	-10081
▁brauch	-10082
▁stimul	-10083
▁symbol	-10084
▁widmen	-10085
▁Balance	-10086
▁Betrach	-10087
▁Dichter	-10088
▁ankommt	-10089
▁beängst	-10090
▁fürchte	-10091
▁gerecht	-10092
▁zugeben	-10093
istischer	-10094
▁Hardware	-10095
▁Ignoranz	-10096
▁Objekten	-10097
▁Skulptur	-10098
▁Vernunft	-10099
▁andauern	-10100
▁geringer	-10101
▁verboten	-10102
▁überwält	-10103
temperatur	-10104
▁Datenbank	-10105
▁Einzelnen	-10106
▁Kommentar	-10107
▁berühmten	-10108
▁gewaltige	-10109
▁scheitern	-10110
▁schickten	-10111
▁wiederher	-10112
bewusstsein	-10113
▁Emissionen	-10114
▁Nachmittag	-10115
▁Reichweite	-10116
▁Schokolade	-10117
▁britischen	-10118
▁englischen	-10119
▁finanziert	-10120
▁gewöhnlich	-10121
▁wahrschein	-10122
▁überqueren	-10123
▁Einrichtung	-10124
▁Mittelpunkt	-10125
▁Trinkwasser	-10126
▁Verbraucher	-10127
▁Widerspruch	-10128
▁verzweifelt	-10129
▁Alternativen	-10130
▁Verletzungen	-10131
▁präsentieren	-10132
▁erstaunlichen	-10133
▁individuellen	-10134
▁Aufzeichnungen	-10135
▁Entschuldigung	-10136
▁Fettleibigkeit	-10137
▁einschließlich	-10138
',	-10139
-1	-10140
We	-10141
cl	-10142
kö	-10143
ux	-10144
Ber	-10145
Des	-10146
Ger	-10147
aot	-10148
beu	-10149
mär	-10150
uel	-10151
▁29	-10152
▁3,	-10153
able	-10154
agos	-10155
arma	-10156
erei	-10157
icon	-10158
ilem	-10159
wege	-10160
▁10,	-10161
▁Amy	-10162
▁Bay	-10163
▁Göt	-10164
▁LKW	-10165
▁Mer	-10166
▁Ski	-10167
▁Tax	-10168
▁Ted	-10169
▁Tra	-10170
▁Van	-10171
▁brä	-10172
▁met	-10173
▁str	-10174
agent	-10175
ehnte	-10176
gsten	-10177
otern	-10178
ropie	-10179
spezi	-10180
strom	-10181
▁Dreh	-10182
▁Farm	-10183
▁Held	-10184
▁Hung	-10185
▁Prob	-10186
▁bele	-10187
aneben	-10188
bellen	-10189
kinder	-10190
ranten	-10191
rucken	-10192
voller	-10193
üttern	-10194
▁Brand	-10195
▁Derek	-10196
▁Lunge	-10197
▁Wende	-10198
▁chaot	-10199
▁draht	-10200
▁illeg	-10201
▁präzi	-10202
iologie	-10203
legenen	-10204
theorie	-10205
▁Akadem	-10206
▁Beteil	-10207
▁Doppel	-10208
▁Filter	-10209
▁Solche	-10210
▁Vermut	-10211
▁Wüsten	-10212
▁geheim	-10213
▁genaue	-10214
▁jahrel	-10215
▁legten	-10216
▁wüsste	-10217
▁zutief	-10218
sprecher	-10219
▁Anthrop	-10220
▁Behaupt	-10221
▁Genauso	-10222
▁Manager	-10223
▁Notwend	-10224
▁Symbole	-10225
▁Vietnam	-10226
▁hierfür	-10227
▁radikal	-10228
▁schlägt	-10229
▁verdien	-10230
▁wodurch	-10231
▁würdest	-10232
arenergie	-10233
maschinen	-10234
▁Bescheid	-10235
▁Blutgefä	-10236
▁Diplomat	-10237
▁Friedens	-10238
▁Gewinner	-10239
▁Handlung	-10240
▁Hochzeit	-10241
▁Original	-10242
▁gleicher	-10243
▁untersch	-10244
▁vielmals	-10245
▁Prozesses	-10246
▁definitiv	-10247
▁Königreich	-10248
▁lächerlich	-10249
▁überwachen	-10250
▁Reihenfolge	-10251
▁Schizophren	-10252
▁Vorhersagen	-10253
▁städtischen	-10254
▁Angestellten	-10255
▁Arzneimittel	-10256
▁Erkenntnisse	-10257
▁beeindrucken	-10258
▁fotografiert	-10259
▁beschleunigen	-10260
▁Offensichtlich	-10261
▁eingeschlossen	-10262
Bl	-10263
Kl	-10264
Wow	-10265
häu	-10266
osn	-10267
ehle	-10268
fabr	-10269
ffin	-10270
flos	-10271
gase	-10272
illa	-10273
sage	-10274
zirk	-10275
▁18.	-10276
▁Hey	-10277
▁Ray	-10278
▁Tut	-10279
▁zun	-10280
allel	-10281
anner	-10282
attet	-10283
bogen	-10284
klang	-10285
otten	-10286
riech	-10287
▁Agen	-10288
▁Erle	-10289
▁Mary	-10290
▁Ther	-10291
▁Vieh	-10292
▁Zehn	-10293
▁gekl	-10294
▁lehr	-10295
▁warm	-10296
altete	-10297
bereit	-10298
blasen	-10299
ladung	-10300
lösung	-10301
person	-10302
rachen	-10303
ustern	-10304
▁Dreie	-10305
▁Luxus	-10306
▁Sturm	-10307
▁behin	-10308
▁chron	-10309
▁spekt	-10310
gefasst	-10311
grammen	-10312
imenten	-10313
passung	-10314
spruchs	-10315
ungslos	-10316
▁Anreiz	-10317
▁August	-10318
▁Blasen	-10319
▁Frucht	-10320
▁TEDTal	-10321
▁erfand	-10322
▁tiefen	-10323
▁unverm	-10324
schungen	-10325
ulierung	-10326
▁Antarkt	-10327
▁Connect	-10328
▁Dopamin	-10329
▁Gelände	-10330
▁Kolonie	-10331
▁Taliban	-10332
▁Tendenz	-10333
▁Zweiten	-10334
▁betonen	-10335
▁bezieht	-10336
▁leichte	-10337
▁Besitzer	-10338
▁Demonstr	-10339
▁Horizont	-10340
▁Kalorien	-10341
▁Nächstes	-10342
▁Sprecher	-10343
▁basieren	-10344
▁erstaunt	-10345
▁eröffnen	-10346
▁steigern	-10347
▁zutiefst	-10348
raditionen	-10349
▁Chirurgen	-10350
▁komplette	-10351
▁studierte	-10352
▁Auffassung	-10353
▁Management	-10354
▁Simulation	-10355
▁Umgebungen	-10356
▁biologisch	-10357
▁verbrennen	-10358
▁vergrößern	-10359
▁großartiger	-10360
▁individuelle	-10361
▁unterrichtet	-10362
issenschaftler	-10363
▁Interessanter	-10364
▁Sterblichkeit	-10365
▁Menschenrechte	-10366
▁Unabhängigkeit	-10367
▁sicherzustellen	-10368
5.	-10369
do	-10370
ya	-10371
fiz	-10372
ope	-10373
tzu	-10374
une	-10375
▁MT	-10376
Mein	-10377
appe	-10378
hrer	-10379
imon	-10380
istr	-10381
kind	-10382
meld	-10383
ocht	-10384
odie	-10385
osop	-10386
otel	-10387
prim	-10388
rier	-10389
zenz	-10390
▁Lou	-10391
▁gol	-10392
▁kat	-10393
▁Äqu	-10394
board	-10395
ehlen	-10396
iffer	-10397
kampf	-10398
llten	-10399
rägen	-10400
▁Farb	-10401
▁Flut	-10402
▁Gore	-10403
▁Hass	-10404
▁Nick	-10405
▁Stap	-10406
▁Tunn	-10407
▁farb	-10408
▁fröh	-10409
▁klug	-10410
▁wild	-10411
averei	-10412
weiten	-10413
▁Atome	-10414
▁Blogs	-10415
▁Extra	-10416
▁Freit	-10417
▁Liber	-10418
▁Lügen	-10419
▁Rauch	-10420
▁breit	-10421
▁stren	-10422
enntnis	-10423
führten	-10424
oleranz	-10425
schwing	-10426
örungen	-10427
▁Babies	-10428
▁Howard	-10429
▁Methan	-10430
▁Steine	-10431
▁drüber	-10432
gefangen	-10433
schlafen	-10434
vielfalt	-10435
wechseln	-10436
▁Brücken	-10437
▁Heilung	-10438
▁Könnten	-10439
▁Laptops	-10440
▁Platten	-10441
▁Tropfen	-10442
▁Unglück	-10443
▁Wohnung	-10444
▁ausländ	-10445
▁blieben	-10446
▁brennen	-10447
▁gesucht	-10448
bereitung	-10449
sichtigen	-10450
▁Bedauern	-10451
▁Drittens	-10452
▁Primaten	-10453
▁Rhythmus	-10454
▁Schwefel	-10455
▁Sprechen	-10456
▁Ungefähr	-10457
▁geeignet	-10458
▁interakt	-10459
▁umsetzen	-10460
▁Feuerwehr	-10461
▁Hypothese	-10462
▁Produkten	-10463
▁Standards	-10464
▁auswählen	-10465
▁umgekehrt	-10466
▁virtuelle	-10467
riminalität	-10468
▁Einkommens	-10469
▁Grundlagen	-10470
▁Individuum	-10471
▁Kommentare	-10472
▁Stabilität	-10473
▁Säugetiere	-10474
▁Zentimeter	-10475
▁anzunehmen	-10476
▁Erfindungen	-10477
▁Hilfsmittel	-10478
▁aufzunehmen	-10479
▁ausreichend	-10480
▁Schlagzeilen	-10481
▁Solarenergie	-10482
▁beizubringen	-10483
▁darzustellen	-10484
uk	-10485
gei	-10486
rah	-10487
uts	-10488
Null	-10489
delt	-10490
eide	-10491
face	-10492
fiel	-10493
film	-10494
ibil	-10495
olum	-10496
osis	-10497
▁Nar	-10498
▁Neg	-10499
▁Ult	-10500
▁biz	-10501
▁bzw	-10502
▁max	-10503
▁maß	-10504
agert	-10505
flüss	-10506
hinge	-10507
iefer	-10508
liste	-10509
pfern	-10510
ummer	-10511
änzer	-10512
▁Cous	-10513
▁Eric	-10514
▁Halb	-10515
▁Käse	-10516
▁Mais	-10517
▁Papa	-10518
▁Poly	-10519
▁iPod	-10520
▁lese	-10521
▁spaz	-10522
apital	-10523
echnet	-10524
firmen	-10525
hafter	-10526
iction	-10527
kräfte	-10528
plätze	-10529
sektor	-10530
ymmetr	-10531
▁Endes	-10532
▁Exped	-10533
▁Höhen	-10534
▁Kompl	-10535
▁Kopie	-10536
▁Leser	-10537
▁Motto	-10538
▁Pläne	-10539
▁besie	-10540
▁flach	-10541
▁geprä	-10542
▁jagen	-10543
▁tötet	-10544
▁übers	-10545
blicken	-10546
▁Bereit	-10547
▁Besser	-10548
▁Jedoch	-10549
▁Kreise	-10550
▁Rennen	-10551
▁Virgin	-10552
▁Weißen	-10553
▁großem	-10554
▁merkte	-10555
faktoren	-10556
freiheit	-10557
▁Phantom	-10558
▁Sklaven	-10559
▁fortsch	-10560
▁gedreht	-10561
▁glamour	-10562
▁korrekt	-10563
▁schmutz	-10564
▁vierten	-10565
▁wüssten	-10566
▁Anhänger	-10567
▁Flaschen	-10568
▁Spannung	-10569
▁getragen	-10570
▁intensiv	-10571
▁Dimension	-10572
▁Erlaubnis	-10573
▁Explosion	-10574
▁ermutigen	-10575
▁getrieben	-10576
▁männliche	-10577
▁niemandem	-10578
▁spektakul	-10579
▁Passwörter	-10580
▁Stickstoff	-10581
▁Verpflicht	-10582
▁aktivieren	-10583
▁anzuwenden	-10584
▁beteiligen	-10585
▁effektiver	-10586
▁jedenfalls	-10587
▁klassische	-10588
▁verurteilt	-10589
▁Beobachtung	-10590
▁Psychologen	-10591
▁Restaurants	-10592
▁tiefgreifen	-10593
▁Diskussionen	-10594
▁Klimawandels	-10595
▁Unsicherheit	-10596
▁eigentlichen	-10597
▁einzigartige	-10598
▁industrielle	-10599
▁Arbeitsplätze	-10600
▁Interaktionen	-10601
▁Wohltätigkeit	-10602
▁transportieren	-10603
Ch	-10604
pal	-10605
sey	-10606
uge	-10607
val	-10608
wol	-10609
▁rü	-10610
▁sc	-10611
erry	-10612
ftig	-10613
ihad	-10614
kurs	-10615
pern	-10616
älen	-10617
▁Bör	-10618
▁Kub	-10619
▁Mod	-10620
▁Nic	-10621
▁Rab	-10622
▁Soc	-10623
▁eur	-10624
▁kal	-10625
apier	-10626
figur	-10627
hielt	-10628
ieber	-10629
itäre	-10630
right	-10631
stock	-10632
▁Bamb	-10633
▁Dikt	-10634
▁Jose	-10635
▁Lass	-10636
▁Lego	-10637
▁Mont	-10638
▁Reis	-10639
▁Song	-10640
▁Tsun	-10641
▁Visu	-10642
▁Wall	-10643
▁Weiß	-10644
▁allm	-10645
▁anre	-10646
▁euer	-10647
▁pein	-10648
▁warf	-10649
führte	-10650
genden	-10651
izität	-10652
leiden	-10653
senden	-10654
terten	-10655
ündung	-10656
▁Bären	-10657
▁Hafen	-10658
▁Leder	-10659
▁Story	-10660
▁Werbe	-10661
▁redet	-10662
▁teure	-10663
▁traur	-10664
▁unaus	-10665
▁warst	-10666
▁wiegt	-10667
▁zivil	-10668
okraten	-10669
rategie	-10670
schrank	-10671
▁Anwalt	-10672
▁Felder	-10673
▁Gerüst	-10674
▁Glaube	-10675
▁Golden	-10676
▁Kritik	-10677
▁falten	-10678
▁lauter	-10679
▁mittel	-10680
▁sendet	-10681
▁vollen	-10682
bereiten	-10683
gebnisse	-10684
mechanik	-10685
stheorie	-10686
änderung	-10687
▁Kleider	-10688
▁Strecke	-10689
▁Töchter	-10690
▁Urknall	-10691
▁gelingt	-10692
▁versagt	-10693
▁Entropie	-10694
▁Gesetzen	-10695
▁Personal	-10696
▁Robotern	-10697
▁angewand	-10698
▁bewiesen	-10699
▁dringend	-10700
▁erwähnte	-10701
▁geleitet	-10702
▁globaler	-10703
▁nochmals	-10704
▁Impfstoff	-10705
▁gestohlen	-10706
▁interview	-10707
▁keinerlei	-10708
▁verkaufte	-10709
▁Berechnung	-10710
▁Großeltern	-10711
▁sorgfältig	-10712
▁Wichtigkeit	-10713
▁eingestellt	-10714
▁großartiges	-10715
▁konsumieren	-10716
verschmutzung	-10717
▁beschleunigt	-10718
▁Notwendigkeit	-10719
▁Schizophrenie	-10720
▁fantastischen	-10721
.:	-10722
4.	-10723
Ab	-10724
DA	-10725
De	-10726
Up	-10727
aj	-10728
Fre	-10729
ble	-10730
erz	-10731
ini	-10732
kür	-10733
med	-10734
äle	-10735
▁55	-10736
▁EU	-10737
▁fä	-10738
arth	-10739
bran	-10740
iser	-10741
kins	-10742
komm	-10743
oole	-10744
würd	-10745
ypen	-10746
▁Ele	-10747
▁Liz	-10748
▁füt	-10749
burgh	-10750
ickte	-10751
ohnen	-10752
probe	-10753
zeige	-10754
▁Böse	-10755
▁Fert	-10756
▁Juli	-10757
▁Sper	-10758
▁Tank	-10759
▁Verk	-10760
▁verp	-10761
attung	-10762
treten	-10763
▁Andre	-10764
▁Galer	-10765
▁Paras	-10766
▁Proto	-10767
▁Zwill	-10768
▁baten	-10769
▁freue	-10770
▁konst	-10771
▁verfl	-10772
gezogen	-10773
konomie	-10774
kreisen	-10775
leitung	-10776
wichtig	-10777
wohnern	-10778
zentren	-10779
▁Allein	-10780
▁Buches	-10781
▁Impuls	-10782
▁Kortex	-10783
▁Mittag	-10784
▁Patent	-10785
▁Sowjet	-10786
▁Wirbel	-10787
▁assozi	-10788
▁gelben	-10789
▁weinen	-10790
computer	-10791
ifiziert	-10792
schafter	-10793
standard	-10794
undation	-10795
▁Branche	-10796
▁Gestalt	-10797
▁Haltung	-10798
▁Indiens	-10799
▁Rettung	-10800
▁Sendung	-10801
▁Streben	-10802
▁Unglaub	-10803
▁allerer	-10804
▁drinnen	-10805
▁geplant	-10806
▁großzüg	-10807
▁minimal	-10808
▁regener	-10809
▁zuletzt	-10810
▁öffnete	-10811
aufnahmen	-10812
ventionen	-10813
▁Anliegen	-10814
▁Aussehen	-10815
▁Freizeit	-10816
▁Merkmale	-10817
▁Substanz	-10818
▁besserer	-10819
▁draussen	-10820
▁mithilfe	-10821
▁schweren	-10822
▁streiten	-10823
▁Alexander	-10824
▁Besonders	-10825
▁Orchester	-10826
▁Sklaverei	-10827
▁Unterhalt	-10828
▁Veröffent	-10829
▁aktiviert	-10830
▁aufstehen	-10831
▁berechnet	-10832
▁erkannten	-10833
▁klinische	-10834
▁leistungs	-10835
▁religiöse	-10836
▁wiederver	-10837
▁Brennstoff	-10838
▁Dankeschön	-10839
▁Initiative	-10840
▁Investoren	-10841
▁akzeptiert	-10842
▁schlechtes	-10843
▁verrückten	-10844
▁überdenken	-10845
▁beantwortet	-10846
▁durchlaufen	-10847
▁eingeschrän	-10848
▁Konstruktion	-10849
▁landwirtschaft	-10850
▁repräsentieren	-10851
9,	-10852
Mit	-10853
ilz	-10854
ith	-10855
sol	-10856
vis	-10857
yle	-10858
▁4,	-10859
▁Ag	-10860
▁RB	-10861
Plan	-10862
hett	-10863
ible	-10864
king	-10865
rand	-10866
stär	-10867
▁FBI	-10868
▁Law	-10869
▁Vit	-10870
▁erl	-10871
▁süß	-10872
aucht	-10873
derte	-10874
ekten	-10875
elson	-10876
günst	-10877
iland	-10878
laubt	-10879
riebe	-10880
usste	-10881
öhnen	-10882
▁2011	-10883
▁2050	-10884
▁Josh	-10885
▁Lein	-10886
▁Mühe	-10887
▁böse	-10888
▁ewig	-10889
▁line	-10890
▁räum	-10891
Modell	-10892
achtel	-10893
ersage	-10894
ichern	-10895
ivität	-10896
schuss	-10897
setzte	-10898
ördert	-10899
üsseln	-10900
▁Black	-10901
▁Count	-10902
▁Klass	-10903
▁Pilot	-10904
▁Sonnt	-10905
▁State	-10906
▁leise	-10907
▁lokal	-10908
▁meint	-10909
▁sicht	-10910
osophen	-10911
ühungen	-10912
▁Bergen	-10913
▁Insekt	-10914
▁Lichts	-10915
▁Plätze	-10916
▁Vaters	-10917
▁Wortes	-10918
▁halfen	-10919
▁improv	-10920
▁überle	-10921
basierte	-10922
ferenzen	-10923
schnitte	-10924
▁Chromos	-10925
▁Einzige	-10926
▁Kollege	-10927
▁Konserv	-10928
▁Teppich	-10929
▁Vorbild	-10930
▁aggress	-10931
▁archite	-10932
▁gefolgt	-10933
▁problem	-10934
▁unschul	-10935
ifizieren	-10936
▁Erzähler	-10937
▁Getreide	-10938
▁Lehrerin	-10939
▁Neandert	-10940
▁erstmals	-10941
▁fürchten	-10942
▁gebunden	-10943
▁normales	-10944
▁schlicht	-10945
▁verraten	-10946
▁Kategorie	-10947
▁Schwellen	-10948
▁erweitert	-10949
▁kleineren	-10950
▁Foundation	-10951
▁Kandidaten	-10952
▁beschränkt	-10953
▁finanziell	-10954
▁kombiniert	-10955
▁zueinander	-10956
▁Anweisungen	-10957
▁Durchmesser	-10958
▁finanzielle	-10959
▁fokussieren	-10960
▁gefährliche	-10961
▁intelligent	-10962
▁verwendeten	-10963
▁europäischen	-10964
▁gemeinschaft	-10965
▁vergewaltigt	-10966
▁wahrgenommen	-10967
▁Größenordnung	-10968
▁Verschmutzung	-10969
▁einzigartigen	-10970
▁mathematische	-10971
▁Nebenwirkungen	-10972
7,	-10973
8,	-10974
BM	-10975
Fil	-10976
das	-10977
ect	-10978
neu	-10979
que	-10980
ror	-10981
ßig	-10982
▁37	-10983
▁Fi	-10984
▁pu	-10985
hirn	-10986
kund	-10987
rein	-10988
uckt	-10989
▁Arg	-10990
▁hor	-10991
agten	-10992
erung	-10993
ließt	-10994
oster	-10995
rüsen	-10996
ärten	-10997
äuber	-10998
ühren	-10999
▁Clin	-11000
▁Enzy	-11001
▁Pilz	-11002
▁Tast	-11003
▁Yeah	-11004
bricht	-11005
dachte	-11006
haftes	-11007
ission	-11008
reißen	-11009
stimmt	-11010
▁Erwei	-11011
▁Jesus	-11012
▁Rande	-11013
▁Rasse	-11014
▁Seife	-11015
▁Shang	-11016
▁Slums	-11017
▁Türen	-11018
▁Väter	-11019
▁Wolke	-11020
▁Zehen	-11021
▁coole	-11022
▁gestr	-11023
▁lügen	-11024
▁missb	-11025
abdruck	-11026
anische	-11027
anthrop	-11028
eilchen	-11029
kologie	-11030
ometern	-11031
▁Brookl	-11032
▁Paläst	-11033
▁Pandem	-11034
▁Rassen	-11035
▁bricht	-11036
▁fassen	-11037
▁harten	-11038
▁kontin	-11039
forscher	-11040
gesteuer	-11041
geworfen	-11042
probiert	-11043
zuhalten	-11044
zutreten	-11045
▁Antrieb	-11046
▁Schreib	-11047
▁Smartph	-11048
▁Unfälle	-11049
▁Vertrag	-11050
▁William	-11051
▁Wörtern	-11052
▁daneben	-11053
▁strateg	-11054
otherapie	-11055
▁Analogie	-11056
▁Dschihad	-11057
▁durchaus	-11058
▁erlaubte	-11059
▁fossilen	-11060
▁riesiger	-11061
▁typische	-11062
▁wahnsinn	-11063
▁Karikatur	-11064
▁Selektion	-11065
▁angeboten	-11066
▁eingebaut	-11067
▁erreichte	-11068
▁jedermann	-11069
▁kommenden	-11070
▁schneiden	-11071
▁verletzen	-11072
▁zentralen	-11073
▁Äthiopien	-11074
▁Mobiltelef	-11075
▁Wohnzimmer	-11076
▁entfernten	-11077
▁glückliche	-11078
▁motivieren	-11079
▁schlimmste	-11080
▁Bürgerkrieg	-11081
▁Versprechen	-11082
▁verheiratet	-11083
▁Freiwilligen	-11084
▁Nervensystem	-11085
▁persönlicher	-11086
▁Programmierer	-11087
▁schrecklichen	-11088
▁Quantenmechanik	-11089
8.	-11090
bä	-11091
na	-11092
ets	-11093
ros	-11094
sal	-11095
ufe	-11096
ärt	-11097
▁No	-11098
▁SS	-11099
ahll	-11100
ckel	-11101
coln	-11102
erte	-11103
fügt	-11104
idee	-11105
ideo	-11106
kömm	-11107
okal	-11108
ören	-11109
▁Kün	-11110
▁Sah	-11111
▁Som	-11112
▁ele	-11113
▁lan	-11114
▁med	-11115
▁sau	-11116
agnet	-11117
eiert	-11118
ichts	-11119
ometr	-11120
onanz	-11121
organ	-11122
raham	-11123
ritts	-11124
samer	-11125
splan	-11126
sters	-11127
wechs	-11128
welle	-11129
▁Dete	-11130
▁Gumm	-11131
▁Hell	-11132
▁Hipp	-11133
▁Jazz	-11134
▁Leit	-11135
▁Raub	-11136
▁Snow	-11137
▁Ufer	-11138
▁betr	-11139
▁russ	-11140
achter	-11141
barung	-11142
derten	-11143
dieren	-11144
endete	-11145
griffe	-11146
▁Power	-11147
▁Rhyth	-11148
▁greif	-11149
▁jenes	-11150
▁kraft	-11151
▁sorgt	-11152
▁teilt	-11153
kriegen	-11154
ografen	-11155
▁Anlage	-11156
▁Dörfer	-11157
▁Fangen	-11158
▁Fasern	-11159
▁Kochen	-11160
▁Meiner	-11161
▁Nelson	-11162
▁Profit	-11163
▁Raumes	-11164
▁Sinnes	-11165
▁Stufen	-11166
▁Weizen	-11167
▁befand	-11168
▁fehlen	-11169
▁flogen	-11170
▁gelegt	-11171
▁nutzte	-11172
gebieten	-11173
stellbar	-11174
ventuell	-11175
▁Anderen	-11176
▁Drohnen	-11177
▁Glamour	-11178
▁Koordin	-11179
▁Körpern	-11180
▁Meisten	-11181
▁Märkten	-11182
▁Premier	-11183
▁Tiefsee	-11184
▁Verrück	-11185
▁direkte	-11186
▁entsetz	-11187
▁geringe	-11188
▁gewohnt	-11189
▁lächeln	-11190
▁sequenz	-11191
▁solches	-11192
▁umfasst	-11193
▁verdeut	-11194
▁verteid	-11195
▁wandern	-11196
▁wartete	-11197
gegenwärt	-11198
irtschaft	-11199
▁Annahmen	-11200
▁Phosphor	-11201
▁anziehen	-11202
▁entschul	-11203
verstanden	-11204
▁Computers	-11205
▁Gemeinsam	-11206
▁Leistungs	-11207
▁Schlangen	-11208
▁angewandt	-11209
▁benötigte	-11210
▁einführen	-11211
▁herstellt	-11212
▁rückwärts	-11213
▁technisch	-11214
▁trainiert	-11215
▁wichtiges	-11216
gehörigkeit	-11217
▁Elektroden	-11218
▁Kunststoff	-11219
▁Nährstoffe	-11220
▁Polizisten	-11221
▁bescheiden	-11222
▁durchgehen	-11223
▁gewaltigen	-11224
▁klinischen	-11225
▁Heimatstadt	-11226
▁Traditionen	-11227
▁architekton	-11228
▁emotionalen	-11229
▁mitgebracht	-11230
▁natürlicher	-11231
▁verblüffend	-11232
▁erfolgreiche	-11233
▁programmiert	-11234
▁elektronische	-11235
▁tatsächlichen	-11236
▁außerordentlich	-11237
3.	-11238
4,	-11239
AA	-11240
▁0	-11241
Ihr	-11242
gst	-11243
sex	-11244
sha	-11245
▁DV	-11246
▁Dü	-11247
▁II	-11248
▁SP	-11249
▁Sw	-11250
▁hä	-11251
AIDS	-11252
Komm	-11253
Naja	-11254
Stud	-11255
bett	-11256
code	-11257
eilt	-11258
empf	-11259
herz	-11260
seel	-11261
ustr	-11262
zone	-11263
ütze	-11264
▁Alb	-11265
▁Amb	-11266
▁Cel	-11267
▁Hum	-11268
▁Zun	-11269
▁hey	-11270
▁kle	-11271
armen	-11272
onach	-11273
opter	-11274
öscht	-11275
▁Benj	-11276
▁Funk	-11277
▁Long	-11278
▁bild	-11279
▁brut	-11280
▁klop	-11281
becken	-11282
gender	-11283
iftung	-11284
ikalen	-11285
ragend	-11286
reiber	-11287
wendig	-11288
▁2.000	-11289
▁3.000	-11290
▁Bombe	-11291
▁Dicht	-11292
▁Güter	-11293
▁Ratte	-11294
▁Stimm	-11295
▁Tauch	-11296
▁Tiger	-11297
atschen	-11298
viertel	-11299
▁Beutel	-11300
▁Garage	-11301
▁Minder	-11302
▁Obdach	-11303
▁Schach	-11304
▁Seiden	-11305
▁Wurzel	-11306
▁auszur	-11307
▁binden	-11308
▁bringe	-11309
▁denkst	-11310
▁freuen	-11311
▁geschm	-11312
altungen	-11313
atienten	-11314
gebildet	-11315
gespräch	-11316
orischen	-11317
schlägen	-11318
versicht	-11319
▁Johnson	-11320
▁Konvers	-11321
▁Silicon	-11322
▁Spanien	-11323
▁Stammes	-11324
▁Ursprün	-11325
▁Zuhören	-11326
▁abhängt	-11327
▁bislang	-11328
▁gemeint	-11329
▁schufen	-11330
▁sowieso	-11331
▁spontan	-11332
▁Behörden	-11333
▁Beobacht	-11334
▁Führungs	-11335
▁Kolonien	-11336
▁Rettungs	-11337
▁anderswo	-11338
▁aufwuchs	-11339
▁globales	-11340
▁hingegen	-11341
▁mächtige	-11342
▁national	-11343
▁neuesten	-11344
▁pflanzen	-11345
▁physisch	-11346
▁schuldig	-11347
▁woanders	-11348
riminellen	-11349
▁Angesicht	-11350
▁Anpassung	-11351
▁Berührung	-11352
▁Irgendwie	-11353
▁Schätzung	-11354
▁Wohnungen	-11355
▁einfallen	-11356
▁furchtbar	-11357
▁gestiegen	-11358
▁kognitive	-11359
▁schwarzes	-11360
▁typischen	-11361
▁verborgen	-11362
▁verknüpft	-11363
versprechen	-11364
▁Erkrankung	-11365
▁Innenstadt	-11366
▁aufregende	-11367
▁bestätigen	-11368
▁restlichen	-11369
▁verdoppeln	-11370
▁Flüchtlinge	-11371
▁aufgestellt	-11372
▁verbreitete	-11373
▁Überwachung	-11374
▁Andererseits	-11375
▁ausprobieren	-11376
▁tatsächliche	-11377
amerikanischen	-11378
▁Angelegenheit	-11379
▁Interessantes	-11380
▁Konzentration	-11381
▁transportiert	-11382
▁physikalischen	-11383
.'	-11384
CA	-11385
Co	-11386
Me	-11387
Syn	-11388
low	-11389
ött	-11390
▁7.	-11391
▁Mi	-11392
▁Os	-11393
▁ue	-11394
Netz	-11395
ania	-11396
arre	-11397
iche	-11398
izza	-11399
lers	-11400
rief	-11401
tent	-11402
uert	-11403
urce	-11404
▁10.	-11405
▁2,5	-11406
▁Jur	-11407
▁MRT	-11408
▁McD	-11409
▁bot	-11410
▁flu	-11411
▁hom	-11412
blatt	-11413
ierst	-11414
mitte	-11415
oskop	-11416
zucht	-11417
äusen	-11418
▁Affe	-11419
▁Delf	-11420
▁Ford	-11421
▁Geom	-11422
▁Hack	-11423
▁Kalk	-11424
▁Kühe	-11425
▁Leon	-11426
▁Line	-11427
▁Mike	-11428
▁Prov	-11429
▁Sich	-11430
▁serv	-11431
▁stol	-11432
ilemma	-11433
itären	-11434
schrau	-11435
strahl	-11436
ächter	-11437
ützten	-11438
▁Arist	-11439
▁Berat	-11440
▁Blind	-11441
▁Brian	-11442
▁Ernte	-11443
▁Inder	-11444
▁Juden	-11445
▁Miner	-11446
▁Schad	-11447
▁South	-11448
▁Stolz	-11449
▁Warte	-11450
▁drast	-11451
▁gesen	-11452
▁klare	-11453
▁lehrt	-11454
▁loszu	-11455
▁müsst	-11456
▁solle	-11457
▁wette	-11458
▁Ärger	-11459
▁überl	-11460
Problem	-11461
büchern	-11462
digungs	-11463
erkrank	-11464
imieren	-11465
kennung	-11466
medizin	-11467
▁Hektar	-11468
▁Hühner	-11469
▁Pferde	-11470
▁Rakete	-11471
▁Treppe	-11472
▁abends	-11473
▁absolu	-11474
▁deprim	-11475
▁elegan	-11476
▁griech	-11477
▁landet	-11478
▁objekt	-11479
▁riesig	-11480
▁schmal	-11481
▁verkün	-11482
behalten	-11483
euchtung	-11484
heimlich	-11485
izierten	-11486
leuchten	-11487
ographic	-11488
omöglich	-11489
springen	-11490
örderung	-11491
▁Distanz	-11492
▁Irgendw	-11493
▁Lincoln	-11494
▁Notfall	-11495
▁Zivilis	-11496
▁anschau	-11497
▁präzise	-11498
▁zuhause	-11499
ungsweise	-11500
▁Atlantik	-11501
▁Haushalt	-11502
▁Mögliche	-11503
▁Passwort	-11504
▁Rauschen	-11505
▁Verkehrs	-11506
▁Wahnsinn	-11507
▁anfingen	-11508
▁größeres	-11509
▁indische	-11510
▁jegliche	-11511
▁universe	-11512
▁vermuten	-11513
ungsmittel	-11514
▁Bakterium	-11515
▁Erzählung	-11516
▁Kapazität	-11517
▁Schweigen	-11518
▁Schwimmen	-11519
▁Verbrauch	-11520
▁Vergewalt	-11521
▁anspruchs	-11522
▁aufhalten	-11523
▁beschrieb	-11524
▁führenden	-11525
▁hinterher	-11526
▁jederzeit	-11527
▁kritische	-11528
▁möglichst	-11529
▁wachsende	-11530
formationen	-11531
▁Durchbruch	-11532
▁Hersteller	-11533
▁Interviews	-11534
▁Konkurrenz	-11535
▁Netzwerken	-11536
▁Werkzeugen	-11537
▁einbringen	-11538
▁integriert	-11539
▁menschlich	-11540
▁wachsenden	-11541
▁willkommen	-11542
▁Atomenergie	-11543
▁Bestandteil	-11544
▁ausgedrückt	-11545
▁ausprobiert	-11546
▁beherrschen	-11547
▁staatlichen	-11548
▁vorschlagen	-11549
▁Landschaften	-11550
▁entsprechend	-11551
▁größtenteils	-11552
▁Interpretation	-11553
▁auszuprobieren	-11554
▁technologische	-11555
▁Einschränkungen	-11556
▁veröffentlichte	-11557
CH	-11558
ink	-11559
irm	-11560
krö	-11561
ova	-11562
äge	-11563
übt	-11564
▁31	-11565
▁ED	-11566
▁NG	-11567
▁Sn	-11568
▁Yo	-11569
Also	-11570
Zeit	-11571
onds	-11572
weiß	-11573
▁Att	-11574
▁Bol	-11575
▁Ert	-11576
▁Kos	-11577
▁Kri	-11578
▁Pla	-11579
▁imp	-11580
anzug	-11581
asten	-11582
masse	-11583
ugend	-11584
▁Arkt	-11585
▁Feyn	-11586
▁Just	-11587
▁März	-11588
▁News	-11589
▁Ring	-11590
▁Sech	-11591
▁Strö	-11592
▁Tenn	-11593
▁Vent	-11594
▁fühl	-11595
▁isst	-11596
▁kart	-11597
▁müde	-11598
cherch	-11599
füllen	-11600
kunden	-11601
männer	-11602
region	-11603
renzen	-11604
steigt	-11605
▁Algen	-11606
▁Amate	-11607
▁Baumk	-11608
▁Brown	-11609
▁Davon	-11610
▁Detro	-11611
▁Ethik	-11612
▁Geben	-11613
▁Lange	-11614
▁Meile	-11615
▁Wohin	-11616
▁einig	-11617
▁umgew	-11618
ampagne	-11619
berecht	-11620
fahrung	-11621
itution	-11622
▁Balken	-11623
▁Briefe	-11624
▁Erklär	-11625
▁Feucht	-11626
▁Filmem	-11627
▁Newton	-11628
▁Ozeans	-11629
▁Schein	-11630
▁Termin	-11631
▁Wander	-11632
▁befrie	-11633
▁grauen	-11634
▁person	-11635
▁trugen	-11636
▁wohnen	-11637
ibilität	-11638
▁Herzinf	-11639
▁Insulin	-11640
▁Konzert	-11641
▁anhören	-11642
▁erlebte	-11643
▁gelähmt	-11644
▁geschei	-11645
▁hierbei	-11646
▁massive	-11647
▁streben	-11648
▁veranst	-11649
▁willkür	-11650
Industrie	-11651
gebrochen	-11652
kontrolle	-11653
kosysteme	-11654
strahlung	-11655
▁Brooklyn	-11656
▁Frequenz	-11657
▁Kliniken	-11658
▁Projekts	-11659
▁Shanghai	-11660
▁geglaubt	-11661
▁rational	-11662
▁schenken	-11663
▁vielfält	-11664
▁Absichten	-11665
▁Antarktis	-11666
▁Infektion	-11667
▁bedeutsam	-11668
▁betrachte	-11669
▁empfangen	-11670
▁eventuell	-11671
▁jahrelang	-11672
▁kleinsten	-11673
▁moralisch	-11674
▁negativen	-11675
▁verleihen	-11676
▁vertreten	-11677
▁wenigsten	-11678
▁zustimmen	-11679
▁zuzuhören	-11680
übergreifen	-11681
▁Einführung	-11682
▁Fotografie	-11683
▁analysiert	-11684
▁angewendet	-11685
▁bedeutende	-11686
▁existierte	-11687
▁festhalten	-11688
▁übernommen	-11689
blicherweise	-11690
▁gewöhnliche	-11691
▁integrieren	-11692
▁kollektiven	-11693
▁politischer	-11694
▁ausgestorben	-11695
▁muslimischen	-11696
▁Entwicklungen	-11697
▁Meeresspiegel	-11698
▁durcheinander	-11699
▁intelligenten	-11700
▁verwirklichen	-11701
▁Transformation	-11702
▁berücksichtigt	-11703
▁diagnostiziert	-11704
▁interpretieren	-11705
▁zusammenfassen	-11706
"?	-11707
OL	-11708
aks	-11709
ibr	-11710
ket	-11711
kod	-11712
mil	-11713
mte	-11714
▁Hä	-11715
▁JH	-11716
Vort	-11717
aste	-11718
atar	-11719
bart	-11720
enke	-11721
etro	-11722
etts	-11723
hern	-11724
höhe	-11725
leid	-11726
lles	-11727
ness	-11728
ruhe	-11729
▁350	-11730
▁DVD	-11731
▁Ego	-11732
▁Glu	-11733
▁Mur	-11734
▁Sag	-11735
▁Sav	-11736
▁Squ	-11737
▁Tar	-11738
▁ann	-11739
ansas	-11740
arden	-11741
diert	-11742
digte	-11743
ester	-11744
fangs	-11745
genda	-11746
ialen	-11747
ignen	-11748
minen	-11749
nosen	-11750
räder	-11751
stamm	-11752
zahlt	-11753
▁Bell	-11754
▁Bern	-11755
▁Fang	-11756
▁Hang	-11757
▁Hong	-11758
▁Nano	-11759
▁Neue	-11760
▁Pest	-11761
▁Rate	-11762
▁Töne	-11763
▁bahn	-11764
▁hebt	-11765
▁hing	-11766
▁prim	-11767
anfall	-11768
indern	-11769
ingert	-11770
sslich	-11771
untern	-11772
volles	-11773
▁Bogen	-11774
▁Fahrt	-11775
▁Fried	-11776
▁Hemis	-11777
▁Kanal	-11778
▁Korea	-11779
▁Minen	-11780
▁Moder	-11781
▁North	-11782
▁Parks	-11783
▁Pizza	-11784
▁Repar	-11785
▁Tafel	-11786
▁Telef	-11787
▁Zwang	-11788
▁eurer	-11789
▁exter	-11790
▁fange	-11791
▁formt	-11792
▁gehst	-11793
▁gelei	-11794
▁popul	-11795
▁recyc	-11796
alteten	-11797
auschen	-11798
bestand	-11799
otische	-11800
ristall	-11801
▁Ebenso	-11802
▁Finden	-11803
▁Formel	-11804
▁Küchen	-11805
▁Matrix	-11806
▁Portra	-11807
▁Räumen	-11808
▁Second	-11809
▁Sonder	-11810
▁Urlaub	-11811
▁Versch	-11812
▁Weisen	-11813
▁bedroh	-11814
▁bequem	-11815
▁drückt	-11816
▁golden	-11817
▁halbes	-11818
▁riecht	-11819
▁schwei	-11820
eigerung	-11821
schaltet	-11822
zutragen	-11823
▁Anwälte	-11824
▁Fischen	-11825
▁Genetik	-11826
▁Himmels	-11827
▁Mandela	-11828
▁Robotik	-11829
▁Sterben	-11830
▁Störung	-11831
▁fordern	-11832
▁logisch	-11833
▁meinten	-11834
▁negativ	-11835
▁rechnen	-11836
▁schätze	-11837
▁stehlen	-11838
▁steuert	-11839
▁verwirr	-11840
leitungen	-11841
▁Parteien	-11842
▁Streifen	-11843
▁Ursachen	-11844
▁absolute	-11845
▁geflogen	-11846
▁gelaufen	-11847
▁generell	-11848
▁gesunken	-11849
▁gewaltig	-11850
▁handelte	-11851
▁liebsten	-11852
▁recherch	-11853
▁sicheren	-11854
▁versorgt	-11855
ologisches	-11856
▁Disziplin	-11857
▁Fußgänger	-11858
▁Rückseite	-11859
▁Wichtiges	-11860
▁Wiederhol	-11861
▁Zeichnung	-11862
▁angezogen	-11863
▁ansonsten	-11864
▁bestätigt	-11865
▁britische	-11866
▁charakter	-11867
▁motiviert	-11868
▁starteten	-11869
▁umgesetzt	-11870
▁wiederhol	-11871
▁Ausschnitt	-11872
▁Verwandten	-11873
▁eineinhalb	-11874
▁garantiert	-11875
▁konvention	-11876
▁männlichen	-11877
▁psychische	-11878
▁unheimlich	-11879
▁beeindruckt	-11880
▁ermöglichte	-11881
▁schmerzhaft	-11882
▁unabhängige	-11883
▁unmittelbar	-11884
▁Bestandteile	-11885
▁Jahrhunderte	-11886
▁andererseits	-11887
▁beschäftigte	-11888
▁historischen	-11889
▁untersuchten	-11890
▁wesentlichen	-11891
▁öffentlicher	-11892
▁Treibhausgase	-11893
▁festzustellen	-11894
▁identifiziert	-11895
▁untereinander	-11896
▁Führungskräfte	-11897
▁Premierminister	-11898
▁Verletzlichkeit	-11899
▁experimentieren	-11900
He	-11901
Ne	-11902
fa	-11903
Rob	-11904
bem	-11905
bry	-11906
dis	-11907
ody	-11908
▁2:	-11909
▁42	-11910
▁46	-11911
▁LG	-11912
▁SW	-11913
▁Ti	-11914
▁Wi	-11915
▁po	-11916
'000	-11917
Tech	-11918
esst	-11919
haut	-11920
ites	-11921
last	-11922
opäd	-11923
orea	-11924
quot	-11925
trän	-11926
äufe	-11927
▁Cap	-11928
▁Dür	-11929
▁Git	-11930
▁Lib	-11931
▁Sud	-11932
▁fix	-11933
▁mod	-11934
▁sex	-11935
arent	-11936
atsch	-11937
brett	-11938
kespe	-11939
oresz	-11940
reckt	-11941
reuen	-11942
union	-11943
urger	-11944
uther	-11945
▁Cola	-11946
▁Gefä	-11947
▁Grös	-11948
▁Tony	-11949
▁Zelt	-11950
▁iron	-11951
▁nimm	-11952
▁sech	-11953
▁skal	-11954
Source	-11955
esseln	-11956
kreise	-11957
länder	-11958
presse	-11959
schern	-11960
würdig	-11961
▁Blitz	-11962
▁Earth	-11963
▁Erden	-11964
▁Henry	-11965
▁Human	-11966
▁Magen	-11967
▁Polar	-11968
▁Prakt	-11969
▁Skala	-11970
▁Sprit	-11971
▁Sucht	-11972
▁angel	-11973
▁ankam	-11974
▁betrü	-11975
▁enthü	-11976
▁eurem	-11977
▁holte	-11978
▁raten	-11979
▁schuf	-11980
▁sinkt	-11981
▁stieß	-11982
euchten	-11983
euerung	-11984
mmunity	-11985
orische	-11986
schafts	-11987
spunkte	-11988
urteile	-11989
ämpfung	-11990
▁Berlin	-11991
▁County	-11992
▁Genome	-11993
▁Hauses	-11994
▁Mythos	-11995
▁Teller	-11996
▁Umlauf	-11997
▁Zusätz	-11998
▁ausgel	-11999
▁begrün	-12000
▁graben	-12001
▁korrig	-12002
▁toller	-12003
▁untere	-12004
▁zweier	-12005
bewohner	-12006
breitung	-12007
fertigen	-12008
ianische	-12009
ituation	-12010
menschen	-12011
periment	-12012
produkte	-12013
▁Abraham	-12014
▁Abweich	-12015
▁Ausgabe	-12016
▁Feynman	-12017
▁Indones	-12018
▁Meeting	-12019
▁Rituale	-12020
▁Zutaten	-12021
▁entschl	-12022
▁geformt	-12023
▁herumzu	-12024
▁teilten	-12025
▁vereint	-12026
▁weitaus	-12027
▁wünsche	-12028
Regierung	-12029
maßnahmen	-12030
schätzung	-12031
▁Arbeitsk	-12032
▁Autobahn	-12033
▁Benjamin	-12034
▁Eigentum	-12035
▁Reformen	-12036
▁Schulden	-12037
▁drittens	-12038
▁verläuft	-12039
▁verwirrt	-12040
▁ältesten	-12041
bewegungen	-12042
▁Frühstück	-12043
▁Probanden	-12044
▁Therapien	-12045
▁Unternehm	-12046
▁aufweisen	-12047
▁ausgelöst	-12048
▁begleitet	-12049
▁emotional	-12050
▁gefährdet	-12051
▁ignoriert	-12052
▁philosoph	-12053
▁stärksten	-12054
▁wohlhaben	-12055
▁womöglich	-12056
▁übersehen	-12057
▁Aktivisten	-12058
▁Beispielen	-12059
▁Diejenigen	-12060
▁Grundstück	-12061
▁Journalist	-12062
▁Skulpturen	-12063
▁Völkermord	-12064
▁beseitigen	-12065
▁erschienen	-12066
▁freiwillig	-12067
▁generieren	-12068
▁weiblichen	-12069
▁Anwesenheit	-12070
▁Naturschutz	-12071
▁Richtlinien	-12072
▁institution	-12073
▁konstruiert	-12074
▁künstlichen	-12075
▁umgewandelt	-12076
amerikanische	-12077
▁Behandlungen	-12078
▁Experimenten	-12079
▁Hausaufgaben	-12080
▁Quadratmeter	-12081
▁allgegenwärt	-12082
▁spezifischen	-12083
▁Artenvielfalt	-12084
▁Gelegenheiten	-12085
▁faszinierende	-12086
▁fotografieren	-12087
▁industriellen	-12088
▁nebeneinander	-12089
▁Bildungssystem	-12090
9.	-12091
BA	-12092
Zu	-12093
Aut	-12094
Met	-12095
Vor	-12096
hur	-12097
ids	-12098
log	-12099
lös	-12100
oma	-12101
ona	-12102
zog	-12103
üre	-12104
▁48	-12105
▁Ec	-12106
▁Kö	-12107
Hier	-12108
arer	-12109
aßen	-12110
ials	-12111
meer	-12112
otte	-12113
stad	-12114
ürme	-12115
▁Agr	-12116
▁Bin	-12117
▁Cre	-12118
▁Kro	-12119
▁Rep	-12120
▁Sat	-12121
Bitte	-12122
Weißt	-12123
ablen	-12124
azier	-12125
erien	-12126
steri	-12127
▁100-	-12128
▁Comp	-12129
▁Dunk	-12130
▁Kreb	-12131
▁Pack	-12132
▁Prog	-12133
▁Riff	-12134
▁Skiz	-12135
▁Vaku	-12136
▁Wats	-12137
▁besp	-12138
▁dünn	-12139
▁fuer	-12140
▁reag	-12141
▁tier	-12142
▁vari	-12143
halter	-12144
locken	-12145
physik	-12146
proben	-12147
produz	-12148
rechts	-12149
rollen	-12150
sprodu	-12151
ätigen	-12152
▁Chile	-12153
▁Elend	-12154
▁Engel	-12155
▁Graph	-12156
▁Kevin	-12157
▁Recyc	-12158
▁fügen	-12159
▁gefil	-12160
▁stamm	-12161
▁toten	-12162
dlicher	-12163
füllung	-12164
wiegend	-12165
zahlung	-12166
▁30.000	-12167
▁Archiv	-12168
▁Bambus	-12169
▁Comics	-12170
▁Erdgas	-12171
▁Frosch	-12172
▁Gandhi	-12173
▁Monter	-12174
▁Nieren	-12175
▁Schafe	-12176
▁Schöne	-12177
▁Singap	-12178
▁Tiefen	-12179
▁folgte	-12180
▁liefen	-12181
▁packen	-12182
gewiesen	-12183
ilometer	-12184
lichsten	-12185
olumines	-12186
steuropa	-12187
tzündung	-12188
ästhesie	-12189
▁Anzeige	-12190
▁Cricket	-12191
▁Delfine	-12192
▁Detroit	-12193
▁Eingang	-12194
▁Häusern	-12195
▁Prostat	-12196
▁Schweiz	-12197
▁Stephen	-12198
▁Steuern	-12199
▁Zugriff	-12200
▁anrufen	-12201
▁drucken	-12202
▁geprägt	-12203
▁kauften	-12204
▁kontinu	-12205
▁sammelt	-12206
▁zusehen	-12207
▁zwanzig	-12208
schmerzen	-12209
stelligen	-12210
ständigen	-12211
▁Abwasser	-12212
▁Beginnen	-12213
▁Christen	-12214
▁Glaubens	-12215
▁Halluzin	-12216
▁Leinwand	-12217
▁Pyramide	-12218
▁Schalter	-12219
▁Shakespe	-12220
▁Strassen	-12221
▁negative	-12222
▁normaler	-12223
▁versetzt	-12224
▁Automobil	-12225
▁Geometrie	-12226
▁begriffen	-12227
▁englische	-12228
▁erschafft	-12229
▁erschwing	-12230
entwicklung	-12231
verständnis	-12232
▁Irgendwann	-12233
▁Kategorien	-12234
▁Konflikten	-12235
▁Unterdrück	-12236
▁Vorhersage	-12237
▁anzufangen	-12238
▁ausbreiten	-12239
▁beinhalten	-12240
▁engagieren	-12241
▁vergrößert	-12242
▁Botschaften	-12243
▁Ergebnissen	-12244
▁Gleichungen	-12245
▁Variationen	-12246
▁entscheidet	-12247
▁spezifische	-12248
▁verarbeitet	-12249
▁verschaffen	-12250
▁Jugendlichen	-12251
▁Letztendlich	-12252
▁Republikaner	-12253
▁ausgestattet	-12254
▁fundamentale	-12255
▁verpflichtet	-12256
▁demokratische	-12257
▁unglaubliches	-12258
▁Zivilisationen	-12259
▁mathematischen	-12260
:"	-12261
lö	-12262
▁x	-12263
ETI	-12264
ado	-12265
box	-12266
bus	-12267
hes	-12268
rif	-12269
udd	-12270
ypt	-12271
ürt	-12272
▁4.	-12273
▁BM	-12274
▁sk	-12275
Zahl	-12276
auch	-12277
eife	-12278
erie	-12279
erkt	-12280
ican	-12281
malt	-12282
tech	-12283
verw	-12284
vort	-12285
öcke	-12286
▁Bor	-12287
▁Gig	-12288
▁IBM	-12289
▁Kra	-12290
▁Rem	-12291
▁Roy	-12292
▁Vin	-12293
▁här	-12294
▁unn	-12295
auben	-12296
diger	-12297
herum	-12298
irurg	-12299
jahre	-12300
reden	-12301
szeit	-12302
ämmer	-12303
▁Erbe	-12304
▁Grab	-12305
▁Grau	-12306
▁Kell	-12307
▁Kram	-12308
▁Mord	-12309
▁Panz	-12310
▁Prie	-12311
▁Rick	-12312
▁Wett	-12313
▁harm	-12314
▁inne	-12315
▁käme	-12316
▁post	-12317
alente	-12318
dichte	-12319
dresse	-12320
gefügt	-12321
kommun	-12322
legung	-12323
sprech	-12324
teilte	-12325
▁Blume	-12326
▁Cloud	-12327
▁Genie	-12328
▁Glied	-12329
▁Nukle	-12330
▁Risik	-12331
▁Stirn	-12332
▁Texte	-12333
▁Unger	-12334
▁Veget	-12335
▁Zunge	-12336
▁abgel	-12337
▁hinab	-12338
▁suche	-12339
branche	-12340
einheit	-12341
förmige	-12342
glicher	-12343
produkt	-12344
▁Albert	-12345
▁Andrew	-12346
▁Daraus	-12347
▁Filmen	-12348
▁Gegner	-12349
▁Herbst	-12350
▁Histor	-12351
▁Ironie	-12352
▁Klänge	-12353
▁Lippen	-12354
▁Phasen	-12355
▁Soldat	-12356
▁Source	-12357
▁Tempel	-12358
▁Vorlie	-12359
▁einger	-12360
▁kalten	-12361
▁kurzes	-12362
▁magnet	-12363
▁orient	-12364
▁reiche	-12365
▁rollen	-12366
▁teurer	-12367
▁weisen	-12368
jähriges	-12369
romagnet	-12370
▁Charlie	-12371
▁Dörfern	-12372
▁Hemisph	-12373
▁Hungers	-12374
▁Koralle	-12375
▁Neuseel	-12376
▁Origami	-12377
▁Rechten	-12378
▁Sondern	-12379
▁Stärken	-12380
▁Truppen	-12381
▁agieren	-12382
▁beeintr	-12383
▁dunkler	-12384
▁endgült	-12385
▁erheben	-12386
▁erstmal	-12387
▁herkömm	-12388
▁italien	-12389
▁riechen	-12390
▁schwamm	-12391
▁sichere	-12392
▁zweiter	-12393
hältnisse	-12394
▁Anspruch	-12395
▁Carolina	-12396
▁Einkaufs	-12397
▁Kritiker	-12398
▁McDonald	-12399
▁November	-12400
▁Trennung	-12401
▁gelungen	-12402
▁kopieren	-12403
▁vereinen	-12404
▁verwandt	-12405
▁vorkommt	-12406
▁zerbrech	-12407
Nullsummen	-12408
▁Aristotel	-12409
▁Einladung	-12410
▁Künstlern	-12411
▁Vergessen	-12412
▁innovativ	-12413
▁schwanger	-12414
▁Überfluss	-12415
Unternehmen	-12416
▁Besonderes	-12417
▁Expedition	-12418
▁Indonesien	-12419
▁Nachdenken	-12420
▁Schlussfol	-12421
▁Transplant	-12422
▁beliebigen	-12423
▁diskutiert	-12424
▁kontinuier	-12425
▁merkwürdig	-12426
▁platzieren	-12427
▁simulieren	-12428
stechnologie	-12429
▁Erzählungen	-12430
▁Hoffentlich	-12431
▁Lebensunter	-12432
▁transparent	-12433
▁langfristige	-12434
▁vergleichbar	-12435
▁interessierte	-12436
▁Überzeugungen	-12437
▁Krankenhäusern	-12438
li	-12439
▁?	-12440
Ent	-12441
Lie	-12442
ads	-12443
ila	-12444
ita	-12445
seg	-12446
set	-12447
zel	-12448
▁Up	-12449
Boot	-12450
aner	-12451
gets	-12452
iode	-12453
itor	-12454
pril	-12455
sehe	-12456
zehn	-12457
▁12.	-12458
▁192	-12459
▁193	-12460
▁Gru	-12461
▁Gän	-12462
▁Jet	-12463
▁Las	-12464
▁kan	-12465
Beweg	-12466
aisen	-12467
azine	-12468
dungs	-12469
eiler	-12470
ering	-12471
kugel	-12472
regel	-12473
sahen	-12474
thalb	-12475
weren	-12476
▁1998	-12477
▁2020	-12478
▁Bald	-12479
▁Beat	-12480
▁Blei	-12481
▁Darf	-12482
▁Eint	-12483
▁Pion	-12484
▁Plat	-12485
▁Tabe	-12486
▁grös	-12487
▁impl	-12488
▁litt	-12489
▁pack	-12490
▁ruft	-12491
▁zert	-12492
entrum	-12493
etzung	-12494
flügel	-12495
haftet	-12496
himmel	-12497
kaufen	-12498
ochten	-12499
ordent	-12500
regend	-12501
rungen	-12502
sehbar	-12503
wollen	-12504
zähler	-12505
▁Anzug	-12506
▁Dampf	-12507
▁Franz	-12508
▁Gange	-12509
▁Grand	-12510
▁Ideal	-12511
▁Jäger	-12512
▁Kurse	-12513
▁Nebel	-12514
▁Pilze	-12515
▁Saudi	-12516
▁Seide	-12517
▁auton	-12518
▁ehren	-12519
▁gelbe	-12520
▁immen	-12521
▁lohnt	-12522
▁nette	-12523
▁preis	-12524
▁quant	-12525
▁rasch	-12526
▁wollt	-12527
artikel	-12528
bleiben	-12529
portion	-12530
zession	-12531
äuschen	-12532
▁Autoun	-12533
▁Dutzen	-12534
▁Feinde	-12535
▁Ganzes	-12536
▁Kleine	-12537
▁Pharma	-12538
▁Profil	-12539
▁Redner	-12540
▁Syrien	-12541
▁Tänzer	-12542
▁Würfel	-12543
▁Zeitra	-12544
▁beruht	-12545
▁einher	-12546
▁frisch	-12547
▁konkre	-12548
▁leidet	-12549
▁leitet	-12550
▁raffin	-12551
▁unterr	-12552
▁wärmer	-12553
▁Ängste	-12554
frequenz	-12555
▁Applaus	-12556
▁Erfolge	-12557
▁Experte	-12558
▁Gründer	-12559
▁Mitleid	-12560
▁Mitteln	-12561
▁Prüfung	-12562
▁Spender	-12563
▁Stipend	-12564
▁Tsunami	-12565
▁Welches	-12566
▁Zuhörer	-12567
▁benannt	-12568
▁fördert	-12569
▁gerufen	-12570
▁gewaltt	-12571
▁hungrig	-12572
▁oftmals	-12573
▁starkes	-12574
▁verfolg	-12575
eisterung	-12576
ordnungen	-12577
riminelle	-12578
▁Entweder	-12579
▁Gehirnen	-12580
▁Kreuzung	-12581
▁Meinungs	-12582
▁Singapur	-12583
▁Szenario	-12584
▁befanden	-12585
▁gestoßen	-12586
▁isoliert	-12587
▁kleinste	-12588
▁ungleich	-12589
▁vergeben	-12590
mitglieder	-12591
▁Bausteine	-12592
▁Beschleun	-12593
▁Forschern	-12594
▁Recycling	-12595
▁Ressource	-12596
▁eintreten	-12597
▁ergreifen	-12598
▁niedrigen	-12599
▁seltsamen	-12600
▁tendieren	-12601
▁umwandeln	-12602
▁zeichnete	-12603
▁örtlichen	-12604
geschrieben	-12605
▁Lebensstil	-12606
▁Zusätzlich	-12607
▁aufstellen	-12608
▁bestimmtes	-12609
▁gesundheit	-12610
▁kognitiven	-12611
▁verringert	-12612
▁verschwand	-12613
▁Aristoteles	-12614
▁Behandlungs	-12615
▁Erschaffung	-12616
▁Erweiterung	-12617
▁Fledermäuse	-12618
▁Forschungen	-12619
▁Gravitation	-12620
▁Meeresboden	-12621
▁Sowjetunion	-12622
▁Studierende	-12623
▁gespeichert	-12624
▁islamischen	-12625
▁kostengünst	-12626
▁untersuchte	-12627
▁veränderten	-12628
▁Finanzierung	-12629
▁Umweltschutz	-12630
▁gewöhnlichen	-12631
▁herausfanden	-12632
▁Demonstration	-12633
▁konzentrierte	-12634
▁wirtschaftlich	-12635
▁berücksichtigen	-12636
99	-12637
Fi	-12638
Or	-12639
ny	-12640
uv	-12641
yd	-12642
Gem	-12643
aka	-12644
cel	-12645
ibl	-12646
mie	-12647
pra	-12648
wal	-12649
▁38	-12650
▁JA	-12651
▁PR	-12652
▁TK	-12653
▁wa	-12654
,000	-12655
Gott	-12656
amas	-12657
amie	-12658
angt	-12659
geiz	-12660
hole	-12661
klin	-12662
mpor	-12663
ockt	-12664
senz	-12665
umpe	-12666
öden	-12667
öten	-12668
▁16.	-12669
▁30-	-12670
▁Erb	-12671
▁Hab	-12672
▁Nav	-12673
▁Reh	-12674
▁Tas	-12675
▁elf	-12676
▁kün	-12677
▁sor	-12678
▁sur	-12679
Schau	-12680
arter	-12681
atent	-12682
läufe	-12683
thent	-12684
useum	-12685
ächte	-12686
äuben	-12687
äuren	-12688
▁1900	-12689
▁Beam	-12690
▁Gall	-12691
▁Geht	-12692
▁Gelb	-12693
▁Kino	-12694
▁Meme	-12695
▁Mini	-12696
▁Rohr	-12697
▁SETI	-12698
▁Sied	-12699
▁gäng	-12700
inktiv	-12701
mäßige	-12702
perten	-12703
ragten	-12704
school	-12705
wander	-12706
zyklus	-12707
ättern	-12708
▁Astro	-12709
▁Bewer	-12710
▁Bronx	-12711
▁Bruno	-12712
▁Ecken	-12713
▁Elite	-12714
▁Ethan	-12715
▁Femin	-12716
▁Grenz	-12717
▁Jones	-12718
▁Liban	-12719
▁Still	-12720
▁Tinte	-12721
▁euren	-12722
▁obere	-12723
▁sitze	-12724
▁tätig	-12725
▁unber	-12726
▁verdr	-12727
▁zuver	-12728
alisten	-12729
analyse	-12730
brecher	-12731
fertigt	-12732
ragende	-12733
raktion	-12734
verlust	-12735
▁Faszin	-12736
▁Keller	-12737
▁Nachts	-12738
▁Schätz	-12739
▁Sender	-12740
▁Trauer	-12741
▁Umfang	-12742
▁austau	-12743
▁beauft	-12744
▁greift	-12745
▁riefen	-12746
▁treffe	-12747
▁ähnelt	-12748
Institut	-12749
regionen	-12750
ähnliche	-12751
▁Bürgern	-12752
▁Fiktion	-12753
▁Fingern	-12754
▁Hundert	-12755
▁Monster	-12756
▁Rauchen	-12757
▁Redwood	-12758
▁Schwein	-12759
▁Tausend	-12760
▁Wünsche	-12761
▁aktiven	-12762
▁authent	-12763
▁belohnt	-12764
▁eingesp	-12765
▁erstens	-12766
▁gereist	-12767
▁mischen	-12768
▁optimal	-12769
▁typisch	-12770
▁wuchsen	-12771
▁zurzeit	-12772
arbeitern	-12773
ifikation	-12774
vertrauen	-12775
wertungen	-12776
zeichnete	-12777
▁Behälter	-12778
▁Beschrän	-12779
▁Gewissen	-12780
▁Rückmeld	-12781
▁Stimmung	-12782
▁annähern	-12783
▁begraben	-12784
▁beliebte	-12785
▁bereiten	-12786
▁einladen	-12787
▁ermutigt	-12788
▁forschen	-12789
▁markiert	-12790
▁synchron	-12791
▁tauschen	-12792
▁verlässt	-12793
▁versagen	-12794
▁vorlesen	-12795
ografische	-12796
▁Biosphäre	-12797
▁Durchfall	-12798
▁Mobilität	-12799
▁Schachtel	-12800
▁Trainings	-12801
▁angeblich	-12802
▁einzelnes	-12803
▁entnehmen	-12804
▁genannten	-12805
▁komplexes	-12806
▁nirgendwo	-12807
▁rekonstru	-12808
▁versetzen	-12809
▁Angenommen	-12810
▁Charaktere	-12811
▁Hierarchie	-12812
▁Neuseeland	-12813
▁Zigaretten	-12814
▁beschaffen	-12815
▁beurteilen	-12816
▁einfachste	-12817
gemeinschaft	-12818
▁Anstrengung	-12819
▁Herzinfarkt	-12820
▁Prioritäten	-12821
▁angegriffen	-12822
▁historische	-12823
▁irgendeinen	-12824
▁verschieben	-12825
▁Begeisterung	-12826
▁hinterfragen	-12827
▁manipulieren	-12828
▁folgendermaßen	-12829
▁herausgestellt	-12830
▁Lebensunterhalt	-12831
.-	-12832
5,	-12833
Al	-12834
BC	-12835
Em	-12836
Um	-12837
sw	-12838
App	-12839
Ste	-12840
not	-12841
old	-12842
ows	-12843
öss	-12844
▁8.	-12845
▁EM	-12846
▁JF	-12847
▁SO	-12848
▁Ze	-12849
▁ah	-12850
▁li	-12851
Eine	-12852
aida	-12853
akat	-12854
alog	-12855
eley	-12856
empl	-12857
fell	-12858
heil	-12859
ikum	-12860
imit	-12861
rebs	-12862
ript	-12863
ußer	-12864
west	-12865
wies	-12866
ögen	-12867
▁Abt	-12868
▁Emm	-12869
▁Moz	-12870
▁Out	-12871
▁Pir	-12872
▁Que	-12873
▁Rap	-12874
▁gez	-12875
▁klü	-12876
▁urb	-12877
abeth	-12878
brach	-12879
geist	-12880
gerte	-12881
igere	-12882
mente	-12883
namen	-12884
ungsf	-12885
üpfen	-12886
▁2012	-12887
▁Angi	-12888
▁Chor	-12889
▁Data	-12890
▁Haup	-12891
▁Koff	-12892
▁Kong	-12893
▁Note	-12894
▁Pfad	-12895
▁Quer	-12896
▁Taxi	-12897
▁Wirk	-12898
eichen	-12899
felder	-12900
genöss	-12901
gewinn	-12902
inseln	-12903
linder	-12904
ologin	-12905
omaten	-12906
schöpf	-12907
usalem	-12908
▁Antik	-12909
▁Asthm	-12910
▁Bonob	-12911
▁Orbit	-12912
▁Raubt	-12913
▁Raums	-12914
▁Rente	-12915
▁Scott	-12916
▁Veter	-12917
▁absor	-12918
▁ueber	-12919
aufgabe	-12920
gefühls	-12921
gesehen	-12922
issheit	-12923
lsystem	-12924
nutzung	-12925
osphäre	-12926
stunden	-12927
teilten	-12928
▁Campus	-12929
▁Flüsse	-12930
▁Fremde	-12931
▁Furcht	-12932
▁Geduld	-12933
▁Kokain	-12934
▁Letzte	-12935
▁Lücken	-12936
▁Mentor	-12937
▁Recher	-12938
▁Sahara	-12939
▁Square	-12940
▁Stapel	-12941
▁Strafe	-12942
▁Watson	-12943
▁bedarf	-12944
▁endete	-12945
▁jeweil	-12946
▁klasse	-12947
▁pflanz	-12948
▁result	-12949
▁taucht	-12950
▁unzähl	-12951
gerissen	-12952
grenzung	-12953
hingegen	-12954
istenten	-12955
passungs	-12956
strecken	-12957
▁Bananen	-12958
▁Denkens	-12959
▁Flaggen	-12960
▁Freitag	-12961
▁Nordpol	-12962
▁Perfekt	-12963
▁Scheibe	-12964
▁Träumen	-12965
▁gefühlt	-12966
▁stunden	-12967
▁symmetr	-12968
▁vernach	-12969
abschluss	-12970
allererst	-12971
istisches	-12972
programme	-12973
tschaften	-12974
▁Dasselbe	-12975
▁Tastatur	-12976
▁auslösen	-12977
▁bereitet	-12978
▁fluoresz	-12979
▁peinlich	-12980
▁potenzie	-12981
▁radikale	-12982
▁schweben	-12983
▁weiterzu	-12984
gesundheit	-12985
▁Ausnahmen	-12986
▁Empfänger	-12987
▁Erfüllung	-12988
▁Interface	-12989
▁Lektionen	-12990
▁Metaphern	-12991
▁Parkinson	-12992
▁Scheitern	-12993
▁Tatsachen	-12994
▁Techniker	-12995
▁Versicher	-12996
▁Versionen	-12997
▁demselben	-12998
▁gerichtet	-12999
▁gesteuert	-13000
▁gründeten	-13001
▁kreativer	-13002
▁kurzfrist	-13003
▁stattfand	-13004
▁verhaftet	-13005
▁Bemühungen	-13006
▁Geographic	-13007
▁Millimeter	-13008
▁Verletzung	-13009
▁anderthalb	-13010
▁gezeichnet	-13011
▁instinktiv	-13012
▁regulieren	-13013
▁schockiert	-13014
▁unangenehm	-13015
▁weitgehend	-13016
▁Erscheinung	-13017
▁Freiwillige	-13018
▁Kühlschrank	-13019
▁Mechanismen	-13020
▁absichtlich	-13021
▁kooperieren	-13022
▁körperliche	-13023
▁ökonomische	-13024
dimensionalen	-13025
▁Geschlechter	-13026
▁Mobiltelefon	-13027
▁herausstellt	-13028
▁ökonomischen	-13029
▁Beschäftigung	-13030
▁Einstellungen	-13031
▁Korallenriffe	-13032
▁aufgezeichnet	-13033
▁physikalische	-13034
▁Verbesserungen	-13035
▁Weltwirtschaft	-13036
▁demokratischen	-13037
▁psychologische	-13038
▁Angelegenheiten	-13039
▁Geschäftsmodell	-13040
7.	-13041
ba	-13042
bal	-13043
eiß	-13044
hod	-13045
stü	-13046
wel	-13047
üht	-13048
▁5.	-13049
▁72	-13050
▁IQ	-13051
▁RM	-13052
dose	-13053
hema	-13054
ifik	-13055
kose	-13056
krut	-13057
merk	-13058
sack	-13059
stro	-13060
tein	-13061
öhne	-13062
▁15.	-13063
▁190	-13064
▁Caf	-13065
▁Ema	-13066
▁Fra	-13067
▁Int	-13068
▁Mau	-13069
▁Max	-13070
▁Ori	-13071
▁anz	-13072
▁seh	-13073
▁ser	-13074
▁sim	-13075
Achse	-13076
andte	-13077
attle	-13078
eihen	-13079
famil	-13080
farbe	-13081
halle	-13082
heken	-13083
iefel	-13084
lauch	-13085
offen	-13086
ombar	-13087
sonst	-13088
verse	-13089
wirft	-13090
öpfer	-13091
▁Bade	-13092
▁Brad	-13093
▁Coll	-13094
▁Diät	-13095
▁Fass	-13096
▁Guer	-13097
▁Seni	-13098
▁bekl	-13099
▁dopp	-13100
▁gänz	-13101
▁subt	-13102
▁tote	-13103
▁witz	-13104
Gemein	-13105
ameter	-13106
drucks	-13107
farben	-13108
gentin	-13109
gingen	-13110
ischte	-13111
molekü	-13112
märkte	-13113
ration	-13114
städte	-13115
swerte	-13116
äglich	-13117
ählich	-13118
▁Anten	-13119
▁Chips	-13120
▁Gross	-13121
▁Herrn	-13122
▁Hütte	-13123
▁Lande	-13124
▁Roten	-13125
▁Schäd	-13126
▁bösen	-13127
▁damal	-13128
▁dünne	-13129
▁gemäß	-13130
▁gewün	-13131
▁hyper	-13132
▁laden	-13133
▁liber	-13134
▁merkt	-13135
▁nutze	-13136
▁sagst	-13137
▁unkon	-13138
▁verär	-13139
▁volle	-13140
▁ängst	-13141
bewegen	-13142
bewusst	-13143
bindung	-13144
eistern	-13145
prozent	-13146
▁Agenda	-13147
▁Bestes	-13148
▁Erstes	-13149
▁Exempl	-13150
▁Flucht	-13151
▁Gitter	-13152
▁Götter	-13153
▁Helium	-13154
▁Krähen	-13155
▁Marath	-13156
▁Portug	-13157
▁Reform	-13158
▁Tunnel	-13159
▁bewaff	-13160
▁bewerk	-13161
▁bewohn	-13162
▁ernten	-13163
▁redete	-13164
▁rettet	-13165
▁teilte	-13166
▁wander	-13167
▁wonach	-13168
handlung	-13169
reaktion	-13170
▁200.000	-13171
▁Clinton	-13172
▁Geräten	-13173
▁Gewinne	-13174
▁Landwir	-13175
▁Seitdem	-13176
▁Service	-13177
▁Trocken	-13178
▁Verpack	-13179
▁Verschl	-13180
▁Wildnis	-13181
▁aktuell	-13182
▁anstren	-13183
▁begehen	-13184
▁durften	-13185
▁extreme	-13186
▁springt	-13187
▁steckte	-13188
▁stärken	-13189
▁vernetz	-13190
▁waschen	-13191
▁Alphabet	-13192
▁Einzelne	-13193
▁Langzeit	-13194
▁Optionen	-13195
▁Rückgang	-13196
▁Schwelle	-13197
▁Standort	-13198
▁antreibt	-13199
▁einfluss	-13200
▁intuitiv	-13201
▁könntest	-13202
▁tägliche	-13203
ikanischen	-13204
landschaft	-13205
▁Dokumente	-13206
▁Repräsent	-13207
▁abstrakte	-13208
▁bekannter	-13209
▁bemerkten	-13210
▁identisch	-13211
▁markieren	-13212
▁verbergen	-13213
▁verstärkt	-13214
▁wertvolle	-13215
geschichten	-13216
▁Demokraten	-13217
▁Elternteil	-13218
▁Ernährungs	-13219
▁Fallschirm	-13220
▁Hoffnungen	-13221
▁Kilometern	-13222
▁Raumschiff	-13223
▁Schlimmste	-13224
▁Verfassung	-13225
▁Wochenende	-13226
▁Zeitspanne	-13227
▁angewiesen	-13228
▁auszusehen	-13229
▁bevorzugen	-13230
▁kritischen	-13231
▁vergleicht	-13232
▁versteckte	-13233
▁verwendete	-13234
▁wahrhaftig	-13235
▁Beleuchtung	-13236
▁Betrachtung	-13237
▁Gesichtsaus	-13238
▁Solarzellen	-13239
▁glücklichen	-13240
▁langfristig	-13241
▁realisieren	-13242
▁unglücklich	-13243
▁Übersetzung	-13244
▁Gleichzeitig	-13245
▁Griechenland	-13246
▁Nationalpark	-13247
▁Verteidigung	-13248
▁International	-13249
▁Partnerschaft	-13250
▁Zeitschriften	-13251
▁angeschlossen	-13252
▁demonstrieren	-13253
▁eingeschränkt	-13254
Mo	-13255
hä	-13256
ars	-13257
dex	-13258
dio	-13259
igh	-13260
sor	-13261
syl	-13262
öre	-13263
▁6.	-13264
▁IT	-13265
▁OP	-13266
▁aß	-13267
Groß	-13268
Mann	-13269
Vers	-13270
eben	-13271
iedr	-13272
itis	-13273
reen	-13274
saal	-13275
unen	-13276
zung	-13277
Über	-13278
ädag	-13279
ähle	-13280
öpft	-13281
▁20-	-13282
▁Amt	-13283
▁Dod	-13284
▁Fan	-13285
▁Frö	-13286
▁Hür	-13287
▁Mah	-13288
▁Pix	-13289
▁Twe	-13290
▁Vom	-13291
▁Wes	-13292
▁ehe	-13293
▁hyp	-13294
▁inn	-13295
▁lud	-13296
▁öst	-13297
Meine	-13298
blase	-13299
denke	-13300
enten	-13301
heits	-13302
iften	-13303
insel	-13304
istik	-13305
keley	-13306
länge	-13307
okoll	-13308
ology	-13309
pidem	-13310
posit	-13311
prech	-13312
▁2030	-13313
▁5000	-13314
▁Beij	-13315
▁Coca	-13316
▁Dein	-13317
▁Doug	-13318
▁Harm	-13319
▁Krab	-13320
▁Mall	-13321
▁Mumb	-13322
▁Qual	-13323
▁Renn	-13324
▁grob	-13325
▁läng	-13326
▁null	-13327
▁rosa	-13328
▁trop	-13329
acheln	-13330
andten	-13331
beding	-13332
echten	-13333
effekt	-13334
etings	-13335
fabrik	-13336
größte	-13337
inchen	-13338
sparen	-13339
spuren	-13340
ächern	-13341
▁Biene	-13342
▁Büros	-13343
▁Draht	-13344
▁Hawai	-13345
▁Kathe	-13346
▁Penis	-13347
▁Sorte	-13348
▁beten	-13349
▁engag	-13350
▁glaub	-13351
▁hohem	-13352
▁klang	-13353
▁mutig	-13354
▁neutr	-13355
▁reine	-13356
▁traum	-13357
▁weise	-13358
▁worin	-13359
altungs	-13360
blicher	-13361
energie	-13362
flossen	-13363
ingenie	-13364
methode	-13365
platten	-13366
schenkt	-13367
▁Bildes	-13368
▁Choler	-13369
▁Denker	-13370
▁Folien	-13371
▁Improv	-13372
▁Kontro	-13373
▁Künste	-13374
▁Lehren	-13375
▁Master	-13376
▁Myster	-13377
▁Mäusen	-13378
▁Orient	-13379
▁Pestiz	-13380
▁Strich	-13381
▁Tasman	-13382
▁Unsinn	-13383
▁Zweite	-13384
▁fehler	-13385
▁festen	-13386
▁langes	-13387
▁melden	-13388
▁nähern	-13389
▁siehst	-13390
▁unterm	-13391
stritten	-13392
▁Anlagen	-13393
▁Dienste	-13394
▁Französ	-13395
▁Geister	-13396
▁Müttern	-13397
▁Ozeanen	-13398
▁Protest	-13399
▁Sonntag	-13400
▁Tomaten	-13401
▁abgeben	-13402
▁dringen	-13403
▁entwarf	-13404
▁kontakt	-13405
▁koordin	-13406
▁löschen	-13407
▁mysteri	-13408
▁schlage	-13409
▁wechsel	-13410
möglichen	-13411
scheidung	-13412
spektiven	-13413
verfahren	-13414
ähnlichen	-13415
▁Besucher	-13416
▁Betriebs	-13417
▁Biomasse	-13418
▁Cartoons	-13419
▁Eingriff	-13420
▁Errungen	-13421
▁Gefühlen	-13422
▁Meistens	-13423
▁Vollzeit	-13424
▁abnehmen	-13425
▁geringen	-13426
▁möchtest	-13427
▁niedrige	-13428
▁schreien	-13429
gestaltung	-13430
▁Aufregung	-13431
▁Batterien	-13432
▁Kilogramm	-13433
▁Rezession	-13434
▁Schwanger	-13435
▁Schwarzen	-13436
▁Teilnahme	-13437
▁Thunfisch	-13438
▁aussuchen	-13439
▁entlassen	-13440
▁künstlich	-13441
▁spazieren	-13442
▁zufällige	-13443
▁Aufklärung	-13444
▁Aussterben	-13445
▁Chinesisch	-13446
▁Missbrauch	-13447
▁Weihnachts	-13448
▁beunruhigt	-13449
▁enttäuscht	-13450
▁frustriert	-13451
▁körperlich	-13452
▁versichern	-13453
verarbeitung	-13454
▁Brennstoffe	-13455
▁Erklärungen	-13456
▁Produktions	-13457
▁Prozentsatz	-13458
▁befriedigen	-13459
▁beigetragen	-13460
▁erneuerbare	-13461
▁klassischen	-13462
▁wunderbares	-13463
▁Kriminalität	-13464
▁angesprochen	-13465
▁gefährlichen	-13466
▁gelegentlich	-13467
▁konkurrieren	-13468
▁systematisch	-13469
▁unsichtbaren	-13470
▁verschmelzen	-13471
▁zusätzlichen	-13472
▁Behinderungen	-13473
▁Beobachtungen	-13474
▁Mobiltelefone	-13475
▁Verhandlungen	-13476
▁Wissenschafts	-13477
▁dokumentieren	-13478
▁vorgeschlagen	-13479
▁Geschäftsführer	-13480
▁Halluzinationen	-13481
▁Herzkrankheiten	-13482
10	-13483
6,	-13484
60	-13485
ly	-13486
▁Q	-13487
act	-13488
ata	-13489
sth	-13490
via	-13491
▁43	-13492
▁SI	-13493
Show	-13494
Team	-13495
ades	-13496
alth	-13497
brot	-13498
enha	-13499
frar	-13500
mone	-13501
ollt	-13502
rede	-13503
schü	-13504
sper	-13505
uzen	-13506
vier	-13507
ückt	-13508
▁1,2	-13509
▁130	-13510
▁Dal	-13511
▁Gor	-13512
▁Hof	-13513
▁Oma	-13514
▁Tok	-13515
▁brü	-13516
▁ero	-13517
Krieg	-13518
abend	-13519
akult	-13520
appte	-13521
echte	-13522
freie	-13523
kolle	-13524
motor	-13525
ocker	-13526
orene	-13527
ottet	-13528
rasil	-13529
ruckt	-13530
rüger	-13531
ssinn	-13532
ützer	-13533
▁3000	-13534
▁Abed	-13535
▁Diam	-13536
▁Dich	-13537
▁Habe	-13538
▁Hans	-13539
▁Isol	-13540
▁Palm	-13541
▁Rund	-13542
▁Spar	-13543
▁Tans	-13544
▁aßen	-13545
▁bege	-13546
▁jetz	-13547
▁nord	-13548
▁strö	-13549
▁treu	-13550
Effekt	-13551
Moment	-13552
ameras	-13553
frauen	-13554
grenze	-13555
grippe	-13556
letter	-13557
sender	-13558
strafe	-13559
önland	-13560
▁April	-13561
▁Comic	-13562
▁Darin	-13563
▁Deine	-13564
▁Ferne	-13565
▁Harry	-13566
▁Kunde	-13567
▁Louis	-13568
▁Paare	-13569
▁Söhne	-13570
▁Witze	-13571
▁ansah	-13572
▁autor	-13573
▁unbeh	-13574
▁wegzu	-13575
▁weist	-13576
▁Äußer	-13577
folgung	-13578
mäßigen	-13579
▁Arthur	-13580
▁Bühnen	-13581
▁Disney	-13582
▁Falsch	-13583
▁Frustr	-13584
▁Joseph	-13585
▁Kannst	-13586
▁Michel	-13587
▁Mozart	-13588
▁Mücken	-13589
▁Prophe	-13590
▁Schaut	-13591
▁Sollte	-13592
▁Südpol	-13593
▁Vakuum	-13594
▁Winden	-13595
▁deines	-13596
▁düster	-13597
▁erzeug	-13598
▁gefiel	-13599
▁klaren	-13600
▁landes	-13601
▁mikrob	-13602
▁modell	-13603
▁schrum	-13604
▁veranl	-13605
▁wachte	-13606
▁weiten	-13607
personen	-13608
▁Ankunft	-13609
▁Atlanta	-13610
▁Bindung	-13611
▁Cartoon	-13612
▁Dilemma	-13613
▁Kartoff	-13614
▁Kopenha	-13615
▁Kreatur	-13616
▁Melodie	-13617
▁Mustern	-13618
▁Project	-13619
▁Taucher	-13620
▁Vertrau	-13621
▁Währung	-13622
▁abläuft	-13623
▁atember	-13624
▁aufhört	-13625
▁befreit	-13626
▁erkläre	-13627
▁günstig	-13628
▁koennen	-13629
▁pflegen	-13630
▁saubere	-13631
▁schickt	-13632
▁stimmte	-13633
▁südlich	-13634
▁umsonst	-13635
▁vorherr	-13636
irdischen	-13637
reibungen	-13638
schichten	-13639
sterreich	-13640
twörtlich	-13641
▁Angriffe	-13642
▁Aufgrund	-13643
▁Berkeley	-13644
▁Freundes	-13645
▁Leonardo	-13646
▁Monterey	-13647
▁Priester	-13648
▁Republik	-13649
▁Schaffen	-13650
▁Versuchs	-13651
▁Virginia	-13652
▁erwischt	-13653
▁gespannt	-13654
▁reproduz	-13655
▁tiefgrün	-13656
▁wiederzu	-13657
▁überlegt	-13658
▁üblichen	-13659
haftigkeit	-13660
▁Argumente	-13661
▁Bedingung	-13662
▁Designern	-13663
▁Kunstwerk	-13664
▁Messungen	-13665
▁Parasiten	-13666
▁Rohstoffe	-13667
▁Schweizer	-13668
▁Vertreter	-13669
▁bestanden	-13670
▁errichtet	-13671
▁erwartete	-13672
▁geleistet	-13673
▁glamourös	-13674
▁hunderten	-13675
▁mitmachen	-13676
▁platziert	-13677
▁riskieren	-13678
▁sammelten	-13679
▁umbringen	-13680
▁zuständig	-13681
möglichkeit	-13682
orientierte	-13683
▁Kompromiss	-13684
▁Künstlerin	-13685
▁Meerwasser	-13686
▁Mitgefühls	-13687
▁Sicherlich	-13688
▁anzupassen	-13689
▁aufgegeben	-13690
▁aufzugeben	-13691
▁bearbeiten	-13692
▁gebrauchen	-13693
▁unendliche	-13694
▁verbleiben	-13695
▁verstärken	-13696
▁wahnsinnig	-13697
katastrophen	-13698
▁Angestellte	-13699
▁Angiogenese	-13700
▁Auseinander	-13701
▁Genauigkeit	-13702
▁Philosophen	-13703
▁Vermächtnis	-13704
▁austauschen	-13705
▁psychischen	-13706
▁Übertragung	-13707
▁Temperaturen	-13708
▁Verarbeitung	-13709
▁Wiederaufbau	-13710
▁konstruieren	-13711
▁Chemotherapie	-13712
▁Jahrhunderten	-13713
▁Verteidigungs	-13714
▁Zusammenbruch	-13715
▁hervorbringen	-13716
▁Vorgehensweise	-13717
▁entscheidenden	-13718
▁zusammengefasst	-13719
oy	-13720
Wel	-13721
ave	-13722
bon	-13723
bro	-13724
ela	-13725
fle	-13726
gur	-13727
pel	-13728
tum	-13729
unn	-13730
urb	-13731
wan	-13732
wis	-13733
zit	-13734
ünd	-13735
▁44	-13736
▁DP	-13737
▁Hi	-13738
▁Ig	-13739
▁kr	-13740
Feld	-13741
ampf	-13742
arin	-13743
blog	-13744
eres	-13745
etze	-13746
fass	-13747
hamm	-13748
ilzt	-13749
kürz	-13750
länd	-13751
oche	-13752
sern	-13753
uana	-13754
umin	-13755
unts	-13756
ärer	-13757
ührt	-13758
ümer	-13759
▁20,	-13760
▁Acc	-13761
▁Cor	-13762
▁Isa	-13763
▁Kas	-13764
▁Nah	-13765
▁Nam	-13766
▁Off	-13767
▁Syl	-13768
▁abt	-13769
▁eis	-13770
▁jun	-13771
arium	-13772
bären	-13773
dreht	-13774
gemäß	-13775
kanal	-13776
kunde	-13777
level	-13778
opard	-13779
rohen	-13780
zählt	-13781
ählte	-13782
ärzte	-13783
ätige	-13784
▁Cany	-13785
▁Hero	-13786
▁Hind	-13787
▁Jagd	-13788
▁Kürz	-13789
▁Link	-13790
▁Mand	-13791
▁Oben	-13792
▁Obst	-13793
▁Rass	-13794
▁Sant	-13795
▁Tatt	-13796
▁Ware	-13797
▁fert	-13798
▁lege	-13799
▁proj	-13800
bedarf	-13801
bieter	-13802
emonie	-13803
faktor	-13804
gelenk	-13805
gesagt	-13806
gesell	-13807
gängig	-13808
lingen	-13809
schuhe	-13810
skrise	-13811
werben	-13812
zessen	-13813
ächtig	-13814
▁Brett	-13815
▁Busch	-13816
▁Ehren	-13817
▁Erdöl	-13818
▁Haken	-13819
▁Netze	-13820
▁River	-13821
▁Route	-13822
▁Rover	-13823
▁Sarah	-13824
▁Sieht	-13825
▁Simul	-13826
▁Tolle	-13827
▁absur	-13828
▁anony	-13829
▁besaß	-13830
▁hasse	-13831
▁legal	-13832
▁malte	-13833
▁natur	-13834
▁verge	-13835
▁verhe	-13836
▁wilde	-13837
schulen	-13838
smuster	-13839
weichen	-13840
▁Action	-13841
▁Aktien	-13842
▁Columb	-13843
▁Delfin	-13844
▁Essens	-13845
▁Essenz	-13846
▁Falten	-13847
▁Farmer	-13848
▁Fertig	-13849
▁Festiv	-13850
▁Gewehr	-13851
▁Innere	-13852
▁Kämpfe	-13853
▁Misser	-13854
▁Mosche	-13855
▁Mumbai	-13856
▁Reflex	-13857
▁Sprich	-13858
▁Vögeln	-13859
▁Waisen	-13860
▁Wright	-13861
▁Zwecke	-13862
▁aktive	-13863
▁brasil	-13864
▁extrah	-13865
▁stimme	-13866
▁talent	-13867
▁ungehe	-13868
▁ähneln	-13869
Computer	-13870
derweise	-13871
ineering	-13872
sprojekt	-13873
ssysteme	-13874
strahlen	-13875
▁Aufwand	-13876
▁Blinden	-13877
▁Gestein	-13878
▁Membran	-13879
▁Pinguin	-13880
▁Schwimm	-13881
▁Spazier	-13882
▁Strasse	-13883
▁Wassers	-13884
▁anfühlt	-13885
▁ausgeht	-13886
▁begeben	-13887
▁begriff	-13888
▁bemühen	-13889
▁beschul	-13890
▁eigener	-13891
▁erholen	-13892
▁folgten	-13893
▁gemerkt	-13894
▁klicken	-13895
▁visuell	-13896
▁wählten	-13897
absichtig	-13898
▁Anforder	-13899
▁Begriffe	-13900
▁Einsicht	-13901
▁Grönland	-13902
▁Pandemie	-13903
▁Rückkehr	-13904
▁Tansania	-13905
▁gänzlich	-13906
▁jüngeren	-13907
▁phänomen	-13908
▁schieben	-13909
▁wörtlich	-13910
Amerikaner	-13911
krankungen	-13912
▁Abschnitt	-13913
▁Einnahmen	-13914
▁Ideologie	-13915
▁Jerusalem	-13916
▁Niederlan	-13917
▁Universen	-13918
▁aufgehört	-13919
▁einzelner	-13920
▁entkommen	-13921
▁loswerden	-13922
▁schnellen	-13923
▁verpassen	-13924
▁übernimmt	-13925
wasserstoff	-13926
▁Betrachter	-13927
▁Einsamkeit	-13928
▁Fortpflanz	-13929
▁Komponente	-13930
▁Konsequenz	-13931
▁Videospiel	-13932
▁Vorurteile	-13933
▁allmählich	-13934
▁angebracht	-13935
▁anzubieten	-13936
▁effiziente	-13937
▁herausfand	-13938
▁kostenlose	-13939
▁ultimative	-13940
▁verkauften	-13941
▁verknüpfen	-13942
▁zeitgenöss	-13943
unterschiede	-13944
▁Beteiligung	-13945
▁Flüchtlings	-13946
▁Infektionen	-13947
▁Jugendliche	-13948
▁Weihnachten	-13949
▁anschließen	-13950
▁experimente	-13951
▁natürliches	-13952
▁präsentiert	-13953
▁verbrachten	-13954
▁anschließend	-13955
▁betrachteten	-13956
▁inspirierend	-13957
▁körperlichen	-13958
▁persönliches	-13959
▁teilzunehmen	-13960
▁verständlich	-13961
▁zehntausende	-13962
gesellschaften	-13963
▁Anstrengungen	-13964
▁Lateinamerika	-13965
▁Programmieren	-13966
▁argumentieren	-13967
▁ausgesprochen	-13968
▁erfolgreichen	-13969
▁organisierten	-13970
▁üblicherweise	-13971
▁amerikanischer	-13972
▁intellektuelle	-13973
▁Voraussetzungen	-13974
6.	-13975
ES	-13976
NG	-13977
Po	-13978
jo	-13979
mü	-13980
ps	-13981
Stu	-13982
anw	-13983
bri	-13984
ily	-13985
nie	-13986
ols	-13987
rey	-13988
▁34	-13989
▁Lü	-13990
Hall	-13991
ares	-13992
aute	-13993
ekul	-13994
ftel	-13995
gers	-13996
hent	-13997
hoch	-13998
impf	-13999
ippt	-14000
irus	-14001
korn	-14002
kter	-14003
lade	-14004
luft	-14005
mten	-14006
ollo	-14007
phin	-14008
ppel	-14009
pten	-14010
räte	-14011
rümm	-14012
sius	-14013
▁160	-14014
▁Jen	-14015
▁Mrd	-14016
▁asi	-14017
▁bös	-14018
▁bür	-14019
▁inj	-14020
▁rut	-14021
augen	-14022
dehnt	-14023
ideos	-14024
idmet	-14025
korea	-14026
neter	-14027
seits	-14028
▁Clip	-14029
▁Dumm	-14030
▁Foie	-14031
▁Haft	-14032
▁Hamb	-14033
▁Real	-14034
▁Sach	-14035
▁Shir	-14036
▁Spag	-14037
▁Takt	-14038
▁blut	-14039
▁gelb	-14040
▁sexy	-14041
ammern	-14042
bahnen	-14043
bürger	-14044
ehrten	-14045
eidbar	-14046
einern	-14047
fessor	-14048
fungen	-14049
immern	-14050
landet	-14051
packen	-14052
regeln	-14053
stream	-14054
venten	-14055
zieren	-14056
ählten	-14057
ämpfer	-14058
üsselt	-14059
▁Blutz	-14060
▁Bälle	-14061
▁Favor	-14062
▁Hebel	-14063
▁Indus	-14064
▁Jemen	-14065
▁Kamel	-14066
▁Kosov	-14067
▁Linse	-14068
▁Pille	-14069
▁Suppe	-14070
▁Unbek	-14071
▁Virtu	-14072
▁anger	-14073
▁dumme	-14074
▁führe	-14075
▁leere	-14076
▁änder	-14077
Syndrom	-14078
dienste	-14079
fresser	-14080
ichtung	-14081
izierte	-14082
zurufen	-14083
ächtigt	-14084
▁Abholz	-14085
▁Briten	-14086
▁Comedy	-14087
▁Daniel	-14088
▁Hawaii	-14089
▁Hormon	-14090
▁Normen	-14091
▁Raster	-14092
▁Regime	-14093
▁Rekord	-14094
▁Romant	-14095
▁Schale	-14096
▁auszut	-14097
▁beacht	-14098
▁filmen	-14099
▁geschw	-14100
▁klappt	-14101
▁scharf	-14102
▁schrit	-14103
▁sprich	-14104
▁vorder	-14105
Menschen	-14106
endungen	-14107
ifferenz	-14108
irdische	-14109
▁Alltags	-14110
▁Celsius	-14111
▁Cholera	-14112
▁Dollars	-14113
▁Everest	-14114
▁Nummern	-14115
▁Psychop	-14116
▁Schlamm	-14117
▁Seattle	-14118
▁Steinen	-14119
▁Trainer	-14120
▁anfangs	-14121
▁element	-14122
▁kopiert	-14123
▁multipl	-14124
▁spenden	-14125
▁starker	-14126
▁tödlich	-14127
▁unbesch	-14128
▁vorüber	-14129
▁Ägypter	-14130
▁Übungen	-14131
liegenden	-14132
stellungs	-14133
tausenden	-14134
▁Auslöser	-14135
▁Beachten	-14136
▁Chemiker	-14137
▁Harmonie	-14138
▁Hühnchen	-14139
▁Motorrad	-14140
▁Partikel	-14141
▁Variante	-14142
▁erlernen	-14143
▁erwecken	-14144
▁gedauert	-14145
▁hochwert	-14146
▁horizont	-14147
▁komische	-14148
▁kritisch	-14149
▁moderner	-14150
▁schlauer	-14151
▁zutrifft	-14152
▁Haushalts	-14153
▁Hindernis	-14154
▁Parkplatz	-14155
▁Phänomene	-14156
▁Schöpfung	-14157
▁Umsetzung	-14158
▁annähernd	-14159
▁antreiben	-14160
▁behauptet	-14161
▁beruhigen	-14162
▁drastisch	-14163
▁dynamisch	-14164
▁generiert	-14165
▁geschenkt	-14166
▁hinweisen	-14167
▁verlaufen	-14168
▁verließen	-14169
▁vornehmen	-14170
▁Astronomen	-14171
▁Fotografen	-14172
▁Informatik	-14173
▁Positionen	-14174
▁anerkennen	-14175
▁erreichten	-14176
▁herzlichen	-14177
▁ordentlich	-14178
▁potentiell	-14179
▁zahlreiche	-14180
▁Filmemacher	-14181
▁Geschwister	-14182
▁alternative	-14183
▁aufgefallen	-14184
▁dreieinhalb	-14185
▁hinzugefügt	-14186
▁informieren	-14187
▁stundenlang	-14188
▁unbekannten	-14189
▁unsichtbare	-14190
▁Fortbewegung	-14191
▁Kindergarten	-14192
▁Lautsprecher	-14193
▁Perspektiven	-14194
▁Schaltkreise	-14195
▁alltäglichen	-14196
▁beängstigend	-14197
▁französische	-14198
▁respektieren	-14199
▁unterbrochen	-14200
▁wortwörtlich	-14201
▁ökologischen	-14202
▁überwältigen	-14203
▁Veranstaltung	-14204
▁existierenden	-14205
▁herausfordern	-14206
▁intelligenter	-14207
▁komplizierten	-14208
▁elektronischen	-14209
▁zusammenkommen	-14210
▁vielversprechen	-14211
1,	-14212
3,	-14213
ER	-14214
NC	-14215
Pe	-14216
da	-14217
bod	-14218
bor	-14219
bur	-14220
bär	-14221
hor	-14222
kar	-14223
mor	-14224
sbe	-14225
ußt	-14226
▁AG	-14227
▁AM	-14228
▁IM	-14229
▁LT	-14230
▁Wa	-14231
Bild	-14232
Dies	-14233
Shir	-14234
ader	-14235
auto	-14236
blau	-14237
chem	-14238
enix	-14239
ikon	-14240
mitt	-14241
osyn	-14242
prei	-14243
ring	-14244
▁Bit	-14245
▁Han	-14246
▁Hot	-14247
▁Jup	-14248
▁Ram	-14249
▁Tha	-14250
▁Tät	-14251
▁Zoo	-14252
▁blö	-14253
▁erd	-14254
▁leb	-14255
Daten	-14256
apfen	-14257
atmen	-14258
erken	-14259
etenz	-14260
komme	-14261
loses	-14262
rolle	-14263
räumt	-14264
ungel	-14265
unker	-14266
weckt	-14267
yrann	-14268
ützte	-14269
▁Bass	-14270
▁Deck	-14271
▁Ekel	-14272
▁Foot	-14273
▁Fuss	-14274
▁Gebe	-14275
▁Jord	-14276
▁Logo	-14277
▁Rose	-14278
▁Sier	-14279
▁enge	-14280
▁galt	-14281
▁grat	-14282
▁kost	-14283
▁orig	-14284
▁repl	-14285
▁ruin	-14286
▁sang	-14287
▁unzu	-14288
▁Ästh	-14289
anntes	-14290
bertät	-14291
dungen	-14292
gründe	-14293
iarden	-14294
ignale	-14295
imiert	-14296
lauben	-14297
reuung	-14298
spitze	-14299
uverne	-14300
zettel	-14301
▁Agrar	-14302
▁Altru	-14303
▁Apart	-14304
▁Atmen	-14305
▁Atomb	-14306
▁Erder	-14307
▁Feier	-14308
▁Helik	-14309
▁Himal	-14310
▁Hülle	-14311
▁Kyros	-14312
▁Kälte	-14313
▁Moore	-14314
▁Ruder	-14315
▁Runde	-14316
▁Schuh	-14317
▁Space	-14318
▁Sperm	-14319
▁Spitz	-14320
▁Stere	-14321
▁Symph	-14322
▁Traur	-14323
▁Winde	-14324
▁Zehnt	-14325
▁aufbl	-14326
▁korru	-14327
▁skept	-14328
▁zahlt	-14329
▁übern	-14330
Vortrag	-14331
artiger	-14332
hielten	-14333
händler	-14334
klicken	-14335
planung	-14336
▁40.000	-14337
▁Berufe	-14338
▁Betrag	-14339
▁Dritte	-14340
▁Erspar	-14341
▁Gesten	-14342
▁Grösse	-14343
▁Irland	-14344
▁Kasten	-14345
▁Kosmos	-14346
▁Linken	-14347
▁Luther	-14348
▁Monats	-14349
▁Montag	-14350
▁Schaff	-14351
▁Supern	-14352
▁Säulen	-14353
▁Tinten	-14354
▁Untert	-14355
▁Verbün	-14356
▁Wunden	-14357
▁Wähler	-14358
▁beleid	-14359
▁bewahr	-14360
▁breite	-14361
▁fällen	-14362
▁gemalt	-14363
▁israel	-14364
▁jugend	-14365
▁kehrte	-14366
▁netten	-14367
▁rannte	-14368
▁vorant	-14369
Bewegung	-14370
formance	-14371
spolitik	-14372
sprachen	-14373
streifen	-14374
▁Bestech	-14375
▁Digital	-14376
▁Elefant	-14377
▁Glukose	-14378
▁Inhalts	-14379
▁Kondome	-14380
▁Molekul	-14381
▁Museums	-14382
▁Neigung	-14383
▁Nämlich	-14384
▁ausüben	-14385
▁bezogen	-14386
▁breiten	-14387
▁gefilmt	-14388
▁geliebt	-14389
▁hiermit	-14390
▁lautete	-14391
▁redeten	-14392
▁verdamm	-14393
▁Überein	-14394
chnologie	-14395
kilometer	-14396
regierung	-14397
sprobleme	-14398
▁Arbeitsm	-14399
▁Aussicht	-14400
▁Kontrast	-14401
▁Magazine	-14402
▁Pubertät	-14403
▁Rechnung	-14404
▁Reporter	-14405
▁Verluste	-14406
▁abhängen	-14407
▁angenehm	-14408
▁auftritt	-14409
▁benennen	-14410
▁flexibel	-14411
▁gelandet	-14412
▁geradezu	-14413
▁gewissem	-14414
▁jedesmal	-14415
▁klettern	-14416
▁massiven	-14417
▁parallel	-14418
▁schrittw	-14419
▁versehen	-14420
▁zeichnet	-14421
▁Ästhetik	-14422
▁überholt	-14423
änderungen	-14424
▁Belastung	-14425
▁Endeffekt	-14426
▁Förderung	-14427
▁Geschehen	-14428
▁Hunderten	-14429
▁Reparatur	-14430
▁Schultern	-14431
▁Steuerung	-14432
▁bewundern	-14433
▁herkommen	-14434
▁katastrop	-14435
▁rechtzeit	-14436
▁schmelzen	-14437
▁unbegrenz	-14438
▁Überlegen	-14439
herstellung	-14440
▁Baumkronen	-14441
▁Hemisphäre	-14442
▁Herzschlag	-14443
▁Mahlzeiten	-14444
▁Schauspiel	-14445
▁Steigerung	-14446
▁Tageslicht	-14447
▁aneinander	-14448
▁erstellten	-14449
▁geschossen	-14450
▁häufigsten	-14451
▁informiert	-14452
▁nördlichen	-14453
▁praktische	-14454
▁vereinfach	-14455
▁Behinderung	-14456
▁Bundesstaat	-14457
▁Dankbarkeit	-14458
▁Ingenieuren	-14459
▁Krebszellen	-14460
▁Notaufnahme	-14461
▁Philanthrop	-14462
▁Relativität	-14463
▁Sehvermögen	-14464
▁Shakespeare	-14465
▁Zeitschrift	-14466
▁bahnbrechen	-14467
▁europäische	-14468
▁fundamental	-14469
▁hervorrufen	-14470
▁schnellsten	-14471
▁unternommen	-14472
▁vernachläss	-14473
▁verwandelte	-14474
▁vorbereiten	-14475
▁weitergeben	-14476
informationen	-14477
▁Gewohnheiten	-14478
▁Konversation	-14479
▁Rechenschaft	-14480
▁Vorbereitung	-14481
▁herauskommen	-14482
▁katastrophal	-14483
▁militärische	-14484
▁gemeinnützige	-14485
▁schwierigsten	-14486
▁stattgefunden	-14487
▁weitergegeben	-14488
▁Funktionsweise	-14489
▁bewerkstelligen	-14490
▁hunderttausende	-14491
▁offensichtliche	-14492
▁zusammenbringen	-14493
Cl	-14494
üm	-14495
Per	-14496
cer	-14497
eck	-14498
eme	-14499
esh	-14500
frü	-14501
hut	-14502
llo	-14503
nik	-14504
spf	-14505
zed	-14506
ößt	-14507
▁UV	-14508
▁Wä	-14509
▁zo	-14510
▁–,	-14511
Kann	-14512
[...]
