<unk>	0
<s>	0
</s>	0
<brk>	0
▁t	-0
▁th	-1
▁a	-2
in	-3
▁w	-4
▁the	-5
re	-6
▁o	-7
▁s	-8
at	-9
er	-10
nd	-11
ou	-12
▁c	-13
is	-14
it	-15
▁b	-16
ing	-17
▁m	-18
en	-19
▁h	-20
on	-21
▁to	-22
▁p	-23
▁f	-24
an	-25
es	-26
▁d	-27
▁of	-28
or	-29
ll	-30
▁in	-31
▁I	-32
▁and	-33
ed	-34
▁l	-35
ar	-36
▁y	-37
▁that	-38
om	-39
▁g	-40
as	-41
ic	-42
le	-43
▁you	-44
ve	-45
al	-46
▁we	-47
▁n	-48
▁wh	-49
ow	-50
▁is	-51
▁e	-52
us	-53
▁A	-54
▁be	-55
ut	-56
▁it	-57
ion	-58
ot	-59
et	-60
▁T	-61
▁re	-62
▁ha	-63
ent	-64
ct	-65
▁on	-66
ld	-67
ver	-68
ay	-69
id	-70
▁And	-71
▁Th	-72
se	-73
all	-74
▁this	-75
im	-76
st	-77
ro	-78
ig	-79
▁S	-80
ur	-81
ere	-82
ly	-83
▁st	-84
ch	-85
ke	-86
ce	-87
▁for	-88
if	-89
▁was	-90
ra	-91
▁W	-92
▁an	-93
ir	-94
▁do	-95
▁are	-96
oo	-97
ith	-98
ally	-99
op	-100
th	-101
am	-102
▁have	-103
▁with	-104
▁ab	-105
▁they	-106
▁u	-107
▁se	-108
▁k	-109
▁can	-110
▁-	-111
▁--	-112
▁B	-113
▁as	-114
▁mo	-115
ation	-116
out	-117
ht	-118
▁li	-119
▁so	-120
▁go	-121
▁what	-122
▁So	-123
▁com	-124
ad	-125
▁wor	-126
▁he	-127
very	-128
ould	-129
ill	-130
▁at	-131
▁me	-132
▁about	-133
▁sh	-134
▁ne	-135
ant	-136
▁not	-137
ter	-138
ge	-139
il	-140
ul	-141
ol	-142
▁all	-143
ust	-144
▁The	-145
▁j	-146
▁fr	-147
▁ex	-148
ers	-149
use	-150
ight	-151
▁pro	-152
▁som	-153
▁ch	-154
▁r	-155
▁or	-156
▁de	-157
▁there	-158
▁"	-159
▁my	-160
▁pe	-161
ear	-162
um	-163
art	-164
ople	-165
pp	-166
ck	-167
▁It	-168
▁con	-169
ess	-170
▁like	-171
▁We	-172
ate	-173
ure	-174
▁one	-175
ies	-176
▁people	-177
ca	-178
ive	-179
ity	-180
▁ma	-181
▁N	-182
est	-183
▁from	-184
nt	-185
▁kn	-186
ect	-187
ist	-188
ble	-189
ind	-190
qu	-191
▁but	-192
▁our	-193
ink	-194
▁out	-195
▁al	-196
▁us	-197
▁int	-198
▁know	-199
▁just	-200
▁te	-201
ook	-202
rou	-203
un	-204
▁H	-205
▁v	-206
▁thing	-207
▁C	-208
▁M	-209
cause	-210
▁sp	-211
ide	-212
and	-213
▁them	-214
▁see	-215
▁But	-216
ie	-217
▁these	-218
▁very	-219
os	-220
ort	-221
▁if	-222
▁tr	-223
▁think	-224
▁up	-225
her	-226
▁who	-227
▁get	-228
▁pl	-229
ich	-230
▁going	-231
▁by	-232
ci	-233
el	-234
▁Y	-235
▁1	-236
ain	-237
▁act	-238
▁some	-239
one	-240
▁when	-241
iv	-242
▁because	-243
▁your	-244
▁had	-245
▁more	-246
▁year	-247
em	-248
og	-249
▁sa	-250
our	-251
▁im	-252
▁tim	-253
▁would	-254
▁were	-255
ine	-256
00	-257
▁which	-258
▁look	-259
od	-260
▁their	-261
ame	-262
▁want	-263
ast	-264
▁really	-265
ment	-266
▁how	-267
▁comp	-268
ually	-269
ap	-270
."	-271
▁su	-272
▁work	-273
ard	-274
▁Wh	-275
ood	-276
iz	-277
▁O	-278
ous	-279
act	-280
ack	-281
gh	-282
▁en	-283
reat	-284
▁way	-285
hing	-286
▁ta	-287
ose	-288
▁E	-289
▁le	-290
▁here	-291
ore	-292
▁world	-293
▁time	-294
are	-295
▁has	-296
ans	-297
ther	-298
▁then	-299
ab	-300
▁You	-301
▁This	-302
ag	-303
▁per	-304
ong	-305
▁qu	-306
▁every	-307
▁don	-308
▁into	-309
▁exp	-310
▁P	-311
▁actually	-312
ace	-313
▁say	-314
▁will	-315
▁could	-316
▁man	-317
▁fe	-318
▁ev	-319
res	-320
ions	-321
▁D	-322
ild	-323
ud	-324
▁co	-325
ence	-326
itt	-327
▁things	-328
▁where	-329
age	-330
▁now	-331
▁years	-332
▁L	-333
▁G	-334
▁ag	-335
▁other	-336
▁did	-337
alk	-338
▁Now	-339
▁somet	-340
ff	-341
iff	-342
ach	-343
nder	-344
▁They	-345
ical	-346
▁F	-347
▁any	-348
▁been	-349
▁In	-350
▁no	-351
▁make	-352
▁happ	-353
▁diff	-354
▁cl	-355
ice	-356
▁tw	-357
ip	-358
▁than	-359
▁un	-360
so	-361
▁need	-362
red	-363
▁said	-364
▁start	-365
▁pr	-366
▁part	-367
▁right	-368
irst	-369
▁2	-370
▁over	-371
own	-372
ree	-373
▁bu	-374
▁imp	-375
ry	-376
▁something	-377
ign	-378
ia	-379
▁po	-380
▁R	-381
▁dis	-382
ome	-383
ory	-384
ite	-385
▁back	-386
uch	-387
pt	-388
▁two	-389
orm	-390
round	-391
ount	-392
▁much	-393
olog	-394
▁got	-395
▁ar	-396
▁kind	-397
ib	-398
▁call	-399
ens	-400
▁those	-401
ell	-402
ass	-403
ife	-404
▁first	-405
▁differe	-406
ang	-407
ittle	-408
ater	-409
ound	-410
▁little	-411
sel	-412
▁also	-413
cent	-414
ue	-415
▁ro	-416
▁new	-417
▁lot	-418
ep	-419
▁lo	-420
ces	-421
ght	-422
ple	-423
▁cont	-424
ult	-425
▁spe	-426
way	-427
▁That	-428
▁ac	-429
ves	-430
▁talk	-431
ber	-432
▁most	-433
▁bet	-434
king	-435
▁ph	-436
▁des	-437
vel	-438
ving	-439
rain	-440
ody	-441
▁only	-442
▁res	-443
▁under	-444
ru	-445
▁she	-446
ated	-447
able	-448
▁life	-449
ations	-450
co	-451
▁his	-452
▁J	-453
▁ad	-454
▁sy	-455
▁♫	-456
▁day	-457
▁even	-458
▁hum	-459
▁am	-460
▁different	-461
ish	-462
▁take	-463
ms	-464
▁many	-465
ick	-466
ict	-467
ial	-468
▁good	-469
rough	-470
other	-471
du	-472
▁does	-473
▁bl	-474
int	-475
▁real	-476
▁down	-477
▁There	-478
▁around	-479
ance	-480
▁ide	-481
▁her	-482
ank	-483
▁through	-484
ire	-485
ph	-486
ob	-487
ase	-488
▁put	-489
ents	-490
pl	-491
▁What	-492
▁comm	-493
pe	-494
▁U	-495
urn	-496
ark	-497
▁pre	-498
▁show	-499
▁use	-500
ange	-501
cess	-502
▁being	-503
▁He	-504
▁tell	-505
form	-506
▁off	-507
ible	-508
ress	-509
ade	-510
ors	-511
ak	-512
▁same	-513
▁happen	-514
▁thou	-515
▁proble	-516
▁too	-517
▁try	-518
ether	-519
▁fl	-520
chn	-521
ary	-522
ath	-523
per	-524
▁fact	-525
▁inc	-526
ys	-527
▁em	-528
ject	-529
wn	-530
▁come	-531
xt	-532
▁sm	-533
iver	-534
▁br	-535
stem	-536
▁count	-537
day	-538
ful	-539
tern	-540
▁doing	-541
ars	-542
ord	-543
ual	-544
ning	-545
▁ra	-546
he	-547
▁may	-548
▁great	-549
▁find	-550
ool	-551
ric	-552
▁techn	-553
▁three	-554
▁big	-555
ons	-556
ically	-557
ne	-558
row	-559
ting	-560
▁gen	-561
▁wr	-562
▁human	-563
ile	-564
ac	-565
ved	-566
▁If	-567
▁pers	-568
▁bec	-569
▁sur	-570
▁Ch	-571
▁percent	-572
ology	-573
▁well	-574
ied	-575
ower	-576
▁system	-577
▁tra	-578
fore	-579
▁dec	-580
▁build	-581
thing	-582
nds	-583
fter	-584
▁stud	-585
▁called	-586
illion	-587
ub	-588
self	-589
te	-590
▁gu	-591
▁let	-592
▁app	-593
igh	-594
▁again	-595
▁sim	-596
body	-597
▁child	-598
ics	-599
▁quest	-600
▁Well	-601
ition	-602
cial	-603
▁made	-604
ious	-605
▁inv	-606
we	-607
ating	-608
▁ind	-609
▁long	-610
▁exper	-611
▁own	-612
▁import	-613
oss	-614
▁bel	-615
mer	-616
ities	-617
▁rem	-618
oc	-619
▁should	-620
▁lear	-621
ize	-622
ian	-623
ren	-624
▁why	-625
▁wom	-626
les	-627
▁sc	-628
▁K	-629
erest	-630
ty	-631
▁underst	-632
▁turn	-633
ates	-634
av	-635
ew	-636
ft	-637
▁ob	-638
▁design	-639
▁change	-640
▁hel	-641
000	-642
▁mean	-643
▁cour	-644
▁today	-645
▁end	-646
ction	-647
▁brain	-648
▁after	-649
▁important	-650
▁didn	-651
▁thought	-652
▁feel	-653
▁idea	-654
▁ask	-655
con	-656
▁bas	-657
▁person	-658
be	-659
▁last	-660
▁play	-661
▁rel	-662
▁Thank	-663
▁creat	-664
als	-665
▁car	-666
?"	-667
▁interest	-668
▁Be	-669
▁started	-670
▁inst	-671
▁its	-672
ail	-673
▁gl	-674
▁exam	-675
ull	-676
▁him	-677
,000	-678
▁sch	-679
old	-680
▁sci	-681
ough	-682
▁trans	-683
ise	-684
▁went	-685
▁before	-686
▁understand	-687
▁course	-688
▁ins	-689
gan	-690
▁might	-691
ution	-692
▁help	-693
▁give	-694
▁3	-695
▁bit	-696
▁better	-697
ese	-698
ility	-699
▁cons	-700
ists	-701
▁gra	-702
▁point	-703
▁another	-704
ost	-705
▁problem	-706
ular	-707
▁never	-708
▁produ	-709
ily	-710
lic	-711
ave	-712
▁St	-713
▁ke	-714
▁story	-715
▁belie	-716
▁ele	-717
▁coll	-718
▁able	-719
ven	-720
ros	-721
▁inter	-722
▁few	-723
ert	-724
und	-725
kes	-726
▁bo	-727
▁found	-728
▁still	-729
▁sl	-730
ix	-731
▁ago	-732
▁sort	-733
▁kid	-734
▁ent	-735
▁power	-736
▁pol	-737
▁tog	-738
▁together	-739
▁next	-740
▁plan	-741
▁num	-742
oth	-743
erg	-744
▁dr	-745
▁fam	-746
▁place	-747
▁19	-748
▁came	-749
▁water	-750
▁sol	-751
velop	-752
▁school	-753
▁mon	-754
▁mod	-755
uc	-756
alth	-757
ense	-758
▁commun	-759
ited	-760
atch	-761
▁high	-762
▁comple	-763
ween	-764
▁imag	-765
▁cr	-766
▁ter	-767
ward	-768
▁str	-769
ience	-770
ather	-771
ng	-772
read	-773
▁learn	-774
▁used	-775
▁each	-776
▁between	-777
▁art	-778
▁10	-779
▁pat	-780
▁technology	-781
▁la	-782
▁dat	-783
▁20	-784
ized	-785
ness	-786
▁question	-787
▁rec	-788
meric	-789
▁When	-790
▁develop	-791
▁Af	-792
,"	-793
iss	-794
▁ext	-795
ures	-796
▁small	-797
▁att	-798
▁love	-799
▁four	-800
▁looking	-801
▁cre	-802
ork	-803
▁example	-804
▁met	-805
ific	-806
▁med	-807
▁ser	-808
arch	-809
ways	-810
ram	-811
▁op	-812
▁done	-813
cond	-814
▁Americ	-815
az	-816
iness	-817
▁Because	-818
▁old	-819
ets	-820
▁partic	-821
▁data	-822
ute	-823
ably	-824
▁doesn	-825
▁light	-826
▁min	-827
▁women	-828
▁fin	-829
ered	-830
▁grow	-831
ced	-832
▁cell	-833
▁eff	-834
▁mom	-835
▁care	-836
▁word	-837
▁How	-838
▁V	-839
cept	-840
▁cent	-841
ative	-842
ings	-843
▁wanted	-844
▁comput	-845
cy	-846
▁beh	-847
▁stu	-848
conom	-849
▁hard	-850
▁read	-851
▁move	-852
ah	-853
▁far	-854
▁whole	-855
▁poss	-856
▁lar	-857
▁reas	-858
▁live	-859
ands	-860
formation	-861
ger	-862
▁trying	-863
here	-864
▁nat	-865
▁ever	-866
▁ear	-867
▁million	-868
ross	-869
▁ed	-870
▁working	-871
▁bi	-872
▁chang	-873
ote	-874
selves	-875
▁away	-876
▁giv	-877
▁always	-878
ope	-879
▁el	-880
ational	-881
ird	-882
oney	-883
▁econom	-884
▁children	-885
▁expl	-886
▁less	-887
▁believe	-888
▁5	-889
cer	-890
▁bus	-891
..	-892
ural	-893
▁Afric	-894
▁gener	-895
gin	-896
ism	-897
▁cap	-898
▁rep	-899
ments	-900
▁Un	-901
▁sk	-902
▁book	-903
▁health	-904
▁country	-905
▁anim	-906
▁resp	-907
▁supp	-908
▁pict	-909
▁fo	-910
▁cor	-911
▁mus	-912
ont	-913
▁frie	-914
ries	-915
▁sub	-916
▁run	-917
ruct	-918
nect	-919
▁using	-920
ract	-921
▁space	-922
hip	-923
▁open	-924
▁project	-925
▁means	-926
▁hand	-927
ock	-928
▁five	-929
▁prob	-930
atter	-931
▁thinking	-932
led	-933
▁took	-934
ps	-935
▁4	-936
▁kids	-937
▁As	-938
vers	-939
▁create	-940
▁information	-941
nce	-942
▁maybe	-943
▁vis	-944
aces	-945
▁inf	-946
alf	-947
▁money	-948
▁everything	-949
▁cou	-950
▁doll	-951
▁number	-952
▁pub	-953
air	-954
▁lead	-955
▁Ind	-956
vern	-957
▁home	-958
▁spec	-959
gg	-960
▁become	-961
▁mind	-962
▁second	-963
oy	-964
iron	-965
▁reg	-966
▁compan	-967
▁process	-968
▁organ	-969
its	-970
ks	-971
▁One	-972
▁sing	-973
rib	-974
▁left	-975
ident	-976
ond	-977
▁teach	-978
iew	-979
ten	-980
ues	-981
ergy	-982
▁food	-983
ention	-984
▁enough	-985
▁walk	-986
▁quite	-987
▁acc	-988
▁best	-989
▁getting	-990
aut	-991
ivers	-992
▁fut	-993
sw	-994
ever	-995
▁form	-996
▁head	-997
▁interesting	-998
▁eng	-999
▁prog	-1000
▁comes	-1001
▁fun	-1002
▁war	-1003
ories	-1004
pr	-1005
▁sense	-1006
ouse	-1007
▁pres	-1008
▁These	-1009
ital	-1010
iting	-1011
▁probably	-1012
▁social	-1013
▁dem	-1014
▁mark	-1015
▁future	-1016
▁energy	-1017
▁govern	-1018
▁ca	-1019
▁happened	-1020
▁answ	-1021
▁conf	-1022
▁times	-1023
▁My	-1024
▁set	-1025
ines	-1026
▁cle	-1027
▁elect	-1028
ertain	-1029
ts	-1030
▁grou	-1031
▁month	-1032
ety	-1033
ier	-1034
▁add	-1035
▁talking	-1036
▁making	-1037
▁begin	-1038
▁stuff	-1039
tty	-1040
▁contro	-1041
▁room	-1042
▁building	-1043
▁connect	-1044
▁cur	-1045
▁moment	-1046
▁pass	-1047
ient	-1048
▁Here	-1049
▁body	-1050
▁She	-1051
▁pop	-1052
▁glob	-1053
▁env	-1054
▁phys	-1055
▁sign	-1056
▁without	-1057
▁told	-1058
▁dist	-1059
ately	-1060
▁gr	-1061
reen	-1062
▁half	-1063
▁side	-1064
▁pretty	-1065
▁else	-1066
▁countries	-1067
ake	-1068
ner	-1069
▁Is	-1070
▁wee	-1071
▁beaut	-1072
▁dollars	-1073
▁pie	-1074
▁lives	-1075
▁coming	-1076
▁reason	-1077
▁business	-1078
ogra	-1079
▁keep	-1080
imes	-1081
▁anything	-1082
▁model	-1083
▁hist	-1084
▁soci	-1085
▁such	-1086
▁For	-1087
▁job	-1088
ior	-1089
▁bad	-1090
▁wo	-1091
lf	-1092
ices	-1093
▁top	-1094
▁An	-1095
▁opp	-1096
gs	-1097
▁allow	-1098
▁def	-1099
▁across	-1100
ember	-1101
ortun	-1102
me	-1103
▁environ	-1104
der	-1105
▁stop	-1106
▁Let	-1107
▁men	-1108
▁sound	-1109
uring	-1110
▁Chin	-1111
▁says	-1112
▁eas	-1113
▁Africa	-1114
▁makes	-1115
▁young	-1116
▁bring	-1117
▁stand	-1118
▁200	-1119
▁hope	-1120
▁air	-1121
▁science	-1122
▁seen	-1123
olution	-1124
▁saw	-1125
▁living	-1126
▁matter	-1127
idd	-1128
ince	-1129
▁ty	-1130
▁later	-1131
▁prot	-1132
ead	-1133
most	-1134
▁fig	-1135
▁asked	-1136
▁val	-1137
▁educ	-1138
▁goes	-1139
▁experience	-1140
▁simple	-1141
▁All	-1142
▁particular	-1143
ided	-1144
▁hour	-1145
io	-1146
▁rese	-1147
kay	-1148
ying	-1149
▁ey	-1150
▁happens	-1151
▁cult	-1152
ality	-1153
where	-1154
▁sit	-1155
▁New	-1156
▁having	-1157
man	-1158
▁scient	-1159
▁wonder	-1160
▁cam	-1161
▁phot	-1162
▁picture	-1163
ash	-1164
ime	-1165
aps	-1166
ilt	-1167
angu	-1168
▁ways	-1169
ken	-1170
ught	-1171
▁aut	-1172
ization	-1173
ott	-1174
▁complete	-1175
llow	-1176
▁col	-1177
▁mem	-1178
▁family	-1179
▁det	-1180
▁thous	-1181
ots	-1182
▁effect	-1183
▁list	-1184
arth	-1185
▁six	-1186
▁char	-1187
▁problems	-1188
▁ref	-1189
▁prof	-1190
▁bre	-1191
▁level	-1192
▁share	-1193
▁days	-1194
▁computer	-1195
ream	-1196
▁research	-1197
▁single	-1198
iter	-1199
▁rest	-1200
▁equ	-1201
▁global	-1202
▁environment	-1203
▁planet	-1204
▁case	-1205
arr	-1206
irl	-1207
▁city	-1208
ograph	-1209
▁langu	-1210
arent	-1211
▁No	-1212
▁fore	-1213
▁Se	-1214
▁mach	-1215
▁basically	-1216
▁loc	-1217
▁test	-1218
ins	-1219
orn	-1220
▁music	-1221
▁inside	-1222
ike	-1223
ready	-1224
▁polit	-1225
▁mor	-1226
ulation	-1227
▁certain	-1228
▁almost	-1229
▁possible	-1230
▁public	-1231
▁sure	-1232
less	-1233
▁yet	-1234
▁saying	-1235
▁amaz	-1236
▁both	-1237
▁watch	-1238
▁answer	-1239
▁vide	-1240
▁guy	-1241
▁once	-1242
med	-1243
▁hear	-1244
▁Earth	-1245
▁while	-1246
allen	-1247
itive	-1248
▁whether	-1249
ED	-1250
▁hu	-1251
unch	-1252
▁rob	-1253
▁pain	-1254
ov	-1255
ants	-1256
osed	-1257
▁disco	-1258
▁age	-1259
▁already	-1260
▁nothing	-1261
▁contin	-1262
▁suc	-1263
ury	-1264
▁billion	-1265
▁wrong	-1266
▁incred	-1267
ivid	-1268
lish	-1269
▁looked	-1270
▁self	-1271
▁ideas	-1272
▁dise	-1273
iverse	-1274
▁someone	-1275
▁exact	-1276
▁within	-1277
oice	-1278
▁exc	-1279
▁remember	-1280
▁treat	-1281
▁community	-1282
▁Why	-1283
▁looks	-1284
▁unt	-1285
▁product	-1286
▁ass	-1287
▁control	-1288
▁history	-1289
ield	-1290
▁sw	-1291
▁heart	-1292
▁myself	-1293
iful	-1294
ases	-1295
▁par	-1296
▁Al	-1297
ware	-1298
▁large	-1299
▁cells	-1300
side	-1301
▁often	-1302
▁cost	-1303
▁true	-1304
▁amazing	-1305
undred	-1306
▁dev	-1307
▁heard	-1308
▁che	-1309
▁lab	-1310
▁mil	-1311
▁iss	-1312
Wh	-1313
utes	-1314
▁dire	-1315
▁Intern	-1316
imate	-1317
pect	-1318
▁cond	-1319
▁kill	-1320
▁challen	-1321
▁words	-1322
uro	-1323
ages	-1324
▁figure	-1325
▁imagine	-1326
work	-1327
de	-1328
▁wa	-1329
ians	-1330
aterial	-1331
▁mag	-1332
aster	-1333
▁15	-1334
ene	-1335
vious	-1336
▁works	-1337
ivity	-1338
▁United	-1339
cle	-1340
▁Or	-1341
▁adv	-1342
▁built	-1343
▁night	-1344
▁hundred	-1345
▁months	-1346
▁news	-1347
land	-1348
ling	-1349
▁couple	-1350
▁100	-1351
▁TED	-1352
ering	-1353
▁class	-1354
▁order	-1355
▁entire	-1356
▁beautiful	-1357
▁aff	-1358
▁friends	-1359
▁individ	-1360
uck	-1361
▁30	-1362
iddle	-1363
▁cancer	-1364
bers	-1365
▁full	-1366
▁6	-1367
▁face	-1368
▁government	-1369
bs	-1370
▁result	-1371
▁pay	-1372
ex	-1373
aper	-1374
▁language	-1375
▁must	-1376
▁group	-1377
▁incre	-1378
▁market	-1379
▁50	-1380
▁girl	-1381
ives	-1382
▁tre	-1383
▁fil	-1384
▁piece	-1385
line	-1386
▁net	-1387
get	-1388
▁follow	-1389
▁state	-1390
▁species	-1391
▁places	-1392
▁isn	-1393
▁deep	-1394
▁sec	-1395
▁material	-1396
up	-1397
▁front	-1398
▁individual	-1399
▁until	-1400
▁everybody	-1401
▁vir	-1402
▁view	-1403
▁wasn	-1404
▁'	-1405
▁video	-1406
ustr	-1407
atic	-1408
▁appro	-1409
▁const	-1410
ush	-1411
ator	-1412
ired	-1413
▁decided	-1414
▁past	-1415
▁dra	-1416
▁Internet	-1417
▁education	-1418
▁completely	-1419
▁line	-1420
eah	-1421
▁Fr	-1422
▁behav	-1423
▁quick	-1424
ron	-1425
▁universe	-1426
▁inn	-1427
▁di	-1428
to	-1429
▁9	-1430
▁train	-1431
▁cra	-1432
▁ret	-1433
omes	-1434
outh	-1435
ane	-1436
▁study	-1437
▁States	-1438
▁object	-1439
▁exactly	-1440
▁terr	-1441
▁nature	-1442
▁stories	-1443
cing	-1444
▁became	-1445
ined	-1446
ental	-1447
▁deal	-1448
▁though	-1449
▁abs	-1450
▁free	-1451
▁name	-1452
br	-1453
▁sca	-1454
▁taking	-1455
▁animals	-1456
▁students	-1457
▁happening	-1458
▁tool	-1459
▁fund	-1460
▁huge	-1461
▁mess	-1462
▁pos	-1463
▁knew	-1464
▁land	-1465
▁kinds	-1466
▁itself	-1467
▁experim	-1468
acter	-1469
▁Do	-1470
▁oce	-1471
▁Every	-1472
▁collect	-1473
▁law	-1474
ters	-1475
▁somebody	-1476
▁India	-1477
▁struct	-1478
ien	-1479
▁ourselves	-1480
▁woman	-1481
▁engine	-1482
▁learned	-1483
ats	-1484
▁OK	-1485
ional	-1486
gest	-1487
▁since	-1488
ogn	-1489
ients	-1490
▁society	-1491
▁ris	-1492
▁house	-1493
▁success	-1494
ision	-1495
dd	-1496
▁close	-1497
▁minutes	-1498
▁At	-1499
etic	-1500
▁gets	-1501
▁dru	-1502
ret	-1503
▁America	-1504
haps	-1505
rop	-1506
omet	-1507
▁spend	-1508
▁company	-1509
▁complex	-1510
▁questions	-1511
cc	-1512
▁z	-1513
▁themselves	-1514
sy	-1515
icult	-1516
end	-1517
▁along	-1518
▁turns	-1519
▁mass	-1520
itting	-1521
▁av	-1522
ocus	-1523
ability	-1524
▁against	-1525
cl	-1526
▁meet	-1527
▁relations	-1528
thers	-1529
▁7	-1530
▁mic	-1531
▁hours	-1532
▁rather	-1533
▁game	-1534
▁opportun	-1535
ctor	-1536
▁ones	-1537
▁prov	-1538
▁created	-1539
▁God	-1540
ee	-1541
...	-1542
▁8	-1543
ibly	-1544
▁fly	-1545
▁bott	-1546
urs	-1547
▁Br	-1548
▁Then	-1549
ium	-1550
▁clear	-1551
face	-1552
ature	-1553
▁parent	-1554
aw	-1555
▁least	-1556
▁couldn	-1557
▁focus	-1558
▁third	-1559
▁expect	-1560
▁meas	-1561
▁invest	-1562
ames	-1563
▁won	-1564
▁guys	-1565
▁wind	-1566
▁worked	-1567
ones	-1568
att	-1569
▁Some	-1570
▁sometimes	-1571
▁pred	-1572
▁difficult	-1573
iversity	-1574
ming	-1575
eg	-1576
▁Can	-1577
▁mother	-1578
▁others	-1579
▁arch	-1580
▁thousands	-1581
▁var	-1582
▁disease	-1583
▁liter	-1584
▁gave	-1585
▁early	-1586
▁program	-1587
▁ill	-1588
▁hold	-1589
▁China	-1590
▁happy	-1591
▁speak	-1592
cul	-1593
ples	-1594
istic	-1595
▁amount	-1596
▁systems	-1597
olved	-1598
wards	-1599
▁norm	-1600
▁lots	-1601
▁Ar	-1602
▁aud	-1603
illions	-1604
▁instead	-1605
▁everyone	-1606
▁ve	-1607
▁innov	-1608
▁Sh	-1609
app	-1610
▁math	-1611
▁team	-1612
▁field	-1613
▁bab	-1614
▁Euro	-1615
erv	-1616
▁sens	-1617
ale	-1618
ented	-1619
▁behavior	-1620
not	-1621
ither	-1622
▁exist	-1623
ider	-1624
▁American	-1625
▁rad	-1626
▁listen	-1627
▁natural	-1628
▁protect	-1629
iqu	-1630
▁Pe	-1631
ination	-1632
▁mot	-1633
▁taken	-1634
ological	-1635
▁oil	-1636
▁outside	-1637
fect	-1638
aking	-1639
ially	-1640
▁interact	-1641
▁relationship	-1642
▁cir	-1643
▁miss	-1644
ared	-1645
▁difference	-1646
▁cut	-1647
▁shap	-1648
▁ant	-1649
ted	-1650
▁black	-1651
▁record	-1652
▁learning	-1653
▁hy	-1654
▁rev	-1655
▁recent	-1656
▁leg	-1657
vered	-1658
▁changed	-1659
▁machine	-1660
▁Eng	-1661
▁fail	-1662
▁oper	-1663
▁York	-1664
▁extra	-1665
gen	-1666
▁seven	-1667
The	-1668
▁death	-1669
uss	-1670
▁area	-1671
ential	-1672
▁...	-1673
▁bro	-1674
▁Europe	-1675
▁century	-1676
▁sex	-1677
▁step	-1678
▁middle	-1679
▁green	-1680
▁beginning	-1681
ully	-1682
▁pot	-1683
▁pattern	-1684
sych	-1685
▁red	-1686
ides	-1687
iol	-1688
▁network	-1689
▁common	-1690
▁Okay	-1691
ased	-1692
▁stre	-1693
▁perhaps	-1694
▁easy	-1695
▁eyes	-1696
▁given	-1697
▁moving	-1698
▁hands	-1699
▁yourself	-1700
utions	-1701
▁short	-1702
▁da	-1703
▁leave	-1704
orth	-1705
▁del	-1706
verage	-1707
▁turned	-1708
ove	-1709
▁non	-1710
NA	-1711
▁dep	-1712
▁terms	-1713
▁sym	-1714
▁low	-1715
▁fish	-1716
▁incl	-1717
▁explain	-1718
▁population	-1719
▁takes	-1720
era	-1721
ery	-1722
▁es	-1723
▁cities	-1724
▁culture	-1725
▁12	-1726
olute	-1727
itions	-1728
▁needs	-1729
▁sent	-1730
ump	-1731
▁typ	-1732
▁obvious	-1733
▁occ	-1734
▁support	-1735
els	-1736
elt	-1737
▁lim	-1738
ption	-1739
▁jour	-1740
▁colle	-1741
▁seeing	-1742
▁wonderful	-1743
ude	-1744
▁Chr	-1745
▁chem	-1746
▁finally	-1747
▁dig	-1748
▁behind	-1749
inary	-1750
▁paper	-1751
astic	-1752
▁intell	-1753
ern	-1754
jor	-1755
ply	-1756
iving	-1757
▁ident	-1758
ipp	-1759
▁Not	-1760
aring	-1761
▁began	-1762
ey	-1763
▁break	-1764
▁impro	-1765
▁psych	-1766
▁communic	-1767
▁jo	-1768
▁cannot	-1769
▁parts	-1770
▁pract	-1771
▁friend	-1772
▁perform	-1773
▁On	-1774
▁Man	-1775
idence	-1776
▁local	-1777
rew	-1778
▁18	-1779
▁saf	-1780
▁trad	-1781
▁ocean	-1782
itch	-1783
▁eight	-1784
▁squ	-1785
▁reach	-1786
▁during	-1787
year	-1788
▁tot	-1789
▁image	-1790
ges	-1791
▁blue	-1792
▁longer	-1793
▁pick	-1794
▁super	-1795
▁simply	-1796
▁perfect	-1797
▁sun	-1798
▁tem	-1799
▁companies	-1800
▁extre	-1801
▁realized	-1802
▁arg	-1803
▁powerful	-1804
▁fall	-1805
▁fre	-1806
itect	-1807
▁event	-1808
▁major	-1809
▁access	-1810
▁needed	-1811
cious	-1812
fully	-1813
ource	-1814
▁stay	-1815
▁wall	-1816
▁dream	-1817
▁dark	-1818
▁whatever	-1819
port	-1820
▁To	-1821
▁ess	-1822
▁week	-1823
▁size	-1824
▁consum	-1825
▁40	-1826
Well	-1827
▁economic	-1828
▁serv	-1829
▁famil	-1830
▁repres	-1831
▁special	-1832
ax	-1833
▁tried	-1834
▁absolute	-1835
▁parents	-1836
ero	-1837
▁emot	-1838
ources	-1839
ton	-1840
▁poor	-1841
rodu	-1842
▁surv	-1843
▁surpr	-1844
▁People	-1845
▁interested	-1846
▁personal	-1847
ony	-1848
▁grand	-1849
▁media	-1850
▁present	-1851
▁felt	-1852
▁reality	-1853
▁feed	-1854
gle	-1855
▁eat	-1856
ising	-1857
▁buy	-1858
▁priv	-1859
oh	-1860
▁ple	-1861
ledge	-1862
▁situ	-1863
▁emb	-1864
▁Just	-1865
▁viol	-1866
ison	-1867
rought	-1868
▁ground	-1869
▁quickly	-1870
▁press	-1871
ilar	-1872
ised	-1873
▁gone	-1874
▁scale	-1875
▁recogn	-1876
ibility	-1877
ards	-1878
crib	-1879
▁strong	-1880
▁architect	-1881
bo	-1882
hood	-1883
inal	-1884
rent	-1885
▁yes	-1886
▁robot	-1887
▁father	-1888
▁growth	-1889
▁ge	-1890
avor	-1891
▁DNA	-1892
▁key	-1893
▁conv	-1894
▁spent	-1895
▁ability	-1896
▁requ	-1897
▁value	-1898
▁approach	-1899
oph	-1900
▁cal	-1901
▁humans	-1902
▁weeks	-1903
ged	-1904
ney	-1905
ived	-1906
▁feet	-1907
▁shows	-1908
osp	-1909
▁cool	-1910
▁democ	-1911
ills	-1912
▁enc	-1913
▁animal	-1914
▁sitting	-1915
▁opportunity	-1916
room	-1917
ators	-1918
▁known	-1919
▁political	-1920
orld	-1921
▁disc	-1922
▁near	-1923
▁vers	-1924
▁either	-1925
▁travel	-1926
ument	-1927
▁mult	-1928
▁direct	-1929
▁phone	-1930
▁civ	-1931
izing	-1932
▁sum	-1933
▁fight	-1934
▁economy	-1935
▁predict	-1936
ler	-1937
urb	-1938
▁lost	-1939
▁surface	-1940
You	-1941
▁dest	-1942
▁measure	-1943
▁orig	-1944
ann	-1945
▁May	-1946
ift	-1947
▁obs	-1948
▁fear	-1949
▁areas	-1950
amp	-1951
▁draw	-1952
▁write	-1953
ologies	-1954
sh	-1955
ains	-1956
▁morning	-1957
ule	-1958
What	-1959
▁slow	-1960
▁respons	-1961
▁structure	-1962
▁incredible	-1963
▁post	-1964
▁micro	-1965
▁bottom	-1966
▁leaders	-1967
uth	-1968
▁Tw	-1969
ouch	-1970
lect	-1971
▁extreme	-1972
▁patients	-1973
▁attention	-1974
ral	-1975
▁25	-1976
uses	-1977
▁har	-1978
▁Right	-1979
▁blood	-1980
▁photograph	-1981
▁pull	-1982
▁based	-1983
▁ap	-1984
▁soft	-1985
ression	-1986
▁wouldn	-1987
iny	-1988
▁nice	-1989
▁changes	-1990
▁foot	-1991
eed	-1992
cially	-1993
▁intern	-1994
ively	-1995
zy	-1996
bor	-1997
▁fast	-1998
▁average	-1999
▁numbers	-2000
▁challenge	-2001
▁evolution	-2002
▁realize	-2003
ales	-2004
▁mole	-2005
hor	-2006
ode	-2007
▁cy	-2008
▁impact	-2009
▁profess	-2010
dden	-2011
▁pur	-2012
▁send	-2013
ustain	-2014
▁box	-2015
▁mar	-2016
entially	-2017
▁win	-2018
▁sudden	-2019
▁ste	-2020
▁indust	-2021
▁brought	-2022
ateg	-2023
vent	-2024
lt	-2025
anger	-2026
▁physical	-2027
▁crit	-2028
oll	-2029
▁feeling	-2030
erm	-2031
▁sea	-2032
▁meaning	-2033
▁born	-2034
▁developed	-2035
▁redu	-2036
▁risk	-2037
▁relig	-2038
▁comb	-2039
▁anal	-2040
▁bene	-2041
com	-2042
ows	-2043
ances	-2044
▁rock	-2045
▁die	-2046
▁insp	-2047
▁growing	-2048
acy	-2049
ole	-2050
▁experiment	-2051
eng	-2052
▁knowledge	-2053
bon	-2054
▁seems	-2055
ev	-2056
▁Our	-2057
▁mov	-2058
▁books	-2059
▁wrote	-2060
▁forward	-2061
lu	-2062
▁running	-2063
▁giving	-2064
▁literally	-2065
▁opt	-2066
▁force	-2067
▁instit	-2068
▁theory	-2069
▁technologies	-2070
of	-2071
ging	-2072
▁deg	-2073
▁circ	-2074
ext	-2075
▁fac	-2076
▁main	-2077
▁rele	-2078
▁CA	-2079
ified	-2080
▁fundam	-2081
▁English	-2082
▁film	-2083
▁stra	-2084
▁vol	-2085
▁white	-2086
▁spread	-2087
ored	-2088
▁climate	-2089
leep	-2090
chie	-2091
▁ast	-2092
▁hor	-2093
▁map	-2094
▁repl	-2095
▁scientists	-2096
▁World	-2097
▁medic	-2098
▁hundreds	-2099
▁understanding	-2100
cr	-2101
▁similar	-2102
▁electric	-2103
▁favor	-2104
▁miles	-2105
▁neigh	-2106
▁starting	-2107
▁depe	-2108
▁anyone	-2109
par	-2110
aged	-2111
▁prin	-2112
▁worth	-2113
▁vill	-2114
ggest	-2115
▁civil	-2116
▁color	-2117
▁gives	-2118
▁serious	-2119
▁images	-2120
▁audience	-2121
▁ball	-2122
▁current	-2123
▁millions	-2124
oon	-2125
omen	-2126
▁tele	-2127
▁alone	-2128
▁tools	-2129
▁suggest	-2130
▁telling	-2131
▁hot	-2132
▁soon	-2133
▁thank	-2134
chan	-2135
▁guess	-2136
▁compet	-2137
por	-2138
▁describ	-2139
ades	-2140
assion	-2141
▁tradition	-2142
icy	-2143
▁ice	-2144
ploy	-2145
▁sil	-2146
▁prom	-2147
▁normal	-2148
▁flo	-2149
▁text	-2150
▁proper	-2151
▁cars	-2152
▁hosp	-2153
▁path	-2154
racy	-2155
▁dead	-2156
▁avail	-2157
▁issue	-2158
ilities	-2159
▁sho	-2160
ensive	-2161
iet	-2162
▁rul	-2163
▁center	-2164
▁includ	-2165
ites	-2166
iant	-2167
▁type	-2168
▁playing	-2169
▁creating	-2170
▁discovered	-2171
▁development	-2172
bit	-2173
▁lif	-2174
▁seem	-2175
▁among	-2176
▁affect	-2177
▁sustain	-2178
▁showed	-2179
head	-2180
▁stat	-2181
▁suff	-2182
▁stage	-2183
▁movement	-2184
▁concept	-2185
ai	-2186
▁aren	-2187
▁road	-2188
▁modern	-2189
ped	-2190
amed	-2191
▁visual	-2192
▁absolutely	-2193
▁est	-2194
▁touch	-2195
ug	-2196
▁sell	-2197
pecially	-2198
▁recently	-2199
▁er	-2200
▁sn	-2201
▁cop	-2202
asing	-2203
imens	-2204
oud	-2205
▁poll	-2206
▁South	-2207
iod	-2208
▁camp	-2209
▁industry	-2210
▁developing	-2211
Th	-2212
▁intellig	-2213
▁fu	-2214
▁track	-2215
▁online	-2216
▁arm	-2217
▁hon	-2218
▁talked	-2219
ique	-2220
oose	-2221
urity	-2222
▁With	-2223
▁achie	-2224
▁chance	-2225
▁Yeah	-2226
▁prop	-2227
▁truth	-2228
▁resources	-2229
▁incredibly	-2230
▁song	-2231
▁issues	-2232
▁convers	-2233
▁arr	-2234
▁react	-2235
▁asking	-2236
▁transform	-2237
▁patient	-2238
▁reasons	-2239
▁subject	-2240
ished	-2241
▁voice	-2242
▁shape	-2243
▁mathem	-2244
▁experien	-2245
like	-2246
▁fur	-2247
▁benef	-2248
▁produce	-2249
lear	-2250
▁lay	-2251
▁innovation	-2252
ival	-2253
▁knows	-2254
▁available	-2255
phere	-2256
by	-2257
asc	-2258
▁bra	-2259
▁rate	-2260
▁period	-2261
▁solution	-2262
apt	-2263
▁sold	-2264
▁mechan	-2265
▁involved	-2266
ung	-2267
unt	-2268
▁fire	-2269
▁haven	-2270
▁attack	-2271
▁evidence	-2272
▁save	-2273
▁situation	-2274
▁Chinese	-2275
abor	-2276
ency	-2277
▁tiny	-2278
▁choice	-2279
▁199	-2280
▁eye	-2281
iction	-2282
▁designed	-2283
▁By	-2284
▁flu	-2285
▁flow	-2286
▁solve	-2287
▁pictures	-2288
▁neur	-2289
▁din	-2290
ister	-2291
▁Ph	-2292
▁becomes	-2293
▁especially	-2294
▁dou	-2295
ences	-2296
erence	-2297
▁changing	-2298
▁compassion	-2299
ify	-2300
yond	-2301
▁search	-2302
▁message	-2303
▁baby	-2304
▁bigger	-2305
ned	-2306
▁computers	-2307
▁Goo	-2308
ik	-2309
arily	-2310
▁clos	-2311
▁carbon	-2312
▁except	-2313
▁street	-2314
▁putting	-2315
pan	-2316
str	-2317
▁ult	-2318
▁unf	-2319
light	-2320
▁smart	-2321
▁Am	-2322
▁imm	-2323
▁sleep	-2324
▁function	-2325
50	-2326
▁emp	-2327
▁fair	-2328
▁emerg	-2329
▁lived	-2330
▁writing	-2331
wh	-2332
▁60	-2333
▁nuc	-2334
istan	-2335
▁groups	-2336
lict	-2337
oices	-2338
▁bird	-2339
▁sever	-2340
▁trust	-2341
▁medical	-2342
▁girls	-2343
▁likely	-2344
▁bed	-2345
▁drive	-2346
pid	-2347
▁De	-2348
▁table	-2349
▁forest	-2350
▁ce	-2351
▁sat	-2352
▁died	-2353
▁beyond	-2354
ishing	-2355
▁general	-2356
▁software	-2357
▁Com	-2358
▁dom	-2359
▁lea	-2360
▁nine	-2361
▁bacter	-2362
▁necess	-2363
▁sounds	-2364
▁towards	-2365
▁rules	-2366
▁solar	-2367
umb	-2368
▁bar	-2369
ctors	-2370
oring	-2371
▁tend	-2372
▁report	-2373
▁prim	-2374
▁generation	-2375
▁aw	-2376
▁defin	-2377
▁mount	-2378
▁device	-2379
▁several	-2380
ips	-2381
▁Inst	-2382
▁rain	-2383
ressed	-2384
▁peace	-2385
nam	-2386
pre	-2387
fort	-2388
ously	-2389
usion	-2390
▁drugs	-2391
▁plant	-2392
lo	-2393
▁wish	-2394
▁danger	-2395
▁rich	-2396
▁Google	-2397
▁Of	-2398
▁First	-2399
▁breat	-2400
▁speed	-2401
▁revolution	-2402
▁particularly	-2403
oms	-2404
▁Yes	-2405
ny	-2406
▁fa	-2407
▁anybody	-2408
Oh	-2409
▁capital	-2410
▁conscious	-2411
▁drug	-2412
▁safe	-2413
une	-2414
used	-2415
▁syn	-2416
▁block	-2417
▁quality	-2418
oun	-2419
▁ec	-2420
▁onto	-2421
▁moved	-2422
vert	-2423
▁Where	-2424
▁character	-2425
▁Re	-2426
medi	-2427
▁extraord	-2428
ief	-2429
▁action	-2430
▁office	-2431
▁potential	-2432
xy	-2433
book	-2434
rast	-2435
▁fem	-2436
▁rece	-2437
ground	-2438
▁basic	-2439
▁games	-2440
▁schools	-2441
▁af	-2442
ires	-2443
view	-2444
▁neg	-2445
▁stru	-2446
▁link	-2447
▁princi	-2448
▁Maybe	-2449
▁showing	-2450
▁walking	-2451
▁examples	-2452
▁obviously	-2453
▁Im	-2454
come	-2455
idge	-2456
pped	-2457
▁hit	-2458
▁certainly	-2459
iar	-2460
uly	-2461
irth	-2462
▁log	-2463
▁vision	-2464
▁journey	-2465
▁materials	-2466
▁pa	-2467
▁further	-2468
▁scientific	-2469
oke	-2470
▁Oh	-2471
ask	-2472
▁context	-2473
▁totally	-2474
▁Any	-2475
▁div	-2476
▁ep	-2477
ores	-2478
▁Pro	-2479
▁aware	-2480
▁wants	-2481
▁starts	-2482
▁chemical	-2483
▁projects	-2484
ma	-2485
ran	-2486
▁After	-2487
▁effic	-2488
▁nobody	-2489
▁screen	-2490
▁biggest	-2491
▁largest	-2492
▁exciting	-2493
▁national	-2494
onse	-2495
▁gal	-2496
▁gas	-2497
igher	-2498
▁extremely	-2499
tend	-2500
▁fix	-2501
ought	-2502
▁student	-2503
▁teachers	-2504
how	-2505
put	-2506
verty	-2507
▁door	-2508
▁account	-2509
▁everywhere	-2510
▁fundamental	-2511
▁results	-2512
▁particip	-2513
uit	-2514
▁memory	-2515
eter	-2516
▁adm	-2517
▁farm	-2518
▁virt	-2519
▁activ	-2520
▁higher	-2521
▁digital	-2522
antly	-2523
▁okay	-2524
▁North	-2525
▁meant	-2526
▁detail	-2527
▁neighbor	-2528
▁represent	-2529
itiz	-2530
▁camera	-2531
▁son	-2532
▁carry	-2533
▁notice	-2534
eth	-2535
▁Cal	-2536
cient	-2537
itary	-2538
▁complic	-2539
▁80	-2540
▁apart	-2541
▁positive	-2542
apan	-2543
icle	-2544
▁role	-2545
▁skin	-2546
▁cross	-2547
ners	-2548
▁Most	-2549
▁continue	-2550
▁thousand	-2551
▁happiness	-2552
▁Joh	-2553
▁Brit	-2554
▁trial	-2555
▁supposed	-2556
▁violence	-2557
more	-2558
▁led	-2559
itten	-2560
▁response	-2561
▁security	-2562
▁pu	-2563
▁jobs	-2564
▁clean	-2565
▁threat	-2566
▁introdu	-2567
▁boy	-2568
▁mob	-2569
▁conflict	-2570
▁Pr	-2571
▁spir	-2572
▁Japan	-2573
▁birth	-2574
▁check	-2575
▁named	-2576
▁favorite	-2577
isions	-2578
▁ready	-2579
▁trees	-2580
osphere	-2581
▁depend	-2582
▁poverty	-2583
▁democracy	-2584
▁eventually	-2585
ids	-2586
rest	-2587
▁capt	-2588
▁adult	-2589
▁stick	-2590
▁improve	-2591
▁connected	-2592
▁individuals	-2593
aur	-2594
▁vac	-2595
▁cris	-2596
▁earl	-2597
▁fill	-2598
iation	-2599
ughter	-2600
▁separ	-2601
ruction	-2602
▁consider	-2603
▁dro	-2604
▁sequ	-2605
▁bunch	-2606
▁graph	-2607
▁terror	-2608
▁transl	-2609
agn	-2610
▁tar	-2611
▁citiz	-2612
ossible	-2613
ulate	-2614
urban	-2615
▁fant	-2616
▁models	-2617
▁progress	-2618
▁watching	-2619
mend	-2620
▁minds	-2621
▁faster	-2622
▁activity	-2623
▁discover	-2624
▁essentially	-2625
IV	-2626
ims	-2627
ina	-2628
▁16	-2629
iger	-2630
oming	-2631
▁West	-2632
▁cause	-2633
▁crazy	-2634
▁tells	-2635
for	-2636
rad	-2637
akes	-2638
▁ann	-2639
▁pen	-2640
iding	-2641
▁magn	-2642
.,	-2643
ze	-2644
odies	-2645
▁plants	-2646
▁return	-2647
▁perspect	-2648
conds	-2649
▁grew	-2650
▁lose	-2651
▁immedi	-2652
joy	-2653
erve	-2654
▁HIV	-2655
▁clin	-2656
▁push	-2657
▁webs	-2658
▁assum	-2659
▁movie	-2660
▁worse	-2661
▁concer	-2662
▁village	-2663
▁mathemat	-2664
▁suddenly	-2665
▁conditions	-2666
▁communities	-2667
ounds	-2668
▁Even	-2669
▁mine	-2670
▁shown	-2671
▁accept	-2672
▁disapp	-2673
ortunately	-2674
iers	-2675
▁John	-2676
▁goal	-2677
▁brains	-2678
▁nuclear	-2679
▁creative	-2680
lex	-2681
▁meth	-2682
▁galax	-2683
▁source	-2684
▁objects	-2685
▁strateg	-2686
▁buildings	-2687
the	-2688
▁11	-2689
▁201	-2690
▁bom	-2691
▁appear	-2692
▁indeed	-2693
▁collabor	-2694
▁hospital	-2695
▁sorts	-2696
▁waste	-2697
▁choose	-2698
▁launch	-2699
▁passion	-2700
▁cart	-2701
▁African	-2702
▁colleag	-2703
▁publish	-2704
ipt	-2705
▁late	-2706
▁remark	-2707
▁finding	-2708
▁somewhere	-2709
We	-2710
▁14	-2711
▁Ge	-2712
cape	-2713
▁phen	-2714
▁site	-2715
▁impossible	-2716
▁extraordinary	-2717
nces	-2718
▁Tod	-2719
atory	-2720
▁marr	-2721
▁labor	-2722
▁lands	-2723
▁larger	-2724
▁teacher	-2725
inct	-2726
▁sand	-2727
▁medicine	-2728
ana	-2729
cise	-2730
▁Look	-2731
▁above	-2732
▁minute	-2733
let	-2734
ror	-2735
estern	-2736
▁killed	-2737
▁taught	-2738
mb	-2739
anc	-2740
ued	-2741
▁deb	-2742
▁blind	-2743
▁enjoy	-2744
▁forms	-2745
▁doctor	-2746
▁allowed	-2747
▁signific	-2748
ech	-2749
others	-2750
▁detect	-2751
▁products	-2752
▁Who	-2753
▁sky	-2754
▁influ	-2755
▁including	-2756
▁complicated	-2757
nal	-2758
▁17	-2759
rage	-2760
sect	-2761
▁mis	-2762
▁phil	-2763
▁wife	-2764
▁Those	-2765
▁Ag	-2766
▁cat	-2767
though	-2768
▁ended	-2769
▁temper	-2770
izations	-2771
amm	-2772
▁Le	-2773
ster	-2774
ured	-2775
▁fine	-2776
▁heav	-2777
▁usually	-2778
urt	-2779
▁dam	-2780
▁Chris	-2781
▁cases	-2782
▁allows	-2783
▁increase	-2784
▁bal	-2785
ission	-2786
▁earth	-2787
▁truly	-2788
▁manage	-2789
▁discuss	-2790
▁studies	-2791
▁univers	-2792
▁phenomen	-2793
▁position	-2794
▁traditional	-2795
▁War	-2796
▁bank	-2797
▁burn	-2798
▁alive	-2799
▁afford	-2800
ologists	-2801
▁training	-2802
rap	-2803
ining	-2804
▁fing	-2805
▁mist	-2806
▁excited	-2807
▁families	-2808
ffic	-2809
▁oxy	-2810
▁pack	-2811
▁wild	-2812
▁moral	-2813
▁beings	-2814
▁points	-2815
▁older	-2816
▁Christ	-2817
▁author	-2818
▁distrib	-2819
▁decision	-2820
▁standing	-2821
▁successful	-2822
▁international	-2823
edom	-2824
useum	-2825
▁fram	-2826
▁luck	-2827
▁price	-2828
▁prote	-2829
▁stars	-2830
▁critical	-2831
▁dy	-2832
ring	-2833
▁card	-2834
▁wait	-2835
▁Today	-2836
▁region	-2837
▁square	-2838
▁mention	-2839
ugh	-2840
▁Don	-2841
▁doc	-2842
▁kil	-2843
▁purp	-2844
▁finan	-2845
▁throw	-2846
iven	-2847
▁Car	-2848
▁bur	-2849
▁lower	-2850
▁college	-2851
▁bacteria	-2852
▁electricity	-2853
▁tree	-2854
▁Somet	-2855
▁lines	-2856
▁crisis	-2857
▁infect	-2858
▁prison	-2859
▁reading	-2860
▁conversation	-2861
po	-2862
isms	-2863
▁Like	-2864
▁cold	-2865
▁upon	-2866
▁engage	-2867
▁pieces	-2868
▁series	-2869
▁achieve	-2870
▁somehow	-2871
▁perspective	-2872
▁cook	-2873
▁fasc	-2874
inated	-2875
▁provide	-2876
▁patterns	-2877
▁straight	-2878
rel	-2879
ration	-2880
▁policy	-2881
▁healthy	-2882
▁respect	-2883
▁specific	-2884
go	-2885
la	-2886
men	-2887
▁code	-2888
▁star	-2889
▁trou	-2890
▁smaller	-2891
No	-2892
▁TV	-2893
fact	-2894
rect	-2895
soci	-2896
▁198	-2897
▁ign	-2898
▁kept	-2899
▁urban	-2900
▁physics	-2901
▁seconds	-2902
▁hop	-2903
▁enorm	-2904
▁occur	-2905
▁quant	-2906
▁rights	-2907
▁written	-2908
▁Act	-2909
▁fra	-2910
▁print	-2911
▁biology	-2912
▁neurons	-2913
▁anywhere	-2914
▁recognize	-2915
▁East	-2916
▁town	-2917
▁slight	-2918
▁content	-2919
▁treatment	-2920
▁organization	-2921
rab	-2922
▁Ab	-2923
ently	-2924
▁page	-2925
▁term	-2926
▁robots	-2927
▁himself	-2928
▁version	-2929
ama	-2930
imb	-2931
▁Sp	-2932
▁sou	-2933
▁swe	-2934
agine	-2935
▁roll	-2936
▁actual	-2937
▁calcul	-2938
▁military	-2939
▁increasing	-2940
ube	-2941
▁Sw	-2942
ping	-2943
▁Isl	-2944
▁sal	-2945
▁weight	-2946
▁anymore	-2947
▁doctors	-2948
ays	-2949
ops	-2950
iced	-2951
▁board	-2952
▁molec	-2953
▁please	-2954
dom	-2955
▁Are	-2956
▁dog	-2957
ustrial	-2958
▁service	-2959
▁architecture	-2960
epend	-2961
▁Which	-2962
▁effort	-2963
▁Americans	-2964
met	-2965
▁genes	-2966
▁bodies	-2967
▁address	-2968
▁respond	-2969
▁Go	-2970
▁Bra	-2971
▁veh	-2972
▁whe	-2973
erman	-2974
▁Afgh	-2975
uments	-2976
▁trick	-2977
▁employ	-2978
▁contrib	-2979
aging	-2980
iling	-2981
▁transport	-2982
zz	-2983
ulf	-2984
▁13	-2985
back	-2986
▁web	-2987
▁port	-2988
▁magic	-2989
▁earlier	-2990
▁strange	-2991
▁legs	-2992
▁greater	-2993
▁private	-2994
▁becoming	-2995
▁machines	-2996
▁painting	-2997
bol	-2998
▁21	-2999
ried	-3000
▁yeah	-3001
▁email	-3002
▁loved	-3003
▁police	-3004
▁skills	-3005
▁decisions	-3006
▁eth	-3007
thern	-3008
▁desp	-3009
▁catch	-3010
▁remind	-3011
▁clearly	-3012
▁willing	-3013
▁listening	-3014
iest	-3015
oles	-3016
rams	-3017
time	-3018
▁glass	-3019
▁weren	-3020
itation	-3021
▁Another	-3022
▁throughout	-3023
lebr	-3024
▁Mus	-3025
erson	-3026
▁laugh	-3027
▁familiar	-3028
▁expensive	-3029
▁90	-3030
▁sam	-3031
▁jump	-3032
▁shot	-3033
▁famous	-3034
▁mental	-3035
▁comfort	-3036
acity	-3037
itude	-3038
▁costs	-3039
▁drink	-3040
▁spect	-3041
▁worry	-3042
▁unique	-3043
▁solutions	-3044
▁therefore	-3045
▁Ad	-3046
▁Mar	-3047
▁cloud	-3048
▁Ex	-3049
▁alg	-3050
▁exh	-3051
▁store	-3052
inating	-3053
▁Afghan	-3054
▁societ	-3055
▁strugg	-3056
▁explore	-3057
▁production	-3058
aly	-3059
sequ	-3060
▁Har	-3061
▁forth	-3062
▁determ	-3063
▁levels	-3064
▁website	-3065
enn	-3066
ceed	-3067
▁rid	-3068
▁thr	-3069
▁park	-3070
▁Imagine	-3071
▁genetic	-3072
▁waiting	-3073
▁practice	-3074
▁fantastic	-3075
eral	-3076
ained	-3077
▁cover	-3078
▁dangerous	-3079
ky	-3080
iti	-3081
mic	-3082
▁tap	-3083
aries	-3084
▁autom	-3085
▁range	-3086
▁surger	-3087
▁freedom	-3088
▁intelligence	-3089
yr	-3090
fer	-3091
ables	-3092
eless	-3093
▁final	-3094
▁greatest	-3095
▁direction	-3096
▁performance	-3097
0,	-3098
cies	-3099
ystem	-3100
atives	-3101
▁beauty	-3102
▁celebr	-3103
▁saving	-3104
bb	-3105
▁Bl	-3106
▁City	-3107
▁hero	-3108
▁prep	-3109
▁rand	-3110
▁rise	-3111
▁weap	-3112
▁zero	-3113
imately	-3114
▁walked	-3115
▁environmental	-3116
orry	-3117
uted	-3118
▁secret	-3119
▁citizens	-3120
▁institutions	-3121
ises	-3122
resh	-3123
▁atm	-3124
orrow	-3125
osing	-3126
▁decade	-3127
▁spirit	-3128
▁University	-3129
ils	-3130
▁Ste	-3131
▁fuel	-3132
▁vari	-3133
ashing	-3134
▁values	-3135
atically	-3136
▁effective	-3137
▁immediately	-3138
oid	-3139
rees	-3140
▁cry	-3141
▁crow	-3142
istics	-3143
▁driving	-3144
▁meeting	-3145
▁Cl	-3146
▁shark	-3147
ologist	-3148
▁random	-3149
▁lad	-3150
▁floor	-3151
▁optim	-3152
▁wealth	-3153
▁invented	-3154
ondon	-3155
▁coun	-3156
▁match	-3157
▁types	-3158
▁German	-3159
▁massive	-3160
▁plastic	-3161
▁various	-3162
▁teaching	-3163
oty	-3164
airs	-3165
itor	-3166
▁pan	-3167
▁ran	-3168
attle	-3169
▁Cent	-3170
▁laws	-3171
▁ahead	-3172
▁demon	-3173
▁encou	-3174
▁decades	-3175
rom	-3176
▁London	-3177
▁income	-3178
▁multip	-3179
▁services	-3180
ches	-3181
▁jud	-3182
▁career	-3183
▁humanity	-3184
▁interview	-3185
▁connection	-3186
▁governments	-3187
▁neighborhood	-3188
pro	-3189
ball	-3190
iles	-3191
vision	-3192
▁gradu	-3193
rastruct	-3194
▁Western	-3195
▁i	-3196
▁Two	-3197
antic	-3198
▁apply	-3199
▁decide	-3200
▁condition	-3201
▁Sch	-3202
▁concl	-3203
▁babies	-3204
▁although	-3205
▁instance	-3206
▁following	-3207
eny	-3208
▁ord	-3209
▁uses	-3210
▁instr	-3211
▁simpl	-3212
▁Second	-3213
▁insect	-3214
▁useful	-3215
iot	-3216
▁fit	-3217
ricult	-3218
▁method	-3219
▁physic	-3220
▁popular	-3221
▁relative	-3222
▁terrible	-3223
▁remarkable	-3224
SA	-3225
key	-3226
▁Mars	-3227
▁nation	-3228
▁choices	-3229
▁electron	-3230
▁enormous	-3231
▁possibly	-3232
▁infrastruct	-3233
▁surve	-3234
▁honest	-3235
▁standard	-3236
yl	-3237
▁Dr	-3238
aign	-3239
▁scr	-3240
▁dram	-3241
▁Austr	-3242
▁forget	-3243
▁effects	-3244
▁demonstr	-3245
wise	-3246
▁Cong	-3247
▁raise	-3248
▁flying	-3249
▁politics	-3250
▁atmosphere	-3251
▁24	-3252
iate	-3253
▁197	-3254
▁sus	-3255
board	-3256
▁broad	-3257
▁anyway	-3258
▁challenges	-3259
▁sad	-3260
▁cust	-3261
▁hair	-3262
▁hous	-3263
▁oppos	-3264
▁trade	-3265
▁virus	-3266
▁associ	-3267
▁stress	-3268
▁financial	-3269
▁societies	-3270
▁nut	-3271
▁yell	-3272
ervation	-3273
▁Per	-3274
anced	-3275
iforn	-3276
▁vict	-3277
▁dynam	-3278
▁integ	-3279
▁motiv	-3280
▁slide	-3281
▁helped	-3282
▁express	-3283
▁Californ	-3284
▁diseases	-3285
▁slightly	-3286
▁engineering	-3287
uct	-3288
▁500	-3289
prene	-3290
▁mamm	-3291
▁race	-3292
▁tiss	-3293
reprene	-3294
▁altern	-3295
▁summer	-3296
▁supply	-3297
▁symbol	-3298
▁pressure	-3299
▁understood	-3300
ray	-3301
▁mut	-3302
itted	-3303
▁worst	-3304
▁speech	-3305
▁capacity	-3306
▁surround	-3307
▁hyd	-3308
iring	-3309
▁Many	-3310
▁Your	-3311
▁commer	-3312
▁microb	-3313
▁purpose	-3314
udd	-3315
▁70	-3316
iber	-3317
▁mal	-3318
▁pig	-3319
▁base	-3320
▁drop	-3321
▁below	-3322
▁philos	-3323
▁directly	-3324
▁television	-3325
now	-3326
cles	-3327
▁From	-3328
▁wood	-3329
▁Indian	-3330
▁artist	-3331
▁destro	-3332
▁female	-3333
▁shared	-3334
▁switch	-3335
▁survive	-3336
▁California	-3337
▁colleagues	-3338
▁ir	-3339
▁196	-3340
▁paid	-3341
▁swim	-3342
▁tens	-3343
cience	-3344
▁whose	-3345
▁mostly	-3346
▁cultural	-3347
▁temperature	-3348
ufact	-3349
▁Arab	-3350
▁rule	-3351
▁offic	-3352
▁central	-3353
▁tremend	-3354
▁programs	-3355
ancy	-3356
▁states	-3357
▁agricult	-3358
▁religion	-3359
▁relationships	-3360
How	-3361
arm	-3362
unk	-3363
yle	-3364
▁boys	-3365
▁forces	-3366
▁invent	-3367
▁consequ	-3368
▁prevent	-3369
ios	-3370
▁et	-3371
cell	-3372
▁dad	-3373
▁doub	-3374
▁causes	-3375
▁dimens	-3376
▁National	-3377
▁published	-3378
▁infrastructure	-3379
cope	-3380
olve	-3381
▁blog	-3382
▁belief	-3383
▁meters	-3384
▁creativity	-3385
▁differences	-3386
▁organizations	-3387
ID	-3388
It	-3389
ef	-3390
Why	-3391
raq	-3392
▁Pl	-3393
load	-3394
wood	-3395
▁300	-3396
▁aid	-3397
▁conc	-3398
▁loss	-3399
▁funny	-3400
▁total	-3401
▁mobile	-3402
▁answers	-3403
▁noticed	-3404
▁reflect	-3405
▁controll	-3406
▁profound	-3407
▁Afghanistan	-3408
▁tun	-3409
arian	-3410
ooper	-3411
▁male	-3412
▁task	-3413
▁Think	-3414
▁oxygen	-3415
gy	-3416
cks	-3417
ked	-3418
ened	-3419
▁Dav	-3420
cules	-3421
▁heat	-3422
▁radio	-3423
▁closer	-3424
ec	-3425
izes	-3426
raid	-3427
▁Char	-3428
▁diagn	-3429
▁legal	-3430
▁liber	-3431
▁expand	-3432
▁campaign	-3433
▁speaking	-3434
rupt	-3435
▁mid	-3436
ement	-3437
inate	-3438
rench	-3439
▁Musl	-3440
▁twice	-3441
▁stopped	-3442
▁surgery	-3443
▁trouble	-3444
▁mountain	-3445
▁original	-3446
▁biological	-3447
▁entreprene	-3448
af	-3449
off	-3450
anda	-3451
ander	-3452
▁Again	-3453
▁afraid	-3454
▁played	-3455
win	-3456
esis	-3457
▁His	-3458
aling	-3459
▁Iraq	-3460
▁Islam	-3461
▁spaces	-3462
▁evolved	-3463
▁markets	-3464
▁streets	-3465
▁workers	-3466
▁manufact	-3467
▁networks	-3468
▁produced	-3469
▁communicate	-3470
ira	-3471
pes	-3472
uing	-3473
▁ang	-3474
▁Face	-3475
▁Russ	-3476
▁hole	-3477
▁compon	-3478
▁gotten	-3479
▁sustainable	-3480
0.	-3481
5,	-3482
vest	-3483
icles	-3484
phone	-3485
water	-3486
▁poet	-3487
▁displ	-3488
▁shock	-3489
▁active	-3490
▁applic	-3491
▁bought	-3492
▁highly	-3493
▁journal	-3494
▁oh	-3495
rael	-3496
▁hus	-3497
▁feels	-3498
▁missing	-3499
▁mix	-3500
▁tax	-3501
▁smell	-3502
▁custom	-3503
▁easily	-3504
▁seemed	-3505
▁Instead	-3506
▁experiments	-3507
▁responsibility	-3508
amb	-3509
▁ut	-3510
adem	-3511
atell	-3512
▁fort	-3513
▁vast	-3514
ashion	-3515
▁dance	-3516
▁dying	-3517
ception	-3518
▁emotional	-3519
▁molecules	-3520
empt	-3521
exic	-3522
▁San	-3523
order	-3524
orith	-3525
▁Iran	-3526
▁lack	-3527
▁shoot	-3528
▁corner	-3529
▁histor	-3530
▁classroom	-3531
▁surprising	-3532
hy	-3533
ibr	-3534
mon	-3535
ste	-3536
zil	-3537
aced	-3538
▁fat	-3539
▁Mich	-3540
▁basis	-3541
▁rough	-3542
▁independ	-3543
▁differently	-3544
ica	-3545
band	-3546
▁cru	-3547
ulner	-3548
▁coff	-3549
▁birds	-3550
▁eating	-3551
▁creates	-3552
▁degrees	-3553
▁helping	-3554
▁knowing	-3555
▁planets	-3556
▁algorith	-3557
▁experiences	-3558
edia	-3559
istry	-3560
▁hall	-3561
▁Brazil	-3562
▁reduce	-3563
▁deliver	-3564
▁designers	-3565
▁efficient	-3566
▁significant	-3567
▁Ro	-3568
▁gold	-3569
▁none	-3570
▁wire	-3571
▁Mexic	-3572
▁rapid	-3573
▁window	-3574
▁attract	-3575
▁members	-3576
▁diversity	-3577
itter	-3578
rical	-3579
▁sick	-3580
▁Great	-3581
▁Austral	-3582
▁daughter	-3583
cript	-3584
▁habit	-3585
▁weird	-3586
▁satell	-3587
▁industrial	-3588
▁communication	-3589
reg	-3590
▁iP	-3591
ears	-3592
ening	-3593
▁rare	-3594
▁dinos	-3595
▁broken	-3596
▁nearly	-3597
▁bringing	-3598
▁background	-3599
▁complexity	-3600
▁ur	-3601
term	-3602
▁ver	-3603
▁seas	-3604
▁flight	-3605
▁genome	-3606
▁spending	-3607
▁scientist	-3608
▁Par	-3609
▁etc	-3610
▁hom	-3611
arter	-3612
▁gent	-3613
▁agree	-3614
▁airpl	-3615
▁climb	-3616
▁visit	-3617
▁10,000	-3618
▁Facebook	-3619
ratic	-3620
icking	-3621
▁photo	-3622
osystem	-3623
▁Thanks	-3624
▁demand	-3625
▁lights	-3626
▁target	-3627
▁contact	-3628
▁studying	-3629
▁commercial	-3630
▁conference	-3631
▁consciousness	-3632
gth	-3633
icon	-3634
isco	-3635
▁reb	-3636
▁reco	-3637
▁trip	-3638
aining	-3639
anging	-3640
rength	-3641
▁analy	-3642
▁shift	-3643
▁resist	-3644
▁devices	-3645
▁hearing	-3646
▁addition	-3647
▁Nob	-3648
▁ban	-3649
▁ske	-3650
▁fold	-3651
▁crowd	-3652
▁enter	-3653
▁Israel	-3654
▁breast	-3655
▁volunt	-3656
▁tremendous	-3657
▁opportunities	-3658
IDS	-3659
▁En	-3660
reci	-3661
rogen	-3662
▁bees	-3663
▁boat	-3664
▁join	-3665
▁wide	-3666
ording	-3667
▁David	-3668
▁metap	-3669
▁vulner	-3670
▁focused	-3671
▁landscape	-3672
▁inj	-3673
▁chim	-3674
▁hack	-3675
▁trib	-3676
▁strength	-3677
▁ecosystem	-3678
▁Gu	-3679
▁Dar	-3680
▁fro	-3681
▁tum	-3682
▁flag	-3683
▁rout	-3684
▁fully	-3685
▁fairly	-3686
▁Actually	-3687
aul	-3688
edd	-3689
▁Te	-3690
▁More	-3691
▁stem	-3692
▁brill	-3693
▁Middle	-3694
▁sexual	-3695
▁forever	-3696
▁imagination	-3697
mp	-3698
▁master	-3699
▁passed	-3700
▁identity	-3701
8,	-3702
ees	-3703
bert	-3704
▁Over	-3705
▁1,000	-3706
▁bread	-3707
▁cooper	-3708
▁desert	-3709
▁therap	-3710
▁ancient	-3711
▁mission	-3712
do	-3713
iam	-3714
val	-3715
▁Con	-3716
▁beat	-3717
▁shop	-3718
▁parad	-3719
▁coffee	-3720
▁consid	-3721
▁museum	-3722
▁correct	-3723
na	-3724
hand	-3725
▁Nor	-3726
house	-3727
▁bomb	-3728
▁cred	-3729
▁lucky	-3730
▁pleas	-3731
▁aspect	-3732
▁yellow	-3733
▁inspired	-3734
▁opposite	-3735
▁creatures	-3736
▁phenomenon	-3737
▁Tr	-3738
▁alt	-3739
based	-3740
pping	-3741
▁Good	-3742
▁Will	-3743
orders	-3744
▁cheap	-3745
▁party	-3746
▁artists	-3747
▁despite	-3748
▁farmers	-3749
▁argument	-3750
▁religious	-3751
▁possibility	-3752
atr	-3753
irt	-3754
▁amb	-3755
▁core	-3756
▁mort	-3757
▁scan	-3758
▁magaz	-3759
▁failure	-3760
▁turning	-3761
▁Mc	-3762
▁Ob	-3763
idden	-3764
ipped	-3765
▁cogn	-3766
▁host	-3767
ifying	-3768
▁accom	-3769
▁brand	-3770
ography	-3771
▁advant	-3772
▁easier	-3773
▁gentle	-3774
▁accident	-3775
▁describe	-3776
cest	-3777
mark	-3778
orge	-3779
itely	-3780
▁hell	-3781
▁repe	-3782
▁teen	-3783
atures	-3784
▁giant	-3785
▁mouth	-3786
▁dreams	-3787
▁events	-3788
▁notion	-3789
▁figured	-3790
▁sharing	-3791
▁particles	-3792
1,	-3793
gra	-3794
▁1.	-3795
ties	-3796
▁Web	-3797
▁gun	-3798
using	-3799
▁note	-3800
▁ship	-3801
▁raised	-3802
▁moments	-3803
ification	-3804
▁partners	-3805
▁structures	-3806
▁importantly	-3807
zen	-3808
edic	-3809
lies	-3810
ront	-3811
ulpt	-3812
▁nor	-3813
▁sculpt	-3814
▁foreign	-3815
▁benefits	-3816
▁entirely	-3817
cop	-3818
▁Mr	-3819
▁Sc	-3820
ager	-3821
roud	-3822
▁Aud	-3823
▁ing	-3824
▁joy	-3825
▁exer	-3826
▁gene	-3827
▁harm	-3828
▁coast	-3829
▁ancest	-3830
ford	-3831
▁fol	-3832
print	-3833
▁Asia	-3834
▁Take	-3835
▁forg	-3836
▁held	-3837
▁plat	-3838
▁Niger	-3839
▁bright	-3840
ulations	-3841
▁However	-3842
▁regular	-3843
7,	-3844
ada	-3845
ett	-3846
uge	-3847
reet	-3848
vere	-3849
▁cla	-3850
rated	-3851
▁poem	-3852
▁puzz	-3853
▁vacc	-3854
icians	-3855
▁calls	-3856
▁sorry	-3857
▁batter	-3858
▁brings	-3859
▁elements	-3860
▁negative	-3861
▁suffering	-3862
▁necessarily	-3863
rie	-3864
▁Gl	-3865
▁ble	-3866
▁tom	-3867
▁sport	-3868
connect	-3869
▁charge	-3870
▁require	-3871
▁traffic	-3872
▁billions	-3873
ley	-3874
rim	-3875
roll	-3876
vity	-3877
▁wis	-3878
▁Rich	-3879
▁accur	-3880
▁north	-3881
▁quote	-3882
▁stream	-3883
▁attempt	-3884
▁concent	-3885
▁fashion	-3886
▁kilomet	-3887
▁restaur	-3888
▁European	-3889
▁responsible	-3890
9,	-3891
▁CO	-3892
This	-3893
rate	-3894
▁mill	-3895
dimens	-3896
▁proud	-3897
▁tough	-3898
▁French	-3899
▁bridge	-3900
▁photos	-3901
▁remote	-3902
▁appreci	-3903
▁brother	-3904
▁distance	-3905
▁leadership	-3906
▁competition	-3907
equ	-3908
inc	-3909
▁400	-3910
▁bud	-3911
▁smo	-3912
▁disp	-3913
▁seed	-3914
▁bound	-3915
▁chick	-3916
▁helps	-3917
▁invis	-3918
▁corpor	-3919
▁opened	-3920
▁pounds	-3921
▁tissue	-3922
▁counter	-3923
▁previous	-3924
▁Sometimes	-3925
gypt	-3926
celer	-3927
stein	-3928
verse	-3929
▁Very	-3930
▁edge	-3931
▁iron	-3932
ulated	-3933
▁epide	-3934
▁indic	-3935
ruption	-3936
ifically	-3937
▁leading	-3938
▁studied	-3939
▁virtual	-3940
▁weapons	-3941
▁necessary	-3942
▁definition	-3943
▁1,	-3944
ysis	-3945
▁See	-3946
▁egg	-3947
eared	-3948
▁Keny	-3949
idents	-3950
inally	-3951
itable	-3952
▁grass	-3953
▁inform	-3954
▁oceans	-3955
▁sector	-3956
▁emotion	-3957
▁holding	-3958
ibilities	-3959
▁document	-3960
▁intellect	-3961
▁philosoph	-3962
▁Ha	-3963
▁Su	-3964
▁Big	-3965
▁cand	-3966
▁reve	-3967
▁adapt	-3968
▁subst	-3969
▁balance	-3970
▁husband	-3971
▁matters	-3972
▁shouldn	-3973
▁believed	-3974
▁brilliant	-3975
▁ultimately	-3976
kn	-3977
▁Fl	-3978
▁Egypt	-3979
▁faith	-3980
▁maint	-3981
▁motor	-3982
▁stuck	-3983
▁adults	-3984
▁dollar	-3985
▁failed	-3986
▁destroy	-3987
▁related	-3988
▁unfortunately	-3989
ses	-3990
▁Sun	-3991
▁tast	-3992
▁compl	-3993
▁leads	-3994
▁offer	-3995
▁truck	-3996
artment	-3997
▁colors	-3998
▁convin	-3999
▁double	-4000
▁signal	-4001
▁succeed	-4002
▁childhood	-4003
my	-4004
aff	-4005
lin	-4006
iors	-4007
urch	-4008
uros	-4009
vant	-4010
▁und	-4011
iable	-4012
▁shel	-4013
ctions	-4014
▁river	-4015
▁grandm	-4016
dimensional	-4017
▁investment	-4018
▁institution	-4019
tle	-4020
iage	-4021
▁Once	-4022
▁narr	-4023
▁click	-4024
▁heads	-4025
▁mouse	-4026
▁insects	-4027
▁platform	-4028
▁concerned	-4029
▁Me	-4030
care	-4031
uild	-4032
word	-4033
▁Gen	-4034
▁fab	-4035
▁pet	-4036
inist	-4037
▁foss	-4038
▁hate	-4039
▁noise	-4040
▁wheel	-4041
ographic	-4042
▁leaving	-4043
▁discovery	-4044
▁university	-4045
ij	-4046
cra	-4047
mar	-4048
oop	-4049
▁Ed	-4050
oses	-4051
▁fle	-4052
agers	-4053
▁Bang	-4054
▁exhib	-4055
▁lunch	-4056
▁newsp	-4057
▁deeply	-4058
▁slowly	-4059
▁unlike	-4060
▁element	-4061
▁sequence	-4062
▁construct	-4063
▁influence	-4064
2,	-4065
▁Ne	-4066
aria	-4067
hold	-4068
▁unc	-4069
▁exch	-4070
terday	-4071
▁crash	-4072
▁frequ	-4073
▁moves	-4074
▁novel	-4075
▁prior	-4076
▁caught	-4077
▁degree	-4078
▁lesson	-4079
mit	-4080
illed	-4081
▁weak	-4082
ipping	-4083
▁transp	-4084
▁prototy	-4085
▁typical	-4086
▁compared	-4087
▁constantly	-4088
▁professional	-4089
▁Did	-4090
▁bag	-4091
▁mig	-4092
lands	-4093
▁argue	-4094
▁embra	-4095
▁synth	-4096
▁letter	-4097
▁install	-4098
▁protein	-4099
▁trained	-4100
▁creation	-4101
▁fighting	-4102
▁president	-4103
enty	-4104
oted	-4105
pper	-4106
▁Des	-4107
▁hyp	-4108
▁rot	-4109
right	-4110
▁ants	-4111
▁frag	-4112
▁grad	-4113
elling	-4114
▁names	-4115
▁walls	-4116
lection	-4117
▁begins	-4118
▁closed	-4119
▁sister	-4120
▁British	-4121
▁factory	-4122
▁insight	-4123
▁finished	-4124
▁majority	-4125
▁fascinating	-4126
ha	-4127
ius	-4128
son	-4129
athy	-4130
▁den	-4131
ortex	-4132
throp	-4133
▁bone	-4134
▁gard	-4135
▁opin	-4136
▁spot	-4137
▁fresh	-4138
▁paint	-4139
▁phones	-4140
▁acceler	-4141
▁capable	-4142
▁emotions	-4143
▁strategy	-4144
▁surprise	-4145
▁described	-4146
▁collective	-4147
▁interaction	-4148
ami	-4149
oom	-4150
esth	-4151
▁Gra	-4152
▁tit	-4153
▁tor	-4154
ength	-4155
essed	-4156
▁horr	-4157
▁tour	-4158
▁equal	-4159
▁faces	-4160
▁talks	-4161
mission	-4162
▁attach	-4163
▁reward	-4164
▁equival	-4165
▁managed	-4166
▁quantum	-4167
▁metaphor	-4168
▁otherwise	-4169
▁depression	-4170
▁mathematics	-4171
IT	-4172
oe	-4173
▁NA	-4174
▁Bas	-4175
▁mos	-4176
▁adop	-4177
▁roof	-4178
▁seat	-4179
▁coral	-4180
▁paying	-4181
▁separate	-4182
▁advantage	-4183
▁operating	-4184
ads	-4185
▁150	-4186
▁cos	-4187
▁ton	-4188
itute	-4189
▁Life	-4190
ancing	-4191
urally	-4192
▁Audience	-4193
▁cognitive	-4194
▁engineers	-4195
▁organisms	-4196
▁perfectly	-4197
▁Her	-4198
▁era	-4199
▁pun	-4200
apers	-4201
uries	-4202
▁Have	-4203
▁king	-4204
▁moon	-4205
▁soil	-4206
▁avoid	-4207
entally	-4208
▁benefit	-4209
▁justice	-4210
▁disaster	-4211
▁followed	-4212
▁currently	-4213
▁principles	-4214
ox	-4215
▁ju	-4216
anes	-4217
oint	-4218
▁odd	-4219
▁band	-4220
▁hasn	-4221
▁purs	-4222
▁whom	-4223
▁breath	-4224
▁Washing	-4225
▁artific	-4226
▁volunte	-4227
▁galaxies	-4228
▁invisible	-4229
▁mentioned	-4230
▁consumption	-4231
▁civilization	-4232
▁Col	-4233
▁org	-4234
asion	-4235
ulous	-4236
▁empt	-4237
▁stim	-4238
▁Franc	-4239
▁categ	-4240
▁chann	-4241
▁eleph	-4242
▁homes	-4243
vention	-4244
▁Mexico	-4245
▁feedback	-4246
▁surprised	-4247
ae	-4248
icity	-4249
known	-4250
▁meat	-4251
▁brief	-4252
▁equip	-4253
▁grown	-4254
oration	-4255
▁finger	-4256
▁harder	-4257
▁limited	-4258
▁replace	-4259
▁treated	-4260
▁worried	-4261
irm	-4262
cked	-4263
▁mir	-4264
alley	-4265
▁Bill	-4266
▁Each	-4267
▁Paul	-4268
▁incent	-4269
▁leader	-4270
▁England	-4271
▁vehicle	-4272
▁wearing	-4273
▁Australia	-4274
▁Washington	-4275
▁businesses	-4276
▁equivalent	-4277
ok	-4278
▁Hum	-4279
▁due	-4280
▁gar	-4281
▁fell	-4282
▁lapt	-4283
▁belong	-4284
▁desire	-4285
▁galaxy	-4286
▁compare	-4287
▁precise	-4288
▁contract	-4289
▁everyday	-4290
▁investig	-4291
▁received	-4292
▁languages	-4293
RI	-4294
apse	-4295
cket	-4296
onom	-4297
isher	-4298
▁arms	-4299
▁nerv	-4300
▁wear	-4301
ildren	-4302
▁Three	-4303
▁cycle	-4304
▁south	-4305
▁wisdom	-4306
▁invited	-4307
▁Everybody	-4308
If	-4309
ara	-4310
rict	-4311
wide	-4312
▁tox	-4313
▁Park	-4314
▁bull	-4315
▁chair	-4316
▁circle	-4317
▁extend	-4318
▁fellow	-4319
▁fourth	-4320
▁unless	-4321
▁Richard	-4322
▁married	-4323
▁watched	-4324
▁magazine	-4325
▁molecule	-4326
▁planning	-4327
▁alternative	-4328
cil	-4329
pet	-4330
▁ax	-4331
aked	-4332
▁Red	-4333
▁pow	-4334
▁agre	-4335
▁wave	-4336
issions	-4337
▁implic	-4338
▁select	-4339
▁Twitter	-4340
▁weather	-4341
▁launched	-4342
gar	-4343
roph	-4344
▁Min	-4345
▁tal	-4346
craft	-4347
ublic	-4348
▁Does	-4349
▁intu	-4350
ensity	-4351
▁Would	-4352
▁surge	-4353
▁commit	-4354
▁exists	-4355
▁symmet	-4356
▁highest	-4357
▁mothers	-4358
▁designer	-4359
▁survival	-4360
▁equipment	-4361
▁agriculture	-4362
ume	-4363
▁fed	-4364
▁anti	-4365
▁pages	-4366
▁prost	-4367
▁quiet	-4368
▁users	-4369
iration	-4370
▁academ	-4371
▁battle	-4372
▁debate	-4373
▁expert	-4374
▁stupid	-4375
▁soldiers	-4376
▁seriously	-4377
oman	-4378
▁App	-4379
▁dol	-4380
▁dry	-4381
▁hun	-4382
▁coal	-4383
▁puts	-4384
▁dinner	-4385
▁thinks	-4386
▁toward	-4387
▁versus	-4388
▁Germany	-4389
▁curious	-4390
▁drawing	-4391
▁organic	-4392
▁normally	-4393
▁hopefully	-4394
4,	-4395
▁35	-4396
lied	-4397
▁Pal	-4398
▁Pres	-4399
▁pros	-4400
▁Darwin	-4401
▁shapes	-4402
▁nervous	-4403
▁identify	-4404
▁multiple	-4405
▁economics	-4406
ago	-4407
car	-4408
hab	-4409
set	-4410
▁Rep	-4411
▁poo	-4412
▁AIDS	-4413
▁nutr	-4414
▁reef	-4415
▁polic	-4416
▁steps	-4417
▁veget	-4418
▁100,000	-4419
▁testing	-4420
▁associated	-4421
▁kilometers	-4422
▁distribution	-4423
▁increasingly	-4424
Yes	-4425
add	-4426
bel	-4427
▁Co	-4428
▁El	-4429
▁Sm	-4430
▁Ein	-4431
▁ves	-4432
anted	-4433
place	-4434
umber	-4435
▁init	-4436
▁warm	-4437
ushing	-4438
▁folks	-4439
▁neuro	-4440
▁plane	-4441
▁round	-4442
▁hidden	-4443
▁article	-4444
▁players	-4445
▁signals	-4446
▁property	-4447
▁sentence	-4448
▁existence	-4449
▁processes	-4450
▁yesterday	-4451
▁statistics	-4452
au	-4453
▁Res	-4454
▁agg	-4455
▁cro	-4456
estic	-4457
▁myth	-4458
encies	-4459
forest	-4460
▁dolph	-4461
▁rural	-4462
▁saved	-4463
▁astron	-4464
▁interp	-4465
▁leaves	-4466
▁motion	-4467
▁neuros	-4468
▁reform	-4469
▁station	-4470
▁ordinary	-4471
▁resource	-4472
▁according	-4473
▁technical	-4474
▁transformation	-4475
ocol	-4476
otic	-4477
▁diet	-4478
▁tick	-4479
▁Green	-4480
▁antib	-4481
▁chain	-4482
▁infin	-4483
▁sites	-4484
▁circum	-4485
▁driver	-4486
▁filled	-4487
▁gather	-4488
▁illness	-4489
▁warming	-4490
▁airplane	-4491
▁struggle	-4492
▁comfortable	-4493
▁generations	-4494
ino	-4495
rum	-4496
aled	-4497
▁Bar	-4498
nding	-4499
▁date	-4500
▁flat	-4501
▁tail	-4502
▁tall	-4503
▁awful	-4504
▁daily	-4505
▁inner	-4506
▁lifet	-4507
▁stood	-4508
▁caused	-4509
▁island	-4510
▁safety	-4511
▁dimensions	-4512
oot	-4513
cale	-4514
vard	-4515
▁spl	-4516
olves	-4517
▁rein	-4518
▁shut	-4519
▁tons	-4520
▁Kenya	-4521
▁frustr	-4522
▁gender	-4523
▁losing	-4524
▁vessel	-4525
▁conduct	-4526
▁dealing	-4527
▁setting	-4528
▁Japanese	-4529
▁designing	-4530
▁principle	-4531
▁Everything	-4532
▁importance	-4533
▁experienced	-4534
▁researchers	-4535
▁intellectual	-4536
Hey	-4537
That	-4538
aurs	-4539
cast	-4540
erves	-4541
lease	-4542
▁abst	-4543
▁dial	-4544
▁hadn	-4545
▁hide	-4546
▁scen	-4547
▁soul	-4548
ession	-4549
▁colon	-4550
▁crime	-4551
▁heavy	-4552
▁shoes	-4553
▁spoke	-4554
▁toile	-4555
ressive	-4556
▁explan	-4557
▁covered	-4558
▁theater	-4559
▁Einstein	-4560
▁electrical	-4561
▁consequences	-4562
6,	-4563
engu	-4564
semb	-4565
▁Ben	-4566
▁MIT	-4567
▁cow	-4568
▁gap	-4569
▁copy	-4570
▁libr	-4571
▁valu	-4572
▁Times	-4573
▁facts	-4574
▁scene	-4575
▁fields	-4576
▁finish	-4577
▁movies	-4578
▁Britain	-4579
▁arrived	-4580
▁clinical	-4581
▁convinced	-4582
▁wondering	-4583
▁artificial	-4584
ns	-4585
urd	-4586
aker	-4587
▁god	-4588
▁row	-4589
▁tow	-4590
force	-4591
▁Kore	-4592
▁bits	-4593
▁enem	-4594
▁soph	-4595
▁2,000	-4596
▁layer	-4597
▁liked	-4598
▁limit	-4599
▁signs	-4600
akistan	-4601
▁damage	-4602
▁forced	-4603
▁poetry	-4604
▁killing	-4605
▁partner	-4606
▁universal	-4607
▁considered	-4608
ux	-4609
ald	-4610
low	-4611
cipl	-4612
rete	-4613
▁Dan	-4614
▁Sim	-4615
▁King	-4616
▁dots	-4617
▁Their	-4618
▁cloth	-4619
▁negot	-4620
▁picked	-4621
▁calling	-4622
▁continu	-4623
▁microbes	-4624
▁essential	-4625
▁professor	-4626
▁connections	-4627
▁intelligent	-4628
ato	-4629
bble	-4630
gged	-4631
odes	-4632
zing	-4633
neath	-4634
▁Gree	-4635
▁bear	-4636
▁peak	-4637
▁wond	-4638
lement	-4639
▁holes	-4640
▁recon	-4641
▁advert	-4642
▁deeper	-4643
▁height	-4644
▁muscle	-4645
▁refuge	-4646
▁replic	-4647
▁appropr	-4648
▁opening	-4649
▁analysis	-4650
▁engineer	-4651
▁continent	-4652
▁satellite	-4653
▁grandmother	-4654
3,	-4655
▁Rem	-4656
▁lie	-4657
▁nar	-4658
▁pil	-4659
iency	-4660
▁resc	-4661
▁manip	-4662
▁School	-4663
▁fossil	-4664
▁player	-4665
▁consist	-4666
▁cutting	-4667
▁letters	-4668
▁Pakistan	-4669
▁feelings	-4670
▁reaction	-4671
▁chemicals	-4672
▁management	-4673
▁possibilities	-4674
30	-4675
hi	-4676
zed	-4677
▁Mo	-4678
abet	-4679
fish	-4680
▁nan	-4681
▁rat	-4682
organ	-4683
▁blow	-4684
▁gall	-4685
▁kick	-4686
▁qual	-4687
▁recy	-4688
▁surf	-4689
▁camer	-4690
▁estab	-4691
▁grade	-4692
▁grain	-4693
▁mosqu	-4694
▁trials	-4695
▁sources	-4696
▁variety	-4697
▁expected	-4698
▁whenever	-4699
▁chemistry	-4700
▁expression	-4701
▁healthcare	-4702
icip	-4703
mber	-4704
ogen	-4705
▁Mil	-4706
▁Swed	-4707
▁pray	-4708
▁empty	-4709
▁perce	-4710
▁waves	-4711
▁credit	-4712
▁Harvard	-4713
▁battery	-4714
▁messages	-4715
2.	-4716
lom	-4717
mas	-4718
min	-4719
hyth	-4720
life	-4721
▁Amaz	-4722
▁crim	-4723
▁ends	-4724
▁lies	-4725
▁vote	-4726
▁solid	-4727
▁stock	-4728
osition	-4729
▁review	-4730
▁videos	-4731
▁experts	-4732
▁illustr	-4733
▁tomorrow	-4734
▁dinosaurs	-4735
▁collection	-4736
▁underneath	-4737
▁construction	-4738
ait	-4739
▁fal	-4740
▁ten	-4741
▁hurt	-4742
▁wake	-4743
acters	-4744
itness	-4745
▁broke	-4746
▁pengu	-4747
▁rates	-4748
ulating	-4749
▁dynamic	-4750
▁advanced	-4751
▁exercise	-4752
▁marriage	-4753
▁requires	-4754
▁President	-4755
▁corruption	-4756
new	-4757
ests	-4758
▁lat	-4759
▁uns	-4760
▁Last	-4761
▁gang	-4762
ension	-4763
▁illeg	-4764
▁George	-4765
▁micros	-4766
▁sharks	-4767
▁consumer	-4768
▁location	-4769
▁characters	-4770
▁relatively	-4771
▁transition	-4772
▁independent	-4773
DP	-4774
ael	-4775
▁Int	-4776
▁Jew	-4777
▁Sat	-4778
▁chap	-4779
▁shif	-4780
▁user	-4781
▁ideal	-4782
▁prove	-4783
▁teeth	-4784
▁fortun	-4785
▁voices	-4786
▁cartoon	-4787
▁keeping	-4788
▁rapidly	-4789
▁roughly	-4790
▁thoughts	-4791
▁valuable	-4792
▁carefully	-4793
▁interface	-4794
▁organized	-4795
▁sophistic	-4796
ri	-4797
uff	-4798
▁Je	-4799
▁Cam	-4800
▁bee	-4801
iques	-4802
▁2000	-4803
▁desk	-4804
▁evil	-4805
▁gift	-4806
▁isol	-4807
▁lawy	-4808
▁myst	-4809
▁fewer	-4810
▁teles	-4811
▁budget	-4812
▁facing	-4813
▁capture	-4814
▁privile	-4815
▁cultures	-4816
▁emerging	-4817
▁epidemic	-4818
▁exchange	-4819
▁represents	-4820
▁CE	-4821
▁sla	-4822
aters	-4823
▁gain	-4824
▁hang	-4825
▁Could	-4826
▁chart	-4827
▁sympt	-4828
▁Anyway	-4829
▁Canada	-4830
▁Center	-4831
▁Street	-4832
▁length	-4833
▁member	-4834
▁prefer	-4835
▁display	-4836
▁victims	-4837
▁convince	-4838
▁generate	-4839
▁behaviors	-4840
▁interpret	-4841
▁producing	-4842
▁vulnerable	-4843
▁specifically	-4844
gets	-4845
onym	-4846
▁Atl	-4847
▁bul	-4848
▁lic	-4849
▁pal	-4850
▁pip	-4851
lying	-4852
▁auth	-4853
▁pure	-4854
pected	-4855
▁cards	-4856
▁flies	-4857
▁houses	-4858
▁status	-4859
▁cameras	-4860
▁chimpan	-4861
▁nations	-4862
▁primary	-4863
▁password	-4864
▁Francisco	-4865
▁disappear	-4866
▁encourage	-4867
▁properties	-4868
▁situations	-4869
▁effectively	-4870
▁entrepreneurs	-4871
rs	-4872
ym	-4873
eal	-4874
▁45	-4875
▁mel	-4876
▁bran	-4877
▁intr	-4878
▁lady	-4879
▁ride	-4880
stream	-4881
▁Frank	-4882
▁claim	-4883
▁reven	-4884
▁bottle	-4885
▁Nigeria	-4886
▁depends	-4887
▁details	-4888
▁extract	-4889
▁reprodu	-4890
▁emissions	-4891
.'	-4892
uls	-4893
down	-4894
irty	-4895
mers	-4896
osis	-4897
uary	-4898
▁GDP	-4899
icago	-4900
▁flex	-4901
▁pian	-4902
▁shad	-4903
▁added	-4904
▁shall	-4905
▁contain	-4906
▁release	-4907
▁viruses	-4908
▁hydrogen	-4909
▁Institute	-4910
▁entertain	-4911
▁movements	-4912
▁instrument	-4913
gl	-4914
what	-4915
▁arts	-4916
▁spin	-4917
▁kitch	-4918
▁hypoth	-4919
▁Chicago	-4920
▁carrying	-4921
▁lifetime	-4922
gn	-4923
Don	-4924
▁Gh	-4925
▁II	-4926
itan	-4927
▁cure	-4928
▁exec	-4929
▁inev	-4930
▁lect	-4931
▁maps	-4932
▁sight	-4933
▁sugar	-4934
▁assign	-4935
▁define	-4936
▁promise	-4937
▁radical	-4938
▁sending	-4939
▁circumst	-4940
▁generally	-4941
▁interests	-4942
▁molecular	-4943
▁mortality	-4944
▁politicians	-4945
▁mathematical	-4946
igm	-4947
▁'9	-4948
▁Tom	-4949
▁Tur	-4950
▁gay	-4951
▁ped	-4952
itals	-4953
▁Ange	-4954
▁acqu	-4955
▁grid	-4956
▁liqu	-4957
▁unit	-4958
▁honor	-4959
▁risks	-4960
▁smile	-4961
itarian	-4962
▁Muslim	-4963
▁remain	-4964
chnology	-4965
▁engaged	-4966
▁however	-4967
abilities	-4968
▁Anderson	-4969
▁official	-4970
▁prepared	-4971
▁released	-4972
▁components	-4973
▁discussion	-4974
Do	-4975
fit	-4976
▁99	-4977
olds	-4978
pher	-4979
▁Los	-4980
▁Wik	-4981
▁Phil	-4982
▁YouT	-4983
▁dish	-4984
▁ring	-4985
▁snow	-4986
▁unex	-4987
▁beach	-4988
▁minim	-4989
▁occup	-4990
▁staff	-4991
▁sample	-4992
▁regions	-4993
▁selling	-4994
▁Congress	-4995
▁graduate	-4996
▁trillion	-4997
▁introduce	-4998
▁introduced	-4999
▁restaurant	-5000
▁techniques	-5001
log	-5002
▁GP	-5003
▁Gal	-5004
▁bow	-5005
▁rom	-5006
▁rub	-5007
▁spo	-5008
oting	-5009
▁bath	-5010
▁Since	-5011
▁atoms	-5012
▁goals	-5013
▁metal	-5014
▁serve	-5015
▁analog	-5016
▁bubble	-5017
▁buying	-5018
▁compar	-5019
▁fisher	-5020
▁organs	-5021
▁spring	-5022
▁winter	-5023
▁YouTube	-5024
▁establish	-5025
▁terrorism	-5026
▁convention	-5027
▁profession	-5028
60	-5029
alt	-5030
atin	-5031
bors	-5032
cont	-5033
▁Bro	-5034
▁Coll	-5035
▁NASA	-5036
▁drag	-5037
▁thin	-5038
▁steel	-5039
▁factor	-5040
▁forgot	-5041
▁encoura	-5042
▁factors	-5043
▁malaria	-5044
▁abstract	-5045
▁pleasure	-5046
▁employees	-5047
1.	-5048
ss	-5049
can	-5050
lly	-5051
▁Pac	-5052
▁san	-5053
erved	-5054
▁unus	-5055
porary	-5056
▁horse	-5057
▁hyper	-5058
▁sides	-5059
▁blocks	-5060
▁former	-5061
▁medium	-5062
▁mirror	-5063
▁regard	-5064
▁sphere	-5065
▁thanks	-5066
▁worlds	-5067
▁Charles	-5068
▁gravity	-5069
▁mistake	-5070
▁invention	-5071
▁newspaper	-5072
▁radiation	-5073
▁definitely	-5074
▁protection	-5075
▁environments	-5076
uel	-5077
over	-5078
▁mer	-5079
▁phr	-5080
▁que	-5081
etics	-5082
▁bill	-5083
▁runs	-5084
▁James	-5085
▁Other	-5086
▁tumor	-5087
▁scared	-5088
▁lessons	-5089
▁affected	-5090
▁spectrum	-5091
▁mountains	-5092
▁pollution	-5093
▁practical	-5094
▁combination	-5095
▁evolutionary	-5096
▁ens	-5097
alled	-5098
icing	-5099
orous	-5100
▁clip	-5101
▁goods	-5102
▁refer	-5103
▁assist	-5104
▁conver	-5105
▁driven	-5106
▁option	-5107
▁season	-5108
▁autonom	-5109
▁kitchen	-5110
▁opinion	-5111
▁reached	-5112
▁recorded	-5113
▁typically	-5114
▁democratic	-5115
bur	-5116
ham	-5117
iat	-5118
rog	-5119
Look	-5120
ingu	-5121
▁Yet	-5122
eline	-5123
lines	-5124
riend	-5125
▁bare	-5126
▁tank	-5127
olving	-5128
ternal	-5129
▁clock	-5130
▁estim	-5131
▁false	-5132
▁Russia	-5133
▁aftern	-5134
▁cortex	-5135
▁ingred	-5136
▁pulled	-5137
▁centers	-5138
▁chicken	-5139
▁fishing	-5140
▁include	-5141
▁neighbors	-5142
▁worldwide	-5143
▁perception	-5144
ita	-5145
sec	-5146
▁75	-5147
cend	-5148
olly	-5149
uits	-5150
▁Mic	-5151
▁eld	-5152
▁iPh	-5153
gment	-5154
▁Four	-5155
▁cere	-5156
▁dogs	-5157
▁plus	-5158
urance	-5159
▁keeps	-5160
▁ought	-5161
▁satis	-5162
▁Michael	-5163
▁Perhaps	-5164
▁actions	-5165
▁dropped	-5166
▁forests	-5167
▁privacy	-5168
▁singing	-5169
▁rational	-5170
▁relevant	-5171
▁required	-5172
▁traveling	-5173
▁literature	-5174
▁psychology	-5175
▁collaboration	-5176
▁sophisticated	-5177
oos	-5178
▁adj	-5179
▁dip	-5180
point	-5181
▁Alex	-5182
▁cast	-5183
▁diss	-5184
▁mira	-5185
▁Steve	-5186
▁input	-5187
▁notes	-5188
eration	-5189
▁garden	-5190
▁hoping	-5191
▁severe	-5192
▁applied	-5193
▁feature	-5194
▁harvest	-5195
▁features	-5196
▁vehicles	-5197
▁naturally	-5198
▁personally	-5199
▁participate	-5200
esh	-5201
spe	-5202
umps	-5203
▁194	-5204
abled	-5205
usive	-5206
▁cord	-5207
▁hits	-5208
▁reci	-5209
▁vent	-5210
arrass	-5211
▁aging	-5212
▁skill	-5213
▁liquid	-5214
▁perman	-5215
▁rocket	-5216
▁senses	-5217
▁sports	-5218
▁courage	-5219
▁illegal	-5220
▁unusual	-5221
▁combined	-5222
▁ultimate	-5223
▁ancestors	-5224
▁meaningful	-5225
▁destruction	-5226
▁fundamentally	-5227
▁technological	-5228
ums	-5229
ifth	-5230
▁Art	-5231
▁Ber	-5232
▁asp	-5233
▁rig	-5234
oston	-5235
▁Also	-5236
▁Bank	-5237
▁bicy	-5238
▁eggs	-5239
▁glam	-5240
▁mile	-5241
▁remo	-5242
▁wine	-5243
▁3,000	-5244
▁dedic	-5245
▁score	-5246
▁topic	-5247
▁formed	-5248
▁operate	-5249
▁stronger	-5250
▁afternoon	-5251
▁awareness	-5252
▁increased	-5253
▁mechanism	-5254
▁activities	-5255
▁algorithms	-5256
▁efficiency	-5257
oly	-5258
osh	-5259
xim	-5260
ework	-5261
itual	-5262
vable	-5263
▁Mart	-5264
▁Port	-5265
▁sees	-5266
▁wash	-5267
▁pregn	-5268
▁sweet	-5269
▁acting	-5270
▁clever	-5271
▁solved	-5272
▁accompl	-5273
▁records	-5274
▁internal	-5275
▁memories	-5276
▁mistakes	-5277
▁occurred	-5278
▁sunlight	-5279
▁embarrass	-5280
▁framework	-5281
▁functions	-5282
▁hospitals	-5283
▁physically	-5284
▁processing	-5285
▁underwater	-5286
▁manufacturing	-5287
▁transportation	-5288
cred	-5289
▁gut	-5290
enced	-5291
▁Mont	-5292
▁biom	-5293
▁joke	-5294
▁pair	-5295
▁inequ	-5296
▁pitch	-5297
▁tests	-5298
▁Amazon	-5299
▁France	-5300
▁studio	-5301
▁survey	-5302
▁Project	-5303
▁cooking	-5304
▁empathy	-5305
▁astronom	-5306
▁foundation	-5307
za	-5308
500	-5309
bre	-5310
ula	-5311
aren	-5312
asks	-5313
elly	-5314
▁Dem	-5315
▁Lad	-5316
▁mak	-5317
scale	-5318
▁Adam	-5319
▁trig	-5320
making	-5321
▁Women	-5322
▁theme	-5323
▁Boston	-5324
▁drives	-5325
cription	-5326
▁Pacific	-5327
▁equally	-5328
▁falling	-5329
▁largely	-5330
▁musical	-5331
▁suppose	-5332
▁witness	-5333
▁somewhat	-5334
▁conservation	-5335
ta	-5336
vis	-5337
abol	-5338
hips	-5339
▁Dep	-5340
▁nav	-5341
retch	-5342
▁Stan	-5343
▁fert	-5344
▁tape	-5345
▁wars	-5346
▁coord	-5347
▁domin	-5348
▁doubt	-5349
▁horiz	-5350
▁initi	-5351
▁prime	-5352
▁shame	-5353
▁storm	-5354
▁Nobody	-5355
▁advice	-5356
▁laptop	-5357
▁amounts	-5358
▁burning	-5359
▁discipl	-5360
▁birthday	-5361
▁dramatic	-5362
▁proteins	-5363
▁swimming	-5364
▁collected	-5365
▁computing	-5366
80	-5367
mm	-5368
itz	-5369
sem	-5370
top	-5371
berg	-5372
whel	-5373
▁Ant	-5374
▁Rob	-5375
▁Unf	-5376
▁anx	-5377
▁cha	-5378
ended	-5379
▁cave	-5380
▁club	-5381
▁decl	-5382
▁hung	-5383
▁5,000	-5384
▁advent	-5385
▁button	-5386
▁desper	-5387
▁diction	-5388
▁figures	-5389
▁silence	-5390
▁visible	-5391
▁antibiot	-5392
▁apparent	-5393
▁concrete	-5394
▁Something	-5395
▁protected	-5396
▁conclusion	-5397
▁photographs	-5398
▁potentially	-5399
orb	-5400
rat	-5401
lock	-5402
xide	-5403
▁Day	-5404
▁Mon	-5405
▁toy	-5406
akers	-5407
being	-5408
night	-5409
▁Five	-5410
▁fake	-5411
▁load	-5412
▁sets	-5413
▁suit	-5414
angers	-5415
source	-5416
▁While	-5417
▁piano	-5418
▁ridic	-5419
▁toxic	-5420
▁upper	-5421
▁Health	-5422
▁defined	-5423
▁constant	-5424
▁contrast	-5425
▁election	-5426
▁presence	-5427
▁percentage	-5428
▁Unfortunately	-5429
▁psychological	-5430
8.	-5431
In	-5432
yn	-5433
nel	-5434
▁2.	-5435
▁bes	-5436
▁Only	-5437
▁Talk	-5438
▁hunt	-5439
▁obst	-5440
▁vert	-5441
isters	-5442
▁Paris	-5443
▁cents	-5444
▁chose	-5445
▁frame	-5446
▁renew	-5447
▁roads	-5448
▁rooms	-5449
▁thick	-5450
▁Valley	-5451
▁contem	-5452
▁critic	-5453
▁iPhone	-5454
▁string	-5455
▁attacks	-5456
▁empower	-5457
▁extinct	-5458
▁overall	-5459
▁quarter	-5460
▁tonight	-5461
▁accurate	-5462
▁administ	-5463
▁confront	-5464
▁creature	-5465
▁overwhel	-5466
▁subjects	-5467
▁tracking	-5468
▁marketing	-5469
▁operation	-5470
▁sensitive	-5471
▁confidence	-5472
▁explanation	-5473
▁conversations	-5474
▁ru	-5475
foot	-5476
▁Jan	-5477
▁wel	-5478
▁diag	-5479
▁hook	-5480
▁mere	-5481
▁silk	-5482
▁State	-5483
▁films	-5484
inction	-5485
▁ritual	-5486
▁stayed	-5487
aneously	-5488
▁circuit	-5489
▁clothes	-5490
▁intense	-5491
▁outcome	-5492
▁remains	-5493
▁existing	-5494
▁infected	-5495
▁explained	-5496
▁providing	-5497
▁innovative	-5498
▁productive	-5499
▁surrounded	-5500
▁appropriate	-5501
▁inspiration	-5502
▁circumstances	-5503
▁sustainability	-5504
20	-5505
ls	-5506
uh	-5507
fin	-5508
aser	-5509
obal	-5510
▁Law	-5511
▁Pol	-5512
iture	-5513
▁cock	-5514
▁flew	-5515
▁lens	-5516
▁nurs	-5517
▁orch	-5518
▁subs	-5519
estyle	-5520
iosity	-5521
owered	-5522
▁recom	-5523
▁songs	-5524
▁Number	-5525
▁assume	-5526
▁monkey	-5527
▁reject	-5528
▁tested	-5529
▁breathe	-5530
▁closely	-5531
▁electro	-5532
▁nowhere	-5533
▁reverse	-5534
▁measured	-5535
▁authority	-5536
▁spiritual	-5537
▁electronic	-5538
▁presentation	-5539
▁Ac	-5540
▁Em	-5541
▁Fe	-5542
adic	-5543
keys	-5544
tail	-5545
▁Bab	-5546
▁Eth	-5547
▁Med	-5548
▁dot	-5549
esome	-5550
itors	-5551
stand	-5552
▁Thom	-5553
▁diam	-5554
▁furn	-5555
▁ment	-5556
▁nest	-5557
▁pill	-5558
▁scar	-5559
▁Wikip	-5560
▁error	-5561
▁resil	-5562
▁split	-5563
▁uncom	-5564
▁church	-5565
▁joined	-5566
▁command	-5567
▁comment	-5568
▁decline	-5569
▁options	-5570
▁sensors	-5571
▁unknown	-5572
▁horrible	-5573
▁wireless	-5574
▁appreciate	-5575
▁applications	-5576
5.	-5577
ih	-5578
alu	-5579
den	-5580
oons	-5581
▁600	-5582
▁Rev	-5583
▁pin	-5584
▁van	-5585
allel	-5586
▁ears	-5587
▁elev	-5588
▁jail	-5589
▁loud	-5590
▁pump	-5591
▁tack	-5592
▁zoom	-5593
herent	-5594
illing	-5595
▁bones	-5596
▁curve	-5597
▁datab	-5598
▁depth	-5599
▁frank	-5600
▁plate	-5601
▁taste	-5602
▁trend	-5603
▁deaths	-5604
▁deploy	-5605
▁flower	-5606
▁papers	-5607
▁whales	-5608
▁Angeles	-5609
▁evening	-5610
▁housing	-5611
▁therapy	-5612
▁symptoms	-5613
▁Basically	-5614
▁Christmas	-5615
▁controlled	-5616
▁economists	-5617
▁challenging	-5618
Is	-5619
Os	-5620
cal	-5621
▁Ah	-5622
▁BG	-5623
▁Jul	-5624
▁mad	-5625
iters	-5626
▁Come	-5627
▁Sept	-5628
▁disg	-5629
▁horm	-5630
▁pool	-5631
▁Union	-5632
▁lying	-5633
▁multi	-5634
▁whist	-5635
▁boring	-5636
▁handle	-5637
▁relate	-5638
▁remove	-5639
▁suffer	-5640
▁volume	-5641
▁advance	-5642
▁combine	-5643
▁fingers	-5644
▁samples	-5645
▁transpl	-5646
▁provided	-5647
ologically	-5648
▁centuries	-5649
▁gentlemen	-5650
▁narrative	-5651
▁statement	-5652
▁laboratory	-5653
▁passionate	-5654
dr	-5655
▁Sa	-5656
Yeah	-5657
cers	-5658
▁GPS	-5659
▁Part	-5660
▁busy	-5661
▁item	-5662
▁nose	-5663
athers	-5664
ounced	-5665
▁Micro	-5666
▁falls	-5667
▁globe	-5668
▁hotel	-5669
▁Museum	-5670
▁autism	-5671
▁clouds	-5672
inations	-5673
▁Science	-5674
▁channel	-5675
▁flowers	-5676
▁allowing	-5677
▁collapse	-5678
▁distinct	-5679
▁instruct	-5680
▁paradigm	-5681
▁villages	-5682
▁wherever	-5683
▁September	-5684
▁Wikipedia	-5685
▁implement	-5686
▁exploration	-5687
▁transformed	-5688
box	-5689
que	-5690
anta	-5691
ault	-5692
tech	-5693
▁Air	-5694
eness	-5695
ounce	-5696
▁Gulf	-5697
▁bike	-5698
▁gras	-5699
▁outc	-5700
▁angry	-5701
▁cyber	-5702
▁memor	-5703
▁navig	-5704
▁stone	-5705
▁weigh	-5706
▁divide	-5707
▁explos	-5708
▁extent	-5709
▁marine	-5710
ographer	-5711
▁Republic	-5712
▁determine	-5713
▁technique	-5714
▁capitalism	-5715
och	-5716
hour	-5717
look	-5718
lymp	-5719
▁ath	-5720
clear	-5721
gging	-5722
▁barr	-5723
▁icon	-5724
▁milk	-5725
▁poly	-5726
▁root	-5727
ateful	-5728
father	-5729
▁dress	-5730
▁expon	-5731
▁faced	-5732
▁fixed	-5733
▁humor	-5734
▁logic	-5735
▁prize	-5736
▁rocks	-5737
▁attend	-5738
▁corres	-5739
▁encoun	-5740
▁linked	-5741
▁pollen	-5742
▁profit	-5743
▁embrace	-5744
▁fiction	-5745
▁mosquit	-5746
▁policies	-5747
▁suggests	-5748
▁footprint	-5749
▁standards	-5750
▁behavioral	-5751
▁application	-5752
▁instruments	-5753
My	-5754
hol	-5755
nda	-5756
ola	-5757
uce	-5758
▁La	-5759
▁Ma	-5760
iggs	-5761
▁Mal	-5762
▁sen	-5763
otion	-5764
▁army	-5765
▁impl	-5766
▁mush	-5767
▁suic	-5768
▁tent	-5769
▁vibr	-5770
▁About	-5771
▁Found	-5772
▁admit	-5773
▁breed	-5774
▁label	-5775
▁polar	-5776
▁Robert	-5777
▁enable	-5778
▁limits	-5779
▁puzzle	-5780
onscious	-5781
▁dancing	-5782
▁download	-5783
▁infinite	-5784
▁organism	-5785
▁identical	-5786
mal	-5787
ota	-5788
vey	-5789
Okay	-5790
iled	-5791
nded	-5792
▁Che	-5793
▁hem	-5794
▁hur	-5795
acing	-5796
sters	-5797
▁Mark	-5798
▁gest	-5799
▁Higgs	-5800
▁Olymp	-5801
▁anger	-5802
▁boxes	-5803
▁decre	-5804
▁plans	-5805
▁Before	-5806
▁border	-5807
▁narrow	-5808
▁spinal	-5809
etically	-5810
▁causing	-5811
▁earthqu	-5812
▁feeding	-5813
▁funding	-5814
▁poorest	-5815
▁pushing	-5816
▁younger	-5817
▁director	-5818
▁floating	-5819
▁occasion	-5820
▁wondered	-5821
▁continued	-5822
▁measuring	-5823
▁reference	-5824
▁architects	-5825
▁mechanical	-5826
▁educational	-5827
▁implications	-5828
emb	-5829
▁23	-5830
▁Sam	-5831
▁ack	-5832
▁vag	-5833
arant	-5834
belie	-5835
esity	-5836
▁Comm	-5837
▁June	-5838
▁acts	-5839
profit	-5840
▁guide	-5841
▁shell	-5842
▁whale	-5843
onymous	-5844
▁Please	-5845
▁agreed	-5846
▁chocol	-5847
▁corals	-5848
▁fright	-5849
▁inject	-5850
▁owners	-5851
▁Muslims	-5852
▁anticip	-5853
▁classes	-5854
▁frankly	-5855
▁mammals	-5856
▁robotic	-5857
▁vaccine	-5858
connected	-5859
▁equation	-5860
▁constrain	-5861
▁disorders	-5862
▁increases	-5863
▁selection	-5864
▁telephone	-5865
▁greenhouse	-5866
▁unexpected	-5867
70	-5868
gly	-5869
ups	-5870
van	-5871
▁py	-5872
iety	-5873
ille	-5874
rors	-5875
▁irr	-5876
ingly	-5877
▁1950	-5878
▁clus	-5879
▁elim	-5880
▁firm	-5881
imeter	-5882
▁Latin	-5883
▁ignor	-5884
▁pharm	-5885
▁Sweden	-5886
▁Thomas	-5887
▁clinic	-5888
▁diplom	-5889
▁interf	-5890
▁secure	-5891
▁struck	-5892
▁Finally	-5893
▁carried	-5894
▁existed	-5895
▁library	-5896
▁offered	-5897
▁parking	-5898
▁violent	-5899
▁Everyone	-5900
▁drinking	-5901
▁obsessed	-5902
▁transfer	-5903
▁arguments	-5904
▁breathing	-5905
▁directions	-5906
▁mathematic	-5907
▁automatically	-5908
iop	-5909
ctic	-5910
east	-5911
erge	-5912
gent	-5913
heim	-5914
▁Haw	-5915
itory	-5916
▁atom	-5917
▁cosm	-5918
▁dign	-5919
▁mice	-5920
▁stro	-5921
▁zone	-5922
▁Mount	-5923
▁dozen	-5924
▁flood	-5925
▁knock	-5926
▁recyc	-5927
▁astero	-5928
▁fabric	-5929
▁myster	-5930
▁placed	-5931
▁script	-5932
▁spider	-5933
▁careful	-5934
▁monkeys	-5935
▁mystery	-5936
▁proport	-5937
▁surgeon	-5938
▁windows	-5939
▁instinct	-5940
▁economies	-5941
▁performing	-5942
▁resistance	-5943
▁distributed	-5944
▁represented	-5945
▁dramatically	-5946
▁interactions	-5947
ata	-5948
ban	-5949
ias	-5950
imp	-5951
▁NG	-5952
amin	-5953
aret	-5954
etch	-5955
otes	-5956
rets	-5957
well	-5958
▁250	-5959
▁Jer	-5960
▁ben	-5961
hythm	-5962
icted	-5963
uting	-5964
▁Gold	-5965
▁cash	-5966
▁chip	-5967
▁ours	-5968
▁Count	-5969
▁Ghana	-5970
▁Korea	-5971
▁Obama	-5972
▁bombs	-5973
▁dense	-5974
▁phase	-5975
▁teams	-5976
▁arrest	-5977
▁mainly	-5978
▁stands	-5979
▁toilet	-5980
▁traged	-5981
▁Remember	-5982
▁domestic	-5983
▁elephant	-5984
▁grateful	-5985
▁outcomes	-5986
▁properly	-5987
▁celebrate	-5988
▁component	-5989
▁consumers	-5990
▁corporate	-5991
▁spreading	-5992
▁recognition	-5993
▁US	-5994
bage	-5995
wich	-5996
▁sed	-5997
▁tab	-5998
eters	-5999
while	-6000
▁excl	-6001
abetes	-6002
▁aston	-6003
▁enemy	-6004
▁grows	-6005
▁style	-6006
illance	-6007
▁January	-6008
▁Nothing	-6009
▁collaps	-6010
▁metabol	-6011
▁neither	-6012
▁savings	-6013
▁solving	-6014
▁engaging	-6015
▁illusion	-6016
▁overcome	-6017
▁penguins	-6018
▁household	-6019
▁lifestyle	-6020
▁prototype	-6021
▁populations	-6022
4.	-6023
PA	-6024
But	-6025
isl	-6026
oes	-6027
▁Ke	-6028
aint	-6029
appy	-6030
illy	-6031
▁10,	-6032
▁Cap	-6033
▁Leg	-6034
▁tea	-6035
esign	-6036
iance	-6037
iform	-6038
▁biod	-6039
▁tube	-6040
▁Apple	-6041
▁Inter	-6042
▁colum	-6043
▁crack	-6044
▁honey	-6045
▁males	-6046
▁scary	-6047
▁tight	-6048
iveness	-6049
▁acknow	-6050
▁filter	-6051
▁obstac	-6052
▁phrase	-6053
▁prices	-6054
▁storyt	-6055
▁borders	-6056
▁obesity	-6057
▁painful	-6058
▁receive	-6059
▁hardware	-6060
▁maintain	-6061
▁practices	-6062
▁controlling	-6063
bl	-6064
aks	-6065
bal	-6066
▁Hy	-6067
rary	-6068
rous	-6069
soft	-6070
▁Sec	-6071
▁sem	-6072
▁grab	-6073
▁gray	-6074
▁lets	-6075
▁loop	-6076
▁lung	-6077
▁seek	-6078
▁stri	-6079
called	-6080
▁Congo	-6081
▁Human	-6082
▁polio	-6083
▁smoke	-6084
▁stack	-6085
▁tries	-6086
▁plenty	-6087
▁proced	-6088
▁worker	-6089
ollywood	-6090
▁conserv	-6091
▁entered	-6092
▁license	-6093
▁raising	-6094
▁stretch	-6095
▁academic	-6096
▁brothers	-6097
▁romantic	-6098
▁destroyed	-6099
▁precisely	-6100
▁presented	-6101
▁recording	-6102
▁Foundation	-6103
▁Revolution	-6104
▁exhibition	-6105
▁inequality	-6106
▁philosophy	-6107
▁antibiotics	-6108
▁cooperation	-6109
▁conventional	-6110
▁entrepreneur	-6111
edy	-6112
oca	-6113
sum	-6114
tes	-6115
ello	-6116
ogue	-6117
rade	-6118
▁Cop	-6119
▁Hom	-6120
▁Sil	-6121
▁lun	-6122
▁raw	-6123
andon	-6124
▁Narr	-6125
▁golf	-6126
▁neut	-6127
▁pour	-6128
Americ	-6129
struct	-6130
▁House	-6131
▁Nobel	-6132
▁abuse	-6133
▁sales	-6134
▁title	-6135
▁immune	-6136
▁rising	-6137
▁scenar	-6138
▁slides	-6139
▁Central	-6140
▁designs	-6141
▁pretend	-6142
▁vessels	-6143
▁appeared	-6144
▁concepts	-6145
▁parallel	-6146
▁particle	-6147
▁printing	-6148
▁traveled	-6149
▁sculpture	-6150
▁uncertain	-6151
▁connecting	-6152
▁expectations	-6153
wr	-6154
▁DH	-6155
▁Rw	-6156
cean	-6157
▁Tor	-6158
▁dio	-6159
▁fan	-6160
▁tip	-6161
▁Jack	-6162
▁dict	-6163
apping	-6164
astern	-6165
▁accum	-6166
▁explo	-6167
▁stere	-6168
▁tasks	-6169
▁walks	-6170
raction	-6171
▁colony	-6172
▁embedd	-6173
▁excell	-6174
▁latest	-6175
▁pocket	-6176
▁repeat	-6177
▁surely	-6178
▁thrown	-6179
▁Islamic	-6180
▁appears	-6181
▁classic	-6182
▁density	-6183
▁guarant	-6184
▁lecture	-6185
▁spectac	-6186
▁attached	-6187
▁imagined	-6188
▁mushroom	-6189
▁depending	-6190
▁emergency	-6191
▁permanent	-6192
▁recommend	-6193
▁translate	-6194
▁commitment	-6195
▁department	-6196
▁fascinated	-6197
▁interactive	-6198
▁personality	-6199
▁surveillance	-6200
▁entertainment	-6201
bi	-6202
anny	-6203
gers	-6204
keep	-6205
ocal	-6206
ubes	-6207
udes	-6208
walk	-6209
▁Get	-6210
▁ate	-6211
▁mim	-6212
aving	-6213
iders	-6214
power	-6215
pring	-6216
▁Budd	-6217
▁Bush	-6218
▁prem	-6219
▁till	-6220
arency	-6221
▁liver	-6222
▁orbit	-6223
▁units	-6224
▁yield	-6225
erences	-6226
▁Ethiop	-6227
▁Island	-6228
▁behave	-6229
▁candid	-6230
▁geomet	-6231
▁hearts	-6232
▁hunger	-6233
▁lovely	-6234
▁rescue	-6235
▁writer	-6236
▁awesome	-6237
▁concert	-6238
▁divided	-6239
▁habitat	-6240
▁whereas	-6241
▁disorder	-6242
▁laughing	-6243
▁reaching	-6244
▁shoulder	-6245
▁Microsoft	-6246
▁chocolate	-6247
▁committed	-6248
▁exploring	-6249
▁furniture	-6250
▁interacting	-6251
7.	-6252
gic	-6253
iang	-6254
quar	-6255
uous	-6256
▁Nat	-6257
aming	-6258
earch	-6259
▁axis	-6260
▁plot	-6261
▁ther	-6262
▁ugly	-6263
▁Democ	-6264
▁Haiti	-6265
▁delic	-6266
▁persu	-6267
▁usual	-6268
related	-6269
through	-6270
▁repair	-6271
▁scream	-6272
▁spoken	-6273
▁dioxide	-6274
▁muscles	-6275
▁breaking	-6276
▁diabetes	-6277
▁estimate	-6278
▁involves	-6279
▁magnetic	-6280
▁recovery	-6281
▁treating	-6282
▁curiosity	-6283
▁customers	-6284
▁paintings	-6285
▁recognized	-6286
▁manufacture	-6287
St	-6288
azz	-6289
ris	-6290
▁22	-6291
▁Hi	-6292
▁Us	-6293
ener	-6294
hatt	-6295
osen	-6296
▁Jes	-6297
▁Jim	-6298
▁gla	-6299
▁shr	-6300
iated	-6301
inals	-6302
think	-6303
▁pace	-6304
▁rush	-6305
▁sacr	-6306
hattan	-6307
▁brown	-6308
▁chest	-6309
▁flash	-6310
▁plays	-6311
▁pyram	-6312
▁toler	-6313
▁Global	-6314
▁signed	-6315
▁aspects	-6316
▁balloon	-6317
▁ceiling	-6318
▁concern	-6319
▁finance	-6320
▁opposed	-6321
▁section	-6322
▁Stanford	-6323
▁achieved	-6324
▁shooting	-6325
▁Manhattan	-6326
▁virtually	-6327
▁controvers	-6328
▁productivity	-6329
fl	-6330
Let	-6331
han	-6332
ida	-6333
org	-6334
rey	-6335
vas	-6336
▁Ox	-6337
▁Ug	-6338
doll	-6339
exas	-6340
pass	-6341
▁Eve	-6342
▁Spe	-6343
▁tag	-6344
agger	-6345
cence	-6346
under	-6347
▁Cons	-6348
▁corn	-6349
▁mold	-6350
▁pink	-6351
orking	-6352
▁White	-6353
▁likes	-6354
▁maxim	-6355
▁purch	-6356
▁sheep	-6357
▁tired	-6358
▁wings	-6359
▁adjust	-6360
▁agenda	-6361
▁assemb	-6362
▁eradic	-6363
▁escape	-6364
▁portra	-6365
▁bicycle	-6366
▁cheaper	-6367
▁dignity	-6368
▁monitor	-6369
▁rebuild	-6370
▁scratch	-6371
▁wanting	-6372
▁Africans	-6373
▁Narrator	-6374
▁embedded	-6375
▁reported	-6376
▁sandwich	-6377
▁animation	-6378
▁colleague	-6379
▁conflicts	-6380
▁privilege	-6381
▁incentives	-6382
▁disappeared	-6383
Be	-6384
anz	-6385
nes	-6386
oir	-6387
iday	-6388
lete	-6389
zees	-6390
▁Mad	-6391
▁Pre	-6392
▁beg	-6393
▁gig	-6394
▁tro	-6395
class	-6396
level	-6397
▁cute	-6398
▁pref	-6399
phones	-6400
▁Grand	-6401
▁Texas	-6402
▁aside	-6403
▁meter	-6404
▁vital	-6405
▁conven	-6406
▁devast	-6407
▁frozen	-6408
▁hardly	-6409
▁heroes	-6410
▁ignore	-6411
▁ladies	-6412
▁legisl	-6413
▁abandon	-6414
▁authent	-6415
▁disgust	-6416
▁diverse	-6417
▁orchest	-6418
▁removed	-6419
▁accepted	-6420
▁produces	-6421
▁vertical	-6422
▁apartment	-6423
▁backwards	-6424
▁generated	-6425
▁insurance	-6426
▁engagement	-6427
▁volunteers	-6428
▁grandfather	-6429
▁neighborhoods	-6430
hen	-6431
nic	-6432
ras	-6433
▁Po	-6434
phas	-6435
tery	-6436
▁Bob	-6437
▁bon	-6438
▁enh	-6439
▁lin	-6440
▁nit	-6441
going	-6442
iment	-6443
leton	-6444
oster	-6445
▁boom	-6446
▁cens	-6447
▁Super	-6448
▁Woman	-6449
▁adopt	-6450
▁alien	-6451
▁champ	-6452
▁elder	-6453
▁judge	-6454
▁legit	-6455
▁reput	-6456
▁shake	-6457
▁traum	-6458
century	-6459
uration	-6460
▁50,000	-6461
▁Indeed	-6462
▁defend	-6463
▁legacy	-6464
▁scales	-6465
▁Nations	-6466
▁unbelie	-6467
▁captured	-6468
▁darkness	-6469
▁dolphins	-6470
▁football	-6471
▁meetings	-6472
▁northern	-6473
▁organize	-6474
▁stations	-6475
▁continues	-6476
▁dedicated	-6477
▁reduction	-6478
▁telescope	-6479
▁functional	-6480
▁rainforest	-6481
▁strategies	-6482
▁International	-6483
AR	-6484
ua	-6485
arp	-6486
aws	-6487
▁Op	-6488
fall	-6489
▁Boy	-6490
▁Del	-6491
▁Dis	-6492
▁Ice	-6493
▁Sov	-6494
▁cup	-6495
andem	-6496
archy	-6497
▁bubb	-6498
▁flip	-6499
lessly	-6500
▁Space	-6501
▁drove	-6502
▁imper	-6503
forward	-6504
▁actors	-6505
▁chosen	-6506
▁crying	-6507
▁expans	-6508
▁hungry	-6509
▁missed	-6510
▁powers	-6511
▁punish	-6512
▁shadow	-6513
▁silent	-6514
▁charity	-6515
▁exposed	-6516
▁instant	-6517
▁suspect	-6518
▁equality	-6519
▁globally	-6520
▁laughter	-6521
▁theories	-6522
▁algorithm	-6523
▁accessible	-6524
▁collecting	-6525
▁contribute	-6526
▁earthquake	-6527
▁governance	-6528
▁motivation	-6529
▁optimistic	-6530
▁advertising	-6531
▁universities	-6532
3.	-6533
ka	-6534
hib	-6535
pox	-6536
▁PM	-6537
part	-6538
thal	-6539
▁Lar	-6540
▁Ten	-6541
▁aim	-6542
▁bat	-6543
▁meg	-6544
There	-6545
state	-6546
▁Sing	-6547
▁east	-6548
▁fulf	-6549
▁infl	-6550
ptions	-6551
usions	-6552
▁Never	-6553
▁angle	-6554
▁finds	-6555
▁march	-6556
▁paras	-6557
▁route	-6558
▁skull	-6559
anthrop	-6560
unclear	-6561
▁20,000	-6562
▁attrib	-6563
▁evolve	-6564
▁oldest	-6565
▁patent	-6566
▁satisf	-6567
▁talent	-6568
▁weapon	-6569
children	-6570
▁amongst	-6571
▁distant	-6572
▁efforts	-6573
▁initial	-6574
▁touched	-6575
▁provides	-6576
▁Christian	-6577
▁encounter	-6578
▁mechanics	-6579
▁searching	-6580
▁historical	-6581
▁microscope	-6582
▁resolution	-6583
▁probability	-6584
▁neuroscience	-6585
ek	-6586
asy	-6587
▁65	-6588
icop	-6589
ulse	-6590
▁Fre	-6591
▁Net	-6592
▁Pat	-6593
▁Sea	-6594
▁hol	-6595
▁unp	-6596
▁wip	-6597
ckets	-6598
▁1990	-6599
▁High	-6600
▁Next	-6601
▁Step	-6602
▁Stud	-6603
▁beer	-6604
▁carr	-6605
▁dust	-6606
▁leap	-6607
▁limb	-6608
▁quad	-6609
dollar	-6610
ietnam	-6611
yright	-6612
▁Voice	-6613
▁blank	-6614
▁fluid	-6615
▁fruit	-6616
▁schol	-6617
▁seeds	-6618
▁tears	-6619
▁youth	-6620
▁Palest	-6621
▁Really	-6622
▁Uganda	-6623
▁barely	-6624
▁borrow	-6625
▁facial	-6626
▁invite	-6627
▁locked	-6628
▁neuron	-6629
▁smooth	-6630
▁essence	-6631
▁herself	-6632
▁letting	-6633
▁suicide	-6634
▁Atlantic	-6635
▁controls	-6636
▁minister	-6637
▁elsewhere	-6638
▁apparently	-6639
▁boundaries	-6640
▁simplicity	-6641
▁transplant	-6642
▁electronics	-6643
▁ingredients	-6644
▁transparent	-6645
-1	-6646
6.	-6647
ari	-6648
cut	-6649
nov	-6650
omb	-6651
ura	-6652
▁27	-6653
▁Bu	-6654
▁id	-6655
ardo	-6656
case	-6657
ocin	-6658
▁Tal	-6659
▁der	-6660
▁gon	-6661
▁jun	-6662
▁lob	-6663
▁obl	-6664
▁pra	-6665
▁wet	-6666
orter	-6667
▁ages	-6668
▁boss	-6669
▁dump	-6670
▁prev	-6671
▁rely	-6672
▁abund	-6673
▁drill	-6674
▁fifth	-6675
▁minor	-6676
▁reefs	-6677
▁utter	-6678
▁views	-6679
▁wound	-6680
astroph	-6681
itution	-6682
▁Jewish	-6683
▁heaven	-6684
▁margin	-6685
▁rating	-6686
▁trends	-6687
▁William	-6688
▁tragedy	-6689
▁aircraft	-6690
▁contains	-6691
▁criminal	-6692
▁pregnant	-6693
▁symmetry	-6694
▁intention	-6695
▁innovations	-6696
▁underground	-6697
▁communications	-6698
li	-6699
bra	-6700
cel	-6701
ixt	-6702
▁Jo	-6703
▁na	-6704
ding	-6705
oral	-6706
rimp	-6707
utch	-6708
▁Fin	-6709
▁MRI	-6710
▁fib	-6711
quare	-6712
▁Girl	-6713
▁Jeff	-6714
▁glad	-6715
▁hire	-6716
▁lock	-6717
ivered	-6718
▁Black	-6719
▁balls	-6720
▁conce	-6721
▁dirty	-6722
▁laser	-6723
▁links	-6724
▁realm	-6725
▁fertil	-6726
▁intent	-6727
▁layers	-6728
▁orange	-6729
▁paraly	-6730
▁poison	-6731
▁retire	-6732
▁stages	-6733
▁Vietnam	-6734
▁airport	-6735
▁beliefs	-6736
▁delight	-6737
▁methods	-6738
▁pointed	-6739
▁symbols	-6740
▁visited	-6741
▁dominant	-6742
▁surfaces	-6743
▁uncomfort	-6744
▁afterwards	-6745
▁mechanisms	-6746
▁transparency	-6747
9.	-6748
So	-6749
oma	-6750
rol	-6751
war	-6752
irds	-6753
oust	-6754
rant	-6755
rons	-6756
zens	-6757
▁Les	-6758
▁Vir	-6759
▁hat	-6760
▁ric	-6761
itate	-6762
▁1960	-6763
▁1980	-6764
▁Back	-6765
▁bias	-6766
▁dive	-6767
▁eleg	-6768
▁lift	-6769
▁mail	-6770
▁toys	-6771
▁Bible	-6772
▁Italy	-6773
▁crops	-6774
▁diver	-6775
▁evalu	-6776
▁pilot	-6777
▁seats	-6778
▁stops	-6779
▁thumb	-6780
▁yours	-6781
igation	-6782
▁Martin	-6783
▁absorb	-6784
▁adding	-6785
▁athlet	-6786
▁capita	-6787
▁commod	-6788
▁stable	-6789
▁consume	-6790
▁crucial	-6791
▁diagram	-6792
▁granted	-6793
▁inspire	-6794
▁speaker	-6795
▁database	-6796
▁external	-6797
▁lighting	-6798
▁passwords	-6799
▁catastroph	-6800
▁terrorists	-6801
def	-6802
ione	-6803
oded	-6804
phor	-6805
▁195	-6806
▁Bon	-6807
▁Hey	-6808
▁Mac	-6809
▁gro	-6810
▁twe	-6811
inder	-6812
tocin	-6813
▁1970	-6814
▁Arch	-6815
▁Flor	-6816
▁Mary	-6817
▁earn	-6818
▁hier	-6819
▁trop	-6820
▁vacu	-6821
arents	-6822
othing	-6823
▁Smith	-6824
▁genoc	-6825
▁recru	-6826
section	-6827
viously	-6828
▁Oxford	-6829
▁emphas	-6830
▁farmer	-6831
▁genius	-6832
▁output	-6833
▁poster	-6834
▁waters	-6835
▁disrupt	-6836
▁ethical	-6837
▁passing	-6838
▁pulling	-6839
▁smoking	-6840
▁isolated	-6841
▁textbook	-6842
▁Hollywood	-6843
▁announced	-6844
▁calculate	-6845
▁delivered	-6846
▁depressed	-6847
▁intuitive	-6848
▁musicians	-6849
▁strangers	-6850
▁affordable	-6851
▁capability	-6852
▁journalist	-6853
▁suggesting	-6854
▁chimpanzees	-6855
▁demonstrate	-6856
▁spectacular	-6857
aj	-6858
uk	-6859
▁x	-6860
ams	-6861
bul	-6862
iac	-6863
▁BF	-6864
▁Ok	-6865
bits	-6866
ideo	-6867
west	-6868
▁Pan	-6869
▁aer	-6870
▁cab	-6871
Where	-6872
alian	-6873
izoph	-6874
▁Turn	-6875
▁clim	-6876
▁neat	-6877
▁nets	-6878
▁peer	-6879
▁pile	-6880
▁tuna	-6881
▁wing	-6882
▁Child	-6883
▁chief	-6884
▁drawn	-6885
▁edges	-6886
▁monit	-6887
▁relax	-6888
▁upset	-6889
▁degrad	-6890
▁extrem	-6891
▁neural	-6892
▁pandem	-6893
▁richer	-6894
▁shrimp	-6895
▁Eastern	-6896
▁General	-6897
▁Whether	-6898
▁circles	-6899
▁happier	-6900
▁origami	-6901
▁category	-6902
▁district	-6903
▁speakers	-6904
▁accidents	-6905
▁elections	-6906
▁inspiring	-6907
▁integrated	-6908
▁treatments	-6909
▁breakthrough	-6910
▁participants	-6911
▁uncomfortable	-6912
Ch	-6913
rid	-6914
uba	-6915
▁SS	-6916
fess	-6917
osal	-6918
▁10-	-6919
▁Oct	-6920
▁ink	-6921
▁spr	-6922
▁unh	-6923
▁wid	-6924
aches	-6925
cohol	-6926
eller	-6927
osure	-6928
▁Mand	-6929
▁Wall	-6930
▁bars	-6931
▁bask	-6932
▁debt	-6933
▁quit	-6934
▁soap	-6935
heimer	-6936
iology	-6937
mingly	-6938
▁Cambr	-6939
▁Ocean	-6940
▁banks	-6941
▁chrom	-6942
▁lungs	-6943
▁manif	-6944
▁sheet	-6945
▁veter	-6946
isphere	-6947
ogether	-6948
▁Rwanda	-6949
▁dozens	-6950
▁emerge	-6951
▁origin	-6952
▁perpet	-6953
▁regret	-6954
▁tricks	-6955
▁anthrop	-6956
▁chapter	-6957
▁consult	-6958
▁defense	-6959
▁disturb	-6960
▁helicop	-6961
▁parties	-6962
▁reduced	-6963
▁traject	-6964
▁conclude	-6965
▁dynamics	-6966
▁includes	-6967
▁dependent	-6968
▁separated	-6969
▁variation	-6970
▁biologists	-6971
▁protecting	-6972
▁reputation	-6973
▁ridiculous	-6974
▁photography	-6975
▁predictions	-6976
▁agricultural	-6977
▁characteristics	-6978
bed	-6979
lyn	-6980
▁32	-6981
Talk	-6982
atom	-6983
fold	-6984
onds	-6985
▁Bel	-6986
▁Bur	-6987
▁Rio	-6988
▁Ven	-6989
▁Was	-6990
amine	-6991
ested	-6992
opher	-6993
▁Pole	-6994
▁laid	-6995
▁rail	-6996
utical	-6997
▁aesth	-6998
▁blame	-6999
▁fuels	-7000
▁jelly	-7001
▁spark	-7002
▁spots	-7003
▁Design	-7004
▁Soviet	-7005
▁integr	-7006
▁observ	-7007
▁settle	-7008
▁tribes	-7009
▁Florida	-7010
▁anxiety	-7011
▁briefly	-7012
▁federal	-7013
▁impacts	-7014
▁painted	-7015
▁picking	-7016
▁prosper	-7017
▁reports	-7018
▁revenue	-7019
▁session	-7020
▁Children	-7021
▁Ethiopia	-7022
▁agencies	-7023
▁returned	-7024
▁unlikely	-7025
▁ignorance	-7026
▁physicist	-7027
▁synthetic	-7028
▁teenagers	-7029
▁determined	-7030
▁dictionary	-7031
▁ecosystems	-7032
▁identified	-7033
▁consequence	-7034
▁improvement	-7035
▁intervention	-7036
▁photographer	-7037
obs	-7038
▁2,	-7039
▁gh	-7040
onic	-7041
enger	-7042
oding	-7043
ribly	-7044
▁Gand	-7045
▁adap	-7046
▁enth	-7047
▁kiss	-7048
▁knee	-7049
▁mate	-7050
▁tied	-7051
iatric	-7052
▁Carol	-7053
▁Peter	-7054
▁apple	-7055
▁cliff	-7056
▁cryst	-7057
▁digit	-7058
▁disag	-7059
▁opens	-7060
▁strip	-7061
▁unpre	-7062
▁branch	-7063
▁landed	-7064
▁robust	-7065
▁stores	-7066
▁triang	-7067
▁trucks	-7068
izophren	-7069
▁TEDTalk	-7070
▁recover	-7071
▁welcome	-7072
▁wheelch	-7073
aceutical	-7074
▁Research	-7075
▁bathroom	-7076
▁incident	-7077
▁reminded	-7078
▁repeated	-7079
▁smallpox	-7080
▁southern	-7081
▁Obviously	-7082
▁dimension	-7083
▁Department	-7084
▁originally	-7085
▁constructed	-7086
▁experimental	-7087
▁globalization	-7088
hal	-7089
iel	-7090
raw	-7091
atts	-7092
icks	-7093
ober	-7094
rich	-7095
▁Alz	-7096
▁Bay	-7097
▁Lab	-7098
▁Mod	-7099
▁Sur	-7100
▁Wal	-7101
▁bio	-7102
▁lon	-7103
▁lux	-7104
capes	-7105
isted	-7106
obile	-7107
▁Dere	-7108
▁Long	-7109
▁Time	-7110
▁beet	-7111
▁brib	-7112
▁caps	-7113
▁mall	-7114
▁rent	-7115
▁wise	-7116
erving	-7117
▁Antar	-7118
▁Prize	-7119
▁River	-7120
▁Third	-7121
▁Video	-7122
▁actor	-7123
▁brave	-7124
▁chaos	-7125
▁doors	-7126
▁fiber	-7127
▁glaci	-7128
▁naked	-7129
▁nucle	-7130
▁proof	-7131
▁threw	-7132
▁ultra	-7133
ughters	-7134
▁Arabic	-7135
▁adoles	-7136
▁agency	-7137
▁inches	-7138
▁injury	-7139
▁linear	-7140
▁nurses	-7141
▁pushed	-7142
▁rarely	-7143
▁simult	-7144
▁vacuum	-7145
fficient	-7146
▁October	-7147
▁alcohol	-7148
▁citizen	-7149
▁clients	-7150
▁hanging	-7151
▁pyramid	-7152
▁sensory	-7153
▁crossing	-7154
▁facility	-7155
▁oxytocin	-7156
▁Alzheimer	-7157
▁copyright	-7158
▁positions	-7159
▁predicted	-7160
▁primarily	-7161
▁sentences	-7162
▁underlying	-7163
▁assumptions	-7164
▁discoveries	-7165
DA	-7166
Can	-7167
hes	-7168
▁95	-7169
▁Os	-7170
ache	-7171
emen	-7172
pond	-7173
rome	-7174
zero	-7175
▁700	-7176
▁Syr	-7177
▁sle	-7178
▁spa	-7179
▁wra	-7180
opard	-7181
tical	-7182
▁Beij	-7183
▁Star	-7184
▁fool	-7185
▁mode	-7186
▁salt	-7187
▁stom	-7188
▁sulf	-7189
icious	-7190
▁arrow	-7191
▁begun	-7192
▁court	-7193
▁fract	-7194
▁holds	-7195
▁punch	-7196
attered	-7197
▁Saturn	-7198
▁Virgin	-7199
▁caring	-7200
▁fought	-7201
▁reveal	-7202
▁sticks	-7203
▁thresh	-7204
▁bubbles	-7205
▁comprom	-7206
▁drivers	-7207
▁farming	-7208
▁hackers	-7209
▁shelter	-7210
▁targets	-7211
▁artistic	-7212
▁dinosaur	-7213
▁extended	-7214
▁figuring	-7215
▁inherent	-7216
▁shopping	-7217
▁expanding	-7218
▁inevitable	-7219
▁translated	-7220
▁schizophren	-7221
▁grandchildren	-7222
BI	-7223
tw	-7224
bru	-7225
che	-7226
erd	-7227
hum	-7228
opy	-7229
ugg	-7230
aran	-7231
born	-7232
izar	-7233
onia	-7234
urse	-7235
▁120	-7236
▁191	-7237
▁Cor	-7238
▁hip	-7239
▁Give	-7240
▁clar	-7241
▁meal	-7242
▁pupp	-7243
▁sits	-7244
makers	-7245
market	-7246
mented	-7247
▁burst	-7248
▁exped	-7249
▁gases	-7250
▁gonna	-7251
▁owner	-7252
▁reson	-7253
▁Nature	-7254
▁chairs	-7255
▁panels	-7256
▁partly	-7257
▁sacred	-7258
▁scores	-7259
▁volcan	-7260
American	-7261
▁chromos	-7262
▁elderly	-7263
▁emerged	-7264
▁involve	-7265
▁answered	-7266
▁attitude	-7267
▁focusing	-7268
▁throwing	-7269
▁frequency	-7270
▁objective	-7271
▁primitive	-7272
▁consistent	-7273
▁permission	-7274
▁observation	-7275
MA	-7276
MS	-7277
And	-7278
ali	-7279
auc	-7280
ena	-7281
err	-7282
lar	-7283
apor	-7284
free	-7285
half	-7286
illa	-7287
liam	-7288
ulum	-7289
▁'60	-7290
▁CEO	-7291
▁Ken	-7292
▁Mah	-7293
▁sav	-7294
ffect	-7295
gency	-7296
ocent	-7297
riger	-7298
▁acid	-7299
▁dear	-7300
▁hill	-7301
▁rice	-7302
▁sink	-7303
itudes	-7304
▁4,000	-7305
▁array	-7306
▁flour	-7307
▁sharp	-7308
▁stunt	-7309
athered	-7310
▁Things	-7311
▁barrel	-7312
▁ensure	-7313
▁pursue	-7314
▁regime	-7315
▁sensor	-7316
▁served	-7317
▁subtle	-7318
▁Through	-7319
▁graphic	-7320
▁helpful	-7321
▁imagery	-7322
▁magical	-7323
▁promote	-7324
▁sisters	-7325
▁smarter	-7326
▁writers	-7327
▁flexible	-7328
▁measures	-7329
▁proposed	-7330
▁sleeping	-7331
▁abilities	-7332
▁confident	-7333
▁diagnosed	-7334
▁documents	-7335
▁expansion	-7336
▁forgotten	-7337
▁highlight	-7338
▁suggested	-7339
▁autonomous	-7340
▁difficulty	-7341
▁disappoint	-7342
▁mysterious	-7343
▁operations	-7344
▁resilience	-7345
▁satellites	-7346
▁philanthrop	-7347
▁collaborative	-7348
▁participation	-7349
EC	-7350
ET	-7351
cap	-7352
▁26	-7353
eart	-7354
iens	-7355
izer	-7356
▁Acc	-7357
▁Det	-7358
▁Hel	-7359
▁Ser	-7360
▁Six	-7361
▁cas	-7362
▁hey	-7363
▁mur	-7364
allow	-7365
anned	-7366
atrix	-7367
inson	-7368
▁Blue	-7369
▁Cont	-7370
▁Sund	-7371
▁cott	-7372
▁defe	-7373
▁plug	-7374
▁tear	-7375
▁whis	-7376
erable	-7377
izarre	-7378
soever	-7379
▁Titan	-7380
▁audio	-7381
▁bucks	-7382
▁elite	-7383
▁joint	-7384
▁pione	-7385
▁plain	-7386
▁roots	-7387
▁skept	-7388
▁tribe	-7389
▁Within	-7390
▁assess	-7391
▁buried	-7392
▁curren	-7393
▁merely	-7394
▁needle	-7395
▁transm	-7396
▁victim	-7397
▁Russian	-7398
▁analyze	-7399
▁enterpr	-7400
▁failing	-7401
▁hitting	-7402
▁immense	-7403
▁liberal	-7404
▁millenn	-7405
▁Somebody	-7406
▁baseball	-7407
▁colonies	-7408
▁dialogue	-7409
▁keyboard	-7410
▁openness	-7411
▁refriger	-7412
▁elephants	-7413
▁gathering	-7414
▁immediate	-7415
▁radically	-7416
▁supported	-7417
▁additional	-7418
▁struggling	-7419
▁whatsoever	-7420
▁astonishing	-7421
▁programming	-7422
▁biodiversity	-7423
▁photographed	-7424
hh	-7425
elf	-7426
oli	-7427
ora	-7428
▁KB	-7429
When	-7430
iban	-7431
oran	-7432
▁Put	-7433
▁Som	-7434
▁gee	-7435
▁ham	-7436
itous	-7437
mates	-7438
ville	-7439
worth	-7440
▁Move	-7441
▁Play	-7442
▁duck	-7443
▁grat	-7444
▁lamp	-7445
▁mood	-7446
▁phos	-7447
▁tone	-7448
bruary	-7449
esthes	-7450
semble	-7451
▁Brown	-7452
▁Gates	-7453
▁agent	-7454
▁chron	-7455
▁craft	-7456
▁flows	-7457
▁silly	-7458
▁spell	-7459
liament	-7460
unction	-7461
▁arrive	-7462
▁domain	-7463
▁ending	-7464
▁lawyer	-7465
▁shaped	-7466
▁theore	-7467
▁convert	-7468
▁deliber	-7469
▁dolphin	-7470
▁founded	-7471
▁routine	-7472
▁selfish	-7473
▁shocked	-7474
▁slavery	-7475
▁soldier	-7476
▁February	-7477
▁climbing	-7478
▁fabulous	-7479
▁fraction	-7480
▁genocide	-7481
▁leverage	-7482
▁refugees	-7483
▁Cambridge	-7484
▁completed	-7485
▁daughters	-7486
▁exception	-7487
▁expectancy	-7488
▁explaining	-7489
▁industries	-7490
▁wheelchair	-7491
▁instructions	-7492
▁successfully	-7493
▁demonstration	-7494
▁interestingly	-7495
11	-7496
fe	-7497
va	-7498
ala	-7499
udi	-7500
▁0.	-7501
▁3.	-7502
abil	-7503
agos	-7504
conf	-7505
eday	-7506
enly	-7507
yard	-7508
▁Aug	-7509
▁Isn	-7510
▁LED	-7511
▁Mor	-7512
▁Out	-7513
▁Sar	-7514
▁aqu	-7515
▁cig	-7516
▁lit	-7517
copes	-7518
ifice	-7519
▁Tell	-7520
▁butt	-7521
▁cats	-7522
▁cert	-7523
▁craw	-7524
▁publ	-7525
▁tech	-7526
▁tort	-7527
engine	-7528
oosing	-7529
▁Derek	-7530
▁Greek	-7531
▁Jesus	-7532
▁Scott	-7533
▁cable	-7534
▁owned	-7535
▁wider	-7536
embered	-7537
▁Norway	-7538
▁basket	-7539
▁compos	-7540
▁curric	-7541
▁funded	-7542
▁intrig	-7543
▁skelet	-7544
▁surviv	-7545
interest	-7546
▁bizarre	-7547
▁methane	-7548
▁prepare	-7549
▁refugee	-7550
▁warning	-7551
▁washing	-7552
▁confused	-7553
▁informed	-7554
▁invested	-7555
▁manifest	-7556
▁perceive	-7557
▁skeleton	-7558
▁strongly	-7559
▁suffered	-7560
▁accomplish	-7561
▁correspond	-7562
▁hypothesis	-7563
▁proportion	-7564
▁description	-7565
▁translation	-7566
▁capabilities	-7567
▁surprisingly	-7568
▁unbelievable	-7569
▁architectural	-7570
▁representation	-7571
ya	-7572
Wow	-7573
aze	-7574
eda	-7575
hop	-7576
mod	-7577
rit	-7578
sey	-7579
▁MT	-7580
▁Ty	-7581
▁ub	-7582
ason	-7583
play	-7584
uity	-7585
umes	-7586
▁'70	-7587
▁'90	-7588
▁800	-7589
▁Joe	-7590
▁Lou	-7591
▁Mom	-7592
▁ain	-7593
▁dim	-7594
▁sew	-7595
ician	-7596
stage	-7597
▁Bron	-7598
▁Comp	-7599
▁Coun	-7600
▁Dece	-7601
▁cham	-7602
▁leaf	-7603
▁tong	-7604
encing	-7605
fessor	-7606
▁Organ	-7607
▁advoc	-7608
▁bears	-7609
▁mixed	-7610
▁nerve	-7611
▁nurse	-7612
▁stake	-7613
▁tempt	-7614
▁trash	-7615
▁weeke	-7616
parents	-7617
▁Arctic	-7618
▁Should	-7619
▁breaks	-7620
▁cheese	-7621
▁correl	-7622
▁decent	-7623
▁garage	-7624
▁golden	-7625
▁rivers	-7626
▁stroke	-7627
▁tumors	-7628
▁tunnel	-7629
▁Islands	-7630
▁adopted	-7631
▁elected	-7632
▁fragile	-7633
▁lawyers	-7634
▁miracle	-7635
▁synthes	-7636
▁threats	-7637
istically	-7638
▁December	-7639
▁cartoons	-7640
▁choosing	-7641
▁educated	-7642
▁entering	-7643
▁homework	-7644
▁neurolog	-7645
▁stranger	-7646
▁fortunate	-7647
▁infection	-7648
▁nutrition	-7649
▁attractive	-7650
▁hemisphere	-7651
▁simulation	-7652
▁uncertainty	-7653
▁pharmaceutical	-7654
LA	-7655
OK	-7656
sc	-7657
sp	-7658
100	-7659
sun	-7660
yal	-7661
▁AB	-7662
▁Up	-7663
pled	-7664
road	-7665
viol	-7666
▁Unt	-7667
▁boo	-7668
clock	-7669
stone	-7670
▁Gore	-7671
▁Miss	-7672
▁None	-7673
▁Span	-7674
▁brut	-7675
▁dumb	-7676
▁neck	-7677
▁orph	-7678
▁rats	-7679
▁suck	-7680
friend	-7681
mental	-7682
rained	-7683
▁bored	-7684
▁membr	-7685
▁ships	-7686
▁shout	-7687
▁squee	-7688
▁wired	-7689
otherap	-7690
▁Turkey	-7691
▁killer	-7692
▁tackle	-7693
▁Beijing	-7694
▁Taliban	-7695
▁affects	-7696
▁closing	-7697
▁fastest	-7698
▁persist	-7699
▁restore	-7700
▁distingu	-7701
▁judgment	-7702
▁restrict	-7703
▁adventure	-7704
▁expecting	-7705
▁gradually	-7706
▁intuition	-7707
▁magnitude	-7708
▁microbial	-7709
▁paralyzed	-7710
▁physician	-7711
▁realizing	-7712
▁replicate	-7713
▁terrorist	-7714
▁compelling	-7715
▁remembered	-7716
▁authorities	-7717
▁competitive	-7718
▁genetically	-7719
▁experiencing	-7720
BM	-7721
He	-7722
Who	-7723
ela	-7724
kin	-7725
sch	-7726
fast	-7727
kins	-7728
yrus	-7729
▁Lib	-7730
▁Moo	-7731
▁Nic	-7732
▁Wow	-7733
▁sin	-7734
▁upd	-7735
ading	-7736
flies	-7737
gence	-7738
maker	-7739
ostic	-7740
▁cake	-7741
▁cong	-7742
▁cous	-7743
▁dism	-7744
▁pale	-7745
aching	-7746
atever	-7747
urable	-7748
▁foods	-7749
▁pride	-7750
▁schem	-7751
▁shots	-7752
▁spray	-7753
▁tooth	-7754
angible	-7755
working	-7756
▁August	-7757
▁Church	-7758
▁Mother	-7759
▁addict	-7760
▁enthus	-7761
▁headed	-7762
▁jumped	-7763
▁mining	-7764
▁negoti	-7765
▁occurs	-7766
▁senior	-7767
▁unable	-7768
▁widely	-7769
▁beneath	-7770
▁besides	-7771
▁chances	-7772
▁charges	-7773
▁demands	-7774
▁deserve	-7775
▁enables	-7776
▁fortune	-7777
▁imaging	-7778
▁leather	-7779
▁staying	-7780
▁winning	-7781
▁articles	-7782
▁covering	-7783
▁homeless	-7784
▁improved	-7785
▁included	-7786
▁innocent	-7787
▁initially	-7788
▁remaining	-7789
▁threshold	-7790
▁profoundly	-7791
▁traditions	-7792
▁trajectory	-7793
▁exponential	-7794
▁institutional	-7795
▁professionals	-7796
Sah	-7797
ati	-7798
bar	-7799
ctu	-7800
des	-7801
enh	-7802
ague	-7803
four	-7804
ship	-7805
xual	-7806
▁Sou	-7807
▁Ver	-7808
▁bug	-7809
▁lap	-7810
adays	-7811
anged	-7812
field	-7813
iogen	-7814
opath	-7815
oples	-7816
otted	-7817
umble	-7818
▁alph	-7819
▁deli	-7820
▁dile	-7821
▁gaps	-7822
▁gods	-7823
▁lean	-7824
▁nurt	-7825
active	-7826
edding	-7827
icient	-7828
iences	-7829
▁Bronx	-7830
▁Brook	-7831
▁chips	-7832
▁civic	-7833
▁drone	-7834
▁marry	-7835
▁pairs	-7836
▁shore	-7837
▁spont	-7838
▁steal	-7839
▁valid	-7840
ounding	-7841
▁burned	-7842
▁errors	-7843
▁metric	-7844
▁shrink	-7845
▁tracks	-7846
cedented	-7847
▁Without	-7848
▁distort	-7849
▁footage	-7850
▁observe	-7851
▁peoples	-7852
▁printer	-7853
▁secrets	-7854
▁Minister	-7855
▁comments	-7856
▁detailed	-7857
▁musician	-7858
▁pandemic	-7859
▁preserve	-7860
▁scenario	-7861
▁survived	-7862
▁tendency	-7863
▁qualities	-7864
▁reactions	-7865
▁substance	-7866
▁approaches	-7867
▁assumption	-7868
▁curriculum	-7869
▁facilities	-7870
▁influenced	-7871
▁physicists	-7872
▁vulnerability	-7873
aa	-7874
gu	-7875
lim	-7876
▁85	-7877
▁rh	-7878
aded	-7879
agen	-7880
erer	-7881
ifer	-7882
kind	-7883
ownt	-7884
ropy	-7885
▁'80	-7886
▁20,	-7887
▁Mag	-7888
▁Tes	-7889
▁cub	-7890
▁dop	-7891
▁nom	-7892
gines	-7893
lings	-7894
▁Brun	-7895
▁Camp	-7896
▁Hill	-7897
▁Homo	-7898
▁Leon	-7899
▁asks	-7900
▁frog	-7901
▁lone	-7902
▁odds	-7903
▁pigs	-7904
▁soup	-7905
▁susp	-7906
▁tsun	-7907
▁urge	-7908
▁woke	-7909
employ	-7910
▁Trans	-7911
▁brows	-7912
▁dilem	-7913
▁outer	-7914
▁queen	-7915
▁rehab	-7916
▁spons	-7917
inarily	-7918
▁Square	-7919
▁aggreg	-7920
▁convey	-7921
▁formal	-7922
▁engines	-7923
▁forming	-7924
▁mindset	-7925
▁portion	-7926
▁profile	-7927
▁uniform	-7928
▁channels	-7929
▁clothing	-7930
▁distract	-7931
▁gathered	-7932
▁insights	-7933
▁optimism	-7934
▁socially	-7935
▁substant	-7936
▁conducted	-7937
▁factories	-7938
▁glamorous	-7939
▁instantly	-7940
▁investing	-7941
▁nutrients	-7942
▁aggressive	-7943
▁comparison	-7944
▁frustrated	-7945
▁significantly	-7946
▁unprecedented	-7947
▁interpretation	-7948
▁simultaneously	-7949
aby	-7950
ini	-7951
isy	-7952
▁Bo	-7953
agon	-7954
ails	-7955
ares	-7956
arsh	-7957
estr	-7958
olic	-7959
quis	-7960
▁Hen	-7961
▁Ray	-7962
irect	-7963
ivial	-7964
press	-7965
▁bell	-7966
▁coca	-7967
▁dies	-7968
▁dung	-7969
▁irre	-7970
▁lake	-7971
▁west	-7972
▁2000,	-7973
▁March	-7974
▁Power	-7975
▁cruel	-7976
▁incor	-7977
▁indig	-7978
▁kills	-7979
▁lifes	-7980
▁lions	-7981
▁tends	-7982
▁30,000	-7983
▁acoust	-7984
▁combat	-7985
▁export	-7986
▁halluc	-7987
▁rubber	-7988
▁subway	-7989
andering	-7990
otherapy	-7991
quarters	-7992
▁analogy	-7993
▁arrange	-7994
▁bottles	-7995
▁courses	-7996
▁flowing	-7997
▁garbage	-7998
▁regener	-7999
▁rolling	-8000
▁serving	-8001
▁trigger	-8002
▁wealthy	-8003
▁Northern	-8004
▁accounts	-8005
▁delivery	-8006
▁explains	-8007
▁morality	-8008
▁purposes	-8009
▁remained	-8010
▁wildlife	-8011
▁Alexander	-8012
▁anonymous	-8013
▁expertise	-8014
▁extension	-8015
▁gentleman	-8016
▁healthier	-8017
▁improving	-8018
▁obstacles	-8019
▁ownership	-8020
▁strategic	-8021
▁medication	-8022
▁structural	-8023
▁demographic	-8024
▁restaurants	-8025
▁conservative	-8026
▁contemporary	-8027
ani	-8028
asm	-8029
uke	-8030
▁28	-8031
▁33	-8032
▁ho	-8033
asty	-8034
atar	-8035
fram	-8036
imal	-8037
mony	-8038
uded	-8039
▁Jud	-8040
▁Sir	-8041
▁Tim	-8042
antom	-8043
athan	-8044
chron	-8045
licit	-8046
ogram	-8047
rence	-8048
▁Both	-8049
▁Eric	-8050
▁Jose	-8051
▁Mike	-8052
▁bend	-8053
▁gate	-8054
▁gear	-8055
▁iPod	-8056
▁outs	-8057
▁prec	-8058
▁2007,	-8059
▁Dutch	-8060
▁Saudi	-8061
▁Sorry	-8062
▁Spain	-8063
▁Under	-8064
▁armed	-8065
▁blogs	-8066
▁camps	-8067
▁crick	-8068
▁excit	-8069
▁fears	-8070
▁gotta	-8071
▁inhab	-8072
▁panel	-8073
▁proto	-8074
▁suspe	-8075
▁troub	-8076
▁ubiqu	-8077
Saharan	-8078
itating	-8079
looking	-8080
usiness	-8081
▁Econom	-8082
▁cosmic	-8083
▁drones	-8084
▁recept	-8085
▁ticket	-8086
▁trains	-8087
orescent	-8088
▁Council	-8089
▁contrad	-8090
▁females	-8091
▁hunting	-8092
▁located	-8093
▁printed	-8094
▁reminds	-8095
▁someday	-8096
▁Southern	-8097
▁drawings	-8098
▁friendly	-8099
▁pointing	-8100
▁reducing	-8101
▁shipping	-8102
▁versions	-8103
▁airplanes	-8104
▁interrupt	-8105
▁nonprofit	-8106
▁categories	-8107
▁classrooms	-8108
▁impression	-8109
▁supporting	-8110
▁threatened	-8111
▁established	-8112
▁compassionate	-8113
CA	-8114
.'"	-8115
bye	-8116
see	-8117
zee	-8118
▁CD	-8119
aves	-8120
cons	-8121
cost	-8122
hist	-8123
ipts	-8124
omin	-8125
ords	-8126
umin	-8127
▁Cra	-8128
▁Met	-8129
▁awk	-8130
▁gre	-8131
▁ine	-8132
asses	-8133
human	-8134
ormal	-8135
produ	-8136
usted	-8137
▁NGOs	-8138
▁crew	-8139
▁file	-8140
▁fung	-8141
▁genu	-8142
▁hors	-8143
minute	-8144
▁2009,	-8145
▁2010,	-8146
▁Charl	-8147
▁altru	-8148
▁badly	-8149
▁energ	-8150
▁intim	-8151
▁loves	-8152
▁pause	-8153
▁poems	-8154
▁sixth	-8155
▁uncle	-8156
perform	-8157
▁Howard	-8158
▁Newton	-8159
▁Scient	-8160
▁column	-8161
▁inevit	-8162
▁matrix	-8163
▁nights	-8164
▁planes	-8165
▁tongue	-8166
▁upside	-8167
▁Indians	-8168
▁Spanish	-8169
▁Whereas	-8170
▁awkward	-8171
▁cigaret	-8172
▁closest	-8173
▁despair	-8174
▁entropy	-8175
▁islands	-8176
▁officer	-8177
▁ongoing	-8178
▁rituals	-8179
▁scanner	-8180
▁Although	-8181
▁Secondly	-8182
▁Whatever	-8183
▁believes	-8184
▁connects	-8185
▁counting	-8186
▁dopamine	-8187
▁genetics	-8188
▁graphics	-8189
▁peaceful	-8190
▁redesign	-8191
▁reliable	-8192
▁stereoty	-8193
▁classical	-8194
▁detection	-8195
▁excellent	-8196
▁explosion	-8197
▁incentive	-8198
▁performed	-8199
otechnology	-8200
▁discipline	-8201
▁excitement	-8202
▁extinction	-8203
▁computation	-8204
▁occasionally	-8205
mo	-8206
ghai	-8207
neys	-8208
wind	-8209
▁Age	-8210
▁Bet	-8211
▁Den	-8212
▁Fey	-8213
▁gam	-8214
▁tie	-8215
▁tut	-8216
anges	-8217
apped	-8218
burgh	-8219
copic	-8220
ctica	-8221
inter	-8222
puter	-8223
▁Cour	-8224
▁Hall	-8225
▁Shan	-8226
▁Walk	-8227
▁bats	-8228
▁clay	-8229
▁deck	-8230
▁gram	-8231
▁guns	-8232
▁nerd	-8233
▁subt	-8234
phorus	-8235
rowing	-8236
▁2008,	-8237
▁Asian	-8238
▁Delhi	-8239
▁Eight	-8240
▁Hello	-8241
▁Moore	-8242
▁Peace	-8243
▁devil	-8244
▁incom	-8245
▁items	-8246
▁opera	-8247
▁overl	-8248
▁tower	-8249
itative	-8250
▁Govern	-8251
▁annual	-8252
▁canopy	-8253
▁client	-8254
▁comedy	-8255
▁lowest	-8256
▁luxury	-8257
▁nearby	-8258
▁orient	-8259
▁preval	-8260
▁prosth	-8261
▁stimul	-8262
▁strike	-8263
▁tragic	-8264
▁upload	-8265
▁200,000	-8266
▁Italian	-8267
▁beating	-8268
▁genuine	-8269
▁glasses	-8270
▁harness	-8271
▁package	-8272
▁percept	-8273
▁profits	-8274
▁spreads	-8275
▁tissues	-8276
▁applying	-8277
▁catching	-8278
▁earliest	-8279
▁magnific	-8280
▁precious	-8281
▁reinvent	-8282
▁robotics	-8283
▁shifting	-8284
▁terribly	-8285
▁graduated	-8286
▁investors	-8287
▁phenomena	-8288
▁sacrifice	-8289
▁transcend	-8290
▁Antarctica	-8291
▁appearance	-8292
▁continents	-8293
▁continuing	-8294
▁encouraged	-8295
▁impressive	-8296
▁vegetables	-8297
▁approaching	-8298
▁fortunately	-8299
▁journalists	-8300
▁reconstruct	-8301
▁corporations	-8302
▁grandparents	-8303
▁straightforward	-8304
ava	-8305
cro	-8306
▁IM	-8307
▁RB	-8308
edge	-8309
gram	-8310
ihad	-8311
ilty	-8312
made	-8313
ueen	-8314
▁Far	-8315
▁Kev	-8316
▁Sud	-8317
▁Tel	-8318
▁alb	-8319
▁jew	-8320
anzan	-8321
eries	-8322
grade	-8323
icial	-8324
isons	-8325
itage	-8326
itzer	-8327
oning	-8328
▁2050	-8329
▁Bell	-8330
▁Josh	-8331
▁Make	-8332
▁Same	-8333
▁Sure	-8334
▁ange	-8335
▁bind	-8336
▁cath	-8337
▁damn	-8338
▁fits	-8339
▁grav	-8340
▁loan	-8341
▁neoc	-8342
▁nuts	-8343
▁prol	-8344
▁rose	-8345
▁tune	-8346
aneous	-8347
astics	-8348
ifully	-8349
itated	-8350
tering	-8351
umines	-8352
▁Watch	-8353
▁align	-8354
▁amate	-8355
▁annoy	-8356
▁downt	-8357
▁drown	-8358
▁eaten	-8359
▁fancy	-8360
▁farms	-8361
▁revol	-8362
▁sauce	-8363
▁tubes	-8364
▁wires	-8365
angered	-8366
uilding	-8367
▁Sunday	-8368
▁System	-8369
▁Tanzan	-8370
▁burden	-8371
▁cotton	-8372
▁ethnic	-8373
▁excess	-8374
▁freely	-8375
▁propag	-8376
▁sketch	-8377
▁speaks	-8378
▁traits	-8379
esthesia	-8380
▁Develop	-8381
▁compete	-8382
▁dressed	-8383
▁paradox	-8384
▁pedestr	-8385
▁phantom	-8386
▁propose	-8387
▁rethink	-8388
▁arrested	-8389
▁branches	-8390
▁circuits	-8391
▁currency	-8392
▁managers	-8393
▁navigate	-8394
▁scholars	-8395
▁teenager	-8396
▁unemploy	-8397
▁affecting	-8398
▁broadcast	-8399
▁collapsed	-8400
▁passenger	-8401
▁perceived	-8402
▁religions	-8403
▁seemingly	-8404
▁signature	-8405
▁stability	-8406
▁temporary	-8407
▁chimpanzee	-8408
▁disability	-8409
▁ecological	-8410
▁landscapes	-8411
▁monitoring	-8412
▁prediction	-8413
▁previously	-8414
▁researcher	-8415
▁achievement	-8416
▁interviewed	-8417
▁philosopher	-8418
▁alternatives	-8419
hea	-8420
▁LG	-8421
away	-8422
lend	-8423
list	-8424
▁20-	-8425
▁FBI	-8426
▁Moz	-8427
▁Ros	-8428
▁Tas	-8429
▁bin	-8430
▁dys	-8431
▁ski	-8432
▁ven	-8433
arest	-8434
ashed	-8435
elson	-8436
orage	-8437
pless	-8438
ushed	-8439
▁Fort	-8440
▁Mach	-8441
▁Rand	-8442
▁Vict	-8443
▁inex	-8444
▁rape	-8445
▁rope	-8446
▁synd	-8447
iberia	-8448
▁Koran	-8449
▁caves	-8450
▁divor	-8451
▁flags	-8452
▁hydro	-8453
▁numer	-8454
▁ratio	-8455
▁safer	-8456
▁shirt	-8457
▁viral	-8458
reating	-8459
▁campus	-8460
▁dating	-8461
▁dragon	-8462
▁editor	-8463
▁fibers	-8464
▁habits	-8465
▁hiding	-8466
▁improv	-8467
▁loving	-8468
▁makers	-8469
▁recall	-8470
▁recess	-8471
▁static	-8472
▁subsid	-8473
▁vagina	-8474
controll	-8475
▁Indones	-8476
▁Johnson	-8477
▁hardest	-8478
▁manager	-8479
▁offices	-8480
▁pockets	-8481
▁resolve	-8482
▁stomach	-8483
▁tsunami	-8484
▁Shanghai	-8485
▁asteroid	-8486
▁customer	-8487
▁decrease	-8488
▁generous	-8489
▁offering	-8490
▁replaced	-8491
▁smallest	-8492
▁synchron	-8493
▁diagnosis	-8494
▁distances	-8495
▁guarantee	-8496
▁jellyfish	-8497
▁prisoners	-8498
▁procedure	-8499
▁responses	-8500
▁workforce	-8501
▁assignment	-8502
▁assistance	-8503
▁commission	-8504
▁endangered	-8505
▁yourselves	-8506
▁collectively	-8507
▁transforming	-8508
▁administration	-8509
OL	-8510
200	-8511
For	-8512
cip	-8513
dig	-8514
oln	-8515
▁36	-8516
▁DV	-8517
airo	-8518
amps	-8519
crim	-8520
eady	-8521
lers	-8522
▁202	-8523
▁30-	-8524
▁Edu	-8525
▁ads	-8526
bably	-8527
izers	-8528
venth	-8529
▁Ford	-8530
▁Fore	-8531
▁July	-8532
▁Mill	-8533
▁Open	-8534
▁Rock	-8535
▁Snow	-8536
▁Sudd	-8537
▁brid	-8538
▁clue	-8539
▁coat	-8540
▁crop	-8541
▁tatt	-8542
▁warr	-8543
incoln	-8544
weight	-8545
▁Arist	-8546
▁Henry	-8547
▁Santa	-8548
▁Until	-8549
▁Yemen	-8550
▁encry	-8551
▁fault	-8552
▁hired	-8553
▁insul	-8554
▁locom	-8555
▁parks	-8556
▁patch	-8557
▁screw	-8558
▁slime	-8559
▁slums	-8560
▁wheat	-8561
▁winds	-8562
ometown	-8563
▁During	-8564
▁Except	-8565
▁Twenty	-8566
▁agents	-8567
▁builds	-8568
▁cycles	-8569
▁diving	-8570
▁estate	-8571
▁fusion	-8572
▁gained	-8573
▁rhythm	-8574
▁silver	-8575
▁troops	-8576
▁wheels	-8577
changing	-8578
▁Neander	-8579
▁bedroom	-8580
▁cocaine	-8581
▁ignored	-8582
▁passive	-8583
▁stepped	-8584
▁storage	-8585
▁teenage	-8586
▁Palestin	-8587
▁interior	-8588
▁interven	-8589
▁mobility	-8590
▁relation	-8591
▁sciences	-8592
▁Professor	-8593
▁addiction	-8594
▁audiences	-8595
▁breakfast	-8596
▁estimates	-8597
▁miserable	-8598
▁sensation	-8599
▁succeeded	-8600
▁helicopter	-8601
▁phosphorus	-8602
▁terrifying	-8603
▁ubiquitous	-8604
▁desperately	-8605
▁discovering	-8606
▁encouraging	-8607
▁predictable	-8608
▁specialized	-8609
▁unconscious	-8610
▁schizophrenia	-8611
▁mathematicians	-8612
aid	-8613
arl	-8614
col	-8615
ege	-8616
eps	-8617
ona	-8618
▁Gr	-8619
▁SP	-8620
iece	-8621
inth	-8622
irlf	-8623
izza	-8624
outs	-8625
sell	-8626
▁Dra	-8627
▁Its	-8628
▁hal	-8629
▁les	-8630
▁obt	-8631
elled	-8632
ensus	-8633
icked	-8634
inery	-8635
lades	-8636
sized	-8637
uther	-8638
▁Abra	-8639
▁Supp	-8640
▁ampl	-8641
▁bags	-8642
▁bold	-8643
▁dawn	-8644
▁heal	-8645
▁labs	-8646
▁rect	-8647
▁shit	-8648
▁toes	-8649
iously	-8650
▁Being	-8651
▁Medic	-8652
▁anten	-8653
▁coinc	-8654
▁defic	-8655
▁donor	-8656
▁immig	-8657
▁knife	-8658
▁mayor	-8659
▁plank	-8660
▁redef	-8661
▁shine	-8662
▁spill	-8663
▁trace	-8664
▁worms	-8665
▁Columb	-8666
▁Friday	-8667
▁Nelson	-8668
▁Yorker	-8669
▁bullet	-8670
▁manual	-8671
▁marvel	-8672
▁native	-8673
▁proven	-8674
▁safely	-8675
▁Anybody	-8676
▁Aristot	-8677
▁Redwood	-8678
▁absence	-8679
▁arguing	-8680
▁clinics	-8681
▁destiny	-8682
▁drought	-8683
▁ecology	-8684
▁horizon	-8685
▁hormone	-8686
▁minimum	-8687
▁pursuit	-8688
▁puzzles	-8689
▁request	-8690
▁seeking	-8691
▁unhappy	-8692
▁wedding	-8693
▁whistle	-8694
▁Brooklyn	-8695
▁Suddenly	-8696
▁concerns	-8697
▁contrary	-8698
▁intended	-8699
▁sidewalk	-8700
▁striking	-8701
▁Banglades	-8702
▁cooperate	-8703
▁describes	-8704
▁empowered	-8705
▁equations	-8706
▁overnight	-8707
▁residents	-8708
▁territory	-8709
▁volunteer	-8710
▁challenged	-8711
▁convenient	-8712
▁mainstream	-8713
▁prevention	-8714
▁reasonable	-8715
▁acknowledge	-8716
▁constraints	-8717
▁interconnected	-8718
bow	-8719
eds	-8720
lan	-8721
uts	-8722
▁2:	-8723
▁Bi	-8724
▁ah	-8725
..."	-8726
ifty	-8727
▁Jon	-8728
▁Str	-8729
▁Sus	-8730
▁gif	-8731
▁jet	-8732
▁via	-8733
erent	-8734
rance	-8735
ucose	-8736
uctor	-8737
▁Gene	-8738
▁Lake	-8739
▁Love	-8740
▁News	-8741
▁athe	-8742
▁biol	-8743
▁indo	-8744
▁jazz	-8745
▁melt	-8746
▁palm	-8747
▁sett	-8748
gments	-8749
ureauc	-8750
▁6,000	-8751
▁Brian	-8752
▁Stage	-8753
▁fires	-8754
▁grabb	-8755
▁jihad	-8756
▁obese	-8757
▁raped	-8758
▁stays	-8759
ativity	-8760
▁Anyone	-8761
▁assets	-8762
▁chains	-8763
▁claims	-8764
▁emails	-8765
▁fallen	-8766
▁infant	-8767
▁insane	-8768
▁motors	-8769
▁offers	-8770
▁potato	-8771
▁proved	-8772
▁sheets	-8773
▁stored	-8774
▁strict	-8775
▁tempor	-8776
▁valley	-8777
▁Lincoln	-8778
▁Mandela	-8779
▁barrier	-8780
▁doubled	-8781
▁elegant	-8782
▁enabled	-8783
▁formula	-8784
▁halfway	-8785
▁kingdom	-8786
▁locally	-8787
▁mapping	-8788
▁proceed	-8789
▁protest	-8790
▁tension	-8791
▁terrain	-8792
criptions	-8793
▁Carolina	-8794
▁Leonardo	-8795
▁advances	-8796
▁attacked	-8797
▁complain	-8798
▁downtown	-8799
▁exposure	-8800
▁failures	-8801
▁geometry	-8802
▁honestly	-8803
▁listened	-8804
▁stopping	-8805
▁transmit	-8806
▁economist	-8807
▁headlines	-8808
▁locations	-8809
▁preparing	-8810
▁recycling	-8811
▁reproduce	-8812
▁Industrial	-8813
▁Technology	-8814
▁continuous	-8815
▁electrodes	-8816
▁elementary	-8817
▁inevitably	-8818
▁infections	-8819
▁manipulate	-8820
▁newspapers	-8821
▁reflection	-8822
▁contributed	-8823
▁limitations	-8824
▁marketplace	-8825
▁surrounding	-8826
▁calculations	-8827
▁concentrated	-8828
▁humanitarian	-8829
▁psychologist	-8830
▁transmission	-8831
▁extraordinarily	-8832
▁.	-8833
All	-8834
dis	-8835
ete	-8836
mun	-8837
oen	-8838
uty	-8839
▁55	-8840
▁SW	-8841
aped	-8842
cycl	-8843
erry	-8844
grad	-8845
irts	-8846
nman	-8847
ules	-8848
ynth	-8849
▁Dad	-8850
▁Dou	-8851
▁Ext	-8852
▁Rom	-8853
▁Sky	-8854
▁Way	-8855
▁aug	-8856
▁cyl	-8857
▁ooh	-8858
▁rib	-8859
▁vit	-8860
enses	-8861
ifact	-8862
inger	-8863
▁Hist	-8864
▁Moon	-8865
▁Tony	-8866
▁drum	-8867
▁fate	-8868
▁glow	-8869
▁inch	-8870
▁keys	-8871
▁mand	-8872
▁sail	-8873
▁sons	-8874
▁summ	-8875
▁turb	-8876
▁wrap	-8877
arians	-8878
ealand	-8879
ournal	-8880
▁Chile	-8881
▁Coast	-8882
▁Court	-8883
▁ambit	-8884
▁bench	-8885
▁bills	-8886
▁boats	-8887
▁embry	-8888
▁exerc	-8889
▁grasp	-8890
▁guard	-8891
▁immun	-8892
▁lever	-8893
▁loose	-8894
▁nodes	-8895
▁sched	-8896
▁sperm	-8897
▁Almost	-8898
▁amazed	-8899
▁bother	-8900
▁config	-8901
▁manner	-8902
▁murder	-8903
▁orphan	-8904
▁purple	-8905
▁render	-8906
▁scenes	-8907
▁voting	-8908
standing	-8909
▁Abraham	-8910
▁Feynman	-8911
▁colored	-8912
▁corrupt	-8913
▁cricket	-8914
▁deepest	-8915
▁discrim	-8916
▁enforce	-8917
▁fathers	-8918
▁follows	-8919
▁gesture	-8920
▁insulin	-8921
▁logical	-8922
▁readers	-8923
▁toilets	-8924
▁trivial	-8925
▁consumed	-8926
▁observed	-8927
▁prostate	-8928
▁Indonesia	-8929
▁amazingly	-8930
▁believing	-8931
▁correctly	-8932
▁protocell	-8933
▁terrified	-8934
▁workplace	-8935
▁approached	-8936
▁legitimate	-8937
▁physicians	-8938
▁retirement	-8939
▁beautifully	-8940
▁consciously	-8941
▁foundations	-8942
▁supermarket	-8943
▁demonstrated	-8944
▁installation	-8945
▁storytelling	-8946
▁concentration	-8947
ga	-8948
py	-8949
tr	-8950
ado	-8951
ima	-8952
pat	-8953
uan	-8954
▁42	-8955
▁od	-8956
aeda	-8957
mill	-8958
pers	-8959
▁350	-8960
▁Bol	-8961
▁Ire	-8962
▁ash	-8963
▁ech	-8964
▁hub	-8965
▁pir	-8966
▁sir	-8967
ademy	-8968
ansas	-8969
enous	-8970
gradu	-8971
ipher	-8972
isten	-8973
odied	-8974
oenix	-8975
peare	-8976
phony	-8977
reens	-8978
world	-8979
▁1900	-8980
▁Coke	-8981
▁Half	-8982
▁Hans	-8983
▁Hong	-8984
▁Nove	-8985
▁batt	-8986
▁cows	-8987
▁dent	-8988
▁glue	-8989
▁hybr	-8990
▁rabb	-8991
▁verb	-8992
inging	-8993
lihood	-8994
person	-8995
vation	-8996
▁Clint	-8997
▁Detro	-8998
▁Hawai	-8999
▁Leban	-9000
▁McDon	-9001
▁ambig	-9002
▁aspir	-9003
▁award	-9004
▁cabin	-9005
▁fatal	-9006
▁funds	-9007
▁inher	-9008
▁lanes	-9009
▁maker	-9010
▁memes	-9011
▁mines	-9012
▁param	-9013
▁pills	-9014
▁proph	-9015
▁trail	-9016
powered	-9017
▁Compan	-9018
▁Social	-9019
▁Victor	-9020
▁atomic	-9021
▁beaten	-9022
▁behalf	-9023
▁crimes	-9024
▁execut	-9025
▁grocer	-9026
▁guilty	-9027
▁nerves	-9028
▁orders	-9029
▁posted	-9030
▁relief	-9031
▁stones	-9032
▁summar	-9033
▁College	-9034
▁Silicon	-9035
▁cancers	-9036
▁enemies	-9037
▁glamour	-9038
▁glucose	-9039
▁intrins	-9040
▁neutral	-9041
▁origins	-9042
▁princip	-9043
▁staring	-9044
▁useless	-9045
akespeare	-9046
▁activist	-9047
▁artifact	-9048
▁breeding	-9049
▁calories	-9050
▁explicit	-9051
▁hometown	-9052
▁horizont	-9053
▁mosquito	-9054
▁portrait	-9055
▁selected	-9056
▁supplies	-9057
▁tropical	-9058
▁ambitious	-9059
▁estimated	-9060
▁installed	-9061
▁officials	-9062
▁orchestra	-9063
▁therapies	-9064
forestation	-9065
▁expedition	-9066
▁illustrate	-9067
▁initiative	-9068
▁interviews	-9069
▁prosperity	-9070
▁sufficient	-9071
▁telescopes	-9072
▁devastating	-9073
▁magnificent	-9074
▁partnership	-9075
▁politically	-9076
▁proposition	-9077
▁civilizations	-9078
▁communicating	-9079
▁psychologists	-9080
"?	-9081
,'	-9082
BA	-9083
jo	-9084
yd	-9085
Are	-9086
ape	-9087
dam	-9088
two	-9089
▁Da	-9090
▁JH	-9091
▁RS	-9092
Here	-9093
char	-9094
erey	-9095
▁15-	-9096
▁Cur	-9097
▁DVD	-9098
▁Had	-9099
▁Off	-9100
▁Ron	-9101
▁Roy	-9102
▁Sal	-9103
▁Val	-9104
▁oct	-9105
▁pit	-9106
atson	-9107
inent	-9108
oline	-9109
omics	-9110
▁Benj	-9111
▁Jane	-9112
▁Math	-9113
▁calm	-9114
▁dece	-9115
▁drew	-9116
▁exha	-9117
▁forb	-9118
▁hipp	-9119
▁meme	-9120
▁pige	-9121
▁pole	-9122
▁rank	-9123
▁sake	-9124
▁toss	-9125
▁util	-9126
cyclop	-9127
racies	-9128
rating	-9129
▁2005,	-9130
▁Media	-9131
▁buses	-9132
▁cared	-9133
▁deals	-9134
▁delay	-9135
▁grave	-9136
▁humil	-9137
▁jewel	-9138
▁pizza	-9139
▁remix	-9140
▁shelf	-9141
▁steam	-9142
▁taxes	-9143
▁tiles	-9144
umented	-9145
▁Berlin	-9146
▁Little	-9147
▁Portug	-9148
▁Rather	-9149
▁Tasman	-9150
▁anatom	-9151
▁binary	-9152
▁butter	-9153
▁compre	-9154
▁contam	-9155
▁epidem	-9156
▁lonely	-9157
▁magnet	-9158
▁packed	-9159
▁parach	-9160
▁recipe	-9161
▁thread	-9162
▁worthy	-9163
▁Iceland	-9164
▁Someone	-9165
▁adapted	-9166
▁congest	-9167
▁heading	-9168
▁highway	-9169
▁laptops	-9170
▁Monterey	-9171
▁November	-9172
▁Probably	-9173
▁Security	-9174
▁athletes	-9175
▁cellular	-9176
▁disabled	-9177
▁enjoying	-9178
▁nitrogen	-9179
▁opinions	-9180
▁spinning	-9181
▁syndrome	-9182
▁worrying	-9183
▁activists	-9184
▁biologist	-9185
▁blindness	-9186
▁competing	-9187
▁criminals	-9188
▁motivated	-9189
▁receiving	-9190
▁renewable	-9191
▁biolumines	-9192
▁indigenous	-9193
▁likelihood	-9194
▁punishment	-9195
▁regardless	-9196
▁sanitation	-9197
▁variations	-9198
▁Shakespeare	-9199
▁expressions	-9200
▁instruction	-9201
▁neuroscient	-9202
▁technically	-9203
▁historically	-9204
▁personalized	-9205
Sh	-9206
da	-9207
osn	-9208
rof	-9209
zes	-9210
▁Ap	-9211
▁Es	-9212
alem	-9213
door	-9214
plus	-9215
rane	-9216
rats	-9217
take	-9218
▁Ann	-9219
▁Mur	-9220
▁Rad	-9221
▁Try	-9222
▁Tun	-9223
▁orb	-9224
▁shy	-9225
▁tur	-9226
amboo	-9227
apore	-9228
break	-9229
enter	-9230
ighth	-9231
▁..."	-9232
▁Mean	-9233
▁bite	-9234
▁bulb	-9235
▁bump	-9236
▁chop	-9237
▁cree	-9238
▁enzy	-9239
▁jugg	-9240
▁mesh	-9241
▁murd	-9242
▁sale	-9243
▁sexy	-9244
▁tact	-9245
ulsion	-9246
▁Kevin	-9247
▁algae	-9248
▁coach	-9249
▁comic	-9250
▁conqu	-9251
▁dough	-9252
▁drops	-9253
▁girlf	-9254
▁lobby	-9255
▁meals	-9256
▁messy	-9257
▁mobil	-9258
▁peers	-9259
▁stair	-9260
▁straw	-9261
fulness	-9262
keepers	-9263
▁Albert	-9264
▁Watson	-9265
▁asleep	-9266
▁bamboo	-9267
▁carpet	-9268
▁covers	-9269
▁curves	-9270
▁pencil	-9271
▁topics	-9272
▁Israeli	-9273
▁banking	-9274
▁belongs	-9275
▁constit	-9276
▁enjoyed	-9277
▁healing	-9278
▁implant	-9279
▁reactor	-9280
▁simpler	-9281
▁Tanzania	-9282
▁approved	-9283
▁barriers	-9284
▁ceremony	-9285
▁disagree	-9286
▁division	-9287
▁historic	-9288
▁predator	-9289
▁promised	-9290
▁randomly	-9291
▁reserves	-9292
▁revealed	-9293
▁websites	-9294
▁Singapore	-9295
▁dominated	-9296
▁electrons	-9297
▁fisheries	-9298
▁hierarchy	-9299
▁resistant	-9300
▁responded	-9301
▁Bangladesh	-9302
▁engineered	-9303
▁narratives	-9304
▁psychopath	-9305
▁publishing	-9306
▁legislation	-9307
▁connectivity	-9308
SP	-9309
gie	-9310
oto	-9311
▁AK	-9312
▁AT	-9313
▁UC	-9314
ette	-9315
five	-9316
inem	-9317
pril	-9318
reme	-9319
thur	-9320
utan	-9321
▁193	-9322
▁Amy	-9323
▁Lin	-9324
▁USA	-9325
▁Vol	-9326
▁dil	-9327
▁sne	-9328
▁tin	-9329
aware	-9330
cking	-9331
eling	-9332
front	-9333
▁Carl	-9334
▁Rick	-9335
▁Turk	-9336
▁bang	-9337
▁junk	-9338
▁outl	-9339
▁shoe	-9340
▁span	-9341
▁spat	-9342
▁stad	-9343
▁unre	-9344
assemb	-9345
▁April	-9346
▁Bruno	-9347
▁Elect	-9348
▁Force	-9349
▁Still	-9350
▁Swiss	-9351
▁blink	-9352
▁decor	-9353
▁irony	-9354
▁loads	-9355
▁mimic	-9356
▁pound	-9357
▁rings	-9358
▁roles	-9359
▁zones	-9360
essions	-9361
ocation	-9362
theless	-9363
▁40,000	-9364
▁accent	-9365
▁approx	-9366
▁cockro	-9367
▁criter	-9368
▁divers	-9369
▁elabor	-9370
▁excuse	-9371
▁namely	-9372
▁viewer	-9373
▁wooden	-9374
▁Clinton	-9375
▁Ireland	-9376
▁Stephen	-9377
▁Switzer	-9378
▁artwork	-9379
▁bureauc	-9380
▁corners	-9381
▁dilemma	-9382
▁educate	-9383
▁enhance	-9384
▁genomes	-9385
▁strands	-9386
▁strings	-9387
▁altitude	-9388
▁incorpor	-9389
▁kindness	-9390
▁overhead	-9391
▁plastics	-9392
▁scanning	-9393
▁simplest	-9394
▁vaccines	-9395
▁agreement	-9396
▁attitudes	-9397
▁authentic	-9398
▁bacterial	-9399
▁batteries	-9400
▁intensive	-9401
▁predators	-9402
▁regularly	-9403
▁Geographic	-9404
▁anticipate	-9405
▁automobile	-9406
▁calculated	-9407
▁generating	-9408
▁Switzerland	-9409
▁independence	-9410
▁measurements	-9411
▁temperatures	-9412
IS	-9413
tt	-9414
ETI	-9415
lor	-9416
▁ED	-9417
▁Er	-9418
▁Ev	-9419
▁JF	-9420
▁Sl	-9421
▁UN	-9422
▁je	-9423
ials	-9424
igma	-9425
iots	-9426
olen	-9427
oric	-9428
plic	-9429
seen	-9430
▁10.	-9431
▁Ele	-9432
▁IBM	-9433
▁Kir	-9434
▁Sen	-9435
▁Tib	-9436
▁jar	-9437
cribe	-9438
impse	-9439
orden	-9440
raine	-9441
storm	-9442
▁Cath	-9443
▁Conf	-9444
▁Lego	-9445
▁Rome	-9446
▁Soci	-9447
▁appe	-9448
▁blah	-9449
▁dirt	-9450
▁dose	-9451
▁lawn	-9452
▁mask	-9453
▁subm	-9454
▁vary	-9455
driven	-9456
income	-9457
orient	-9458
romagn	-9459
thirds	-9460
uction	-9461
▁Jones	-9462
▁Seven	-9463
▁appla	-9464
▁bleed	-9465
▁bless	-9466
▁depos	-9467
▁entry	-9468
▁gorge	-9469
▁hopes	-9470
▁inhib	-9471
▁lists	-9472
▁minus	-9473
▁norms	-9474
▁penet	-9475
▁picks	-9476
▁recre	-9477
▁sends	-9478
▁sheer	-9479
ascular	-9480
ressing	-9481
▁Andrew	-9482
▁comics	-9483
▁harbor	-9484
▁tomato	-9485
▁unfold	-9486
▁wishes	-9487
▁happily	-9488
▁harmony	-9489
▁maximum	-9490
▁rehabil	-9491
▁smiling	-9492
▁trapped	-9493
▁Benjamin	-9494
▁Interest	-9495
▁McDonald	-9496
▁accuracy	-9497
▁compound	-9498
▁coverage	-9499
▁diameter	-9500
▁forecast	-9501
▁hormones	-9502
▁injuries	-9503
▁mentally	-9504
▁nowadays	-9505
▁prospect	-9506
▁skeletal	-9507
▁underest	-9508
▁Aristotle	-9509
▁Brazilian	-9510
▁abundance	-9511
▁aesthetic	-9512
▁compounds	-9513
▁expressed	-9514
▁favorites	-9515
▁machinery	-9516
▁medicines	-9517
▁statistic	-9518
▁suspended	-9519
▁compromise	-9520
▁frequently	-9521
▁professors	-9522
▁remarkably	-9523
▁electromagn	-9524
▁fluorescent	-9525
▁Organization	-9526
▁continuously	-9527
▁contribution	-9528
▁embarrassing	-9529
▁introduction	-9530
▁observations	-9531
▁visualization	-9532
eu	-9533
God	-9534
gal	-9535
mes	-9536
nut	-9537
obb	-9538
yon	-9539
▁Cr	-9540
▁JA	-9541
▁Kh	-9542
▁PC	-9543
They	-9544
ador	-9545
aste	-9546
gend	-9547
orph	-9548
oton	-9549
▁12,	-9550
▁Civ	-9551
▁Emp	-9552
▁Tam	-9553
aired	-9554
angle	-9555
cover	-9556
ester	-9557
inity	-9558
ivate	-9559
▁Hope	-9560
▁Kong	-9561
▁Lord	-9562
▁Mass	-9563
▁Scot	-9564
▁biof	-9565
▁carp	-9566
▁crap	-9567
▁cuts	-9568
▁offs	-9569
▁unst	-9570
Please	-9571
ending	-9572
orough	-9573
▁2004,	-9574
▁Turns	-9575
▁belly	-9576
▁erect	-9577
▁grace	-9578
▁hated	-9579
▁juice	-9580
▁panic	-9581
imeters	-9582
istical	-9583
▁fluctu	-9584
▁grades	-9585
▁immers	-9586
▁intact	-9587
▁lifted	-9588
▁masses	-9589
▁tables	-9590
▁trauma	-9591
etheless	-9592
function	-9593
▁Detroit	-9594
▁Olympic	-9595
▁bridges	-9596
▁broader	-9597
▁chronic	-9598
▁coastal	-9599
▁cooling	-9600
▁envelop	-9601
▁glacier	-9602
▁glimpse	-9603
▁hacking	-9604
▁landing	-9605
▁mankind	-9606
▁nearest	-9607
▁sectors	-9608
▁swallow	-9609
▁texture	-9610
▁accompan	-9611
▁announce	-9612
▁clusters	-9613
▁expanded	-9614
▁findings	-9615
▁helpless	-9616
▁hopeless	-9617
▁momentum	-9618
▁publicly	-9619
▁recycled	-9620
▁abandoned	-9621
▁administr	-9622
▁attracted	-9623
▁candidate	-9624
▁delicious	-9625
▁intensity	-9626
▁planetary	-9627
▁realities	-9628
▁reflected	-9629
▁relatives	-9630
▁textbooks	-9631
▁phenomenal	-9632
▁responding	-9633
▁spacecraft	-9634
▁suggestion	-9635
▁frightening	-9636
▁realization	-9637
▁understands	-9638
▁accomplished	-9639
▁overwhelming	-9640
▁controversial	-9641
bie	-9642
mat	-9643
via	-9644
▁AI	-9645
▁Ol	-9646
▁TK	-9647
▁nu	-9648
▁tu	-9649
amas	-9650
cher	-9651
esty	-9652
fare	-9653
ieve	-9654
mind	-9655
oned	-9656
orse	-9657
uana	-9658
udge	-9659
wart	-9660
▁192	-9661
▁Hol	-9662
▁Men	-9663
▁Wol	-9664
▁pla	-9665
▁rap	-9666
adian	-9667
berry	-9668
keley	-9669
lfare	-9670
owers	-9671
three	-9672
▁Jews	-9673
▁Lear	-9674
▁Nick	-9675
▁SETI	-9676
▁Wind	-9677
▁asth	-9678
▁buff	-9679
▁bush	-9680
▁chew	-9681
▁deaf	-9682
▁drif	-9683
▁ende	-9684
▁fest	-9685
▁porn	-9686
▁quar	-9687
▁seal	-9688
▁slic	-9689
arrhea	-9690
awater	-9691
culiar	-9692
▁boots	-9693
▁brush	-9694
▁clubs	-9695
▁consp	-9696
▁cream	-9697
▁crude	-9698
▁illum	-9699
▁naive	-9700
▁revel	-9701
▁sizes	-9702
▁trips	-9703
▁vocal	-9704
vestock	-9705
▁County	-9706
▁Greece	-9707
▁Pretty	-9708
▁apolog	-9709
▁cattle	-9710
▁chimps	-9711
▁denial	-9712
▁dispar	-9713
▁horror	-9714
▁retail	-9715
▁revers	-9716
▁riding	-9717
▁shower	-9718
▁sovere	-9719
▁stolen	-9720
▁Similar	-9721
▁authors	-9722
▁chamber	-9723
▁climbed	-9724
▁crossed	-9725
▁default	-9726
▁earning	-9727
▁heavily	-9728
▁kidding	-9729
▁labeled	-9730
▁laughed	-9731
▁patents	-9732
▁penguin	-9733
▁reaches	-9734
▁rewards	-9735
▁screens	-9736
▁teaches	-9737
▁transit	-9738
▁venture	-9739
▁Berkeley	-9740
▁Business	-9741
▁activate	-9742
▁backyard	-9743
▁boundary	-9744
▁contempl	-9745
▁dropping	-9746
▁gorgeous	-9747
▁indicate	-9748
▁literacy	-9749
▁membrane	-9750
▁peculiar	-9751
▁priority	-9752
▁touching	-9753
▁Parkinson	-9754
▁answering	-9755
▁comparing	-9756
▁disasters	-9757
▁formation	-9758
▁livestock	-9759
▁occurring	-9760
▁realistic	-9761
▁screaming	-9762
▁visualize	-9763
▁Christians	-9764
▁describing	-9765
▁destroying	-9766
▁determines	-9767
▁exceptions	-9768
▁privileged	-9769
▁prototypes	-9770
▁separation	-9771
▁composition	-9772
▁discussions	-9773
▁distinction	-9774
▁theoretical	-9775
▁intersection	-9776
▁transformative	-9777
BC	-9778
ye	-9779
She	-9780
bag	-9781
net	-9782
tra	-9783
upp	-9784
▁29	-9785
▁AM	-9786
▁Ba	-9787
▁Gi	-9788
▁du	-9789
agan	-9790
alog	-9791
city	-9792
enth	-9793
etti	-9794
hear	-9795
▁FDA	-9796
▁Mas	-9797
▁Sah	-9798
▁Tra	-9799
▁mud	-9800
▁pad	-9801
▁unw	-9802
▁vel	-9803
acher	-9804
ellow	-9805
ifies	-9806
ouses	-9807
restr	-9808
▁Army	-9809
▁Norm	-9810
▁Penn	-9811
▁Sand	-9812
▁chef	-9813
▁coin	-9814
▁epis	-9815
▁jack	-9816
▁mast	-9817
▁mixt	-9818
▁radi	-9819
▁sole	-9820
▁thus	-9821
▁ties	-9822
coming	-9823
gevity	-9824
iances	-9825
ijuana	-9826
unning	-9827
usalem	-9828
▁Harry	-9829
▁Laden	-9830
▁Louis	-9831
▁Syria	-9832
▁alarm	-9833
▁arbit	-9834
▁artic	-9835
▁careg	-9836
▁cheat	-9837
▁drunk	-9838
▁fence	-9839
▁gains	-9840
▁index	-9841
▁infer	-9842
▁ingen	-9843
▁lifel	-9844
▁lingu	-9845
▁loses	-9846
▁maneu	-9847
▁pulls	-9848
▁shops	-9849
▁stamp	-9850
▁sweat	-9851
▁twist	-9852
bsolute	-9853
faction	-9854
osexual	-9855
▁Disney	-9856
▁Gandhi	-9857
▁Nether	-9858
▁appeal	-9859
▁helium	-9860
▁iconic	-9861
▁immort	-9862
▁mentor	-9863
▁prepar	-9864
▁racing	-9865
▁slower	-9866
▁strain	-9867
▁winner	-9868
ventions	-9869
▁biomass	-9870
▁carries	-9871
▁cluster	-9872
▁couples	-9873
▁endless	-9874
▁exhibit	-9875
▁filling	-9876
▁handful	-9877
▁hostile	-9878
▁planted	-9879
▁retreat	-9880
▁analyzed	-9881
▁criteria	-9882
▁deployed	-9883
▁freezing	-9884
▁informal	-9885
▁proposal	-9886
▁shocking	-9887
▁surgeons	-9888
▁switched	-9889
▁thrilled	-9890
▁transist	-9891
▁According	-9892
▁Jerusalem	-9893
▁deception	-9894
▁imagining	-9895
▁mutations	-9896
▁neocortex	-9897
▁sequences	-9898
▁shoulders	-9899
▁surgeries	-9900
▁universes	-9901
▁discussing	-9902
▁documented	-9903
▁sculptures	-9904
▁sequencing	-9905
▁Netherlands	-9906
▁distinguish	-9907
▁programmers	-9908
▁computational	-9909
▁mathematician	-9910
40	-9911
As	-9912
hot	-9913
isc	-9914
izz	-9915
nat	-9916
vir	-9917
▁37	-9918
▁EM	-9919
▁RM	-9920
▁Wi	-9921
aken	-9922
anas	-9923
burg	-9924
inci	-9925
itar	-9926
long	-9927
unks	-9928
▁190	-9929
▁Bre	-9930
▁Def	-9931
▁Mer	-9932
▁Mos	-9933
▁avo	-9934
▁ego	-9935
▁sel	-9936
abeth	-9937
ament	-9938
arten	-9939
asive	-9940
athon	-9941
digit	-9942
ellig	-9943
epher	-9944
eping	-9945
erals	-9946
gener	-9947
iracy	-9948
matic	-9949
month	-9950
plete	-9951
▁1930	-9952
▁Brad	-9953
▁Ever	-9954
▁Hind	-9955
▁Kids	-9956
▁blew	-9957
▁dare	-9958
▁herd	-9959
▁hint	-9960
▁impr	-9961
▁lion	-9962
▁mant	-9963
▁mild	-9964
▁prey	-9965
▁symp	-9966
▁ward	-9967
normal	-9968
ometer	-9969
umbled	-9970
▁1,500	-9971
▁Civil	-9972
▁Stone	-9973
▁Trade	-9974
▁Water	-9975
▁bulbs	-9976
▁candy	-9977
▁facil	-9978
▁float	-9979
▁flock	-9980
▁freak	-9981
▁nasty	-9982
▁pulse	-9983
▁reass	-9984
▁rhyth	-9985
▁risky	-9986
▁spare	-9987
▁steep	-9988
▁texts	-9989
▁voted	-9990
▁watts	-9991
▁wrist	-9992
ructive	-9993
▁25,000	-9994
▁Arabia	-9995
▁Argent	-9996
▁Arthur	-9997
▁Ladies	-9998
▁advers	-9999
▁argued	-10000
▁canvas	-10001
▁depart	-10002
▁handed	-10003
▁horses	-10004
▁kicked	-10005
▁lethal	-10006
▁nightm	-10007
▁passes	-10008
▁pestic	-10009
▁raises	-10010
▁rotate	-10011
▁sensit	-10012
▁shifts	-10013
▁sooner	-10014
▁stabil	-10015
▁summit	-10016
ortunate	-10017
▁150,000	-10018
▁History	-10019
▁Iranian	-10020
▁Society	-10021
▁antenna	-10022
▁cardiac	-10023
▁eastern	-10024
▁exploit	-10025
▁fantasy	-10026
▁grocery	-10027
▁hopeful	-10028
▁inhabit	-10029
▁matched	-10030
▁scaling	-10031
▁spiders	-10032
▁welfare	-10033
▁wrapped	-10034
▁Catholic	-10035
▁Egyptian	-10036
▁Nigerian	-10037
▁Olympics	-10038
▁Virginia	-10039
▁assembly	-10040
▁cylinder	-10041
▁evolving	-10042
▁heritage	-10043
▁intimate	-10044
▁minority	-10045
▁pathways	-10046
▁pleasant	-10047
▁remotely	-10048
▁sexually	-10049
▁sticking	-10050
▁terrific	-10051
▁visually	-10052
▁asteroids	-10053
▁accelerate	-10054
▁enterprise	-10055
▁microphone	-10056
▁undergradu	-10057
▁collaborate	-10058
▁concentrate	-10059
▁democracies	-10060
▁destination	-10061
▁emotionally	-10062
▁overwhelmed	-10063
▁recognizing	-10064
▁accelerating	-10065
▁interventions	-10066
▁systematically	-10067
Now	-10068
aza	-10069
fly	-10070
har	-10071
ker	-10072
▁3,	-10073
▁31	-10074
AIDS	-10075
Come	-10076
alia	-10077
bees	-10078
eren	-10079
offs	-10080
oked	-10081
ylon	-10082
▁130	-10083
▁Aut	-10084
▁Mat	-10085
▁Pop	-10086
▁Tar	-10087
▁Tre	-10088
▁awe	-10089
▁ger	-10090
▁nic	-10091
▁rac	-10092
▁sib	-10093
ctive	-10094
ubble	-10095
umbai	-10096
viron	-10097
▁Bern	-10098
▁Chap	-10099
▁Educ	-10100
▁Hosp	-10101
▁Jord	-10102
▁Mond	-10103
▁Pitt	-10104
▁apps	-10105
▁aunt	-10106
▁dele	-10107
▁indu	-10108
▁pipe	-10109
▁voca	-10110
▁wins	-10111
enance	-10112
▁Creat	-10113
▁Cyrus	-10114
▁Tunis	-10115
▁blown	-10116
▁boost	-10117
▁camel	-10118
▁chess	-10119
▁discl	-10120
▁gross	-10121
▁insec	-10122
▁marks	-10123
▁probe	-10124
▁seals	-10125
▁usage	-10126
▁vivid	-10127
▁Joseph	-10128
▁Michel	-10129
▁Mozart	-10130
▁Mumbai	-10131
▁Steven	-10132
▁boards	-10133
▁copies	-10134
▁donors	-10135
▁flavor	-10136
▁frames	-10137
▁insert	-10138
▁kidney	-10139
▁modest	-10140
▁preced	-10141
▁selves	-10142
▁smells	-10143
▁unlock	-10144
▁virgin	-10145
ergarten	-10146
ffective	-10147
ifferent	-10148
▁Journal	-10149
▁Mexican	-10150
▁Seattle	-10151
▁acquire	-10152
▁damaged	-10153
▁descend	-10154
▁enlight	-10155
▁exagger	-10156
▁gallery	-10157
▁injured	-10158
▁logging	-10159
▁lottery	-10160
▁optical	-10161
▁outrage	-10162
▁periods	-10163
▁planned	-10164
▁pouring	-10165
▁powered	-10166
▁priorit	-10167
▁stadium	-10168
▁streams	-10169
▁trading	-10170
▁utterly	-10171
▁whoever	-10172
▁alphabet	-10173
▁angiogen	-10174
▁annivers	-10175
▁ideology	-10176
▁inventor	-10177
▁lifespan	-10178
▁prisoner	-10179
▁stressed	-10180
▁vacation	-10181
▁youngest	-10182
▁Greenland	-10183
▁acknowled	-10184
▁alongside	-10185
▁commodity	-10186
▁elaborate	-10187
▁eliminate	-10188
▁offspring	-10189
▁principal	-10190
▁recession	-10191
▁reporting	-10192
▁witnessed	-10193
▁adolescent	-10194
▁critically	-10195
▁irrational	-10196
▁locomotion	-10197
▁organizing	-10198
▁cooperative	-10199
▁documentary	-10200
▁practically	-10201
▁preparation	-10202
▁economically	-10203
▁philanthropy	-10204
▁representing	-10205
▁significance	-10206
▁approximately	-10207
▁deforestation	-10208
▁accountability	-10209
RA	-10210
bu	-10211
ki	-10212
▁72	-10213
▁BM	-10214
▁DP	-10215
▁DR	-10216
▁Ky	-10217
aver	-10218
food	-10219
irms	-10220
omed	-10221
oops	-10222
osov	-10223
ylac	-10224
▁203	-10225
▁Dub	-10226
▁Nam	-10227
▁Pot	-10228
▁mas	-10229
▁nap	-10230
▁wow	-10231
anium	-10232
asure	-10233
ierra	-10234
iolet	-10235
oured	-10236
proof	-10237
▁Abed	-10238
▁Bosn	-10239
▁Cape	-10240
▁adds	-10241
▁blur	-10242
▁carc	-10243
▁cope	-10244
▁depr	-10245
▁fier	-10246
▁fuck	-10247
▁kidn	-10248
▁logo	-10249
▁surg	-10250
▁turt	-10251
▁worm	-10252
escope	-10253
istine	-10254
orters	-10255
shaped	-10256
ulture	-10257
unting	-10258
▁Indus	-10259
▁Young	-10260
▁acids	-10261
▁acres	-10262
▁album	-10263
▁couch	-10264
▁harsh	-10265
▁mater	-10266
▁meets	-10267
▁mycel	-10268
▁penal	-10269
▁rains	-10270
▁reper	-10271
▁scaff	-10272
▁scans	-10273
▁slice	-10274
izabeth	-10275
umbling	-10276
violent	-10277
▁Spring	-10278
▁cables	-10279
▁corrid	-10280
▁counts	-10281
▁digest	-10282
▁evapor	-10283
▁exotic	-10284
▁format	-10285
▁hybrid	-10286
▁mating	-10287
▁plates	-10288
▁regist	-10289
▁serves	-10290
▁wasted	-10291
ountered	-10292
▁Atlanta	-10293
▁Medical	-10294
▁assumed	-10295
▁dispers	-10296
▁folding	-10297
▁jumping	-10298
▁pleased	-10299
▁rescued	-10300
▁reserve	-10301
▁shorter	-10302
▁telecom	-10303
▁trusted	-10304
▁western	-10305
bsolutely	-10306
mentation	-10307
▁Together	-10308
▁acquired	-10309
▁actively	-10310
▁adoption	-10311
▁cocktail	-10312
▁deserves	-10313
▁diarrhea	-10314
▁gasoline	-10315
▁multiply	-10316
▁mutation	-10317
▁rejected	-10318
cyclopedia	-10319
ustainable	-10320
▁associate	-10321
▁astronomy	-10322
▁convicted	-10323
▁mosquitos	-10324
▁reasoning	-10325
▁vegetable	-10326
▁basketball	-10327
▁candidates	-10328
▁conceptual	-10329
▁congestion	-10330
▁girlfriend	-10331
▁horizontal	-10332
▁ingredient	-10333
▁prosthetic	-10334
▁smartphone	-10335
▁encountered	-10336
▁enforcement	-10337
▁implemented	-10338
▁investigate	-10339
▁unfortunate	-10340
▁coordination	-10341
▁prescription	-10342
▁philosophical	-10343
▁representative	-10344
Ah	-10345
gr	-10346
tz	-10347
▁:	-10348
Man	-10349
afe	-10350
eem	-10351
ila	-10352
kyo	-10353
orr	-10354
pos	-10355
psy	-10356
▁4.	-10357
▁ID	-10358
▁LT	-10359
agra	-10360
flow	-10361
laim	-10362
oter	-10363
pack	-10364
star	-10365
ucks	-10366
▁11,	-10367
▁Fed	-10368
▁Mid	-10369
▁Nin	-10370
▁Syl	-10371
▁Van	-10372
▁rip	-10373
▁wre	-10374
brush	-10375
olera	-10376
osity	-10377
urday	-10378
▁Fund	-10379
▁Libr	-10380
▁Matt	-10381
▁Plan	-10382
▁Ross	-10383
▁beef	-10384
▁calc	-10385
▁caus	-10386
▁chat	-10387
▁cube	-10388
▁demo	-10389
▁dood	-10390
▁enab	-10391
▁glor	-10392
▁hamb	-10393
▁pays	-10394
▁piss	-10395
▁reck	-10396
▁semi	-10397
▁tags	-10398
▁torn	-10399
▁wore	-10400
ankind	-10401
epherd	-10402
olitan	-10403
▁2011,	-10404
▁Alask	-10405
▁Craig	-10406
▁Kosov	-10407
▁Sarah	-10408
▁Tibet	-10409
▁Tokyo	-10410
▁advis	-10411
▁alert	-10412
▁crows	-10413
▁ethic	-10414
▁feeds	-10415
▁hoped	-10416
▁juven	-10417
▁obser	-10418
▁pants	-10419
▁penis	-10420
▁resur	-10421
▁roofs	-10422
▁unint	-10423
atories	-10424
enhagen	-10425
ouncing	-10426
percent	-10427
quality	-10428
ulative	-10429
▁Around	-10430
▁Daniel	-10431
▁Hawaii	-10432
▁Norden	-10433
▁Office	-10434
▁Secret	-10435
▁Wright	-10436
▁aliens	-10437
▁casual	-10438
▁dishes	-10439
▁empath	-10440
▁enrich	-10441
▁exquis	-10442
▁firing	-10443
▁grains	-10444
▁guards	-10445
▁mammal	-10446
▁temple	-10447
▁themes	-10448
▁Academy	-10449
▁Charlie	-10450
▁Kingdom	-10451
▁compute	-10452
▁counted	-10453
▁creator	-10454
▁digging	-10455
▁farther	-10456
▁generic	-10457
▁heating	-10458
▁longest	-10459
▁luckily	-10460
▁melting	-10461
▁onstage	-10462
▁reforms	-10463
▁returns	-10464
▁richest	-10465
▁shaking	-10466
▁shining	-10467
▁Saturday	-10468
▁calculus	-10469
▁cheating	-10470
▁gestures	-10471
▁habitats	-10472
▁protocol	-10473
▁revenues	-10474
▁seawater	-10475
▁simulate	-10476
▁sometime	-10477
▁talented	-10478
▁targeted	-10479
▁variable	-10480
▁visiting	-10481
▁Telescope	-10482
▁achieving	-10483
▁collision	-10484
▁consensus	-10485
▁contained	-10486
▁converted	-10487
▁desperate	-10488
▁emergence	-10489
▁generates	-10490
▁geography	-10491
▁integrate	-10492
▁longevity	-10493
▁migration	-10494
▁negotiate	-10495
▁parachute	-10496
▁tolerance	-10497
▁Copenhagen	-10498
▁delivering	-10499
▁employment	-10500
▁households	-10501
▁infectious	-10502
▁networking	-10503
▁practicing	-10504
▁priorities	-10505
▁regulation	-10506
▁systematic	-10507
▁translator	-10508
▁Development	-10509
▁anniversary	-10510
▁considering	-10511
▁disciplines	-10512
▁investments	-10513
▁kindergarten	-10514
▁authoritarian	-10515
NC	-10516
no	-10517
ecd	-10518
▁48	-10519
▁AG	-10520
▁MA	-10521
▁Ra	-10522
bing	-10523
fire	-10524
page	-10525
step	-10526
▁12-	-10527
▁Has	-10528
▁Jup	-10529
▁Lev	-10530
▁Pen	-10531
▁Ram	-10532
▁caf	-10533
▁pix	-10534
Would	-10535
elect	-10536
eting	-10537
idesp	-10538
oters	-10539
ourse	-10540
ulses	-10541
▁Cold	-10542
▁Dick	-10543
▁Know	-10544
▁Show	-10545
▁Tues	-10546
▁bust	-10547
▁cage	-10548
▁merg	-10549
▁panc	-10550
▁thro	-10551
▁toll	-10552
▁unle	-10553
▁vice	-10554
action	-10555
ricane	-10556
violet	-10557
▁2003,	-10558
▁8,000	-10559
▁Heart	-10560
▁Light	-10561
▁acute	-10562
▁anecd	-10563
▁cares	-10564
▁drain	-10565
▁dread	-10566
▁entit	-10567
▁favel	-10568
▁flesh	-10569
▁grant	-10570
▁guerr	-10571
▁posed	-10572
▁rigid	-10573
▁spite	-10574
ilation	-10575
rection	-10576
▁60,000	-10577
▁allies	-10578
▁cataly	-10579
▁copied	-10580
▁cosmos	-10581
▁deadly	-10582
▁eighth	-10583
▁foster	-10584
▁gravit	-10585
▁hugely	-10586
▁mapped	-10587
▁pigeon	-10588
▁precip	-10589
▁presum	-10590
▁refuse	-10591
▁rolled	-10592
▁salmon	-10593
▁speeds	-10594
▁submit	-10595
▁unfair	-10596
computer	-10597
ependent	-10598
▁Everest	-10599
▁Jupiter	-10600
▁Lebanon	-10601
▁Phoenix	-10602
▁Suppose	-10603
▁Tuesday	-10604
▁blowing	-10605
▁charged	-10606
▁compreh	-10607
▁condoms	-10608
▁consent	-10609
▁counsel	-10610
▁decides	-10611
▁fulfill	-10612
▁refused	-10613
▁sensing	-10614
▁travels	-10615
▁visions	-10616
ationally	-10617
idespread	-10618
▁TEDTalks	-10619
▁assemble	-10620
▁checking	-10621
▁deciding	-10622
▁defining	-10623
▁detector	-10624
▁entities	-10625
▁envision	-10626
▁innovate	-10627
▁managing	-10628
▁parasite	-10629
▁thinkers	-10630
ifications	-10631
ographical	-10632
▁Therefore	-10633
▁bacterium	-10634
▁champions	-10635
▁involving	-10636
▁millennia	-10637
▁parenting	-10638
▁platforms	-10639
▁producers	-10640
▁addressing	-10641
▁confronted	-10642
▁enormously	-10643
▁inherently	-10644
▁predicting	-10645
▁preventing	-10646
▁projection	-10647
▁renewables	-10648
▁Palestinian	-10649
▁integration	-10650
▁progression	-10651
▁regulations	-10652
▁transported	-10653
▁ultraviolet	-10654
▁angiogenesis	-10655
▁chemotherapy	-10656
▁contributing	-10657
▁investigation	-10658
TC	-10659
lah	-10660
urf	-10661
▁Av	-10662
▁Bh	-10663
▁Di	-10664
▁vo	-10665
adel	-10666
beat	-10667
eyed	-10668
held	-10669
mate	-10670
nedy	-10671
olas	-10672
size	-10673
teen	-10674
▁'50	-10675
▁30,	-10676
▁Luc	-10677
▁Nep	-10678
▁RNA	-10679
▁Ted	-10680
▁cul	-10681
▁jam	-10682
ambod	-10683
arded	-10684
ching	-10685
ennis	-10686
ogens	-10687
thood	-10688
urger	-10689
▁Desp	-10690
▁Mall	-10691
▁Prot	-10692
▁bowl	-10693
▁cups	-10694
▁dens	-10695
▁epip	-10696
▁fans	-10697
▁foie	-10698
▁mini	-10699
▁narc	-10700
▁odor	-10701
▁scal	-10702
▁ster	-10703
▁unac	-10704
ancers	-10705
boards	-10706
bulary	-10707
estone	-10708
iments	-10709
minded	-10710
ounded	-10711
▁blast	-10712
▁escal	-10713
▁fired	-10714
▁frogs	-10715
▁hills	-10716
▁knees	-10717
▁limbs	-10718
▁loans	-10719
▁loyal	-10720
▁manus	-10721
▁noisy	-10722
▁occas	-10723
▁squid	-10724
▁surre	-10725
▁woods	-10726
▁yards	-10727
onsense	-10728
▁12,000	-10729
▁Cambod	-10730
▁Joshua	-10731
▁Korean	-10732
▁Notice	-10733
▁Sierra	-10734
▁Sylvia	-10735
▁abroad	-10736
▁absurd	-10737
▁behold	-10738
▁beside	-10739
▁brands	-10740
▁contag	-10741
▁cracks	-10742
▁equals	-10743
▁exceed	-10744
▁floors	-10745
▁insist	-10746
▁losses	-10747
▁metals	-10748
▁occupy	-10749
▁potent	-10750
▁scheme	-10751
▁thylac	-10752
▁unseen	-10753
▁weighs	-10754
▁Connect	-10755
▁Kennedy	-10756
▁Library	-10757
▁airline	-10758
▁cholera	-10759
▁desktop	-10760
▁filters	-10761
▁gardens	-10762
▁grabbed	-10763
▁segment	-10764
▁shifted	-10765
▁squares	-10766
▁surveys	-10767
▁weekend	-10768
conscious	-10769
ventually	-10770
▁Canadian	-10771
▁Hospital	-10772
▁Whenever	-10773
▁ambition	-10774
▁attempts	-10775
▁autistic	-10776
▁basement	-10777
▁consists	-10778
▁democrat	-10779
▁explored	-10780
▁humility	-10781
▁peripher	-10782
▁regional	-10783
▁resident	-10784
▁supernov	-10785
▁tangible	-10786
▁upstream	-10787
▁Egyptians	-10788
▁Meanwhile	-10789
▁Similarly	-10790
▁astronaut	-10791
▁diplomacy	-10792
▁embracing	-10793
▁humankind	-10794
▁magazines	-10795
▁precision	-10796
▁processor	-10797
▁screening	-10798
▁stimulate	-10799
▁survivors	-10800
▁beneficial	-10801
▁disconnect	-10802
▁disturbing	-10803
▁intentions	-10804
▁interfaces	-10805
▁metabolism	-10806
▁millimeter	-10807
▁parliament	-10808
▁pedestrian	-10809
▁profitable	-10810
▁symmetries	-10811
▁vocabulary	-10812
▁Fortunately	-10813
▁celebration	-10814
▁embarrassed	-10815
▁maintenance	-10816
▁revolutions	-10817
▁substantial	-10818
▁catastrophic	-10819
▁dictionaries	-10820
▁headquarters	-10821
▁improvements	-10822
▁philosophers	-10823
▁hallucinations	-10824
?'	-10825
Go	-10826
hr	-10827
300	-10828
Did	-10829
nik	-10830
wan	-10831
you	-10832
▁CP	-10833
Good	-10834
anna	-10835
bean	-10836
ccer	-10837
hors	-10838
iatr	-10839
idal	-10840
igan	-10841
imag	-10842
mass	-10843
ogan	-10844
olar	-10845
oves	-10846
pace	-10847
umbs	-10848
unes	-10849
▁Ang	-10850
▁Ara	-10851
▁Arm	-10852
▁Ast	-10853
▁Dal	-10854
▁Mel	-10855
▁Say	-10856
▁eru	-10857
▁fog	-10858
▁mat	-10859
▁voy	-10860
▁yog	-10861
ccoli	-10862
glect	-10863
grand	-10864
heads	-10865
ittee	-10866
iumph	-10867
ponds	-10868
pound	-10869
rants	-10870
roots	-10871
speed	-10872
▁Book	-10873
▁Gard	-10874
▁Phot	-10875
▁Such	-10876
▁beam	-10877
▁beds	-10878
▁bond	-10879
▁curt	-10880
▁cycl	-10881
▁obso	-10882
▁shed	-10883
▁slip	-10884
▁stew	-10885
ailand	-10886
alysis	-10887
ements	-10888
ghetti	-10889
imalay	-10890
stairs	-10891
uminum	-10892
▁Alice	-10893
▁Broad	-10894
▁Goals	-10895
▁Larry	-10896
▁Sudan	-10897
▁ambul	-10898
▁fails	-10899
▁infra	-10900
▁jumps	-10901
▁laund	-10902
▁morph	-10903
▁octop	-10904
▁rises	-10905
▁slave	-10906
▁towns	-10907
▁wrest	-10908
▁yeast	-10909
ictions	-10910
inished	-10911
iterate	-10912
▁Alaska	-10913
▁Luther	-10914
▁Monday	-10915
▁angles	-10916
▁brutal	-10917
▁crowds	-10918
▁equity	-10919
▁filmed	-10920
▁fundra	-10921
▁graphs	-10922
▁ironic	-10923
▁mutual	-10924
▁nicely	-10925
▁tagged	-10926
▁timing	-10927
▁traces	-10928
▁upward	-10929
▁viewed	-10930
▁warmer	-10931
aggering	-10932
restrial	-10933
▁Certain	-10934
▁Himalay	-10935
▁Montana	-10936
▁Stewart	-10937
▁altered	-10938
▁assault	-10939
▁beetles	-10940
▁blessed	-10941
▁browser	-10942
▁careers	-10943
▁chasing	-10944
▁clarity	-10945
▁columns	-10946
▁deficit	-10947
▁desires	-10948
▁eternal	-10949
▁flights	-10950
▁greatly	-10951
▁honored	-10952
▁iceberg	-10953
▁impress	-10954
▁liberty	-10955
▁mixture	-10956
▁neglect	-10957
▁ordered	-10958
▁passage	-10959
▁praying	-10960
▁pricing	-10961
▁seventh	-10962
▁shelves	-10963
▁spatial	-10964
▁squeeze	-10965
▁strikes	-10966
▁talents	-10967
▁warrior	-10968
▁Columbia	-10969
▁Thailand	-10970
▁autonomy	-10971
▁baseline	-10972
▁chickens	-10973
▁detected	-10974
▁elevator	-10975
▁entrance	-10976
▁feminist	-10977
▁intimacy	-10978
▁maneuver	-10979
▁modeling	-10980
▁mycelium	-10981
▁plankton	-10982
▁pressing	-10983
▁scaffold	-10984
▁uniquely	-10985
▁Elizabeth	-10986
▁artifacts	-10987
▁celebrity	-10988
▁demograph	-10989
▁dictators	-10990
▁fishermen	-10991
▁illusions	-10992
▁indicates	-10993
▁integrity	-10994
▁metabolic	-10995
▁mushrooms	-10996
▁pressures	-10997
▁promoting	-10998
▁replacing	-10999
▁struggled	-11000
▁surviving	-11001
engineering	-11002
▁Eventually	-11003
▁chromosome	-11004
▁disappears	-11005
▁opposition	-11006
▁procedures	-11007
▁widespread	-11008
▁Republicans	-11009
▁corresponds	-11010
▁frequencies	-11011
▁frustration	-11012
▁medications	-11013
▁nonetheless	-11014
▁sensitivity	-11015
▁symmetrical	-11016
▁authenticity	-11017
▁satisfaction	-11018
▁exponentially	-11019
▁participating	-11020
ES	-11021
Fi	-11022
vy	-11023
yg	-11024
gon	-11025
idi	-11026
law	-11027
omy	-11028
▁46	-11029
▁ST	-11030
▁Sk	-11031
▁Wo	-11032
▁gy	-11033
acqu	-11034
asha	-11035
chem	-11036
elle	-11037
lets	-11038
pres	-11039
roup	-11040
ucky	-11041
wing	-11042
▁1.2	-11043
▁15,	-11044
▁Ear	-11045
▁Gar	-11046
▁Naz	-11047
▁Top	-11048
▁Ult	-11049
▁arc	-11050
▁bip	-11051
▁owe	-11052
▁rod	-11053
▁zoo	-11054
Point	-11055
graph	-11056
illas	-11057
piece	-11058
▁2008	-11059
▁Bert	-11060
▁Fred	-11061
▁Free	-11062
▁Lead	-11063
▁Less	-11064
▁Oper	-11065
▁disk	-11066
▁font	-11067
▁holy	-11068
▁node	-11069
▁obsc	-11070
▁oven	-11071
▁pron	-11072
▁rays	-11073
▁sang	-11074
asters	-11075
ieties	-11076
ilated	-11077
inding	-11078
ograms	-11079
rition	-11080
ulator	-11081
vasive	-11082
▁2006,	-11083
▁Guard	-11084
▁Story	-11085
▁Venus	-11086
▁asset	-11087
▁cinem	-11088
▁clips	-11089
▁clues	-11090
▁divid	-11091
▁greet	-11092
▁paste	-11093
▁paths	-11094
▁sells	-11095
▁slept	-11096
▁slope	-11097
▁tanks	-11098
▁wiped	-11099
issance	-11100
million	-11101
ocratic	-11102
▁Associ	-11103
▁Having	-11104
▁Recent	-11105
▁assure	-11106
▁asthma	-11107
▁biases	-11108
▁calend	-11109
▁cathed	-11110
▁cousin	-11111
▁famine	-11112
▁folded	-11113
▁hunter	-11114
▁imagin	-11115
▁jungle	-11116
▁lately	-11117
▁marker	-11118
▁resemb	-11119
▁salary	-11120
▁server	-11121
▁soccer	-11122
▁spiral	-11123
▁stairs	-11124
▁underm	-11125
▁virtue	-11126
▁viscer	-11127
▁Country	-11128
▁Despite	-11129
▁Environ	-11130
▁applies	-11131
▁appoint	-11132
▁archive	-11133
▁budgets	-11134
▁dismiss	-11135
▁fossils	-11136
▁goodbye	-11137
▁matches	-11138
▁penalty	-11139
▁sadness	-11140
▁shortly	-11141
▁sulfide	-11142
▁texting	-11143
▁thereby	-11144
▁tightly	-11145
▁upright	-11146
inational	-11147
▁Consider	-11148
▁Portugal	-11149
▁accommod	-11150
▁ancestor	-11151
▁chapters	-11152
▁embodied	-11153
▁famously	-11154
▁frontier	-11155
▁goodness	-11156
▁internet	-11157
▁lectures	-11158
▁motivate	-11159
▁obsolete	-11160
▁pipeline	-11161
▁primates	-11162
▁receptor	-11163
▁reflects	-11164
▁stealing	-11165
▁surgical	-11166
▁symbolic	-11167
▁thorough	-11168
▁triangle	-11169
controlled	-11170
▁blueprint	-11171
▁cardboard	-11172
▁consuming	-11173
▁countless	-11174
▁emphasize	-11175
▁judgments	-11176
▁marijuana	-11177
▁massively	-11178
▁portraits	-11179
▁sexuality	-11180
▁spaghetti	-11181
▁acceptance	-11182
▁apartments	-11183
▁empowering	-11184
▁physiology	-11185
▁politician	-11186
▁programmed	-11187
▁relativity	-11188
▁staggering	-11189
▁calculation	-11190
▁chromosomes	-11191
▁correlation	-11192
▁empowerment	-11193
▁functioning	-11194
▁microscopic	-11195
▁replacement	-11196
▁statistical	-11197
▁disappointed	-11198
▁configuration	-11199
▁gravitational	-11200
▁personalities	-11201
▁rehabilitation	-11202
▁scientifically	-11203
10	-11204
99	-11205
HA	-11206
pa	-11207
bot	-11208
cod	-11209
eys	-11210
wid	-11211
zzy	-11212
▁44	-11213
▁MO	-11214
▁MS	-11215
▁eB	-11216
▁oy	-11217
Cola	-11218
abwe	-11219
adow	-11220
anch	-11221
eros	-11222
ican	-11223
intu	-11224
isan	-11225
phia	-11226
pted	-11227
ptic	-11228
umen	-11229
▁1.5	-11230
▁Inc	-11231
▁Lew	-11232
▁Old	-11233
▁ape	-11234
▁hut	-11235
▁lex	-11236
Thank	-11237
ancer	-11238
pling	-11239
rowth	-11240
thals	-11241
uster	-11242
vance	-11243
▁Band	-11244
▁Coca	-11245
▁Cost	-11246
▁Keep	-11247
▁Marc	-11248
▁Milo	-11249
▁Tele	-11250
▁Year	-11251
▁apes	-11252
▁appl	-11253
▁belt	-11254
▁bugs	-11255
▁cram	-11256
▁dorm	-11257
▁edit	-11258
▁esca	-11259
▁fame	-11260
▁nano	-11261
▁pean	-11262
▁perm	-11263
▁puff	-11264
▁tale	-11265
▁tide	-11266
▁ware	-11267
ection	-11268
handed	-11269
ocracy	-11270
odynam	-11271
ounder	-11272
redict	-11273
rhythm	-11274
school	-11275
ulates	-11276
verted	-11277
▁Apoll	-11278
▁Beach	-11279
▁Clear	-11280
▁Fried	-11281
▁Georg	-11282
▁Milky	-11283
▁Namib	-11284
▁Small	-11285
▁alter	-11286
▁arise	-11287
▁chase	-11288
▁deter	-11289
▁drama	-11290
▁freed	-11291
▁ghost	-11292
▁heter	-11293
▁incar	-11294
▁jokes	-11295
▁pipes	-11296
▁recur	-11297
▁stare	-11298
▁suits	-11299
▁swing	-11300
alities	-11301
imbabwe	-11302
ourcing	-11303
▁Greeks	-11304
▁Kansas	-11305
▁Native	-11306
▁apples	-11307
▁beetle	-11308
▁checks	-11309
▁circul	-11310
▁courts	-11311
▁facult	-11312
▁guitar	-11313
▁hacker	-11314
▁insult	-11315
▁intric	-11316
▁marrow	-11317
▁mature	-11318
▁mouths	-11319
▁prosec	-11320
▁reflex	-11321
▁steady	-11322
▁submar	-11323
▁viable	-11324
▁waited	-11325
▁washed	-11326
adelphia	-11327
oriented	-11328
▁Natural	-11329
▁buttons	-11330
▁checked	-11331
▁confirm	-11332
▁forgive	-11333
▁frontal	-11334
▁honesty	-11335
▁lighter	-11336
▁markers	-11337
▁minimal	-11338
▁mirrors	-11339
▁playful	-11340
▁relates	-11341
▁silicon	-11342
▁skilled	-11343
▁subsequ	-11344
▁triumph	-11345
izational	-11346
▁advocate	-11347
▁aluminum	-11348
▁circular	-11349
▁diamonds	-11350
▁displays	-11351
▁friction	-11352
▁gigantic	-11353
▁headline	-11354
▁hypothes	-11355
▁improvis	-11356
▁magician	-11357
▁marathon	-11358
▁numerous	-11359
▁obstacle	-11360
▁purchase	-11361
▁regulate	-11362
▁shepherd	-11363
▁siblings	-11364
▁singular	-11365
▁stepping	-11366
▁Jefferson	-11367
▁activated	-11368
▁analyzing	-11369
▁biosphere	-11370
▁container	-11371
▁fragments	-11372
▁intersect	-11373
▁isolation	-11374
▁kilometer	-11375
▁lightning	-11376
▁projected	-11377
▁psychiatr	-11378
▁resilient	-11379
▁respected	-11380
▁returning	-11381
▁secondary	-11382
▁skeptical	-11383
▁staircase	-11384
▁summarize	-11385
▁sustained	-11386
▁therapist	-11387
▁unpredict	-11388
▁worldview	-11389
▁Absolutely	-11390
▁PowerPoint	-11391
▁accumulate	-11392
▁diagnostic	-11393
▁disruptive	-11394
▁frightened	-11395
▁inventions	-11396
▁invitation	-11397
▁journalism	-11398
▁quantities	-11399
▁destructive	-11400
▁frustrating	-11401
▁orientation	-11402
▁psychiatric	-11403
▁stimulation	-11404
▁Neanderthals	-11405
▁Philadelphia	-11406
▁appreciation	-11407
▁disabilities	-11408
▁individually	-11409
▁manipulation	-11410
▁partnerships	-11411
▁reproduction	-11412
▁Interestingly	-11413
▁collaborators	-11414
▁multinational	-11415
▁spontaneously	-11416
▁characteristic	-11417
▁entrepreneurial	-11418
AA	-11419
HC	-11420
Le	-11421
sm	-11422
Mom	-11423
ano	-11424
iva	-11425
oof	-11426
sea	-11427
weg	-11428
▁Cy	-11429
▁DM	-11430
▁Id	-11431
▁Ir	-11432
▁ol	-11433
aman	-11434
anol	-11435
bral	-11436
eron	-11437
otal	-11438
rove	-11439
zone	-11440
▁50-	-11441
▁Add	-11442
▁Ask	-11443
▁Lee	-11444
▁Rog	-11445
▁Sub	-11446
▁Sum	-11447
▁bay	-11448
▁cod	-11449
▁gor	-11450
▁jan	-11451
Every	-11452
fight	-11453
ilibr	-11454
▁2005	-11455
▁Ardu	-11456
▁Food	-11457
▁Hung	-11458
▁Lama	-11459
▁Pent	-11460
▁Phys	-11461
▁Post	-11462
▁Stop	-11463
▁Wait	-11464
▁alar	-11465
▁buzz	-11466
▁debr	-11467
▁eats	-11468
▁folk	-11469
▁goat	-11470
▁heck	-11471
▁lips	-11472
▁numb	-11473
▁pose	-11474
▁rend	-11475
▁trap	-11476
apagos	-11477
cribed	-11478
formed	-11479
istant	-11480
lahoma	-11481
orship	-11482
ortion	-11483
ustice	-11484
▁2001,	-11485
▁Carne	-11486
▁Color	-11487
▁Danny	-11488
▁Later	-11489
▁Libya	-11490
▁Roman	-11491
▁Start	-11492
▁Using	-11493
▁alike	-11494
▁alleg	-11495
▁bonds	-11496
▁bribe	-11497
▁brick	-11498
▁draws	-11499
▁faint	-11500
▁fever	-11501
▁macro	-11502
▁midst	-11503
▁physi	-11504
▁shred	-11505
▁tiger	-11506
▁twins	-11507
▁wives	-11508
conomic	-11509
develop	-11510
natural	-11511
umental	-11512
▁Buddha	-11513
▁Cancer	-11514
▁Canyon	-11515
▁Golden	-11516
▁Jordan	-11517
▁Kosovo	-11518
▁Norweg	-11519
▁Public	-11520
▁Thirty	-11521
▁Yellow	-11522
▁admire	-11523
▁candle	-11524
▁earned	-11525
▁fruits	-11526
▁improb	-11527
▁marked	-11528
▁mixing	-11529
▁pollut	-11530
▁psycho	-11531
▁purely	-11532
▁scroll	-11533
▁snakes	-11534
▁storms	-11535
▁tattoo	-11536
ilibrium	-11537
▁Clearly	-11538
▁Defense	-11539
▁affairs	-11540
▁amateur	-11541
▁anatomy	-11542
▁bananas	-11543
▁chaotic	-11544
▁chemist	-11545
▁crashes	-11546
▁dancers	-11547
▁dreamed	-11548
▁easiest	-11549
▁editors	-11550
▁harmful	-11551
▁impulse	-11552
▁inspect	-11553
▁migrate	-11554
▁monster	-11555
▁posters	-11556
▁premise	-11557
▁primate	-11558
▁ratings	-11559
▁reclaim	-11560
▁reveals	-11561
▁shadows	-11562
▁utility	-11563
▁Buddhist	-11564
▁abundant	-11565
▁broccoli	-11566
▁confined	-11567
▁enabling	-11568
▁memorial	-11569
▁minerals	-11570
▁passions	-11571
▁patience	-11572
▁weakness	-11573
generation	-11574
▁Galapagos	-11575
▁Secretary	-11576
▁bombsight	-11577
▁breakdown	-11578
▁exercises	-11579
▁finishing	-11580
▁illnesses	-11581
▁observing	-11582
▁obsession	-11583
▁preserved	-11584
▁processed	-11585
▁similarly	-11586
▁variables	-11587
▁voluntary	-11588
▁acceptable	-11589
▁adaptation	-11590
▁grassroots	-11591
▁playground	-11592
▁prevalence	-11593
▁propaganda	-11594
▁recognizes	-11595
▁reflective	-11596
▁supportive	-11597
▁astronomers	-11598
▁calculating	-11599
▁controversy	-11600
▁documenting	-11601
▁dysfunction	-11602
▁perceptions	-11603
▁remembering	-11604
▁constitution	-11605
▁explanations	-11606
▁laboratories	-11607
▁nevertheless	-11608
▁presidential	-11609
▁electromagnetic	-11610
Ex	-11611
ao	-11612
ja	-11613
Not	-11614
One	-11615
asa	-11616
awa	-11617
pay	-11618
rin	-11619
run	-11620
vol	-11621
▁'8	-11622
▁BJ	-11623
▁IP	-11624
▁Od	-11625
▁Vi	-11626
▁WK	-11627
▁Wr	-11628
▁ic	-11629
acks	-11630
addy	-11631
aire	-11632
aven	-11633
core	-11634
eman	-11635
iasm	-11636
pons	-11637
rose	-11638
spec	-11639
▁140	-11640
▁16,	-11641
▁24-	-11642
▁450	-11643
▁Beh	-11644
▁Bot	-11645
▁DAR	-11646
▁Die	-11647
▁Hot	-11648
▁Jay	-11649
▁Jen	-11650
▁Kib	-11651
▁Sad	-11652
▁Win	-11653
▁bos	-11654
▁cum	-11655
▁gad	-11656
▁gel	-11657
▁hob	-11658
▁jaw	-11659
▁kit	-11660
▁mum	-11661
▁sty	-11662
ached	-11663
achel	-11664
actic	-11665
alore	-11666
amous	-11667
appro	-11668
bling	-11669
essim	-11670
ilson	-11671
sight	-11672
▁2010	-11673
▁Cuba	-11674
▁Jill	-11675
▁Lind	-11676
▁Nike	-11677
▁Pers	-11678
▁Slow	-11679
▁TEDx	-11680
▁Wars	-11681
▁conj	-11682
▁duty	-11683
▁flaw	-11684
▁hurd	-11685
▁leak	-11686
▁orth	-11687
▁slum	-11688
▁solo	-11689
▁tips	-11690
▁twin	-11691
▁yard	-11692
inates	-11693
obiles	-11694
opardy	-11695
▁2012,	-11696
▁Dalai	-11697
▁Fifty	-11698
▁Large	-11699
▁awake	-11700
▁bonus	-11701
▁choir	-11702
▁dates	-11703
▁deple	-11704
▁femin	-11705
▁fungi	-11706
▁fuzzy	-11707
▁hurts	-11708
▁piles	-11709
▁pumps	-11710
▁remem	-11711
▁repet	-11712
▁ridge	-11713
▁smugg	-11714
▁snake	-11715
▁sucks	-11716
▁tenth	-11717
▁tuned	-11718
Because	-11719
genesis	-11720
holders	-11721
iscover	-11722
sterdam	-11723
version	-11724
▁15,000	-11725
▁Commun	-11726
▁Edward	-11727
▁Empire	-11728
▁Others	-11729
▁Sahara	-11730
▁angels	-11731
▁banned	-11732
▁benign	-11733
▁cement	-11734
▁cinema	-11735
▁depths	-11736
▁empire	-11737
▁harass	-11738
▁hatred	-11739
▁helmet	-11740
▁hooked	-11741
▁judges	-11742
▁laying	-11743
▁pessim	-11744
▁prayer	-11745
▁prohib	-11746
▁reserv	-11747
▁scaled	-11748
▁stigma	-11749
specific	-11750
▁Denmark	-11751
▁Hundred	-11752
▁Looking	-11753
▁Snowden	-11754
▁ashamed	-11755
▁blocked	-11756
▁copying	-11757
▁cracked	-11758
▁devoted	-11759
▁emerges	-11760
▁enthusi	-11761
▁equator	-11762
▁examine	-11763
▁explode	-11764
▁grammar	-11765
▁joining	-11766
▁linking	-11767
▁morally	-11768
▁museums	-11769
▁nucleus	-11770
▁octopus	-11771
▁pathway	-11772
▁prisons	-11773
▁recruit	-11774
▁seafood	-11775
▁submers	-11776
▁thermal	-11777
▁touches	-11778
▁viewing	-11779
▁warfare	-11780
▁Carnegie	-11781
▁Oklahoma	-11782
▁admitted	-11783
▁altruism	-11784
▁civilian	-11785
▁doubling	-11786
▁endeavor	-11787
▁infrared	-11788
▁juvenile	-11789
▁marginal	-11790
▁misunder	-11791
▁mustache	-11792
▁nonsense	-11793
▁operates	-11794
▁outbreak	-11795
▁persuade	-11796
▁petition	-11797
▁planting	-11798
▁producer	-11799
▁promises	-11800
▁supports	-11801
▁Bangalore	-11802
▁Tasmanian	-11803
▁ambulance	-11804
▁arbitrary	-11805
▁attacking	-11806
▁cybercrim	-11807
▁galleries	-11808
▁impressed	-11809
▁inflation	-11810
▁instances	-11811
▁institute	-11812
▁launching	-11813
▁libraries	-11814
▁nightmare	-11815
▁practiced	-11816
▁strengths	-11817
▁accurately	-11818
▁altogether	-11819
▁celebrated	-11820
▁connectome	-11821
▁convincing	-11822
▁dependence	-11823
▁enthusiasm	-11824
▁fertilizer	-11825
▁friendship	-11826
▁intriguing	-11827
▁meditation	-11828
▁protective	-11829
▁repeatedly	-11830
▁specialist	-11831
▁subjective	-11832
▁Association	-11833
▁efficiently	-11834
▁equilibrium	-11835
▁introducing	-11836
▁rainforests	-11837
▁researching	-11838
▁biologically	-11839
▁consistently	-11840
▁deliberately	-11841
▁perspectives	-11842
▁breakthroughs	-11843
▁consideration	-11844
-2	-11845
Cl	-11846
mn	-11847
11,	-11848
aco	-11849
bee	-11850
flu	-11851
hed	-11852
lad	-11853
nie	-11854
ois	-11855
rug	-11856
una	-11857
zer	-11858
▁43	-11859
▁52	-11860
▁7,	-11861
▁Mu	-11862
▁PI	-11863
▁Sn	-11864
▁TB	-11865
▁ov	-11866
acle	-11867
acre	-11868
amie	-11869
axis	-11870
bian	-11871
blow	-11872
cium	-11873
egas	-11874
eton	-11875
inch	-11876
mile	-11877
neum	-11878
rays	-11879
soon	-11880
them	-11881
uten	-11882
zler	-11883
▁160	-11884
▁185	-11885
▁Bor	-11886
▁Muh	-11887
▁Pet	-11888
▁lou	-11889
▁mit	-11890
,000.	-11891
akota	-11892
asant	-11893
avors	-11894
cture	-11895
ected	-11896
ffiti	-11897
ibati	-11898
irmed	-11899
ivals	-11900
meter	-11901
osaur	-11902
rovir	-11903
story	-11904
width	-11905
▁CEOs	-11906
▁Cart	-11907
▁Data	-11908
▁Edin	-11909
▁Expl	-11910
▁Gall	-11911
▁Harr	-11912
▁Luck	-11913
▁Real	-11914
▁Serv	-11915
▁Wood	-11916
▁bore	-11917
▁crab	-11918
▁eBay	-11919
▁extr	-11920
▁germ	-11921
▁hump	-11922
▁lane	-11923
▁lump	-11924
▁seam	-11925
ertips	-11926
irable	-11927
irling	-11928
lethal	-11929
lights	-11930
▁Prime	-11931
▁Princ	-11932
▁Royal	-11933
▁adequ	-11934
▁arena	-11935
▁arous	-11936
▁codes	-11937
▁empir	-11938
▁firms	-11939
▁folds	-11940
▁hatch	-11941
▁petro	-11942
▁resid	-11943
▁toast	-11944
▁veloc	-11945
▁wavel	-11946
anguage	-11947
eliness	-11948
itorium	-11949
ultural	-11950
▁Colomb	-11951
▁Humans	-11952
▁Julian	-11953
▁bloody	-11954
▁copper	-11955
▁dancer	-11956
▁debris	-11957
▁defect	-11958
▁entity	-11959
▁ethics	-11960
▁fights	-11961
▁heroin	-11962
▁hollow	-11963
▁humble	-11964
▁ladder	-11965
▁powder	-11966
▁retina	-11967
▁scarce	-11968
▁slowed	-11969
▁spends	-11970
▁tribal	-11971
▁tricky	-11972
▁truths	-11973
▁update	-11974
▁urgent	-11975
▁violin	-11976
▁voters	-11977
▁wished	-11978
ceptable	-11979
▁Arduino	-11980
▁Swedish	-11981
▁Teszler	-11982
▁anxious	-11983
▁captain	-11984
▁commons	-11985
▁contest	-11986
▁crushed	-11987
▁divorce	-11988
▁donated	-11989
▁episode	-11990
▁expense	-11991
▁inmates	-11992
▁legally	-11993
▁leopard	-11994
▁mammoth	-11995
▁masters	-11996
▁newborn	-11997
▁outdoor	-11998
▁persons	-11999
▁portray	-12000
▁rhythms	-12001
▁scanned	-12002
▁squared	-12003
▁vitamin	-12004
▁winners	-12005
▁Kiribati	-12006
▁acoustic	-12007
▁advertis	-12008
▁appropri	-12009
▁balanced	-12010
▁cerebral	-12011
▁cleaning	-12012
▁commonly	-12013
▁composed	-12014
▁degraded	-12015
▁dreaming	-12016
▁envelope	-12017
▁midnight	-12018
▁operated	-12019
▁presents	-12020
▁sections	-12021
▁suburban	-12022
▁superher	-12023
▁temporal	-12024
▁visitors	-12025
performing	-12026
▁Argentina	-12027
▁Edinburgh	-12028
▁Princeton	-12029
▁addressed	-12030
▁affection	-12031
▁aggregate	-12032
▁apologize	-12033
▁exclusive	-12034
▁graduates	-12035
▁inclusive	-12036
▁intervene	-12037
▁promising	-12038
▁recovered	-12039
▁routinely	-12040
▁wandering	-12041
▁Australian	-12042
▁Parliament	-12043
▁attributes	-12044
▁conscience	-12045
▁generosity	-12046
▁identities	-12047
▁multiverse	-12048
▁presenting	-12049
▁statements	-12050
▁adolescence	-12051
▁complaining	-12052
▁countryside	-12053
▁expectation	-12054
▁financially	-12055
▁meaningless	-12056
▁problematic	-12057
▁questioning	-12058
▁storyteller	-12059
▁transmitted	-12060
▁willingness	-12061
▁wonderfully	-12062
▁disappearing	-12063
▁refrigerator	-12064
▁independently	-12065
▁manufacturers	-12066
▁discrimination	-12067
▁mathematically	-12068
▁transformations	-12069
NG	-12070
ECD	-12071
but	-12072
ffe	-12073
mia	-12074
ria	-12075
whe	-12076
yan	-12077
▁38	-12078
▁4,	-12079
▁98	-12080
▁CC	-12081
▁Ig	-12082
▁PR	-12083
▁SB	-12084
bone	-12085
ched	-12086
copy	-12087
ctar	-12088
enez	-12089
inea	-12090
iner	-12091
ousy	-12092
oved	-12093
▁180	-12094
▁50,	-12095
▁Bud	-12096
▁Cla	-12097
▁Dev	-12098
▁Ham	-12099
▁Hon	-12100
▁LHC	-12101
▁NSA	-12102
▁Ooh	-12103
▁Pur	-12104
▁SMS	-12105
▁Sel	-12106
▁Sup	-12107
▁Tit	-12108
▁dug	-12109
▁fee	-12110
▁sap	-12111
aning	-12112
arial	-12113
berty	-12114
chill	-12115
cycle	-12116
erers	-12117
frame	-12118
gered	-12119
iotic	-12120
lical	-12121
munic	-12122
shine	-12123
▁Cars	-12124
▁Main	-12125
▁OECD	-12126
▁Peru	-12127
▁Sher	-12128
▁cort	-12129
▁deci	-12130
▁dome	-12131
▁ease	-12132
▁gait	-12133
▁inqu	-12134
▁menu	-12135
▁mund	-12136
▁pond	-12137
▁sums	-12138
▁symb	-12139
▁taxi	-12140
advant	-12141
angelo	-12142
atical	-12143
design	-12144
engers	-12145
enment	-12146
rontal	-12147
second	-12148
▁1990,	-12149
▁2010.	-12150
▁Const	-12151
▁Diego	-12152
▁Emily	-12153
▁Keith	-12154
▁Lagos	-12155
▁Leone	-12156
▁Lewis	-12157
▁Matth	-12158
▁Nepal	-12159
▁Party	-12160
▁Radio	-12161
▁Simon	-12162
▁Stand	-12163
▁Tesla	-12164
▁Venez	-12165
▁beast	-12166
▁crank	-12167
▁cried	-12168
▁crust	-12169
▁gifts	-12170
▁hairs	-12171
▁halls	-12172
▁hobby	-12173
▁irres	-12174
▁newly	-12175
▁parap	-12176
▁pneum	-12177
▁races	-12178
▁sands	-12179
▁towel	-12180
▁tweet	-12181
▁votes	-12182
▁wells	-12183
▁Either	-12184
▁Nathan	-12185
▁Philip	-12186
▁Rights	-12187
▁Wonder	-12188
▁avatar	-12189
▁bypass	-12190
▁cookie	-12191
▁differ	-12192
▁expose	-12193
▁firmly	-12194
▁intend	-12195
▁nectar	-12196
▁orgasm	-12197
▁poorly	-12198
▁racial	-12199
▁reader	-12200
▁slaves	-12201
▁taller	-12202
▁typing	-12203
▁underp	-12204
building	-12205
friendly	-12206
vascular	-12207
▁250,000	-12208
▁300,000	-12209
▁Alright	-12210
▁Babbage	-12211
▁Babylon	-12212
▁Freedom	-12213
▁Liberia	-12214
▁Natasha	-12215
▁Philipp	-12216
▁anytime	-12217
▁basking	-12218
▁calcium	-12219
▁categor	-12220
▁ethanol	-12221
▁gaining	-12222
▁heights	-12223
▁jewelry	-12224
▁mastery	-12225
▁needing	-12226
▁needles	-12227
▁notions	-12228
▁quietly	-12229
▁reviews	-12230
▁rockets	-12231
▁slowing	-12232
▁tickets	-12233
▁tracked	-12234
▁volumes	-12235
▁whisper	-12236
▁worship	-12237
condition	-12238
nutrition	-12239
▁Brothers	-12240
▁Michigan	-12241
▁Ministry	-12242
▁Mountain	-12243
▁TEDsters	-12244
▁Venezuel	-12245
▁abnormal	-12246
▁assuming	-12247
▁colorful	-12248
▁commands	-12249
▁equipped	-12250
▁evaluate	-12251
▁exploded	-12252
▁happiest	-12253
▁horrific	-12254
▁impaired	-12255
▁imprison	-12256
▁invasion	-12257
▁miracles	-12258
▁observer	-12259
▁obtained	-12260
▁operator	-12261
▁optimize	-12262
▁releases	-12263
▁responds	-12264
▁sacrific	-12265
▁superior	-12266
▁workshop	-12267
▁Amsterdam	-12268
▁Architect	-12269
▁Democrats	-12270
▁Education	-12271
▁accepting	-12272
▁afterward	-12273
▁assembled	-12274
▁campaigns	-12275
▁certainty	-12276
▁cigarette	-12277
▁cockroach	-12278
▁confusion	-12279
▁disadvant	-12280
▁discussed	-12281
▁displaced	-12282
▁distorted	-12283
▁educators	-12284
▁filmmaker	-12285
▁gratitude	-12286
▁improvise	-12287
▁injustice	-12288
▁pregnancy	-12289
▁releasing	-12290
▁scenarios	-12291
▁sequenced	-12292
▁successes	-12293
▁synthesis	-12294
▁varieties	-12295
▁Democratic	-12296
▁attraction	-12297
▁disgusting	-12298
▁harvesting	-12299
▁imperative	-12300
▁infinitely	-12301
▁parameters	-12302
▁prefrontal	-12303
▁regenerate	-12304
▁standpoint	-12305
▁vegetation	-12306
▁wavelength	-12307
▁accountable	-12308
▁catastrophe	-12309
▁celebrating	-12310
▁coincidence	-12311
▁conferences	-12312
▁dragonflies	-12313
▁eradication	-12314
▁existential	-12315
▁flexibility	-12316
▁requirement	-12317
▁Michelangelo	-12318
▁demographics	-12319
▁developments	-12320
▁tremendously	-12321
▁statistically	-12322
▁undergraduate	-12323
An	-12324
Hi	-12325
SE	-12326
dy	-12327
zo	-12328
600	-12329
aba	-12330
fig	-12331
isa	-12332
jan	-12333
lla	-12334
omp	-12335
pit	-12336
▁SO	-12337
▁YR	-12338
aron	-12339
atus	-12340
bird	-12341
cuse	-12342
dest	-12343
fund	-12344
gage	-12345
inas	-12346
obic	-12347
ocks	-12348
oven	-12349
rine	-12350
ruce	-12351
uite	-12352
ummy	-12353
uper	-12354
verb	-12355
▁1.3	-12356
▁125	-12357
▁360	-12358
▁Ide	-12359
▁Kle	-12360
▁Mem	-12361
▁Mot	-12362
▁NGO	-12363
▁Nav	-12364
▁Oft	-12365
▁Ple	-12366
▁Pra	-12367
▁fis	-12368
▁hug	-12369
▁plu	-12370
▁rum	-12371
▁woo	-12372
ammad	-12373
backs	-12374
gebra	-12375
geria	-12376
metic	-12377
opoly	-12378
otics	-12379
shore	-12380
stick	-12381
ucked	-12382
vania	-12383
venue	-12384
▁2007	-12385
▁Alan	-12386
▁Alph	-12387
▁Beck	-12388
▁Doaa	-12389
▁Down	-12390
▁Fire	-12391
▁Line	-12392
▁Mind	-12393
▁Pass	-12394
▁Vill	-12395
▁Work	-12396
▁fled	-12397
▁gosh	-12398
▁larv	-12399
▁moms	-12400
▁nail	-12401
▁skip	-12402
▁sque	-12403
▁unin	-12404
airobi	-12405
bercul	-12406
cripts	-12407
ibbean	-12408
putnik	-12409
ranean	-12410
ussani	-12411
▁1998,	-12412
▁2008.	-12413
▁7,000	-12414
▁Death	-12415
▁Exact	-12416
▁Intel	-12417
▁Pitts	-12418
▁Solar	-12419
▁Tower	-12420
▁Vegas	-12421
▁absor	-12422
▁backs	-12423
▁boson	-12424
▁chore	-12425
▁dealt	-12426
▁doses	-12427
▁drift	-12428
▁eager	-12429
▁incon	-12430
▁incub	-12431
▁lasts	-12432
▁oblig	-12433
▁pools	-12434
▁recip	-12435
▁rides	-12436
▁ruins	-12437
▁scope	-12438
▁spawn	-12439
▁spike	-12440
▁steer	-12441
▁swamp	-12442
▁withd	-12443
▁wreck	-12444
acities	-12445
iratory	-12446
rations	-12447
rospect	-12448
ulators	-12449
▁Apollo	-12450
▁Bosnia	-12451
▁Mathem	-12452
▁Nicole	-12453
▁Person	-12454
▁Turing	-12455
▁Unlike	-12456
▁Wilson	-12457
▁Wouldn	-12458
▁banana	-12459
▁biased	-12460
▁coding	-12461
▁coined	-12462
▁defeat	-12463
▁elders	-12464
▁erotic	-12465
▁fierce	-12466
▁fixing	-12467
▁gallon	-12468
▁incons	-12469
▁interd	-12470
▁irrele	-12471
▁learns	-12472
▁listed	-12473
▁louder	-12474
▁pilots	-12475
▁resort	-12476
▁routes	-12477
▁slogan	-12478
▁spouse	-12479
▁sticky	-12480
▁tastes	-12481
▁thirds	-12482
▁titles	-12483
▁towers	-12484
▁vastly	-12485
appiness	-12486
assembly	-12487
lessness	-12488
▁Finland	-12489
▁Francis	-12490
▁Georgia	-12491
▁Luckily	-12492
▁Nairobi	-12493
▁Namibia	-12494
▁Usually	-12495
▁bankers	-12496
▁cousins	-12497
▁crystal	-12498
▁justify	-12499
▁knocked	-12500
▁laundry	-12501
▁legitim	-12502
▁mundane	-12503
▁perpetr	-12504
▁posture	-12505
▁puberty	-12506
▁reduces	-12507
▁regrets	-12508
▁reinfor	-12509
▁reperto	-12510
▁secular	-12511
▁settled	-12512
▁shipped	-12513
▁summary	-12514
▁symptom	-12515
▁torture	-12516
▁victory	-12517
efficient	-12518
intuitive	-12519
ropolitan	-12520
▁Cambodia	-12521
▁Giussani	-12522
▁Medicine	-12523
▁Muhammad	-12524
▁Recently	-12525
▁adaptive	-12526
▁annoying	-12527
▁backpack	-12528
▁blocking	-12529
▁champion	-12530
▁contents	-12531
▁daylight	-12532
▁declared	-12533
▁delicate	-12534
▁flourish	-12535
▁graffiti	-12536
▁incarcer	-12537
▁indirect	-12538
▁inviting	-12539
▁missions	-12540
▁noticing	-12541
▁passport	-12542
▁rainfall	-12543
▁redefine	-12544
▁referred	-12545
▁searches	-12546
▁secondly	-12547
▁societal	-12548
▁unstable	-12549
▁weekends	-12550
berculosis	-12551
▁Caribbean	-12552
▁Certainly	-12553
▁assistant	-12554
▁civilians	-12555
▁declining	-12556
▁demanding	-12557
▁geometric	-12558
▁imperfect	-12559
▁limestone	-12560
▁qualified	-12561
▁satisfied	-12562
▁submitted	-12563
▁Republican	-12564
▁anesthesia	-12565
▁auditorium	-12566
▁brainstorm	-12567
▁censorship	-12568
▁cigarettes	-12569
▁coordinate	-12570
▁distribute	-12571
▁globalized	-12572
▁innovators	-12573
▁photosynth	-12574
▁reasonably	-12575
▁temptation	-12576
▁unemployed	-12577
▁Information	-12578
▁battlefield	-12579
▁circulation	-12580
▁commodities	-12581
▁conclusions	-12582
▁ideological	-12583
▁initiatives	-12584
▁maintaining	-12585
▁encyclopedia	-12586
▁malnutrition	-12587
▁quantitative	-12588
▁reproductive	-12589
▁unacceptable	-12590
▁contradiction	-12591
▁developmental	-12592
▁experimenting	-12593
▁revolutionary	-12594
Af	-12595
Am	-12596
IA	-12597
On	-12598
To	-12599
800	-12600
SPR	-12601
cav	-12602
cup	-12603
fts	-12604
jud	-12605
oft	-12606
pol	-12607
syl	-12608
uci	-12609
vin	-12610
▁86	-12611
▁AD	-12612
▁Ec	-12613
▁Ju	-12614
▁Ow	-12615
▁Si	-12616
airy	-12617
amil	-12618
arks	-12619
asso	-12620
bled	-12621
educ	-12622
etts	-12623
iche	-12624
icut	-12625
imed	-12626
know	-12627
mble	-12628
ocke	-12629
onal	-12630
otto	-12631
shah	-12632
stan	-12633
uest	-12634
uled	-12635
urbs	-12636
wall	-12637
▁12.	-12638
▁14,	-12639
▁17,	-12640
▁187	-12641
▁900	-12642
▁Bad	-12643
▁CRI	-12644
▁Dig	-12645
▁EDI	-12646
▁Est	-12647
▁Isa	-12648
▁Len	-12649
▁PhD	-12650
▁Reg	-12651
▁Rel	-12652
▁Tem	-12653
▁Toy	-12654
▁eco	-12655
▁gym	-12656
▁heh	-12657
▁hij	-12658
▁mun	-12659
▁piv	-12660
▁reh	-12661
▁soy	-12662
▁vig	-12663
achus	-12664
adequ	-12665
annel	-12666
ensed	-12667
epler	-12668
ilage	-12669
imony	-12670
integ	-12671
ocamp	-12672
osion	-12673
phing	-12674
tends	-12675
third	-12676
ymmet	-12677
▁100,	-12678
▁Dave	-12679
▁Dean	-12680
▁Jobs	-12681
▁Patr	-12682
▁adul	-12683
▁budd	-12684
▁cafe	-12685
▁flee	-12686
▁grim	-12687
▁keen	-12688
▁lith	-12689
▁lobe	-12690
▁plum	-12691
▁rept	-12692
▁stir	-12693
achers	-12694
alling	-12695
atrina	-12696
carbon	-12697
ignant	-12698
itical	-12699
ogenic	-12700
reatic	-12701
resses	-12702
screen	-12703
▁2000.	-12704
▁Music	-12705
▁Rover	-12706
▁Short	-12707
▁Ushah	-12708
▁arose	-12709
▁blade	-12710
▁blend	-12711
▁chunk	-12712
▁desal	-12713
▁elbow	-12714
▁glory	-12715
▁inert	-12716
▁inexp	-12717
▁insur	-12718
▁merit	-12719
▁moder	-12720
▁myths	-12721
▁noble	-12722
▁oppon	-12723
▁peaks	-12724
▁riots	-12725
▁rolls	-12726
▁sadly	-12727
▁shuff	-12728
▁taboo	-12729
▁tread	-12730
▁wrink	-12731
inators	-12732
▁Bhutan	-12733
▁CRISPR	-12734
▁Cities	-12735
▁Desert	-12736
▁Eighty	-12737
▁Hubble	-12738
▁Invest	-12739
▁Johnny	-12740
▁Lester	-12741
▁Warren	-12742
▁agrees	-12743
▁antide	-12744
▁arrows	-12745
▁bitter	-12746
▁bucket	-12747
▁condom	-12748
▁cooler	-12749
▁crocod	-12750
▁divine	-12751
▁enters	-12752
▁feared	-12753
▁heroic	-12754
▁impose	-12755
▁issued	-12756
▁larvae	-12757
▁lasted	-12758
▁misery	-12759
▁mosque	-12760
▁nuclei	-12761
▁poured	-12762
▁shares	-12763
▁shield	-12764
▁sulfur	-12765
▁tender	-12766
▁tennis	-12767
▁theirs	-12768
▁thrive	-12769
▁thrust	-12770
▁treaty	-12771
▁triple	-12772
▁undert	-12773
▁writes	-12774
cellular	-12775
ictional	-12776
osterone	-12777
sylvania	-12778
▁Climate	-12779
▁Exactly	-12780
▁Hawking	-12781
▁Somalia	-12782
▁Supreme	-12783
▁catalog	-12784
▁compact	-12785
▁crowded	-12786
▁deserts	-12787
▁dragged	-12788
▁editing	-12789
▁faculty	-12790
▁forcing	-12791
▁funeral	-12792
▁holiday	-12793
▁inadequ	-12794
▁literal	-12795
▁millise	-12796
▁monsoon	-12797
▁phrases	-12798
▁prevail	-12799
▁refined	-12800
▁romance	-12801
▁sailing	-12802
▁shaping	-12803
▁singers	-12804
▁spheres	-12805
▁surplus	-12806
achusetts	-12807
▁Franklin	-12808
▁Hundreds	-12809
▁Russians	-12810
▁Scotland	-12811
▁applause	-12812
▁calendar	-12813
▁certific	-12814
▁climbers	-12815
▁duration	-12816
▁emergent	-12817
▁entitled	-12818
▁executed	-12819
▁modified	-12820
▁officers	-12821
▁pursuing	-12822
▁reactors	-12823
▁receiver	-12824
▁register	-12825
▁resolved	-12826
▁shortcut	-12827
▁shouting	-12828
▁survivor	-12829
▁Palestine	-12830
▁attempted	-12831
▁bandwidth	-12832
▁cartilage	-12833
▁cathedral	-12834
▁conductor	-12835
▁corridors	-12836
▁decentral	-12837
▁delighted	-12838
▁inherited	-12839
▁marvelous	-12840
▁mysteries	-12841
▁mythology	-12842
▁parasites	-12843
▁relevance	-12844
▁resonance	-12845
▁selective	-12846
▁sovereign	-12847
▁supercond	-12848
▁assessment	-12849
▁beginnings	-12850
▁comparable	-12851
▁compressed	-12852
▁culturally	-12853
▁developers	-12854
▁guaranteed	-12855
▁incomplete	-12856
▁influences	-12857
▁pesticides	-12858
▁programmer	-12859
▁randomness	-12860
▁repertoire	-12861
▁suspicious	-12862
▁Connecticut	-12863
▁accelerated	-12864
▁antidepress	-12865
▁aspirations	-12866
▁association	-12867
▁citizenship	-12868
▁inefficient	-12869
▁negotiation	-12870
▁preventable	-12871
▁specialists	-12872
▁Pennsylvania	-12873
▁acceleration	-12874
▁conditioning	-12875
▁disconnected	-12876
▁interconnect	-12877
▁neurogenesis	-12878
▁tuberculosis	-12879
▁appropriately	-12880
▁unpredictable	-12881
▁environmentally	-12882
.7	-12883
Ar	-12884
Me	-12885
Pe	-12886
wa	-12887
ARS	-12888
Cor	-12889
boy	-12890
cam	-12891
cko	-12892
exp	-12893
iza	-12894
lif	-12895
odd	-12896
oub	-12897
pot	-12898
ulu	-12899
▁47	-12900
▁CN	-12901
▁Fa	-12902
▁SA	-12903
arer	-12904
ause	-12905
bons	-12906
isha	-12907
itis	-12908
kers	-12909
omic	-12910
onto	-12911
text	-12912
▁18,	-12913
▁18-	-12914
▁Cup	-12915
▁Dam	-12916
▁Ell	-12917
▁Fal	-12918
▁Kam	-12919
▁Map	-12920
▁McC	-12921
▁Rub	-12922
▁Scr	-12923
▁Seb	-12924
▁Tai	-12925
▁Ter	-12926
▁Too	-12927
▁bol	-12928
▁bot	-12929
▁cav	-12930
▁lem	-12931
▁unb	-12932
▁wax	-12933
Great	-12934
These	-12935
allas	-12936
annah	-12937
apses	-12938
atics	-12939
cular	-12940
icism	-12941
izona	-12942
kings	-12943
ochem	-12944
otive	-12945
wheel	-12946
▁2006	-12947
▁Germ	-12948
▁Hold	-12949
▁Home	-12950
▁MoMA	-12951
▁Poll	-12952
▁Shir	-12953
▁Soon	-12954
▁Yale	-12955
▁aged	-12956
▁argu	-12957
▁bent	-12958
▁blob	-12959
▁brow	-12960
▁cues	-12961
▁fees	-12962
▁gaze	-12963
▁grip	-12964
▁lure	-12965
▁mang	-12966
▁nick	-12967
▁padd	-12968
▁pity	-12969
▁pops	-12970
▁rhet	-12971
▁rhin	-12972
▁skys	-12973
▁swap	-12974
astery	-12975
atemal	-12976
health	-12977
ocaust	-12978
ostics	-12979
▁Allen	-12980
▁Alpha	-12981
▁Beeth	-12982
▁Bruce	-12983
▁Doesn	-12984
▁Jerry	-12985
▁Kyoto	-12986
▁Labor	-12987
▁Often	-12988
▁Roger	-12989
▁Skype	-12990
▁arter	-12991
▁bands	-12992
▁booth	-12993
▁chalk	-12994
▁compr	-12995
▁dwell	-12996
▁epile	-12997
▁excer	-12998
▁geeks	-12999
▁guilt	-13000
▁moist	-13001
▁orang	-13002
▁ozone	-13003
▁radar	-13004
▁royal	-13005
▁skies	-13006
▁snaps	-13007
▁spine	-13008
▁suppl	-13009
▁templ	-13010
▁unequ	-13011
▁unity	-13012
▁verge	-13013
assador	-13014
atively	-13015
centric	-13016
product	-13017
▁Evergl	-13018
▁Garden	-13019
▁Kepler	-13020
▁Samuel	-13021
▁anonym	-13022
▁balcon	-13023
▁bounce	-13024
▁digits	-13025
▁drinks	-13026
▁finite	-13027
▁forbid	-13028
▁freeze	-13029
▁hotter	-13030
▁ideals	-13031
▁indoor	-13032
▁labels	-13033
▁loaded	-13034
▁noises	-13035
▁obsess	-13036
▁overse	-13037
▁petals	-13038
▁radius	-13039
▁reluct	-13040
▁sought	-13041
▁strand	-13042
▁strang	-13043
▁thumbs	-13044
▁timber	-13045
▁turbul	-13046
▁underw	-13047
attering	-13048
breaking	-13049
conflict	-13050
ensitive	-13051
ensively	-13052
▁Arizona	-13053
▁Machine	-13054
▁Mediter	-13055
▁Toronto	-13056
▁addicts	-13057
▁algebra	-13058
▁aquatic	-13059
▁barrels	-13060
▁bluefin	-13061
▁broadly	-13062
▁cleaned	-13063
▁curator	-13064
▁erectus	-13065
▁gallons	-13066
▁humming	-13067
▁hunters	-13068
▁manages	-13069
▁novelty	-13070
▁painter	-13071
▁placebo	-13072
▁recycle	-13073
▁relaxed	-13074
▁sapiens	-13075
▁satisfy	-13076
▁sounded	-13077
▁suburbs	-13078
▁unified	-13079
▁wonders	-13080
▁wounded	-13081
▁Building	-13082
▁Guatemal	-13083
▁Ushahidi	-13084
▁Williams	-13085
▁assigned	-13086
▁bleeding	-13087
▁blogging	-13088
▁diagnose	-13089
▁embraced	-13090
▁employee	-13091
▁founding	-13092
▁glaciers	-13093
▁insisted	-13094
▁prevents	-13095
▁schedule	-13096
▁sessions	-13097
▁strictly	-13098
▁stumbled	-13099
▁velocity	-13100
▁visceral	-13101
▁Beethoven	-13102
▁Hopefully	-13103
▁Interview	-13104
▁Norwegian	-13105
▁automatic	-13106
▁cellphone	-13107
▁charities	-13108
▁confusing	-13109
▁firsthand	-13110
▁hamburger	-13111
▁hippocamp	-13112
▁histories	-13113
▁implanted	-13114
▁intrinsic	-13115
▁kilograms	-13116
▁nurturing	-13117
▁pediatric	-13118
▁preferred	-13119
▁schooling	-13120
▁simulated	-13121
▁streaming	-13122
▁stressful	-13123
▁vibrating	-13124
▁waterfall	-13125
▁Especially	-13126
▁Pittsburgh	-13127
▁accounting	-13128
▁animations	-13129
▁appliances	-13130
▁contagious	-13131
▁disruption	-13132
▁explicitly	-13133
▁geographic	-13134
▁loneliness	-13135
▁nonviolent	-13136
▁pancreatic	-13137
▁pollutants	-13138
▁prioritize	-13139
▁satisfying	-13140
▁unintended	-13141
▁worthwhile	-13142
▁accompanied	-13143
▁appreciated	-13144
▁corporation	-13145
▁distinctive	-13146
▁negotiating	-13147
▁operational	-13148
▁projections	-13149
▁prototyping	-13150
▁spontaneous	-13151
▁incidentally	-13152
▁negotiations	-13153
▁testosterone	-13154
▁Massachusetts	-13155
▁Mediterranean	-13156
▁biotechnology	-13157
▁contributions	-13158
▁photographers	-13159
▁traditionally	-13160
▁organizational	-13161
EA	-13162
Je	-13163
Re	-13164
400	-13165
PTC	-13166
Pro	-13167
dle	-13168
dog	-13169
een	-13170
fur	-13171
gue	-13172
hel	-13173
ili	-13174
lem	-13175
obi	-13176
obo	-13177
ogy	-13178
raz	-13179
sex	-13180
tic	-13181
▁1:	-13182
▁34	-13183
▁4:	-13184
▁53	-13185
▁AR	-13186
▁FG	-13187
▁JC	-13188
▁TM	-13189
alin	-13190
arin	-13191
brow	-13192
ells	-13193
fill	-13194
hops	-13195
iana	-13196
imic	-13197
plex	-13198
rett	-13199
stop	-13200
ylan	-13201
▁13,	-13202
▁40-	-13203
▁Abu	-13204
▁BMW	-13205
▁Bah	-13206
▁Bul	-13207
▁Ess	-13208
▁Got	-13209
▁Han	-13210
▁Hop	-13211
▁Ill	-13212
▁Las	-13213
▁Ott	-13214
▁Pic	-13215
▁Sty	-13216
▁agn	-13217
▁dar	-13218
▁geo	-13219
▁los	-13220
▁pee	-13221
▁pup	-13222
▁quo	-13223
▁ups	-13224
bands	-13225
borne	-13226
built	-13227
erend	-13228
ibles	-13229
idity	-13230
ieval	-13231
igned	-13232
leans	-13233
ocate	-13234
olith	-13235
otent	-13236
owing	-13237
pical	-13238
▁2009	-13239
▁Best	-13240
▁Doug	-13241
▁Fast	-13242
▁Goli	-13243
▁Gord	-13244
▁Hard	-13245
▁Lots	-13246
▁Peps	-13247
▁Pink	-13248
▁Rose	-13249
▁Rule	-13250
▁UCLA	-13251
▁amph	-13252
▁bron	-13253
▁bulk	-13254
▁cass	-13255
▁cher	-13256
▁deer	-13257
▁exit	-13258
▁feas	-13259
▁plun	-13260
▁prag	-13261
▁sket	-13262
▁slam	-13263
▁sync	-13264
▁tect	-13265
▁tilt	-13266
▁tink	-13267
▁wets	-13268
Listen	-13269
abytes	-13270
anting	-13271
asking	-13272
ateral	-13273
earing	-13274
energy	-13275
esteem	-13276
imagin	-13277
inator	-13278
ocated	-13279
ortune	-13280
rogram	-13281
strong	-13282
weeney	-13283
▁2050,	-13284
▁Costa	-13285
▁Dylan	-13286
▁Freud	-13287
▁Going	-13288
▁Iraqi	-13289
▁Susan	-13290
▁Techn	-13291
▁appet	-13292
▁arrog	-13293
▁biote	-13294
▁blows	-13295
▁bumps	-13296
▁centr	-13297
▁comed	-13298
▁crawl	-13299
▁goats	-13300
▁grabs	-13301
▁kilos	-13302
▁lakes	-13303
▁lined	-13304
▁loops	-13305
▁poses	-13306
▁sanct	-13307
▁wages	-13308
balance	-13309
growing	-13310
ivation	-13311
writing	-13312
▁Agency	-13313
▁Copern	-13314
▁Darfur	-13315
▁Engine	-13316
▁Incred	-13317
▁Taiwan	-13318
▁Venice	-13319
▁archae	-13320
▁camels	-13321
▁cardio	-13322
▁census	-13323
▁closet	-13324
▁denied	-13325
▁hammer	-13326
▁joyful	-13327
▁quotes	-13328
▁singer	-13329
▁toxins	-13330
▁transf	-13331
▁united	-13332
▁valued	-13333
▁verbal	-13334
▁voyage	-13335
▁waking	-13336
▁wounds	-13337
ithmetic	-13338
▁Already	-13339
▁Austria	-13340
▁Company	-13341
▁Goliath	-13342
▁Katrina	-13343
▁Orleans	-13344
▁Perfect	-13345
▁Siberia	-13346
▁Tunisia	-13347
▁Wolfram	-13348
▁beaches	-13349
▁beloved	-13350
▁biochem	-13351
▁defines	-13352
▁epiphan	-13353
▁erosion	-13354
▁exhilar	-13355
▁fishery	-13356
▁heavens	-13357
▁invaded	-13358
▁kidneys	-13359
▁margins	-13360
▁nurture	-13361
▁overlap	-13362
▁partial	-13363
▁ranging	-13364
▁replied	-13365
▁seasons	-13366
▁shuttle	-13367
▁tropics	-13368
▁veterin	-13369
▁volcano	-13370
▁wasting	-13371
resistant	-13372
▁Lawrence	-13373
▁Learning	-13374
▁Movement	-13375
▁Students	-13376
▁approval	-13377
▁bicycles	-13378
▁composer	-13379
▁constitu	-13380
▁contacts	-13381
▁contexts	-13382
▁crashing	-13383
▁currents	-13384
▁distress	-13385
▁drilling	-13386
▁fighters	-13387
▁highways	-13388
▁lifelong	-13389
▁matching	-13390
▁meanings	-13391
▁meantime	-13392
▁migraine	-13393
▁potatoes	-13394
▁protests	-13395
▁quantity	-13396
▁sensible	-13397
▁settings	-13398
▁sketches	-13399
▁symphony	-13400
▁threaten	-13401
▁unimagin	-13402
▁volcanic	-13403
▁Darwinian	-13404
▁Mountains	-13405
▁Otherwise	-13406
▁Venezuela	-13407
▁ambiguity	-13408
▁appearing	-13409
▁checklist	-13410
▁confirmed	-13411
▁contracts	-13412
▁epidemics	-13413
▁eradicate	-13414
▁executive	-13415
▁exquisite	-13416
▁extensive	-13417
▁fictional	-13418
▁imaginary	-13419
▁inconsist	-13420
▁instincts	-13421
▁intrigued	-13422
▁inventors	-13423
▁meanwhile	-13424
▁metaphors	-13425
▁offensive	-13426
▁paralysis	-13427
▁pervasive	-13428
▁pneumonia	-13429
▁rectangle	-13430
▁remembers	-13431
▁surprises	-13432
▁triggered	-13433
▁Compassion	-13434
▁Government	-13435
▁attachment	-13436
▁courageous	-13437
▁encryption	-13438
▁excellence	-13439
▁expressing	-13440
▁geological	-13441
▁humanities	-13442
▁improbable	-13443
▁indication	-13444
▁intangible	-13445
▁irrigation	-13446
▁registered	-13447
▁Interviewer	-13448
▁backgrounds	-13449
▁competitors	-13450
▁continually	-13451
▁departments	-13452
▁fundraising	-13453
▁identifying	-13454
▁illustrates	-13455
▁instability	-13456
▁measurement	-13457
▁permanently	-13458
▁publication	-13459
▁reinventing	-13460
▁stereotypes	-13461
▁suggestions	-13462
▁combinations	-13463
▁illustration	-13464
▁requirements	-13465
▁similarities	-13466
▁surroundings	-13467
▁unemployment	-13468
▁urbanization	-13469
▁comprehensive	-13470
▁underestimate	-13471
▁unsustainable	-13472
▁cybercriminals	-13473
▁nanotechnology	-13474
EM	-13475
ER	-13476
rr	-13477
ISD	-13478
ais	-13479
dad	-13480
deg	-13481
iro	-13482
obe	-13483
ods	-13484
rer	-13485
sis	-13486
▁74	-13487
▁AO	-13488
▁BC	-13489
▁BL	-13490
▁HG	-13491
▁KA	-13492
▁PH	-13493
▁ow	-13494
▁ze	-13495
Mart	-13496
plan	-13497
rape	-13498
rics	-13499
rust	-13500
tion	-13501
type	-13502
with	-13503
▁14-	-13504
▁2.5	-13505
▁25,	-13506
▁99.	-13507
▁Ark	-13508
▁Ash	-13509
▁Ath	-13510
▁Bat	-13511
▁Cat	-13512
▁Cir	-13513
▁Cub	-13514
▁Emb	-13515
▁End	-13516
▁Fem	-13517
▁Fil	-13518
▁Fox	-13519
▁Gam	-13520
▁Heb	-13521
▁Hem	-13522
▁Hit	-13523
▁Hud	-13524
▁Hur	-13525
▁Max	-13526
▁NBA	-13527
▁Nev	-13528
▁Oak	-13529
▁Rec	-13530
▁Syd	-13531
▁Use	-13532
▁fer	-13533
▁haz	-13534
▁jur	-13535
▁nud	-13536
▁ove	-13537
▁tid	-13538
▁vib	-13539
▁wig	-13540
acent	-13541
ambia	-13542
ashes	-13543
etary	-13544
garet	-13545
rates	-13546
regon	-13547
shirt	-13548
wired	-13549
▁1800	-13550
▁AIMS	-13551
▁Beat	-13552
▁Cass	-13553
▁Deep	-13554
▁Fall	-13555
▁Full	-13556
▁Jean	-13557
▁Lady	-13558
▁Pier	-13559
▁RISD	-13560
▁Side	-13561
▁Type	-13562
▁Wild	-13563
▁axes	-13564
▁curs	-13565
▁deny	-13566
▁hats	-13567
▁hect	-13568
▁iPad	-13569
▁lazy	-13570
▁medi	-13571
▁moth	-13572
▁owns	-13573
▁peel	-13574
▁quiz	-13575
▁ramp	-13576
▁reli	-13577
▁stab	-13578
▁unne	-13579
▁wage	-13580
▁writ	-13581
astian	-13582
belief	-13583
erness	-13584
etical	-13585
giving	-13586
imicry	-13587
linear	-13588
ourced	-13589
ulsive	-13590
urfing	-13591
verbal	-13592
▁Cairo	-13593
▁DARPA	-13594
▁Field	-13595
▁Linux	-13596
▁Paulo	-13597
▁Vinci	-13598
▁amino	-13599
▁amput	-13600
▁bikes	-13601
▁fatty	-13602
▁files	-13603
▁flown	-13604
▁geese	-13605
▁grief	-13606
▁handy	-13607
▁icons	-13608
▁nickn	-13609
▁overt	-13610
▁perse	-13611
▁poets	-13612
▁rooft	-13613
▁scare	-13614
▁souls	-13615
▁spong	-13616
▁traff	-13617
▁trait	-13618
▁tutor	-13619
▁urine	-13620
▁vapor	-13621
agement	-13622
appropr	-13623
fashion	-13624
massive	-13625
ometers	-13626
quarium	-13627
rasound	-13628
▁Achill	-13629
▁Barack	-13630
▁Cooper	-13631
▁Easter	-13632
▁Inside	-13633
▁Jersey	-13634
▁Kenyan	-13635
▁Kibera	-13636
▁Ninety	-13637
▁Oregon	-13638
▁Poland	-13639
▁Reagan	-13640
▁Simple	-13641
▁abused	-13642
▁acquis	-13643
▁arises	-13644
▁bookst	-13645
▁clicks	-13646
▁collar	-13647
▁compat	-13648
▁crafts	-13649
▁edited	-13650
▁elites	-13651
▁enzyme	-13652
▁hotels	-13653
▁legend	-13654
▁lenses	-13655
▁melody	-13656
▁pirate	-13657
▁popped	-13658
▁praise	-13659
▁priest	-13660
▁prizes	-13661
▁rooted	-13662
▁shells	-13663
▁smiles	-13664
▁spades	-13665
▁stated	-13666
▁stocks	-13667
▁suburb	-13668
▁throat	-13669
▁throws	-13670
▁wallet	-13671
▁wander	-13672
▁weekly	-13673
▁wolves	-13674
Jeopardy	-13675
aterials	-13676
▁400,000	-13677
▁Believe	-13678
▁Germans	-13679
▁Justice	-13680
▁Sputnik	-13681
▁Windows	-13682
▁battles	-13683
▁boiling	-13684
▁compens	-13685
▁council	-13686
▁crosses	-13687
▁diamond	-13688
▁evident	-13689
▁excerpt	-13690
▁excuses	-13691
▁exhaust	-13692
▁focuses	-13693
▁hallway	-13694
▁indoors	-13695
▁magnets	-13696
▁mentors	-13697
▁optimal	-13698
▁rehears	-13699
▁ringing	-13700
▁scholar	-13701
▁scripts	-13702
▁shallow	-13703
▁sterile	-13704
▁weighed	-13705
▁worries	-13706
ependence	-13707
organized	-13708
wandering	-13709
▁Language	-13710
▁Margaret	-13711
▁Scottish	-13712
▁addicted	-13713
▁adjacent	-13714
▁ancestry	-13715
▁avoiding	-13716
▁backward	-13717
▁balloons	-13718
▁crawling	-13719
▁creators	-13720
▁crystall	-13721
▁donation	-13722
▁employed	-13723
▁festival	-13724
▁grounded	-13725
▁implicit	-13726
▁improves	-13727
▁interrog	-13728
▁juggling	-13729
▁notebook	-13730
▁occupied	-13731
▁offshore	-13732
▁orbiting	-13733
▁overlook	-13734
▁periodic	-13735
▁pinpoint	-13736
▁portable	-13737
▁requests	-13738
▁switches	-13739
▁synapses	-13740
▁unnecess	-13741
▁Companies	-13742
▁Guatemala	-13743
▁Himalayas	-13744
▁academics	-13745
▁attribute	-13746
▁certified	-13747
▁cognition	-13748
▁criticism	-13749
▁cultivate	-13750
▁developer	-13751
▁directors	-13752
▁educating	-13753
▁enjoyable	-13754
▁execution	-13755
▁exhausted	-13756
▁explorers	-13757
▁ingenuity	-13758
▁injection	-13759
▁intermedi	-13760
▁messaging	-13761
▁ministers	-13762
▁orphanage	-13763
▁prevented	-13764
▁promotion	-13765
▁recruited	-13766
▁slaughter	-13767
▁swallowed	-13768
▁triangles	-13769
▁Everglades	-13770
▁Scientists	-13771
▁advantages	-13772
▁aesthetics	-13773
▁antibodies	-13774
▁cartoonist	-13775
▁centimeter	-13776
▁conspiracy	-13777
▁eliminated	-13778
▁executives	-13779
▁foreground	-13780
▁homosexual	-13781
▁inadequate	-13782
▁irrelevant	-13783
▁limitation	-13784
▁passengers	-13785
▁reflecting	-13786
▁responsive	-13787
▁restricted	-13788
▁synthesize	-13789
▁transforms	-13790
▁arrangement	-13791
▁automobiles	-13792
▁counterpart	-13793
▁hippocampus	-13794
▁mammography	-13795
▁respiratory	-13796
▁threatening	-13797
▁astronomical	-13798
▁interviewing	-13799
▁manufacturer	-13800
▁neurological	-13801
▁improvisation	-13802
▁investigating	-13803
▁manifestation	-13804
▁cardiovascular	-13805
▁industrialized	-13806
▁bioluminescence	-13807
▁neuroscientists	-13808
-'	-13809
HO	-13810
IP	-13811
ju	-13812
adp	-13813
aic	-13814
cur	-13815
enz	-13816
non	-13817
ols	-13818
oul	-13819
oxy	-13820
rip	-13821
roc	-13822
sts	-13823
vet	-13824
▁54	-13825
▁57	-13826
▁Aw	-13827
▁BP	-13828
▁FO	-13829
▁IT	-13830
▁Ku	-13831
▁NO	-13832
▁RL	-13833
▁RO	-13834
▁SJ	-13835
▁SR	-13836
▁Uk	-13837
Give	-13838
Your	-13839
abad	-13840
acon	-13841
assy	-13842
aved	-13843
coal	-13844
eram	-13845
hill	-13846
ickr	-13847
iflu	-13848
ikes	-13849
ingo	-13850
iper	-13851
ivia	-13852
last	-13853
mart	-13854
olis	-13855
opsy	-13856
phal	-13857
rand	-13858
stal	-13859
tebr	-13860
urge	-13861
▁188	-13862
▁189	-13863
▁Adm	-13864
▁Cro	-13865
▁Kar	-13866
▁Ric	-13867
▁Run	-13868
▁Sex	-13869
▁Tah	-13870
▁Wil	-13871
▁blo	-13872
▁cue	-13873
▁cyc	-13874
▁dub	-13875
▁lag	-13876
▁lam	-13877
▁mol	-13878
Corps	-13879
arity	-13880
azine	-13881
bucks	-13882
green	-13883
iages	-13884
icill	-13885
igate	-13886
ipcar	-13887
ipper	-13888
owned	-13889
ravel	-13890
style	-13891
uding	-13892
▁2001	-13893
▁Dead	-13894
▁Left	-13895
▁Mama	-13896
▁Marx	-13897
▁Much	-13898
▁Nich	-13899
▁Nine	-13900
▁Palm	-13901
▁Sony	-13902
▁Stat	-13903
▁Virt	-13904
▁auto	-13905
▁buck	-13906
▁bunk	-13907
▁buys	-13908
▁cane	-13909
▁dash	-13910
▁doct	-13911
▁echo	-13912
▁ecst	-13913
▁envy	-13914
▁fade	-13915
▁flop	-13916
▁gira	-13917
▁goss	-13918
▁guid	-13919
▁heel	-13920
▁mism	-13921
▁mite	-13922
▁pets	-13923
▁plut	-13924
▁rear	-13925
▁seiz	-13926
▁snap	-13927
▁tadp	-13928
▁veil	-13929
agraph	-13930
change	-13931
consum	-13932
degree	-13933
ermaid	-13934
esters	-13935
govern	-13936
houses	-13937
igrade	-13938
ivable	-13939
izable	-13940
ologic	-13941
ospher	-13942
people	-13943
worthy	-13944
▁1997,	-13945
▁2002,	-13946
▁Agnes	-13947
▁Build	-13948
▁Forty	-13949
▁Hindu	-13950
▁Jacqu	-13951
▁Julia	-13952
▁Kelly	-13953
▁Moses	-13954
▁Pepsi	-13955
▁Point	-13956
▁Psych	-13957
▁Sever	-13958
▁Stock	-13959
▁Veron	-13960
▁appar	-13961
▁armor	-13962
▁burns	-13963
▁cubic	-13964
▁dunes	-13965
▁exams	-13966
▁fairy	-13967
▁germs	-13968
▁indul	-13969
▁jeans	-13970
▁leaks	-13971
▁livel	-13972
▁merch	-13973
▁ninth	-13974
▁pries	-13975
▁relie	-13976
▁saves	-13977
▁strat	-13978
▁tails	-13979
▁trunk	-13980
▁twent	-13981
discipl	-13982
icillin	-13983
keeping	-13984
▁Dallas	-13985
▁Hudson	-13986
▁Marcus	-13987
▁Marine	-13988
▁Modern	-13989
▁Murray	-13990
▁Senate	-13991
▁Sydney	-13992
▁banker	-13993
▁carcin	-13994
▁carrot	-13995
▁cooked	-13996
▁costly	-13997
▁dining	-13998
▁inputs	-13999
▁intest	-14000
▁invade	-14001
▁microw	-14002
▁novels	-14003
▁poetic	-14004
▁poorer	-14005
▁prejud	-14006
▁rushed	-14007
▁sealed	-14008
▁spills	-14009
▁statue	-14010
▁stereo	-14011
▁stockp	-14012
▁stunts	-14013
▁unexpl	-14014
▁varied	-14015
▁wiring	-14016
positive	-14017
▁Command	-14018
▁Network	-14019
▁Program	-14020
▁Station	-14021
▁Tamiflu	-14022
▁Village	-14023
▁athlete	-14024
▁biotech	-14025
▁cabinet	-14026
▁charter	-14027
▁devised	-14028
▁drowned	-14029
▁enzymes	-14030
▁expands	-14031
▁favelas	-14032
▁founder	-14033
▁fractal	-14034
▁learner	-14035
▁lesbian	-14036
▁miracul	-14037
▁municip	-14038
▁regimes	-14039
▁retired	-14040
▁rightly	-14041
▁signing	-14042
▁spirits	-14043
▁suscept	-14044
▁textile	-14045
▁thirdly	-14046
▁thunder	-14047
▁tipping	-14048
▁tourism	-14049
▁tourist	-14050
▁trailer	-14051
▁untouch	-14052
▁upwards	-14053
▁uranium	-14054
ographing	-14055
▁Moreover	-14056
▁absorbed	-14057
▁amateurs	-14058
▁auditory	-14059
▁coherent	-14060
▁congress	-14061
▁develops	-14062
▁drowning	-14063
▁elevated	-14064
▁estrogen	-14065
▁flooding	-14066
▁frequent	-14067
▁glorious	-14068
▁guidance	-14069
▁hierarch	-14070
▁ignorant	-14071
▁insecure	-14072
▁invasive	-14073
▁liberals	-14074
▁literary	-14075
▁maximize	-14076
▁minimize	-14077
▁overseas	-14078
▁reacting	-14079
▁reminder	-14080
▁reporter	-14081
▁resemble	-14082
▁respects	-14083
▁richness	-14084
▁secretly	-14085
▁stewards	-14086
▁stimulus	-14087
▁sympathy	-14088
▁terminal	-14089
▁tortured	-14090
▁troubled	-14091
▁trusting	-14092
▁uploaded	-14093
industrial	-14094
organizing	-14095
▁Starbucks	-14096
▁appealing	-14097
▁committee	-14098
▁databases	-14099
▁detectors	-14100
▁donations	-14101
▁followers	-14102
▁honeybees	-14103
▁marriages	-14104
▁northeast	-14105
▁packaging	-14106
▁reconnect	-14107
▁rendering	-14108
▁shrinking	-14109
▁strangely	-14110
▁strongest	-14111
▁whistling	-14112
munications	-14113
▁Depression	-14114
▁StoryCorps	-14115
▁Throughout	-14116
▁Ultimately	-14117
▁accidental	-14118
▁aspiration	-14119
▁complained	-14120
▁depressing	-14121
▁fingertips	-14122
▁fulfilling	-14123
▁outrageous	-14124
▁settlement	-14125
▁simplistic	-14126
▁translates	-14127
▁anticipated	-14128
▁centimeters	-14129
▁constrained	-14130
▁convenience	-14131
▁friendships	-14132
▁humiliation	-14133
▁implication	-14134
▁lightweight	-14135
▁methodology	-14136
▁preferences	-14137
▁scholarship	-14138
▁Christianity	-14139
▁achievements	-14140
▁acknowledged	-14141
▁descriptions	-14142
▁fluctuations	-14143
▁hypothetical	-14144
▁conservatives	-14145
▁corresponding	-14146
▁decentralized	-14147
▁differentiate	-14148
▁functionality	-14149
▁intrinsically	-14150
▁presentations	-14151
▁bioluminescent	-14152
▁internationally	-14153
-3	-14154
12	-14155
CO	-14156
fu	-14157
gi	-14158
ni	-14159
Get	-14160
May	-14161
abb	-14162
bec	-14163
cor	-14164
erk	-14165
eur	-14166
kel	-14167
oug	-14168
rah	-14169
rus	-14170
sen	-14171
uns	-14172
▁3:	-14173
▁58	-14174
▁82	-14175
▁96	-14176
▁DI	-14177
▁JL	-14178
▁TR	-14179
▁UK	-14180
▁UV	-14181
▁Ur	-14182
▁ly	-14183
Have	-14184
Just	-14185
avil	-14186
elve	-14187
ench	-14188
feed	-14189
fits	-14190
hall	-14191
hire	-14192
home	-14193
hran	-14194
iary	-14195
ieth	-14196
obos	-14197
rans	-14198
tent	-14199
uate	-14200
uced	-14201
weet	-14202
▁110	-14203
▁Aur	-14204
▁Bow	-14205
▁CNN	-14206
▁ELA	-14207
▁Exx	-14208
▁Fur	-14209
▁IMF	-14210
▁LOL	-14211
▁Lyn	-14212
▁MBA	-14213
▁Nik	-14214
▁Rus	-14215
▁Tro	-14216
▁Vis	-14217
▁Wel	-14218
▁bid	-14219
▁bru	-14220
▁gru	-14221
▁hay	-14222
▁huh	-14223
▁onc	-14224
▁rab	-14225
▁ray	-14226
▁ren	-14227
Hello	-14228
acted	-14229
adder	-14230
brain	-14231
cards	-14232
child	-14233
fting	-14234
great	-14235
ieces	-14236
ihood	-14237
oshop	-14238
pable	-14239
▁200-	-14240
▁Ages	-14241
▁Balk	-14242
▁Bond	-14243
▁Capt	-14244
▁Cher	-14245
▁Chim	-14246
▁Club	-14247
▁Didn	-14248
▁Fair	-14249
▁Help	-14250
▁Ivan	-14251
▁Kind	-14252
▁LEDs	-14253
▁Mald	-14254
▁Near	-14255
▁Read	-14256
▁Rena	-14257
▁Tenn	-14258
▁Whit	-14259
▁casc	-14260
▁coch	-14261
▁dodo	-14262
▁encl	-14263
▁fuse	-14264
▁jury	-14265
▁lett	-14266
▁lied	-14267
▁mama	-14268
▁mash	-14269
▁mega	-14270
▁reun	-14271
▁ruin	-14272
▁unve	-14273
▁vend	-14274
▁warn	-14275
▁watt	-14276
▁whip	-14277
atized	-14278
charge	-14279
ellers	-14280
growth	-14281
icular	-14282
imated	-14283
irming	-14284
ivated	-14285
ougher	-14286
oulder	-14287
puters	-14288
saving	-14289
social	-14290
uclear	-14291
▁Among	-14292
▁Arabs	-14293
▁Brain	-14294
▁Cross	-14295
▁Given	-14296
▁Index	-14297
▁Laure	-14298
▁Maria	-14299
▁Truth	-14300
▁Wired	-14301
▁angel	-14302
▁banjo	-14303
▁chord	-14304
▁claws	-14305
▁deleg	-14306
▁erase	-14307
▁flick	-14308
▁fonts	-14309
▁fraud	-14310
▁gecko	-14311
▁homin	-14312
▁hunch	-14313
▁impat	-14314
▁innoc	-14315
▁milit	-14316
▁nests	-14317
▁overd	-14318
▁poles	-14319
▁polls	-14320
▁reads	-14321
▁reply	-14322
▁scand	-14323
▁scuba	-14324
▁sober	-14325
▁tales	-14326
▁tense	-14327
▁therm	-14328
▁unple	-14329
amiliar	-14330
cellent	-14331
cending	-14332
ignific	-14333
ocative	-14334
ousands	-14335
usively	-14336
versely	-14337
▁Behind	-14338
▁Doctor	-14339
▁Energy	-14340
▁Flickr	-14341
▁Guinea	-14342
▁Hadron	-14343
▁Hitler	-14344
▁Listen	-14345
▁Norman	-14346
▁Oliver	-14347
▁brakes	-14348
▁browse	-14349
▁cliffs	-14350
▁county	-14351
▁decomp	-14352
▁drople	-14353
▁dumped	-14354
▁expend	-14355
▁floods	-14356
▁gossip	-14357
▁heated	-14358
▁joints	-14359
▁miscon	-14360
▁parked	-14361
▁polite	-14362
▁primal	-14363
▁puppet	-14364
▁retain	-14365
▁ripped	-14366
▁rubble	-14367
▁sewage	-14368
▁stakes	-14369
▁sucked	-14370
▁syring	-14371
▁tablet	-14372
iologist	-14373
novation	-14374
ospheric	-14375
violence	-14376
▁500,000	-14377
▁Lesters	-14378
▁Millenn	-14379
▁Neither	-14380
▁Somehow	-14381
▁abusive	-14382
▁accused	-14383
▁breasts	-14384
▁cafeter	-14385
▁claimed	-14386
▁compass	-14387
▁crashed	-14388
▁dangers	-14389
▁disagre	-14390
▁emailed	-14391
▁escaped	-14392
▁janitor	-14393
▁lasting	-14394
▁lithium	-14395
▁metrics	-14396
▁mineral	-14397
▁mustard	-14398
▁outward	-14399
▁payload	-14400
▁payment	-14401
▁placing	-14402
▁popping	-14403
▁recipes	-14404
▁reconst	-14405
▁strains	-14406
▁strokes	-14407
▁unaware	-14408
▁unthink	-14409
▁vicious	-14410
▁virtues	-14411
astically	-14412
fashioned	-14413
▁Anything	-14414
▁Collider	-14415
▁Colorado	-14416
▁Guardian	-14417
▁Intellig	-14418
▁Pentagon	-14419
▁Portland	-14420
▁Veronica	-14421
▁behaving	-14422
▁browsing	-14423
▁charcoal	-14424
▁clicking	-14425
▁depended	-14426
▁emphasis	-14427
▁extremes	-14428
▁fairness	-14429
▁foraging	-14430
▁founders	-14431
▁medieval	-14432
▁murdered	-14433
▁mutually	-14434
▁paradise	-14435
▁policing	-14436
▁pristine	-14437
▁province	-14438
▁realizes	-14439
▁receives	-14440
▁rendered	-14441
▁rotating	-14442
▁scalable	-14443
▁sediment	-14444
▁shortage	-14445
▁smartest	-14446
▁steering	-14447
▁timeline	-14448
▁tolerate	-14449
▁underway	-14450
▁veterans	-14451
▁Europeans	-14452
▁Excellent	-14453
▁Pakistani	-14454
▁Sebastian	-14455
▁Victorian	-14456
▁aerodynam	-14457
▁belonging	-14458
▁byproduct	-14459
▁combining	-14460
▁extracted	-14461
▁fertility	-14462
▁historian	-14463
▁interfere	-14464
▁inventing	-14465
▁penetrate	-14466
▁periphery	-14467
▁personnel	-14468
▁predatory	-14469
▁prevalent	-14470
▁providers	-14471
▁warehouse	-14472
▁Commission	-14473
▁Conference	-14474
▁Vietnamese	-14475
▁arithmetic	-14476
▁articulate	-14477
▁beekeepers	-14478
▁calculator	-14479
▁capacities	-14480
▁caregivers	-14481
▁conception	-14482
▁criticized	-14483
▁deliberate	-14484
▁distracted	-14485
▁footprints	-14486
▁guidelines	-14487
▁hypotheses	-14488
▁liberation	-14489
▁livelihood	-14490
▁motorcycle	-14491
▁penicillin	-14492
▁questioned	-14493
▁retrospect	-14494
▁telephones	-14495
▁unpleasant	-14496
▁Essentially	-14497
▁Renaissance	-14498
▁adolescents	-14499
▁centralized	-14500
▁commercials	-14501
▁exceptional	-14502
▁fingerprint	-14503
▁immortality	-14504
▁incorporate	-14505
▁inexpensive	-14506
▁integrating	-14507
▁involvement	-14508
▁transferred	-14509
▁variability	-14510
▁announcement	-14511
▁availability	-14512
▁collaborator	-14513
▁desalination	-14514
▁difficulties	-14515
▁preservation	-14516
▁establishment	-14517
▁neuroscientist	-14518
▁desertification	-14519
AC	-14520
IN	-14521
Of	-14522
RN	-14523
TO	-14524
Spe	-14525
eer	-14526
fty	-14527
gel	-14528
ogs	-14529
oko	-14530
urp	-14531
▁64	-14532
▁AS	-14533
▁AV	-14534
▁BR	-14535
▁DD	-14536
▁DJ	-14537
▁Hu	-14538
▁IV	-14539
▁MM	-14540
▁MP	-14541
▁RG	-14542
▁VC	-14543
▁hi	-14544
▁uh	-14545
Star	-14546
Tell	-14547
anor	-14548
arms	-14549
arse	-14550
arts	-14551
bags	-14552
bell	-14553
cile	-14554
cils	-14555
etah	-14556
gath	-14557
good	-14558
high	-14559
hole	-14560
iked	-14561
ileo	-14562
ilia	-14563
itra	-14564
kill	-14565
mail	-14566
mies	-14567
olia	-14568
oura	-14569
prot	-14570
race	-14571
real	-14572
roid	-14573
shot	-14574
that	-14575
your	-14576
▁15.	-14577
▁16-	-14578
▁Buy	-14579
▁CIA	-14580
▁Cre	-14581
▁Dur	-14582
▁Fly	-14583
▁Mob	-14584
▁Sho	-14585
▁Sri	-14586
▁Voy	-14587
▁lev	-14588
▁maj	-14589
▁sug	-14590
▁umb	-14591
Afric	-14592
artic	-14593
awatt	-14594
essee	-14595
heart	-14596
ishes	-14597
ocaly	-14598
ogene	-14599
oplan	-14600
ppers	-14601
stood	-14602
▁100-	-14603
▁Andy	-14604
▁Aust	-14605
▁Barb	-14606
▁CERN	-14607
▁Case	-14608
▁Coch	-14609
▁Code	-14610
▁Emma	-14611
▁Geor	-14612
▁Hack	-14613
▁Holy	-14614
▁Joel	-14615
▁Khan	-14616
▁Land	-14617
▁Need	-14618
▁Pear	-14619
▁Poor	-14620
▁Pope	-14621
▁SARS	-14622
▁Sold	-14623
▁Town	-14624
▁Wide	-14625
▁Word	-14626
▁anom	-14627
▁bass	-14628
▁boil	-14629
▁clap	-14630
▁coma	-14631
▁flap	-14632
▁hind	-14633
▁hood	-14634
▁horn	-14635
▁hull	-14636
▁lava	-14637
[...]
