<brk> 0
, 243982
. 200204
▁the 161106
▁to 100991
' 100339
▁of 94253
▁and 85722
▁a 85069
▁that 72834
▁I 66085
▁in 60506
▁is 52336
▁you 52037
s 51357
▁it 48622
▁we 44390
▁And 36114
▁this 33857
▁was 24563
▁for 23093
▁are 22646
▁have 22209
▁they 21454
▁on 20805
▁-- 20641
▁with 19863
▁can 19003
t 18955
▁So 18136
▁what 17820
- 17728
▁about 17258
▁be 16501
? 15974
▁at 15159
▁as 14991
▁all 14745
▁not 14703
re 14403
▁do 14295
▁" 14157
▁there 13884
▁It 13114
▁one 13078
▁people 12926
▁like 12806
▁my 12770
▁so 12518
▁from 12443
▁but 11400
▁an 11391
: 10935
▁just 10889
▁or 10807
▁our 10661
▁We 10315
▁But 10190
▁these 10176
▁very 10173
▁if 10093
▁out 10019
▁me 9766
▁The 9632
▁know 9483
▁them 9445
▁going 9403
▁by 9332
▁up 9226
▁when 8820
▁because 8794
▁more 8686
▁had 8559
▁he 8460
▁think 8395
▁see 8290
▁which 8223
m 8044
▁who 8039
▁were 8034
▁your 7998
▁their 7967
▁really 7932
ve 7889
▁would 7832
▁how 7766
." 7719
▁get 7698
▁here 7136
▁us 6987
▁time 6978
▁then 6883
▁This 6830
▁has 6792
▁world 6788
▁You 6670
▁into 6570
▁some 6518
▁actually 6475
▁don 6399
▁way 6357
▁things 6190
▁will 6160
▁years 6153
▁now 6004
▁where 5981
▁Now 5917
▁other 5887
▁want 5847
▁go 5819
▁could 5684
▁They 5683
▁been 5589
▁make 5503
▁said 5254
▁something 5042
▁two 4881
▁right 4841
▁much 4821
▁than 4813
▁no 4740
▁those 4739
▁first 4679
▁little 4592
▁thing 4556
▁also 4550
▁got 4536
▁over 4500
▁back 4438
▁look 4392
▁say 4330
▁That 4278
▁work 4126
▁only 4119
▁In 4008
▁life 4006
▁need 3993
▁most 3969
▁his 3945
▁♫ 3924
▁kind 3868
▁she 3812
▁even 3803
▁take 3790
▁lot 3769
▁many 3766
▁ 3759
ll 3654
▁did 3602
▁around 3597
▁There 3576
▁new 3567
▁good 3551
▁different 3542
ing 3520
▁What 3502
▁down 3441
▁through 3293
d 3271
▁same 3232
; 3231
▁every 3162
▁her 3146
▁come 3117
▁use 3113
▁He 3104
▁doing 3055
▁being 3045
ed 3011
▁put 2970
▁three 2967
▁If 2900
▁day 2819
▁well 2788
▁called 2774
▁percent 2733
▁any 2732
▁Well 2651
▁made 2645
▁human 2560
▁tell 2548
▁find 2546
▁fact 2520
▁why 2517
▁year 2468
▁change 2413
▁great 2401
▁today 2398
▁didn 2389
▁talk 2384
▁idea 2375
▁own 2330
?" 2326
▁started 2317
▁its 2298
▁after 2270
▁A 2255
▁last 2249
▁should 2243
▁thought 2236
▁went 2224
▁before 2212
▁big 2207
▁course 2205
▁important 2200
▁let 2193
▁give 2186
▁might 2186
▁better 2180
▁another 2158
▁off 2154
" 2140
▁problem 2122
▁Thank 2115
▁never 2112
▁part 2105
▁able 2084
▁start 2051
▁brain 2044
▁still 2041
▁show 2028
▁ago 2024
▁system 2017
▁story 2014
▁together 1997
▁next 1996
▁bit 1991
▁him 1983
▁came 1972
▁long 1957
▁does 1949
▁place 1948
▁few 1936
▁again 1930
▁water 1928
▁used 1871
▁each 1862
▁mean 1862
▁between 1859
▁technology 1855
▁end 1825
," 1819
▁When 1798
▁question 1785
▁looking 1773
▁example 1771
▁too 1769
▁found 1765
▁done 1750
▁Because 1739
▁data 1725
▁point 1721
▁doesn 1720
▁women 1713
▁sort 1704
▁love 1702
▁real 1681
er 1679
▁understand 1676
▁wanted 1674
y 1651
▁call 1642
▁whole 1640
▁live 1625
▁four 1616
▁trying 1616
▁ever 1610
▁million 1606
▁working 1592
▁away 1582
▁always 1578
▁school 1566
▁try 1564
▁children 1561
▁person 1554
▁believe 1552
▁may 1534
▁feel 1529
▁help 1487
▁country 1485
! 1479
▁using 1459
▁How 1449
▁means 1445
▁10 1439
▁five 1434
▁thinking 1430
I 1425
▁took 1424
▁kids 1422
ly 1420
▁create 1417
▁information 1416
▁maybe 1413
▁space 1411
▁design 1400
▁everything 1397
▁money 1397
▁number 1395
▁high 1395
▁power 1388
a 1386
▁become 1384
es 1376
▁small 1375
▁One 1366
▁left 1360
▁old 1356
ers 1349
▁enough 1343
▁quite 1339
▁getting 1336
▁best 1336
▁home 1324
▁comes 1322
▁light 1319
▁second 1319
▁sense 1307
▁These 1298
▁probably 1293
▁social 1292
▁future 1289
▁man 1288
▁energy 1288
▁food 1286
▁happened 1285
in 1277
▁times 1277
▁My 1276
▁interesting 1261
▁talking 1253
▁making 1251
▁less 1248
▁hard 1248
▁building 1239
▁stuff 1233
▁am 1229
▁Here 1225
▁body 1225
o 1224
▁play 1224
▁She 1223
S 1221
▁ask 1211
▁without 1210
▁told 1209
▁pretty 1199
▁countries 1194
▁dollars 1192
▁lives 1188
▁coming 1187
▁anything 1181
▁such 1177
▁moment 1175
▁hand 1173
▁across 1155
▁happen 1154
▁build 1152
▁half 1150
▁20 1142
▁Let 1136
▁says 1128
▁side 1128
▁Africa 1127
i 1121
▁room 1120
▁else 1116
▁science 1114
▁seen 1113
▁makes 1113
▁saw 1112
▁living 1111
▁For 1111
▁later 1106
▁men 1106
▁asked 1100
▁bad 1099
▁goes 1099
▁experience 1099
▁simple 1098
▁happens 1087
▁U 1079
▁having 1078
▁move 1076
▁B 1074
▁As 1071
▁reason 1068
▁car 1064
▁ways 1062
▁care 1058
▁picture 1055
▁All 1055
al 1053
▁family 1051
▁problems 1044
▁far 1043
▁open 1042
▁mind 1035
▁days 1034
▁computer 1034
▁single 1031
▁learn 1030
▁process 1028
▁health 1027
▁case 1025
▁city 1020
▁book 1013
▁business 1010
▁basically 1006
▁top 1006
▁inside 1002
▁almost 997
▁possible 996
▁saying 990
▁yet 990
▁six 989
▁set 989
▁once 982
▁planet 982
▁guy 982
▁while 979
▁Earth 979
▁whether 976
▁under 973
▁young 973
▁New 973
▁already 963
▁project 963
on 961
▁both 957
▁billion 955
▁wrong 954
▁looked 953
▁ideas 952
▁someone 950
▁nothing 946
▁within 946
▁form 945
▁answer 943
▁T 940
▁community 936
▁Why 935
▁looks 935
▁matter 932
▁history 931
▁keep 930
▁myself 928
▁global 928
▁public 925
▁hope 924
▁M 924
▁cells 922
▁child 922
▁often 921
▁true 920
▁C 920
▁S 920
▁No 919
or 917
▁heard 914
▁bring 914
[ 913
th 911
▁remember 908
] 907
▁sure 903
▁words 903
▁imagine 899
▁read 896
’ 889
▁self 886
▁United 885
▁built 883
▁D 880
▁months 880
▁age 879
▁P 879
▁couple 877
▁beautiful 873
ic 871
▁per 868
▁amazing 867
▁cancer 867
▁turn 866
▁head 865
▁music 865
▁face 863
▁government 861
▁order 860
▁language 854
▁run 853
▁group 853
▁L 853
e 853
▁control 852
en 849
▁piece 846
▁species 840
▁works 839
▁places 838
▁isn 837
▁job 836
▁until 833
▁everybody 833
▁wasn 831
▁video 830
▁decided 823
▁heart 822
b 822
▁Internet 821
▁education 821
▁completely 820
▁line 819
▁G 818
▁friends 816
▁war 815
▁universe 813
▁large 812
▁study 803
▁States 802
▁exactly 802
▁stories 801
▁nature 801
▁must 800
▁became 800
▁research 800
▁though 798
▁model 795
▁taking 794
▁word 793
▁students 792
▁animals 792
▁happening 792
▁stop 786
▁knew 786
▁kinds 786
▁itself 785
▁night 784
an 784
able 779
▁somebody 778
▁hear 777
▁India 777
▁share 776
▁ourselves 775
▁woman 774
▁learned 774
▁OK 773
▁since 772
us 770
▁society 770
▁level 769
▁minutes 766
▁gets 764
ation 764
▁America 762
ate 758
▁company 758
▁past 758
▁questions 757
▁themselves 756
▁turns 752
l 752
▁huge 751
▁against 750
▁name 749
▁front 749
▁hours 746
▁rather 746
▁game 745
▁created 742
▁God 741
▁environment 739
▁Or 735
▁Then 734
▁least 729
▁couldn 728
▁ones 727
▁worked 725
▁guys 725
▁won 725
▁H 722
▁art 720
▁K 719
▁sometimes 719
▁air 718
▁particular 718
▁sound 717
h 713
▁along 712
▁mother 712
▁others 711
▁figure 709
▁thousands 708
▁state 708
▁disease 707
▁news 705
▁30 705
▁gave 704
▁early 704
▁happy 701
▁China 701
it 699
▁TED 697
▁systems 697
▁lots 695
▁instead 693
▁everyone 693
f 692
▁50 691
▁F 691
ated 690
▁cell 690
as 688
is 688
▁R 688
▁entire 684
▁American 682
▁market 681
▁natural 680
▁third 676
▁house 676
▁taken 675
▁outside 674
▁difference 671
p 667
▁black 667
▁full 666
▁learning 666
▁machine 663
▁changed 663
▁seven 660
▁close 660
▁100 659
▁area 656
▁... 655
▁oil 655
▁century 653
▁free 652
▁un 651
▁middle 650
le 650
♪ 650
ist 642
▁Okay 641
n 640
▁perhaps 640
▁rest 640
▁easy 639
▁given 639
▁moving 639
▁yourself 637
▁land 635
▁leave 634
▁turned 632
ar 629
▁terms 628
et 628
▁difficult 628
D 626
at 626
▁eyes 626
▁population 625
▁takes 624
▁cities 623
▁culture 623
▁re 622
▁needs 622
ity 621
▁beginning 620
c 617
▁wonderful 616
▁At 616
▁seeing 616
▁hands 616
▁finally 615
— 615
The 614
▁behind 613
▁paper 612
▁cost 611
▁began 609
r 609
▁York 609
▁walk 608
st 607
▁certain 607
▁fish 607
▁cannot 606
▁parts 605
▁local 603
▁view 601
▁ocean 601
▁eight 600
▁during 599
▁common 599
▁image 597
▁longer 595
▁simply 594
▁deal 593
▁companies 593
▁realized 591
▁test 590
▁powerful 589
▁needed 586
▁amount 586
ian 586
▁behavior 585
u 584
▁whatever 583
▁Some 582
year 580
▁team 579
▁size 579
ized 578
▁15 578
▁economic 577
Well 577
▁pay 575
▁tried 575
▁E 573
ating 573
▁parents 573
▁People 570
▁interested 570
▁met 570
▁media 568
os 566
▁felt 566
▁reality 566
▁grow 565
old 565
ies 564
▁quickly 559
▁week 557
▁scale 557
▁gone 557
k 556
▁low 555
ent 555
▁death 554
g 554
ism 554
il 553
▁red 552
▁father 552
▁spend 551
▁growth 551
▁green 550
▁complex 550
▁DNA 549
▁ability 548
▁spent 548
▁friend 547
▁value 546
▁field 545
▁humans 544
▁To 543
▁weeks 543
▁shows 542
▁poor 542
▁feet 542
▁sitting 539
▁animal 539
▁opportunity 538
▁known 537
▁political 536
▁blue 535
el 534
▁buy 533
▁short 533
▁either 533
am 531
▁phone 531
▁economy 529
▁Do 528
▁lost 528
▁surface 528
You 526
▁Just 523
▁areas 523
ant 522
▁write 522
A 522
ates 522
▁morning 521
C 520
▁incredible 520
What 520
Z 519
▁bottom 519
▁attention 515
▁patients 515
▁ground 514
▁program 513
▁based 512
▁wouldn 511
▁changes 510
▁non 510
▁Is 509
▁eat 508
▁average 506
▁numbers 505
▁challenge 505
▁realize 504
▁structure 501
▁step 500
▁individual 499
▁brought 498
▁physical 495
▁speak 494
▁fly 493
▁feeling 493
ie 491
▁developed 490
▁access 490
▁born 490
▁b 488
▁cut 486
▁growing 485
▁die 485
▁fun 484
▁Right 484
▁knowledge 483
▁blood 483
▁seems 482
▁forward 481
▁Our 481
▁key 481
▁wrote 481
▁books 481
▁running 480
▁Not 480
ia 480
▁giving 479
▁literally 479
▁technologies 478
▁force 478
▁theory 478
▁p 477
▁watch 477
ive 476
and 476
▁nice 475
ness 475
▁On 475
id 475
▁English 475
▁material 474
▁white 473
▁climate 472
▁deep 472
▁personal 471
▁map 470
▁scientists 470
▁hundreds 469
▁understanding 469
▁World 469
▁40 468
▁dark 468
▁miles 467
▁starting 467
▁result 467
▁anyone 466
▁Can 465
▁gives 462
▁images 461
▁audience 461
▁CA 460
▁millions 460
▁telling 459
▁tools 459
▁alone 459
T 459
▁clear 458
ine 457
▁girl 457
▁hold 452
▁normal 452
▁kid 451
▁cars 450
▁fear 450
▁issue 449
▁Europe 447
▁center 447
▁sea 447
▁stand 446
▁creating 444
▁discovered 444
▁W 444
▁playing 444
▁fast 443
▁seem 443
▁relationship 442
▁showed 442
▁stage 441
▁movement 441
▁thank 440
▁absolutely 438
▁cool 438
est 438
▁N 437
▁allow 436
ings 436
▁risk 435
▁recently 435
▁begin 434
▁color 433
▁focus 432
▁industry 432
▁developing 432
B 432
▁product 430
ment 430
▁support 430
▁online 430
▁talked 429
▁chance 428
▁incredibly 427
▁resources 427
▁type 427
▁Yeah 427
▁modern 426
▁issues 426
ion 426
▁film 426
▁asking 425
▁reasons 424
▁patient 424
▁voice 423
M 422
▁shape 422
▁produce 421
▁act 421
N 420
▁innovation 420
v 420
▁available 419
▁experiment 419
▁special 419
▁knows 419
▁major 418
▁ice 418
▁soon 417
▁solution 417
▁rate 417
ot 417
▁involved 416
▁development 416
P 415
op 415
▁haven 415
▁sun 415
▁evidence 415
▁situation 414
▁save 414
▁South 414
up 413
▁Chinese 413
▁choice 412
▁hundred 412
▁tiny 412
ch 411
▁designed 411
▁object 411
▁solve 410
▁pictures 410
▁By 410
▁present 409
▁aren 409
K 409
▁perfect 408
▁J 408
▁becomes 407
▁especially 407
▁network 407
▁meet 407
▁changing 406
▁guess 405
▁message 405
▁baby 404
▁bigger 404
▁mass 403
ists 403
▁computers 403
▁impact 402
▁box 402
▁yes 402
Q 402
▁street 401
2 400
ra 400
▁putting 400
▁robot 399
▁d 399
▁dead 398
▁truth 397
▁writing 396
▁lived 396
▁effect 395
▁groups 395
▁medical 394
▁likely 393
▁lab 393
▁f 393
▁law 393
▁girls 393
▁explain 393
▁similar 393
▁drive 392
ations 392
▁wall 391
▁V 390
▁died 390
▁beyond 390
to 390
▁' 389
▁software 389
▁l 389
▁teach 388
ize 388
▁sounds 387
▁towards 387
▁nine 387
▁solar 386
▁rules 386
ad 386
ig 385
▁generation 384
▁sent 384
▁break 384
▁device 383
▁several 383
▁carbon 382
z 381
man 381
▁pick 381
▁drugs 381
ro 381
▁12 381
ling 380
▁approach 379
▁Google 379
▁First 378
▁particularly 378
▁Of 378
w 377
▁eye 377
▁anybody 376
ally 376
Oh 375
▁drug 374
▁worth 374
ur 374
▁send 374
▁fall 374
▁quality 373
▁success 373
▁sit 373
▁moved 372
▁onto 372
um 372
,000 371
▁fire 370
▁general 370
om 369
▁potential 368
▁action 368
▁evolution 368
▁office 368
▁class 368
▁games 367
▁basic 367
▁schools 367
▁stay 365
▁obviously 364
▁examples 364
▁showing 364
▁Maybe 364
▁sex 364
▁walking 364
▁hit 363
▁Every 363
▁among 362
▁certainly 362
▁materials 361
▁Yes 361
▁journey 361
▁scientific 360
▁further 360
E 359
▁totally 358
▁projects 356
▁develop 356
▁wants 356
▁starts 356
▁follow 356
▁Sh 355
▁month 355
▁exciting 355
▁biggest 355
▁After 355
▁national 355
▁table 355
▁largest 355
▁nobody 355
▁extremely 354
▁add 354
▁lead 353
▁period 353
▁teachers 353
▁student 353
▁wind 352
▁everywhere 352
▁pattern 352
▁st 351
▁strong 351
▁results 351
▁m 350
▁memory 350
▁measure 349
age 349
▁higher 349
▁digital 349
▁reach 348
▁hour 348
▁compassion 348
▁okay 348
ered 347
▁camera 347
▁notice 346
R 346
▁son 346
▁Oh 345
▁meaning 345
▁role 343
ous 343
▁skin 343
▁continue 342
izing 342
▁thousand 342
▁25 342
▁O 342
▁happiness 342
▁violence 341
ol 341
▁led 340
▁vision 340
▁security 340
X 340
▁response 340
▁door 339
ry 339
▁expect 339
▁listen 339
▁jobs 339
▁list 339
ions 339
▁favorite 337
▁named 337
▁democracy 336
▁trees 336
▁eventually 336
▁ready 336
▁poverty 336
▁leaders 336
▁connected 335
▁individuals 335
▁wish 335
▁18 334
▁bunch 333
▁revolution 333
▁North 333
ical 331
▁models 331
▁road 331
▁watching 331
▁dream 331
▁faster 330
ans 330
▁activity 330
▁essentially 330
▁sleep 330
▁positive 329
▁co 329
▁cause 329
▁West 329
▁crazy 329
▁tells 329
▁Most 327
ens 327
▁plants 327
., 327
F 326
▁de 326
▁lose 326
▁grew 326
▁movie 325
▁communities 325
▁village 325
▁HIV 325
▁conditions 325
les 325
less 325
▁worse 325
▁suddenly 325
▁60 324
▁record 324
▁shown 324
▁mine 324
▁Even 324
▁goal 323
▁speed 323
▁creative 323
▁meant 323
ors 323
▁spread 323
▁protect 323
▁brains 323
▁nuclear 323
▁buildings 322
▁safe 322
ically 322
▁source 322
▁objects 322
▁supposed 321
▁indeed 321
▁smart 321
▁fundamental 321
▁hospital 321
ure 320
▁sorts 320
ag 320
▁song 320
▁choose 320
▁plan 319
▁screen 319
▁boy 319
▁African 319
▁somewhere 318
▁context 318
▁late 318
▁finding 318
▁rich 318
▁site 317
We 317
▁impossible 317
▁extraordinary 317
▁larger 316
▁trust 316
▁teacher 316
▁gas 315
▁tool 315
▁medicine 315
▁sp 315
▁Where 314
▁minute 314
▁c 314
▁above 314
▁pain 313
▁taught 313
▁killed 313
▁visual 313
▁forms 312
em 312
▁allowed 312
▁doctor 312
▁products 311
▁peace 311
led 310
▁including 310
▁complicated 310
▁wife 309
▁Those 309
▁kill 309
▁200 309
▁ended 308
▁plant 308
▁fine 307
L 307
▁Ch 307
▁cl 307
▁usually 307
▁Chris 306
ter 306
▁hot 306
▁allows 306
▁tend 306
▁increase 306
▁cases 306
▁truly 305
▁position 305
▁traditional 305
▁studies 305
▁s 305
▁training 304
▁alive 304
▁80 304
▁fight 304
▁families 303
▁excited 303
ard 303
▁exist 302
▁beings 302
▁moral 302
▁points 302
▁decision 301
▁international 301
▁standing 301
▁successful 301
/ 301
▁older 301
▁interest 301
▁critical 300
▁With 300
▁price 300
im 300
▁stars 300
▁wait 299
▁Today 299
▁super 299
▁region 299
▁main 299
▁Don 298
▁electricity 297
▁lower 297
▁college 297
▁bacteria 297
one 297
▁crisis 296
▁tree 296
▁sh 296
▁reading 296
▁lines 296
▁conversation 296
▁series 295
▁perspective 295
▁somehow 295
▁pieces 295
▁upon 295
▁provide 294
▁patterns 294
▁arm 293
▁sky 293
▁specific 293
▁ch 293
▁healthy 293
▁t 292
▁progress 292
▁An 292
▁code 292
▁smaller 292
▁g 292
ics 291
▁serious 291
▁kept 291
No 291
▁seconds 291
▁physics 291
▁written 290
▁dis 290
▁rights 290
▁Who 290
▁bed 290
▁recognize 289
▁concept 289
▁biology 289
▁h 289
▁neurons 289
▁anywhere 289
▁organization 288
▁travel 288
un 288
▁East 288
▁Y 288
▁treatment 288
▁content 288
▁version 287
▁robots 287
▁page 287
▁himself 287
▁military 286
ary 286
▁actual 286
▁n 286
▁waste 285
▁subject 285
▁weight 285
▁anymore 285
▁doctors 285
▁board 284
▁please 284
▁Al 283
ets 283
▁architecture 283
▁service 283
▁connect 283
▁dog 283
5 282
▁Which 282
1 282
▁Americans 282
▁v 282
▁path 281
▁touch 281
▁genes 281
▁post 281
▁wonder 281
▁bodies 281
▁3 280
ful 280
▁cold 280
▁Like 279
▁draw 279
▁search 279
▁TV 278
▁earlier 278
se 277
ut 277
▁pre 277
▁private 277
ill 277
▁machines 277
▁becoming 277
ish 277
▁legs 277
▁greater 277
▁decisions 276
▁train 276
▁yeah 276
▁sell 276
▁policy 276
▁police 276
▁loved 276
▁skills 276
ab 276
▁clearly 275
ge 275
▁listening 275
▁pull 275
▁consider 274
▁throughout 274
▁slow 274
▁weren 274
ial 274
▁sl 274
▁Another 274
▁fl 274
▁w 273
▁expensive 273
▁familiar 273
ah 273
▁treat 272
▁mental 272
▁famous 272
▁shot 272
▁current 271
▁solutions 271
▁Are 271
▁therefore 271
▁costs 271
▁except 270
▁minds 270
▁near 270
▁Look 270
▁St 270
▁production 269
▁o 269
▁store 269
▁sign 268
▁levels 268
▁website 268
▁forth 268
ization 267
▁fantastic 267
▁waiting 267
▁genetic 267
▁bar 267
als 267
▁practice 267
▁Imagine 267
▁feed 266
▁urban 266
▁dangerous 266
▁range 265
▁intelligence 265
▁foot 265
▁freedom 265
▁performance 264
O 264
▁term 264
▁final 264
H 264
▁greatest 264
▁direction 264
▁beauty 263
▁War 263
▁square 263
ay 263
▁environmental 262
▁zero 262
▁City 262
▁walked 262
▁rise 262
▁r 262
j 261
ting 261
▁web 261
▁institutions 261
▁forest 260
▁decade 260
ons 260
▁University 260
▁effective 259
G 259
▁immediately 259
▁values 259
▁driving 258
▁sub 258
▁meeting 258
▁sat 257
▁function 257
out 257
ak 257
▁invented 256
▁floor 256
▁Man 256
x 255
▁obvious 255
▁strange 255
▁various 255
▁types 255
▁massive 255
▁teaching 255
▁capital 254
▁ahead 254
▁decades 254
▁laws 254
▁services 253
▁income 253
▁town 253
▁math 253
ator 253
▁London 253
▁governments 252
▁humanity 252
▁career 252
▁connection 252
the 251
▁event 251
▁Two 250
▁21 250
▁decide 250
▁star 250
▁instance 249
▁flow 249
ile 249
▁although 249
▁babies 249
▁following 249
▁useful 248
▁mom 248
▁uses 248
▁remarkable 247
▁clean 247
▁terrible 247
▁90 247
▁popular 247
od 246
▁choices 246
▁nation 246
▁enormous 246
▁possibly 246
ier 246
ip 246
art 245
▁willing 245
▁magic 245
▁Dr 244
▁effects 244
ir 244
▁character 244
▁politics 243
▁fuel 243
▁flying 243
▁raise 243
▁anyway 242
▁challenges 242
▁trade 241
▁financial 241
▁win 241
▁ran 241
▁virus 241
▁aware 241
▁societies 241
▁quick 240
3 240
▁plastic 240
▁slide 239
▁diseases 239
▁engineering 239
▁17 239
▁slightly 239
▁helped 239
▁summer 238
▁race 238
▁pressure 238
▁supply 238
▁understood 238
▁straight 238
▁conflict 238
▁worst 237
▁capacity 237
▁Many 236
▁press 236
▁purpose 236
▁push 236
ance 236
▁Your 236
▁unique 236
▁directly 235
▁television 235
▁extra 235
▁below 235
▁shared 234
▁California 234
▁colleagues 234
▁16 234
▁survive 234
7 234
▁female 234
▁complete 234
▁From 234
▁artist 234
▁citizens 234
▁temperature 233
▁paid 233
ite 233
▁mostly 233
▁whose 233
▁cultural 233
▁text 233
▁rule 232
ap 232
▁track 232
▁programs 232
▁states 231
▁relationships 231
▁religion 231
time 231
▁Western 231
▁forces 230
▁recent 230
ick 230
▁sand 230
How 230
▁boys 230
▁infrastructure 229
▁published 229
▁fit 229
▁causes 229
▁National 229
▁address 228
▁organizations 228
▁creativity 228
▁differences 228
ac 228
▁meters 228
▁Afghanistan 227
▁aid 227
▁mobile 227
▁total 227
▁explore 227
ins 227
▁noticed 227
▁funny 227
It 227
▁answers 227
Why 227
▁forget 227
com 226
▁oxygen 226
▁apart 226
▁improve 226
▁Mars 226
▁task 226
▁male 226
▁rock 226
▁birth 226
▁Think 226
▁John 225
▁11 225
▁closer 225
▁standard 225
▁heat 225
▁fix 225
▁legal 224
▁speaking 224
▁atmosphere 224
▁ball 224
▁wild 224
▁twice 223
▁pass 223
▁condition 223
ts 223
▁worry 223
▁biological 223
▁original 223
▁stick 223
▁secret 223
▁stopped 223
▁mountain 223
▁surgery 223
▁trouble 223
▁afraid 222
▁14 222
▁played 222
▁markets 221
▁Indian 221
▁drop 221
▁workers 221
▁produced 221
sh 221
▁communicate 221
▁evolved 221
▁networks 221
▁streets 221
like 220
▁gotten 220
▁photograph 220
▁sustainable 220
▁hole 220
▁active 219
▁respect 219
▁bought 219
▁highly 219
ative 219
▁speech 218
▁missing 218
▁oh 218
▁glass 218
▁carry 218
its 218
ines 218
▁blind 218
▁feels 218
▁easily 217
▁responsibility 217
▁experiments 217
▁70 217
▁seemed 217
▁Instead 217
▁interact 217
▁achieve 217
▁emotional 216
▁dance 216
▁500 216
▁e 216
▁chemical 216
amp 216
▁dying 216
▁molecules 216
▁stress 215
og 215
▁corner 215
av 215
▁San 215
oo 215
▁basis 214
8 214
▁afford 214
▁differently 214
▁degrees 213
▁experiences 213
▁knowing 213
W 213
ul 213
▁flu 213
▁helping 213
▁birds 213
▁creates 213
▁eating 213
▁planets 213
▁significant 212
▁reduce 212
▁designers 212
▁attack 212
king 212
▁hair 212
ps 211
$ 211
▁engage 211
▁none 211
▁diversity 211
▁members 211
▁window 211
▁Great 210
▁sick 210
▁central 210
▁daughter 210
▁communication 209
▁weird 209
▁check 209
▁micro 208
▁broken 208
▁complexity 208
▁His 208
▁bringing 208
▁nearly 208
▁Again 207
term 207
▁scientist 207
▁spending 207
▁genome 207
4 207
▁ant 207
▁earth 207
▁etc 206
▁agree 206
▁discover 206
▁10,000 206
▁gl 206
▁Facebook 206
▁conference 205
▁radio 205
ious 205
▁photo 205
▁cross 205
▁throw 205
▁studying 205
▁lights 205
▁consciousness 205
▁hearing 204
▁devices 204
▁cover 204
▁shift 204
▁predict 203
6 203
▁tremendous 203
▁email 203
ne 203
▁opportunities 203
ash 203
▁David 202
▁join 202
ities 202
▁catch 202
▁boat 202
▁focused 202
▁trial 202
▁landscape 202
▁prison 202
▁bees 202
▁effort 201
ians 201
▁fully 200
▁inter 200
▁Actually 200
▁spaces 200
▁fairly 200
▁imagination 199
ators 199
▁24 199
▁k 199
▁forever 199
▁card 199
▁stem 199
▁Middle 199
▁300 198
▁account 198
▁passed 198
▁passion 198
▁dad 198
▁identity 198
▁Over 197
▁1,000 197
▁mission 197
▁ancient 197
9 197
ud 197
all 196
nd 196
▁lack 196
▁coffee 196
ore 196
ide 196
ified 196
be 196
▁Iraq 196
▁sold 196
▁lucky 195
▁inspired 195
▁phenomenon 195
▁opposite 195
▁creatures 195
▁yellow 195
ach 194
▁possibility 194
▁farmers 194
▁artists 194
▁party 194
based 194
▁religious 194
▁Good 194
▁apply 194
▁despite 194
▁argument 194
▁enjoy 193
▁core 193
▁turning 193
ants 193
per 193
▁failure 193
▁easier 192
▁describe 192
▁block 192
▁park 192
▁figured 191
▁Second 191
▁events 191
▁notion 191
▁loss 191
▁particles 191
▁dreams 191
▁Japan 191
ale 191
▁sharing 191
▁civil 191
▁giant 191
oc 190
ck 190
▁importantly 190
▁9 190
▁raised 190
ow 190
▁ex 190
▁respond 190
▁ship 190
▁Web 190
▁painting 190
▁structures 190
▁moments 190
ain 190
ability 189
▁benefits 189
▁foreign 189
▁entirely 189
▁gene 188
▁Thanks 188
▁vast 188
▁ra 188
▁report 187
▁However 187
▁imp 187
ars 187
▁held 187
▁Asia 187
▁Take 187
qu 187
▁negative 186
▁brings 186
▁calls 186
▁sorry 186
▁necessarily 186
▁suffering 186
▁elements 186
▁billions 185
ph 185
▁sw 185
▁industrial 185
ber 185
▁charge 185
▁quote 184
▁responsible 184
▁European 184
▁CO 183
▁wealth 183
▁2 183
▁commercial 183
▁competition 183
▁background 183
This 183
ver 183
▁13 183
ice 183
▁bridge 183
▁ad 183
▁French 183
▁random 183
▁leadership 183
▁distance 183
▁brother 183
▁return 183
▁opened 182
▁Sometimes 182
▁grand 182
▁helps 182
▁pounds 182
▁engine 182
▁tissue 182
▁bread 182
▁leading 181
▁edge 181
▁necessary 181
▁definition 181
▁efficient 181
▁studied 181
▁weapons 181
▁virtual 181
▁breast 181
▁Very 181
▁labor 181
▁bird 181
▁sad 180
▁sector 180
ib 180
if 180
▁See 180
▁holding 180
▁oceans 180
▁shouldn 179
▁matters 179
▁Big 179
▁collect 179
ments 179
▁believed 179
▁ultimately 179
▁husband 179
▁balance 179
▁campaign 178
▁unfortunately 178
▁dollar 178
▁stuck 178
▁related 178
▁adults 178
ose 178
▁brand 178
▁failed 178
▁leads 177
by 177
▁colors 177
▁childhood 177
▁double 177
ob 177
▁offer 177
▁signal 177
▁Re 177
▁Sun 177
▁investment 176
▁visit 176
▁river 176
ast 176
▁More 176
▁trick 176
dimensional 176
way 175
▁Once 175
▁concerned 175
▁insects 175
▁heads 175
▁mouse 175
▁qu 175
▁sudden 174
▁affect 174
▁deliver 174
▁discovery 174
▁noise 174
▁hate 174
▁university 174
ce 174
▁leaving 174
V 173
▁influence 173
ca 173
are 173
▁deeply 173
▁lunch 173
▁sequence 173
▁slowly 173
▁graph 173
iv 173
▁degree 172
▁flight 172
▁lesson 172
ma 172
▁moves 172
ble 172
▁transform 172
▁invest 172
▁caught 172
▁19 171
▁jump 171
ages 171
▁constantly 171
ue 171
▁traffic 171
aw 171
▁electric 171
▁Mr 171
▁compared 171
▁typical 171
▁professional 171
▁letter 170
▁saving 170
▁creation 170
▁argue 170
ited 170
▁trained 170
▁hell 170
▁fashion 170
ass 170
▁pl 170
▁fighting 170
▁se 170
▁protein 170
▁closed 169
▁majority 169
▁begins 169
▁fascinating 169
▁walls 169
▁finished 169
▁sister 169
▁British 169
▁factory 169
▁names 169
▁ants 169
ou 168
▁surprise 168
ack 168
▁emotions 168
▁rain 168
▁capable 168
▁neighborhood 168
▁phones 168
▁bone 168
▁base 168
▁described 168
▁count 168
▁spot 168
▁strategy 168
▁interaction 168
▁collective 168
ong 167
ise 167
▁managed 167
▁equal 167
▁quantum 167
▁talks 167
▁faces 167
▁Brazil 167
▁depression 167
▁otherwise 167
▁cat 167
▁mathematics 167
co 166
ats 166
▁prevent 166
▁separate 166
▁paying 166
▁operating 166
ged 166
ence 166
▁note 166
▁proud 166
▁seat 166
▁represent 166
▁advantage 166
▁coral 166
ade 165
▁perfectly 165
▁engineers 165
▁museum 165
ys 165
▁ha 165
▁organisms 165
▁j 165
▁brilliant 165
▁Audience 165
▁sexual 165
▁profound 165
▁Life 165
ering 165
▁soil 164
ures 164
▁trip 164
▁avoid 164
▁benefit 164
▁moon 164
▁net 164
▁bank 164
▁tough 164
▁currently 164
▁era 164
▁followed 164
▁principles 164
▁Have 164
▁Go 164
▁justice 164
▁hasn 163
▁mentioned 163
▁Be 163
▁joy 163
▁faith 163
▁invisible 163
off 163
▁ret 163
▁whom 163
▁consumption 163
▁civilization 163
▁smell 163
▁breath 163
▁galaxies 163
▁homes 162
▁surprised 162
▁feedback 162
▁mis 162
▁trans 162
▁Mexico 162
els 162
▁extreme 162
▁limited 161
▁grown 161
▁tens 161
▁worried 161
line 161
▁pop 161
▁honest 161
▁cheap 161
▁harder 161
▁north 161
▁meat 161
▁mid 161
▁treated 161
▁Washington 160
▁leader 160
▁contact 160
istic 160
▁vehicle 160
▁Australia 160
▁Each 160
▁England 160
▁businesses 160
▁equivalent 160
▁wearing 160
▁leg 160
▁fell 159
▁everyday 159
▁desire 159
▁compare 159
▁due 159
int 159
ives 159
▁languages 159
▁ab 159
▁received 159
▁demand 159
▁galaxy 159
▁Three 158
▁400 158
▁cycle 158
▁mouth 158
▁counter 158
▁wisdom 158
▁rid 158
▁bus 158
▁Everybody 158
▁direct 158
▁invited 158
▁arms 158
▁bl 158
▁alternative 157
▁planning 157
of 157
▁Richard 157
If 157
▁married 157
ium 157
▁chair 157
▁adult 157
ites 157
ath 157
▁watched 157
▁magazine 157
▁unless 157
▁circle 157
▁detail 157
▁fourth 157
▁classroom 157
▁molecule 157
▁motor 156
▁link 156
▁organ 156
▁weather 156
▁launched 156
▁lay 156
▁al 156
▁wave 156
▁Twitter 156
▁farm 155
▁highest 155
▁designer 155
▁exists 155
▁equipment 155
ably 155
▁match 155
▁agriculture 155
cent 155
▁survival 155
▁photos 155
ler 155
▁mothers 155
▁debate 154
▁spirit 154
▁seriously 154
▁threat 154
▁strength 154
▁users 154
▁pages 154
▁camp 154
▁stupid 154
▁soldiers 154
ks 154
▁cloud 154
▁versus 153
▁Germany 153
▁197 153
▁puts 153
▁hopefully 153
▁dinner 153
▁normally 153
ning 153
▁organic 153
▁thinks 153
▁dry 153
▁toward 153
▁drawing 153
▁Iran 153
▁fresh 152
▁wood 152
▁economics 152
▁nervous 152
▁shapes 152
▁multiple 152
▁manage 152
▁identify 152
▁target 151
ging 151
▁kilometers 151
▁AIDS 151
▁testing 151
▁Ph 151
▁Pr 151
▁100,000 151
▁fair 151
▁steps 151
▁paint 151
▁associated 151
▁appear 151
▁distribution 151
▁increasingly 151
▁metaphor 151
Yes 150
▁plane 150
▁yesterday 150
▁folks 150
▁en 150
▁existence 150
▁players 150
▁belief 150
ep 150
pe 150
▁processes 150
pt 150
▁surprising 150
▁article 150
▁signals 150
▁property 150
▁hidden 150
ug 150
▁statistics 150
▁sentence 150
▁rural 149
▁resource 149
▁cr 149
▁technical 149
▁ordinary 149
▁station 149
▁drink 149
▁leaves 149
▁sc 149
▁according 149
▁saved 149
▁accident 149
▁transformation 149
▁res 149
▁motion 149
▁airplane 148
▁chain 148
▁warming 148
▁generations 148
hip 148
▁sites 148
▁filled 148
▁Did 148
▁diet 148
▁desert 148
▁driver 148
▁comfortable 148
▁cognitive 148
▁struggle 148
▁caused 147
▁island 147
▁awful 147
bs 147
▁roll 147
ory 147
▁exact 147
▁safety 147
▁beat 147
▁stood 147
▁switch 147
▁dimensions 147
▁daily 147
▁inner 147
▁date 147
▁tail 147
ang 147
ology 147
▁gold 147
▁gr 146
▁dealing 146
vers 146
ality 146
▁losing 146
▁designing 146
▁Japanese 146
▁method 146
▁intellectual 146
ric 146
▁correct 146
▁importance 146
▁suggest 146
▁Everything 146
▁gender 146
▁sn 146
▁principle 146
ik 146
▁tons 146
▁researchers 146
▁Kenya 146
▁experienced 146
▁flag 146
▁shoes 145
▁li 145
▁heavy 145
Hey 145
▁accept 145
▁hadn 145
▁wear 145
ai 145
That 145
▁spoke 145
▁theater 145
▁covered 145
▁Einstein 145
▁hide 145
▁electrical 145
▁crime 145
▁consequences 145
▁bomb 145
▁MIT 144
▁Britain 144
▁artificial 144
▁fields 144
▁Times 144
▁copy 144
▁arrived 144
▁scene 144
▁fill 144
▁convinced 144
ace 144
▁facts 144
▁finish 144
ke 144
▁wondering 144
▁clinical 144
▁gap 144
our 144
▁par 144
▁movies 144
▁coast 144
▁partner 143
▁Bill 143
▁damage 143
pl 143
ied 143
▁tr 143
▁killing 143
▁liked 143
▁signs 143
▁universal 143
ible 143
▁pe 143
▁bright 143
▁considered 143
▁poetry 143
red 143
▁forced 143
▁layer 143
▁2,000 143
▁bits 143
ort 142
▁intelligent 142
▁198 142
▁microbes 142
▁essential 142
▁Their 142
▁picked 142
▁professor 142
▁calling 142
▁connections 142
▁remote 142
▁la 142
▁dots 142
▁continent 141
ron 141
▁analysis 141
we 141
▁bear 141
▁satellite 141
U 141
▁crowd 141
▁opening 141
▁grandmother 141
▁muscle 141
▁engineer 141
▁regular 141
▁deeper 141
ids 141
▁fat 141
▁holes 141
▁inf 141
▁fellow 141
▁south 141
▁fossil 140
▁management 140
▁cutting 140
▁rep 140
▁letters 140
▁detect 140
▁wide 140
▁feelings 140
▁chemicals 140
▁lie 140
▁Israel 140
▁possibilities 140
▁player 140
▁coal 140
▁reaction 140
▁School 140
▁y 139
▁sources 139
▁expected 139
▁chemistry 139
▁trials 139
▁variety 139
▁expression 139
▁emotion 139
▁whenever 139
▁grade 139
▁healthcare 139
▁finger 139
ell 138
▁messages 138
▁platform 138
▁tra 138
▁Harvard 138
▁empty 138
▁credit 138
▁curious 138
▁fail 138
▁waves 138
▁battery 138
▁president 138
ger 137
▁click 137
▁addition 137
▁rare 137
▁tomorrow 137
▁collection 137
▁construction 137
▁anti 137
▁experts 137
▁vote 137
▁lies 137
ake 137
▁Her 137
▁ends 137
▁videos 137
▁underneath 137
▁dinosaurs 137
▁President 136
▁advanced 136
▁absolute 136
▁corruption 136
▁requires 136
▁exercise 136
▁dynamic 136
▁Paul 136
▁mon 136
▁broke 136
hand 136
▁ten 136
ters 136
ight 136
▁rates 136
▁marriage 136
▁mention 136
▁band 136
▁enter 136
▁hurt 136
▁wake 136
▁consumer 135
▁independent 135
▁Last 135
▁George 135
▁increasing 135
▁round 135
▁relatively 135
▁transition 135
▁location 135
▁characters 135
▁sharks 135
▁rapidly 134
▁Se 134
▁express 134
he 134
▁thoughts 134
▁roughly 134
▁prove 134
ination 134
▁interface 134
▁user 134
▁voices 134
▁keeping 134
▁carefully 134
▁organized 134
▁valuable 134
▁gun 134
▁teeth 134
▁facing 133
▁occur 133
▁budget 133
▁warm 133
▁represents 133
▁capture 133
▁gift 133
▁35 133
▁epidemic 133
▁cultures 133
med 133
▁evil 133
▁fewer 133
▁ins 133
▁launch 133
▁emerging 133
▁exchange 133
▁convince 132
cl 132
io 132
▁generate 132
▁specifically 132
▁producing 132
▁Center 132
ire 132
▁victims 132
▁Street 132
▁Anyway 132
▁behaviors 132
▁Canada 132
▁Could 132
▁member 132
▁vulnerable 132
▁gain 132
▁May 131
▁situations 131
▁entrepreneurs 131
▁effectively 131
▁require 131
▁houses 131
▁flies 131
▁properties 131
▁status 131
▁Francisco 131
é 131
▁nations 131
▁cameras 131
ind 131
▁cards 131
▁primary 131
▁Nigeria 130
▁emissions 130
▁row 130
▁depends 130
▁lady 130
▁details 130
▁ride 130
▁bottle 130
▁sing 130
▁Institute 129
▁instrument 129
▁shoot 129
▁hydrogen 129
▁added 129
▁viruses 129
▁release 129
▁reward 129
ves 129
▁poem 129
ner 129
▁pro 129
▁Does 129
▁da 129
▁flat 129
land 129
▁movements 129
▁GDP 129
▁ref 128
▁roof 128
▁perform 128
ards 128
▁arts 128
▁carrying 128
▁lifetime 128
▁Chicago 128
mer 128
▁ecosystem 128
▁En 128
▁fr 127
▁sending 127
▁politicians 127
▁sugar 127
▁mathematical 127
▁interests 127
ub 127
▁maps 127
▁II 127
▁define 127
▁promise 127
▁previous 127
▁generally 127
▁replace 127
▁cure 127
▁Would 127
▁Darwin 127
▁molecular 127
▁radical 127
end 127
▁mortality 127
▁honor 126
▁Anderson 126
▁prepared 126
▁discussion 126
▁however 126
▁engaged 126
▁risks 126
▁components 126
men 126
▁remain 126
▁Sp 126
▁grid 126
att 126
▁shop 126
▁Mar 126
▁bet 126
▁symbol 126
▁released 126
▁battle 126
▁Muslim 126
▁unit 126
▁gay 126
▁restaurant 125
▁staff 125
▁introduce 125
olds 125
Do 125
▁snow 125
▁quiet 125
▁sample 125
ess 125
▁bi 125
ening 125
▁regions 125
▁graduate 125
▁selling 125
▁trillion 125
▁Los 125
la 125
ov 125
▁introduced 125
▁Congress 125
▁techniques 125
▁serve 124
▁spring 124
▁150 124
▁terrorism 124
▁buying 124
▁master 124
▁Since 124
▁winter 124
▁comfort 124
ational 124
me 124
▁metal 124
▁laugh 124
▁mess 124
▁interview 124
▁atoms 124
▁bubble 124
▁goals 124
▁organs 124
▁YouTube 124
▁NASA 123
ery 123
▁factor 123
▁employees 123
▁pleasure 123
▁malaria 123
ung 123
▁steel 123
▁novel 123
▁solid 123
▁abstract 123
▁tradition 123
▁factors 123
ord 123
fully 123
▁mirror 122
▁invention 122
▁worlds 122
▁environments 122
▁sides 122
2. 122
▁radiation 122
▁horse 122
▁blocks 122
▁gravity 122
▁medium 122
▁7 122
▁thanks 122
▁element 122
ray 122
▁wh 122
▁Charles 122
▁swim 122
▁definitely 122
▁remind 122
▁protection 122
▁newspaper 122
▁soft 122
▁mistake 122
▁shark 122
▁pollution 121
0, 121
▁combination 121
▁setting 121
▁affected 121
▁disaster 121
▁runs 121
0 121
▁soul 121
oth 121
▁evolutionary 121
▁shut 121
▁print 121
▁hero 121
▁tumor 121
act 121
▁mountains 121
▁mix 121
▁practical 121
▁scared 121
▁Th 121
ual 121
▁James 121
▁spectrum 121
▁lessons 121
▁tax 121
▁app 120
ition 120
▁De 120
▁democratic 120
▁depend 120
etic 120
▁recorded 120
& 120
▁clip 120
▁conscious 120
▁driven 120
▁typically 120
▁kitchen 120
ots 120
▁parent 120
▁reached 120
▁opinion 120
ying 120
J 120
▁goods 120
▁option 120
▁Arab 120
▁worldwide 119
▁Russia 119
▁ideal 119
▁clock 119
▁z 119
Look 119
▁pulled 119
▁Am 119
▁weak 119
▁perception 119
▁chicken 119
▁Ad 119
▁Islam 119
▁false 119
▁cortex 119
▁include 119
▁centers 119
▁Yet 119
▁neighbors 119
▁fishing 119
▁ought 118
▁bag 118
ted 118
▁required 118
▁sophisticated 118
▁crash 118
2, 118
ich 118
ped 118
▁collaboration 118
▁Perhaps 118
▁forests 118
▁traveling 118
▁literature 118
▁stream 118
▁Michael 118
▁le 118
▁keeps 118
▁dogs 118
▁75 118
▁dropped 118
▁plus 118
▁Pakistan 118
▁rational 118
▁relevant 118
▁actions 118
▁singing 118
▁psychology 118
▁privacy 118
▁personally 117
▁cow 117
▁notes 117
▁hoping 117
▁features 117
▁Steve 117
▁participate 117
▁encourage 117
▁applied 117
▁garden 117
▁vehicles 117
bo 117
▁naturally 117
az 117
▁technological 116
▁fundamentally 116
▁meaningful 116
▁aging 116
de 116
▁ultimate 116
aking 116
▁destruction 116
▁illness 116
▁combined 116
▁ancestors 116
ping 116
▁liquid 116
▁rocket 116
▁skill 116
day 116
▁hits 116
▁unusual 116
▁illegal 116
ee 116
▁sports 116
▁senses 116
▁topic 115
▁efficiency 115
ane 115
▁stronger 115
▁operate 115
▁Will 115
▁transport 115
▁3,000 115
▁El 115
▁Art 115
▁Also 115
▁mile 115
ock 115
▁increased 115
te 115
▁Bank 115
▁score 115
▁awareness 115
▁wine 115
▁algorithms 115
▁formed 115
▁mechanism 115
▁afternoon 115
▁activities 115
▁eggs 115
▁records 114
▁transportation 114
ton 114
▁framework 114
▁functions 114
▁sees 114
▁conf 114
ification 114
ifying 114
▁sunlight 114
▁physically 114
▁solved 114
▁occurred 114
▁mistakes 114
▁processing 114
ened 114
▁peak 114
▁Park 114
▁underwater 114
▁sweet 114
ologists 114
ows 114
▁acting 114
▁manufacturing 114
▁internal 114
▁hospitals 114
▁gang 114
ett 114
▁danger 114
▁institution 114
▁memories 114
▁length 113
▁cooking 113
▁tests 113
▁Cl 113
▁miss 113
ides 113
▁studio 113
uses 113
▁pair 113
▁joke 113
▁foundation 113
ust 113
ored 113
▁Amazon 113
▁king 113
uck 113
itting 113
▁France 113
▁smile 113
▁Project 113
▁display 113
▁empathy 113
▁conservation 112
▁somewhat 112
scale 112
making 112
▁equally 112
▁theme 112
▁Pacific 112
iest 112
iz 112
▁height 112
▁Boston 112
▁drives 112
▁Women 112
▁squ 112
▁musical 112
▁relative 112
▁largely 112
▁suppose 112
▁falling 112
▁ear 112
ew 111
▁advice 111
▁burning 111
▁cook 111
▁amounts 111
▁laptop 111
▁reg 111
▁chart 111
▁199 111
▁Nobody 111
▁tape 111
▁shame 111
▁fore 111
▁proteins 111
▁computing 111
▁reform 111
▁prime 111
▁wars 111
ular 111
▁birthday 111
▁dramatic 111
▁collected 111
▁doubt 111
ively 111
▁swimming 111
▁visible 110
▁conclusion 110
▁5,000 110
▁expand 110
▁silence 110
▁figures 110
▁button 110
▁Tom 110
▁invent 110
▁Le 110
▁concrete 110
▁Rob 110
▁Something 110
▁photographs 110
aged 110
▁potentially 110
▁cave 110
▁protected 110
▁burn 109
▁196 109
▁defined 109
ty 109
▁upper 109
▁sets 109
▁lo 109
▁Mon 109
▁presence 109
▁election 109
▁toxic 109
▁psychological 109
▁percentage 109
▁Five 109
▁thin 109
▁aspect 109
▁piano 109
▁Day 109
▁fake 109
source 109
ured 109
▁Health 109
der 109
being 109
▁While 109
▁Unfortunately 109
▁contrast 109
▁constant 109
▁comp 109
▁toy 109
▁insight 109
▁quarter 108
▁partners 108
▁frame 108
▁roads 108
▁cents 108
▁Paris 108
▁marketing 108
▁accurate 108
▁architect 108
▁conversations 108
▁claim 108
inate 108
5, 108
▁sensitive 108
▁creature 108
▁tracking 108
▁explanation 108
▁confidence 108
▁Valley 108
▁Green 108
▁rooms 108
▁Only 108
▁Ar 108
▁tonight 108
▁overall 108
▁subjects 108
▁6 108
In 108
▁operation 108
▁string 108
ley 108
▁chose 108
▁attacks 108
▁iPhone 108
▁former 107
work 107
▁stayed 107
▁innovative 107
▁inspiration 107
▁clothes 107
▁infected 107
▁contract 107
ase 107
▁State 107
▁productive 107
board 107
▁circumstances 107
▁surrounded 107
▁remains 107
▁explained 107
▁sustainability 107
▁silk 107
▁pen 107
▁providing 107
res 107
foot 107
▁existing 107
▁outcome 107
▁appropriate 107
▁succeed 107
▁po 107
atory 107
▁films 107
▁flew 106
▁wire 106
▁br 106
▁closely 106
▁nor 106
▁presentation 106
▁nowhere 106
▁reverse 106
▁tested 106
▁songs 106
ify 106
▁ro 106
▁Number 106
▁electronic 106
▁breathe 106
▁prefer 106
▁monkey 106
▁cur 106
ith 106
▁assume 106
▁measured 106
▁authority 106
ulate 105
▁options 105
▁appreciate 105
▁joined 105
▁split 105
ents 105
▁med 105
▁shall 105
7, 105
▁nest 105
▁horrible 105
▁truck 105
▁decline 105
▁error 105
▁dot 105
▁applications 105
ges 105
▁church 105
▁sensors 105
▁unknown 105
▁Un 105
ime 104
use 104
▁Car 104
▁Red 104
▁deaths 104
▁Bl 104
▁Basically 104
▁evening 104
▁pack 104
▁con 104
▁housing 104
▁def 104
▁therapy 104
ica 104
ren 104
▁trend 104
▁loud 104
▁King 104
▁curve 104
▁plate 104
▁Angeles 104
▁taste 104
▁economists 104
▁controlled 104
▁und 104
▁bones 104
ologist 104
▁jail 104
▁ears 104
ina 104
aries 104
▁whales 104
▁symptoms 104
▁Christmas 104
▁papers 104
▁zoom 104
▁challenging 104
ress 103
▁rem 103
▁tap 103
▁samples 103
▁statement 103
▁volume 103
▁45 103
▁Come 103
▁handle 103
▁Union 103
▁multi 103
▁fingers 103
▁remove 103
let 103
▁Frank 103
▁relate 103
▁hang 103
atic 103
▁suffer 103
▁lying 103
▁combine 103
▁laboratory 103
▁boring 103
▁tall 103
izes 103
▁narrative 103
▁centuries 103
▁provided 103
▁odd 103
▁dec 103
▁gentlemen 103
▁passionate 103
▁BG 103
▁collapse 102
▁villages 102
▁globe 102
▁September 102
▁exploration 102
▁allowing 102
1. 102
▁busy 102
▁falls 102
ently 102
▁transformed 102
▁grass 102
▁wherever 102
▁flowers 102
Yeah 102
▁Science 102
▁hotel 102
▁4 102
ere 102
▁adapt 102
▁attempt 102
▁Gu 102
▁seed 102
▁nose 102
ha 102
▁blow 102
▁Museum 102
▁clouds 102
cy 102
▁autism 102
▁Wikipedia 102
▁German 102
▁channel 102
▁paradigm 102
▁wheel 102
▁GPS 102
▁grain 101
▁capitalism 101
▁clever 101
▁feature 101
ero 101
▁bike 101
▁extent 101
▁determine 101
▁angry 101
▁ring 101
▁disappear 101
ological 101
▁stone 101
▁ar 101
eness 101
ips 101
▁99 101
▁technique 101
▁Gulf 101
▁Egypt 101
▁marine 101
ert 100
▁beach 100
▁profit 100
▁standards 100
▁logic 100
▁root 100
▁em 100
▁Any 100
ned 100
ave 100
oph 100
▁hall 100
▁unlike 100
▁faced 100
iness 100
50 100
▁embrace 100
▁humor 100
▁suggests 100
▁linked 100
▁pollen 100
▁instruments 100
itt 100
▁milk 100
▁fiction 100
▁bill 100
▁season 100
▁fixed 100
▁policies 100
▁application 100
▁prize 100
lo 100
▁rocks 100
▁behavioral 100
My 99
▁puzzle 99
▁enable 99
▁About 99
▁Robert 99
▁dancing 99
▁Br 99
▁admit 99
▁organism 99
▁pure 99
▁cord 99
▁limits 99
▁identical 99
▁infinite 99
▁broad 99
ved 99
▁blog 99
▁army 99
af 99
▁Me 99
▁survey 99
▁Adam 99
8, 98
▁Before 98
ky 98
▁educational 98
▁poorest 98
▁implications 98
ances 98
▁funding 98
▁anger 98
▁narrow 98
▁measuring 98
▁boxes 98
ear 98
▁architects 98
▁plans 98
▁mechanical 98
▁spinal 98
▁causing 98
▁continued 98
▁5 98
▁director 98
▁reference 98
▁floating 98
▁wondered 98
▁younger 98
▁border 98
▁Mark 98
▁Four 98
▁gut 98
▁cap 98
Okay 98
ils 98
▁feeding 98
▁pushing 98
▁Higgs 98
▁23 97
▁selection 97
▁June 97
so 97
▁mammals 97
▁pig 97
▁cartoon 97
▁ma 97
down 97
ming 97
▁frankly 97
▁agreed 97
ark 97
iling 97
▁acts 97
▁desk 97
▁telephone 97
▁whale 97
▁th 97
▁vaccine 97
▁increases 97
▁climb 97
▁equation 97
▁fund 97
▁unexpected 97
▁robotic 97
▁greenhouse 97
▁Please 97
▁disorders 97
▁Muslims 97
▁classes 97
▁corals 97
ulation 96
▁Other 96
▁breathing 96
▁severe 96
▁Thomas 96
▁rec 96
▁offered 96
▁Pl 96
▁automatically 96
▁Everyone 96
▁parking 96
6, 96
▁library 96
▁struck 96
▁obsessed 96
▁arguments 96
▁carried 96
▁Latin 96
▁directions 96
ank 96
▁Sweden 96
▁sight 96
▁violent 96
▁existed 96
▁ge 96
▁drinking 96
▁host 96
▁clinic 96
▁pitch 96
▁Finally 96
▁uns 96
▁secure 96
pr 95
▁economies 95
▁shock 95
▁resistance 95
▁dozen 95
ately 95
▁script 95
iting 95
▁careful 95
▁document 95
▁mystery 95
ink 95
▁spider 95
▁expert 95
▁fabric 95
ced 95
▁windows 95
▁zone 95
▁performing 95
▁dramatically 95
ency 95
▁Com 95
▁monkeys 95
▁mice 95
ven 95
ously 95
▁distributed 95
▁react 95
▁sphere 95
▁placed 95
▁interactions 95
▁represented 95
▁myth 95
▁harm 95
▁surgeon 95
▁bee 95
▁celebrate 94
▁stands 94
▁Ghana 94
▁thick 94
▁cash 94
▁domestic 94
▁Talk 94
▁teams 94
▁ours 94
▁consumers 94
▁mainly 94
▁recognition 94
▁Remember 94
ising 94
▁corporate 94
inal 94
▁dense 94
▁cart 94
9, 94
▁spreading 94
▁outcomes 94
ull 94
ways 94
ays 94
▁author 94
▁properly 94
▁Korea 94
▁component 94
▁chip 94
▁toilet 94
her 94
▁input 94
uit 94
▁phase 94
▁elephant 94
▁Obama 94
▁January 93
▁neither 93
▁engaging 93
ined 93
do 93
▁reflect 93
▁Nothing 93
▁solving 93
▁lifestyle 93
▁populations 93
▁overcome 93
▁savings 93
▁style 93
▁grows 93
ct 93
▁prototype 93
▁illusion 93
▁enemy 93
▁mar 93
▁Sch 93
▁penguins 93
▁maintain 92
ional 92
▁Apple 92
▁hardware 92
▁filter 92
▁crack 92
▁limit 92
▁phrase 92
▁prices 92
▁obesity 92
ography 92
▁controlling 92
▁wireless 92
▁Pro 92
▁10, 92
▁scary 92
▁receive 92
▁tour 92
▁hyper 92
▁males 92
But 92
▁command 92
ring 92
▁painful 92
▁inc 92
▁tea 92
▁practices 92
▁tube 92
▁borders 92
▁precisely 91
▁smoke 91
▁entered 91
▁brothers 91
▁courage 91
▁extinct 91
▁van 91
▁poll 91
mon 91
▁Foundation 91
called 91
▁polio 91
▁cry 91
▁raising 91
▁license 91
▁recording 91
▁cooperation 91
▁Congo 91
▁destroyed 91
▁philosophy 91
▁presented 91
▁lung 91
▁romantic 91
▁grab 91
▁gray 91
▁sa 91
▁lets 91
▁seek 91
▁academic 91
▁loop 91
ome 91
ail 91
▁worker 91
▁rel 91
▁conventional 91
▁exhibition 91
▁Revolution 91
▁antibiotics 91
▁tries 91
▁plenty 91
▁inequality 91
▁House 90
▁slides 90
▁extract 90
uc 90
sum 90
▁mod 90
▁designs 90
▁traveled 90
▁concepts 90
▁title 90
▁parallel 90
▁suit 90
▁sculpture 90
ute 90
ix 90
▁connecting 90
▁golf 90
▁abuse 90
my 90
▁rising 90
▁vessels 90
▁dig 90
▁immune 90
▁dr 90
▁spiritual 90
▁Bang 90
1, 90
▁particle 90
▁Central 90
▁scan 90
▁sales 90
oy 90
ru 90
▁stock 90
▁raw 90
▁printing 90
▁flower 90
val 90
▁ill 90
▁Nobel 90
▁expectations 90
▁appeared 90
▁entertainment 89
▁repeat 89
▁imagined 89
▁attached 89
▁commitment 89
▁intense 89
▁depending 89
▁review 89
▁classic 89
▁appears 89
▁fan 89
▁density 89
▁dev 89
ivity 89
▁tasks 89
▁fascinated 89
▁permanent 89
▁department 89
▁lecture 89
▁personality 89
ole 89
▁latest 89
▁thrown 89
▁surely 89
▁interactive 89
▁translate 89
Is 89
▁walks 89
▁Islamic 89
▁Act 89
▁colony 89
▁emergency 89
▁pocket 89
▁surveillance 89
▁tip 89
▁DH 89
ills 88
ised 88
▁attract 88
▁Bush 88
▁till 88
▁orbit 88
▁committed 88
▁ass 88
▁whereas 88
▁ph 88
▁Microsoft 88
▁hearts 88
▁lovely 88
▁habitat 88
▁Island 88
▁liver 88
go 88
▁reaching 88
▁chocolate 88
▁writer 88
▁laughing 88
▁brief 88
▁exploring 88
▁bow 88
▁ate 88
ese 88
▁behave 88
str 88
▁furniture 88
light 88
au 88
ues 88
▁units 88
own 88
▁interacting 88
back 88
▁sum 88
ibility 88
▁divided 88
▁advance 88
ush 88
▁shoulder 88
▁disorder 88
▁hunger 88
▁rescue 88
▁awesome 88
ops 88
▁usual 87
▁dioxide 87
▁Haiti 87
▁dish 87
▁ugly 87
▁paintings 87
▁pet 87
▁magnetic 87
▁circuit 87
▁diabetes 87
▁treating 87
▁spoken 87
▁involves 87
▁destroy 87
▁repair 87
▁muscles 87
▁plot 87
▁600 87
▁estimate 87
▁curiosity 87
acy 87
▁Ah 87
▁recognized 87
▁customers 87
▁breaking 87
▁axis 87
▁recovery 87
▁concern 86
▁aspects 86
▁finance 86
▁Con 86
▁pace 86
▁log 86
▁fold 86
▁Dan 86
▁signed 86
▁virtually 86
▁Manhattan 86
hour 86
▁opposed 86
▁Stanford 86
▁achieved 86
▁mad 86
▁section 86
▁productivity 86
▁brown 86
ev 86
▁dress 86
▁22 86
▁shooting 86
▁divide 86
▁ceiling 86
▁chest 86
▁balloon 86
▁Global 86
▁plays 86
▁White 85
▁colleague 85
▁corn 85
▁agenda 85
▁bicycle 85
▁tired 85
▁disappeared 85
▁cheaper 85
▁comment 85
▁mold 85
▁privilege 85
▁tank 85
▁monitor 85
iss 85
▁wanting 85
▁rat 85
Let 85
▁ind 85
▁escape 85
▁favor 85
▁reported 85
ny 85
▁embedded 85
▁dignity 85
▁likes 85
uring 85
▁conflicts 85
pro 85
▁wings 85
▁sm 85
▁sheep 85
row 85
▁pink 85
ost 85
▁animation 85
▁Africans 85
▁Narrator 85
fish 85
▁incentives 85
▁tag 85
▁volunteers 84
▁produces 84
▁generated 84
▁engagement 84
▁accepted 84
▁removed 84
▁diverse 84
▁Grand 84
ont 84
▁vertical 84
▁cast 84
▁sk 84
▁backwards 84
▁sal 84
▁grandfather 84
▁hardly 84
▁te 84
▁aside 84
▁vital 84
iled 84
▁polar 84
▁Texas 84
▁ignore 84
▁apartment 84
▁neighborhoods 84
▁insurance 84
nder 84
und 84
▁ladies 84
▁ne 84
▁heroes 84
▁frozen 84
▁meter 84
class 84
▁Wh 84
▁cute 84
▁Ma 83
▁judge 83
▁functional 83
▁strategies 83
▁legacy 83
▁stations 83
▁northern 83
▁Bob 83
erm 83
ax 83
▁50,000 83
▁pan 83
▁meetings 83
▁Nations 83
ads 83
▁shake 83
ished 83
▁International 83
century 83
▁Indeed 83
▁bra 83
ony 83
▁continues 83
ame 83
▁reduction 83
▁alien 83
▁telescope 83
▁Woman 83
▁load 83
▁boom 83
▁organize 83
ern 83
▁1 83
▁dedicated 83
▁football 83
▁darkness 83
▁scales 83
▁captured 83
▁dolphins 83
iving 82
oss 82
▁accessible 82
▁194 82
▁universities 82
▁charity 82
▁Space 82
ara 82
▁cup 82
ros 82
ple 82
▁motivation 82
▁powers 82
▁ev 82
▁instant 82
▁collecting 82
▁des 82
▁drove 82
▁hungry 82
▁equality 82
▁god 82
▁Che 82
▁exposed 82
▁missed 82
▁optimistic 82
ster 82
▁contribute 82
▁lens 82
▁silent 82
▁Boy 82
▁advertising 82
ider 82
▁theories 82
▁chosen 82
▁actors 82
▁kick 82
▁governance 82
▁pr 82
ily 82
▁globally 82
▁flip 82
▁earthquake 82
▁shadow 82
▁crying 82
▁algorithm 82
▁laughter 82
▁grateful 81
▁east 81
▁provides 81
ex 81
3. 81
▁wash 81
▁searching 81
▁bat 81
▁efforts 81
ft 81
▁touched 81
▁initial 81
▁encounter 81
▁distant 81
▁neuroscience 81
▁gather 81
▁evolve 81
▁skull 81
▁poly 81
iles 81
There 81
▁Ten 81
▁Law 81
▁20,000 81
▁patent 81
▁rev 81
▁finds 81
▁angle 81
▁fed 81
▁route 81
▁inv 81
▁resolution 81
air 81
▁probability 81
▁amongst 81
ided 81
unclear 81
state 81
▁weapon 81
▁talent 81
▁pot 81
▁oldest 81
▁microscope 81
▁mechanics 81
▁historical 81
▁PM 81
▁comm 80
▁Atlantic 80
▁fruit 80
▁Next 80
▁minister 80
▁youth 80
8. 80
▁letting 80
▁locked 80
▁tears 80
▁barely 80
▁Sea 80
▁transplant 80
▁simplicity 80
ces 80
▁High 80
▁controls 80
▁1950 80
dollar 80
▁65 80
tech 80
▁elsewhere 80
▁herself 80
cing 80
▁Really 80
▁invite 80
▁suicide 80
▁apparently 80
ote 80
▁iron 80
▁spin 80
▁neuron 80
▁seeds 80
▁beer 80
▁Uganda 80
▁download 80
▁fluid 80
▁transparent 80
▁essence 80
▁boundaries 80
▁dust 80
▁1990 80
▁smooth 80
▁min 80
▁electronics 80
▁ingredients 80
▁Voice 80
▁facial 80
▁innovations 79
aring 79
ari 79
▁boss 79
ino 79
ci 79
▁ages 79
▁underground 79
over 79
▁27 79
▁trends 79
ran 79
itions 79
ey 79
▁aircraft 79
▁tragedy 79
▁contains 79
▁fifth 79
▁views 79
▁Jewish 79
▁Ben 79
▁201 79
▁communications 79
▁rely 79
ices 79
▁drill 79
▁pregnant 79
▁heaven 79
▁criminal 79
▁storm 79
▁reefs 79
gh 79
▁symmetry 79
▁realm 78
ressed 78
▁mo 78
ving 78
▁surfaces 78
Don 78
▁stages 78
▁links 78
▁dirty 78
▁afterwards 78
▁pointed 78
▁footprint 78
▁MRI 78
used 78
▁visited 78
▁hire 78
▁layers 78
▁dominant 78
▁methods 78
▁Ed 78
▁Black 78
▁glad 78
▁orange 78
▁mechanisms 78
▁transparency 78
cess 78
▁beliefs 78
▁laser 78
▁symbols 78
▁balls 78
life 78
▁Ex 77
▁thumb 77
ok 77
▁crops 77
▁rapid 77
▁capita 77
▁Italy 77
▁seats 77
▁inspire 77
▁pilot 77
ital 77
▁8 77
▁adding 77
▁database 77
ret 77
▁stops 77
▁granted 77
▁external 77
illed 77
▁1960 77
▁yours 77
▁speaker 77
▁Back 77
▁official 77
▁stable 77
ired 77
▁lift 77
▁1980 77
▁consume 77
▁Bible 77
▁Martin 77
▁bias 77
▁ac 77
▁lighting 77
▁La 77
▁diagram 77
▁dive 77
▁crucial 77
▁bo 77
▁terrorists 77
So 77
▁passwords 77
▁toys 77
▁announced 76
▁calculate 76
eg 76
▁Smith 76
▁Oxford 76
▁capability 76
▁195 76
▁Hey 76
house 76
▁ethical 76
▁Mac 76
▁distinct 76
▁depressed 76
▁belong 76
▁chimpanzees 76
▁har 76
▁suggesting 76
▁musicians 76
▁genius 76
▁pulling 76
▁waters 76
▁1970 76
▁Human 76
▁mark 76
▁proper 76
▁poster 76
▁smoking 76
▁passing 76
▁journalist 76
▁Im 76
▁delivered 76
▁spectacular 76
▁output 76
▁affordable 76
oll 76
▁strangers 76
▁Hollywood 76
▁demonstrate 76
▁earn 76
▁farmer 76
▁isolated 76
▁Fr 76
▁poet 76
ene 76
▁upset 75
▁pile 75
▁Whether 75
▁neighbor 75
▁circles 75
▁pool 75
uk 75
▁happier 75
4, 75
▁drawn 75
▁General 75
▁category 75
▁cor 75
▁uncomfortable 75
▁richer 75
▁neural 75
atch 75
▁nets 75
berg 75
▁wing 75
▁speakers 75
ls 75
▁Tr 75
▁Eastern 75
▁peer 75
▁guide 75
▁integrated 75
▁edges 75
▁accidents 75
ms 75
▁treatments 75
▁contain 75
▁Child 75
▁inspiring 75
▁participants 75
▁relations 75
▁elections 75
▁shrimp 75
Where 75
▁tuna 75
▁origami 75
▁BF 75
▁reduced 74
▁includes 74
▁agricultural 74
▁transfer 74
▁10- 74
ction 74
▁Ocean 74
cks 74
▁tricks 74
▁ban 74
ound 74
ipping 74
▁prop 74
▁debt 74
▁biologists 74
cer 74
▁dependent 74
ually 74
▁spec 74
▁che 74
▁characteristics 74
5. 74
▁conclude 74
▁SS 74
▁dozens 74
▁reputation 74
aut 74
▁bars 74
▁sheet 74
▁refer 74
ken 74
con 74
▁photography 74
▁ridiculous 74
▁separated 74
▁dynamics 74
▁parties 74
▁Wall 74
▁emerge 74
oon 74
▁defense 74
ze 74
▁quit 74
▁chapter 74
▁ink 74
▁banks 74
▁origin 74
▁regret 74
▁protecting 74
▁predictions 74
▁Rwanda 74
▁variation 74
▁lungs 74
add 74
▁soap 74
▁gra 74
0. 73
▁fuels 73
▁impacts 73
▁revenue 73
▁briefly 73
▁improvement 73
▁synthetic 73
▁Soviet 73
ann 73
▁blame 73
▁reports 73
▁consequence 73
▁dictionary 73
▁pump 73
▁picking 73
▁Florida 73
iated 73
▁unlikely 73
▁session 73
▁32 73
bor 73
Y 73
▁shell 73
▁ecosystems 73
▁Children 73
▁physicist 73
▁returned 73
▁Design 73
▁Was 73
▁teenagers 73
▁federal 73
▁identified 73
lu 73
bed 73
▁agencies 73
▁tribes 73
▁determined 73
▁spots 73
▁Rio 73
ond 73
▁photographer 73
▁insect 73
▁intervention 73
ades 73
▁ignorance 73
▁inform 73
▁laid 73
▁flash 73
▁exp 73
▁depth 73
▁Ethiopia 73
▁painted 73
▁Bur 73
▁anxiety 73
▁Pole 73
▁landed 72
▁trucks 72
▁harvest 72
▁reminded 72
▁globalization 72
▁Ab 72
▁dimension 72
.' 72
4. 72
▁smallpox 72
▁welcome 72
▁publish 72
▁originally 72
▁Obviously 72
▁Department 72
▁diss 72
▁opens 72
ient 72
▁disc 72
eth 72
▁stores 72
▁experimental 72
▁adjust 72
▁Peter 72
▁constructed 72
ff 72
▁robust 72
gl 72
▁knee 72
▁apple 72
▁Research 72
ri 72
que 72
▁tied 72
▁southern 72
▁1, 72
▁mate 72
▁reef 72
▁copyright 71
▁assumptions 71
▁Time 71
▁doors 71
oh 71
ones 71
▁discoveries 71
▁linear 71
▁bio 71
ining 71
▁October 71
▁River 71
▁inches 71
▁wise 71
▁crossing 71
▁Alzheimer 71
▁injury 71
▁threw 71
▁clients 71
▁chaos 71
▁oxytocin 71
uff 71
▁kn 71
ature 71
▁fiber 71
▁Third 71
▁pushed 71
▁Bay 71
▁brave 71
▁pretend 71
▁hanging 71
▁vacuum 71
ris 71
▁Cal 71
▁agency 71
▁naked 71
atter 71
▁actor 71
▁Video 71
▁predicted 71
▁sensory 71
▁den 71
▁Prize 71
rop 71
▁nurses 71
▁alcohol 71
pp 71
▁facility 71
oring 71
▁positions 71
▁Long 71
▁primarily 71
▁proof 71
▁Arabic 71
▁rarely 71
▁underlying 71
▁citizen 71
▁ve 71
▁sentences 71
▁pyramid 71
▁Sam 71
zero 70
▁artistic 70
▁extended 70
ox 70
▁700 70
▁mode 70
▁95 70
▁Jim 70
▁shopping 70
Can 70
ishing 70
▁inevitable 70
▁grandchildren 70
▁shelter 70
fl 70
▁salt 70
▁figuring 70
▁farming 70
itch 70
▁caring 70
▁Saturn 70
▁fought 70
▁reveal 70
box 70
▁bubbles 70
▁expanding 70
▁reb 70
▁holds 70
▁court 70
ign 70
gs 70
ana 70
▁cyber 70
▁begun 70
▁Hi 70
▁Jack 70
▁disp 70
room 70
▁translated 70
level 70
▁targets 70
... 70
▁Get 70
▁sticks 70
▁drivers 70
ump 70
▁dinosaur 70
▁hackers 70
▁partly 69
▁habit 69
▁permission 69
▁sits 69
side 69
ared 69
▁gonna 69
▁terror 69
▁emb 69
na 69
▁hip 69
▁scratch 69
▁mut 69
▁hom 69
ases 69
▁consistent 69
▁observation 69
▁sacred 69
▁attitude 69
▁120 69
▁panels 69
▁Nature 69
app 69
▁meal 69
▁Give 69
ld 69
▁gases 69
▁honey 69
▁primitive 69
▁scores 69
unk 69
▁chairs 69
American 69
▁focusing 69
▁objective 69
▁cop 69
▁owner 69
iction 69
▁emerged 69
▁Mc 69
▁frequency 69
hing 69
▁elderly 69
arian 69
iot 69
▁hum 69
amb 69
▁answered 69
▁throwing 69
ration 68
▁writers 68
▁CEO 68
▁ensure 68
▁participation 68
▁suggested 68
▁rice 68
▁promote 68
▁regime 68
▁deb 68
▁sol 68
iff 68
7. 68
▁'60 68
▁expansion 68
▁acid 68
apping 68
ison 68
▁array 68
half 68
aks 68
▁Par 68
▁served 68
▁helpful 68
head 68
▁flexible 68
▁proposed 68
▁forgotten 68
▁4,000 68
And 68
▁measures 68
▁imagery 68
▁sharp 68
▁sleeping 68
▁sisters 68
▁resilience 68
car 68
▁collaborative 68
▁mysterious 68
free 68
▁operations 68
▁extend 68
▁pursue 68
▁smarter 68
▁sandwich 68
▁precise 68
▁Things 68
▁dear 68
▁satellites 68
▁autonomous 68
▁tent 68
▁yield 68
▁subtle 68
▁confident 68
ries 68
▁concert 68
▁magical 68
▁sensor 68
▁documents 68
▁sink 68
▁difficulty 68
▁gu 68
ived 68
▁abilities 68
▁diagnosed 68
▁graphic 68
▁Air 67
▁limb 67
inated 67
▁Somebody 67
▁elite 67
▁immediate 67
▁hey 67
▁Russian 67
▁bucks 67
▁Blue 67
▁merely 67
▁Within 67
ains 67
▁dialogue 67
▁plug 67
▁firm 67
▁astonishing 67
▁luck 67
▁gathering 67
cle 67
▁whatsoever 67
▁Six 67
▁struggling 67
▁analyze 67
▁plain 67
▁elephants 67
▁club 67
▁buried 67
▁supported 67
ject 67
▁str 67
▁baseball 67
▁hitting 67
▁photographed 67
▁Never 67
▁colonies 67
▁tribe 67
▁26 67
▁failing 67
▁openness 67
▁Super 67
power 67
▁Per 67
▁needle 67
▁audio 67
▁programming 67
▁radically 67
▁keyboard 67
▁roots 67
30 67
▁biodiversity 67
▁liberal 67
▁additional 67
▁victim 67
▁Put 66
ville 66
cr 66
▁construct 66
br 66
▁exception 66
▁selfish 66
▁instructions 66
▁founded 66
6. 66
▁flows 66
▁lamp 66
▁leap 66
▁convert 66
▁completed 66
▁tone 66
▁arrive 66
▁Gates 66
inating 66
aps 66
▁industries 66
▁interestingly 66
using 66
When 66
▁mood 66
▁Cambridge 66
▁rough 66
ption 66
tail 66
▁Inter 66
▁explaining 66
▁lawyer 66
▁refugees 66
▁soldier 66
▁fabulous 66
ution 66
▁tele 66
▁ending 66
▁domain 66
▁February 66
▁climbing 66
▁demonstration 66
▁expectancy 66
▁fo 66
▁shaped 66
▁Fl 66
▁Ne 66
▁suspect 66
▁fraction 66
▁successfully 66
▁leverage 66
▁shocked 66
▁silly 66
▁agent 66
▁genocide 66
▁wheelchair 66
▁daughters 66
▁dolphin 66
▁slavery 66
▁KB 66
▁invested 65
osed 65
▁surprisingly 65
▁tech 65
▁Tell 65
▁Out 65
▁strongly 65
▁discuss 65
▁pin 65
▁int 65
▁methane 65
▁Norway 65
▁capabilities 65
▁funded 65
▁warning 65
-1 65
11 65
St 65
▁cable 65
▁rebuild 65
▁informed 65
▁confused 65
ense 65
▁el 65
▁thr 65
▁Isn 65
00 65
▁representation 65
▁owned 65
▁Jesus 65
▁skeleton 65
▁unbelievable 65
▁translation 65
▁hypothesis 65
▁architectural 65
▁wider 65
▁proportion 65
▁description 65
▁Sc 65
get 65
▁washing 65
▁refugee 65
▁250 65
▁Pat 65
▁suffered 65
▁egg 65
▁Greek 65
interest 65
▁perceive 65
▁cats 65
▁bizarre 65
vel 65
▁prepare 65
▁Derek 65
▁Islands 64
▁rivers 64
▁800 64
▁fragile 64
▁December 64
▁entering 64
▁trash 64
▁'90 64
▁garage 64
▁ain 64
▁attractive 64
Wow 64
▁leaf 64
▁breaks 64
▁tumors 64
▁Should 64
play 64
rom 64
nds 64
▁educated 64
▁poison 64
▁miracle 64
▁psych 64
erv 64
▁nerve 64
▁cheese 64
bers 64
ook 64
▁golden 64
orn 64
▁ent 64
▁adopted 64
▁'70 64
▁dem 64
▁Arctic 64
▁lawyers 64
▁elected 64
▁simulation 64
▁homework 64
aster 64
▁Joe 64
▁nurse 64
▁stranger 64
▁cartoons 64
▁supp 64
▁MT 64
ater 64
20 64
▁infection 64
itation 64
▁Mom 64
▁mixed 64
▁uncertainty 64
▁stroke 64
▁threats 64
▁bears 64
▁hemisphere 64
▁fortunate 64
▁choosing 64
▁Gore 63
▁remembered 63
▁killer 63
▁judgment 63
vis 63
ibly 63
▁competitive 63
▁expecting 63
OK 63
▁microbial 63
▁magnitude 63
▁dumb 63
▁Up 63
▁paralyzed 63
▁ships 63
sp 63
▁suck 63
▁restore 63
▁rush 63
▁closing 63
▁Beijing 63
ctor 63
▁realizing 63
▁affects 63
clock 63
▁cont 63
▁bored 63
rained 63
oop 63
▁tackle 63
itor 63
▁experiencing 63
▁genetically 63
▁Turkey 63
▁wired 63
▁rats 63
▁replicate 63
▁None 63
▁unt 63
▁gradually 63
ingly 63
▁fastest 63
▁neck 63
▁adventure 63
▁authorities 63
▁Taliban 63
▁intuition 63
▁terrorist 63
▁physician 63
mm 63
ias 63
▁compelling 63
He 62
▁improved 62
ood 62
▁widely 62
▁institutional 62
▁chances 62
▁'9 62
▁defend 62
lin 62
ulated 62
▁mail 62
▁bombs 62
ading 62
▁staying 62
ower 62
po 62
▁fortune 62
▁leather 62
▁unable 62
▁initially 62
▁enables 62
▁shots 62
▁occurs 62
▁foods 62
▁jumped 62
▁mining 62
▁Mother 62
▁articles 62
ney 62
▁traditions 62
▁threshold 62
▁besides 62
▁headed 62
▁trajectory 62
▁profession 62
▁Res 62
▁Wow 62
▁cake 62
▁demands 62
▁charges 62
▁senior 62
▁August 62
nt 62
uro 62
▁exponential 62
▁remaining 62
▁seas 62
▁Gold 62
▁chief 62
▁included 62
▁professionals 62
▁winning 62
▁resist 62
▁arch 62
▁beneath 62
▁profoundly 62
▁innocent 62
▁deserve 62
▁Church 62
▁homeless 62
▁covering 62
aching 62
▁imaging 62
▁pride 62
▁comments 61
ores 61
▁assumption 61
ises 61
▁survived 61
▁qualities 61
▁hook 61
▁coll 61
▁fur 61
▁steal 61
aker 61
ility 61
▁printer 61
▁blank 61
▁civic 61
ult 61
▁pandemic 61
3, 61
▁tracks 61
▁Without 61
▁facilities 61
▁marry 61
▁recommend 61
▁chips 61
▁bug 61
▁approaches 61
Ch 61
▁influenced 61
rain 61
▁tendency 61
▁footage 61
▁curriculum 61
four 61
▁gods 61
▁tick 61
▁x 61
▁physicists 61
▁valid 61
odes 61
roll 61
vent 61
▁peoples 61
▁preserve 61
▁musician 61
▁vulnerability 61
oke 61
▁Bronx 61
▁pairs 61
▁secrets 61
▁errors 61
ram 61
▁observe 61
▁burned 61
▁Minister 61
▁detailed 61
▁reactions 61
▁scenario 61
▁gaps 61
▁quad 61
▁substance 61
▁drone 61
▁woke 60
▁bur 60
▁nom 60
▁urge 60
iqu 60
▁portion 60
ested 60
▁20, 60
ander 60
▁dial 60
▁outer 60
▁frustrated 60
▁gathered 60
▁lock 60
▁unprecedented 60
▁Square 60
▁insights 60
▁instantly 60
▁neat 60
▁85 60
▁electron 60
▁nutrients 60
▁Mary 60
▁socially 60
sy 60
▁forming 60
▁di 60
▁soci 60
ough 60
▁soup 60
▁asks 60
▁del 60
▁er 60
read 60
▁glamorous 60
▁'80 60
▁channels 60
▁comparison 60
ased 60
▁odds 60
▁clothing 60
och 60
▁formal 60
▁Homo 60
▁uniform 60
▁optimism 60
▁aggressive 60
▁mindset 60
bl 60
ect 60
gen 60
▁engines 60
▁factories 60
▁pigs 60
▁conducted 60
▁simultaneously 60
▁significantly 60
▁investing 60
gged 60
▁convey 60
▁frog 60
▁interpretation 60
ups 60
▁profile 60
▁queen 60
ral 59
▁dung 59
▁improving 59
▁Northern 59
▁30,000 59
▁analogy 59
▁diver 59
pan 59
▁tends 59
▁garbage 59
▁restaurants 59
▁west 59
▁subway 59
▁2000, 59
▁healthier 59
▁expertise 59
ool 59
▁purposes 59
▁kiss 59
▁wealthy 59
▁aut 59
▁gentleman 59
▁det 59
umb 59
cial 59
▁demographic 59
▁extension 59
▁trigger 59
▁lake 59
oms 59
▁conservative 59
▁ap 59
▁courses 59
▁ownership 59
▁flowing 59
▁contemporary 59
▁accounts 59
▁Gl 59
▁unf 59
▁dies 59
▁bound 59
ald 59
▁strategic 59
▁combat 59
ody 59
▁March 59
▁rolling 59
▁lands 59
▁anonymous 59
▁remained 59
▁kills 59
▁lions 59
▁Lab 59
▁witness 59
▁structural 59
▁delivery 59
▁serving 59
ares 59
▁medication 59
▁rubber 59
▁Alexander 59
▁obstacles 59
▁bottles 59
▁morality 59
reg 59
▁explains 59
▁Ray 59
▁wildlife 59
▁printed 58
▁ca 58
▁reducing 58
▁28 58
uted 58
▁airplanes 58
▁ticket 58
▁drawings 58
iter 58
▁Ha 58
▁versions 58
▁someday 58
▁Part 58
▁Tim 58
▁friendly 58
▁fears 58
▁pat 58
▁camps 58
looking 58
▁icon 58
▁intuitive 58
▁Southern 58
▁Spain 58
▁ag 58
▁id 58
▁hunting 58
▁cosmic 58
▁tight 58
▁cra 58
▁blogs 58
▁Christian 58
▁panel 58
▁Sir 58
▁branch 58
▁nonprofit 58
urn 58
for 58
▁impression 58
▁sed 58
▁cond 58
nding 58
▁Sorry 58
▁Dutch 58
▁Council 58
▁gotta 58
▁reminds 58
▁Under 58
son 58
▁rob 58
▁33 58
▁classrooms 58
arch 58
▁Eric 58
itating 58
▁categories 58
▁shipping 58
▁Both 58
osing 58
▁Saudi 58
▁located 58
Saharan 58
▁established 58
▁trains 58
▁bend 58
▁threatened 58
▁exam 58
▁supporting 58
▁females 58
▁entrepreneur 58
▁quest 58
▁armed 58
▁compassionate 58
▁gear 58
▁2007, 58
▁Mike 58
▁pointing 58
▁Girl 58
▁drones 58
cost 57
▁airport 57
.'" 57
▁connects 57
▁2. 57
▁nights 57
▁performed 57
▁tar 57
▁colon 57
CA 57
▁counting 57
ued 57
▁column 57
antly 57
human 57
▁reliable 57
▁crew 57
minute 57
▁loves 57
zz 57
▁despair 57
▁excitement 57
▁Secondly 57
▁genetics 57
▁explosion 57
▁Spanish 57
▁scanner 57
▁dopamine 57
▁poems 57
▁upside 57
▁pill 57
▁spark 57
▁Howard 57
▁tongue 57
▁191 57
▁cre 57
▁pause 57
▁closest 57
▁district 57
▁Indians 57
asses 57
ipped 57
▁badly 57
▁mult 57
▁occasionally 57
▁2010, 57
▁ongoing 57
▁incentive 57
▁Met 57
▁vent 57
▁Whereas 57
▁discipline 57
▁uncle 57
▁extinction 57
▁computation 57
▁punch 57
uting 57
▁planes 57
▁Whatever 57
ords 57
▁NGOs 57
▁sixth 57
▁file 57
▁detection 57
▁graphics 57
▁officer 57
▁excellent 57
▁matrix 57
iant 57
▁ton 57
lock 57
▁interpret 57
fold 57
▁islands 57
▁believes 57
▁entropy 57
▁peaceful 57
▁Although 57
▁awkward 57
▁rituals 57
▁classical 57
▁2009, 57
▁continuing 56
▁lowest 56
▁annual 56
▁Te 56
▁Peace 56
▁harness 56
▁regard 56
▁Italian 56
▁Vietnam 56
▁impressive 56
▁recover 56
▁200,000 56
▁clay 56
▁Moore 56
▁bathroom 56
▁vessel 56
▁earliest 56
mers 56
arm 56
▁Hello 56
▁label 56
▁catching 56
urt 56
▁Christ 56
inter 56
▁applying 56
gg 56
▁precious 56
▁package 56
▁Asian 56
▁fortunately 56
▁canopy 56
▁guns 56
▁drag 56
▁beating 56
▁tissues 56
▁client 56
▁Hall 56
▁vegetables 56
ude 56
▁tie 56
▁items 56
▁glasses 56
▁opera 56
▁graduated 56
▁straightforward 56
akes 56
▁phenomena 56
▁appearance 56
du 56
▁stretch 56
▁terribly 56
ior 56
▁ble 56
rent 56
rest 56
urs 56
▁tower 56
ental 56
▁sacrifice 56
▁nearby 56
▁ter 56
▁profits 56
▁continents 56
▁Antarctica 56
▁bats 56
ique 56
▁investors 56
▁corporations 56
▁Age 56
ister 56
▁2008, 56
aters 56
▁journalists 56
▁shifting 56
▁approaching 56
▁encouraged 56
illing 56
▁strike 56
▁rot 56
▁tragic 56
▁mall 56
▁luxury 56
▁robotics 56
▁deck 56
known 56
▁Delhi 56
▁grandparents 56
▁devil 56
▁comedy 56
▁phantom 55
amed 55
anging 55
▁Make 55
▁managers 55
▁compete 55
▁rethink 55
▁propose 55
▁prediction 55
▁su 55
ounds 55
▁paradox 55
▁bull 55
▁nuts 55
rad 55
▁burst 55
▁fits 55
▁Watch 55
▁loan 55
well 55
▁temporary 55
▁wires 55
▁fancy 55
▁farms 55
ove 55
▁chimpanzee 55
▁tw 55
▁strip 55
▁ecological 55
▁teenager 55
more 55
▁traits 55
▁circuits 55
made 55
▁Ge 55
▁Far 55
▁household 55
▁cotton 55
▁sauce 55
rel 55
▁govern 55
hips 55
ueen 55
ten 55
▁seemingly 55
▁navigate 55
▁arrested 55
▁sketch 55
▁damn 55
▁System 55
▁interviewed 55
▁Same 55
▁dressed 55
▁religions 55
▁Sunday 55
▁Sure 55
▁freely 55
▁monitoring 55
▁tubes 55
oe 55
ilt 55
▁forgot 55
▁rose 55
itated 55
▁collapsed 55
yl 55
▁landscapes 55
▁affecting 55
▁Bell 55
▁stability 55
▁burden 55
▁achievement 55
▁speaks 55
▁ethnic 55
▁researcher 55
▁branches 55
▁signature 55
▁previously 55
▁eaten 55
▁perceived 55
▁philosopher 55
▁alternatives 55
tering 55
▁highlight 55
▁sport 55
▁tune 55
▁RB 55
aly 55
▁passenger 55
▁disability 55
▁currency 55
▁yourselves 54
oney 54
▁replaced 54
▁workforce 54
▁assistance 54
▁pockets 54
▁manager 54
▁20- 54
▁shirt 54
zy 54
▁offering 54
▁customer 54
▁administration 54
port 54
▁Johnson 54
▁bin 54
away 54
▁stomach 54
▁campus 54
▁loving 54
▁dating 54
▁habits 54
▁assignment 54
▁distances 54
▁Rand 54
▁rape 54
▁journal 54
▁cy 54
▁caves 54
related 54
▁safer 54
▁resolve 54
▁confront 54
▁transforming 54
▁offices 54
top 54
▁guarantee 54
▁editor 54
▁fibers 54
▁hardest 54
▁asteroid 54
itter 54
▁procedure 54
▁decrease 54
▁recall 54
▁rope 54
iveness 54
▁Shanghai 54
▁absorb 54
▁mal 54
▁tsunami 54
▁hill 54
▁makers 54
▁generous 54
▁Har 54
uing 54
▁vagina 54
▁prisoners 54
win 54
▁flags 54
▁smallest 54
▁static 54
▁viral 54
iet 54
▁hiding 54
ashed 54
▁responses 54
ulating 54
▁jellyfish 54
▁collectively 54
▁FBI 54
▁pres 54
▁ratio 54
▁diagnosis 54
▁endangered 54
▁mushroom 54
▁Koran 54
▁LG 54
▁password 54
▁Ford 53
pping 53
▁30- 53
▁ads 53
▁wheat 53
reat 53
▁July 53
▁cycles 53
▁Rock 53
▁Henry 53
▁discovering 53
▁wheels 53
▁ignored 53
▁builds 53
▁agents 53
▁ubiquitous 53
▁Except 53
▁wound 53
▁estate 53
▁silver 53
oid 53
▁helicopter 53
▁36 53
▁During 53
▁encouraging 53
▁passive 53
can 53
▁specialized 53
▁Until 53
▁Santa 53
▁cocaine 53
▁unconscious 53
▁sil 53
▁sciences 53
▁caps 53
▁hired 53
▁Twenty 53
▁crop 53
lers 53
▁Open 53
▁im 53
face 53
▁succeeded 53
▁desperately 53
▁William 53
▁0. 53
▁parks 53
▁aff 53
▁estimates 53
ta 53
▁interior 53
▁fool 53
▁troops 53
▁gained 53
▁schizophrenia 53
▁u 53
ka 53
▁predictable 53
▁storage 53
▁miserable 53
arily 53
▁ta 53
▁Hy 53
▁mobility 53
aming 53
▁stepped 53
▁fusion 53
▁clue 53
▁attach 53
▁breakfast 53
changing 53
▁audiences 53
▁rhythm 53
ract 53
▁terrifying 53
▁teenage 53
▁mathematicians 53
udd 53
▁bedroom 53
iate 53
▁coat 53
▁fault 53
hood 53
▁Yemen 53
▁spell 53
▁Brown 53
▁sensation 53
▁winds 53
Be 53
▁Professor 53
▁relation 53
▁slums 53
▁diving 53
▁addiction 53
▁phosphorus 53
▁slime 53
▁ecology 52
▁volunteer 52
▁acknowledge 52
▁contrary 52
ott 52
▁sustain 52
▁describes 52
▁rent 52
uss 52
▁concerns 52
▁pray 52
▁intended 52
▁Mad 52
▁bullet 52
▁SP 52
▁manual 52
▁Friday 52
che 52
▁pal 52
▁reasonable 52
met 52
▁rainforest 52
▁acc 52
▁interconnected 52
▁Nelson 52
▁overnight 52
▁Sur 52
▁labs 52
▁prevention 52
▁pur 52
▁mayor 52
▁shit 52
▁dawn 52
iring 52
zing 52
▁mist 52
▁native 52
▁knife 52
▁Being 52
org 52
▁unhappy 52
▁trace 52
▁empowered 52
sized 52
▁Anybody 52
outs 52
▁equations 52
▁minimum 52
▁Yorker 52
▁striking 52
▁territory 52
▁proven 52
▁Its 52
▁absence 52
▁Play 52
▁subs 52
▁hal 52
▁toes 52
▁bags 52
▁residents 52
ural 52
▁mainstream 52
▁Gr 52
▁horizon 52
iver 52
▁hormone 52
▁Cont 52
▁constraints 52
▁seeking 52
ios 52
▁opp 52
▁shine 52
▁clinics 52
▁challenged 52
▁bold 52
▁arguing 52
▁2, 52
▁heal 52
▁Suddenly 52
▁pa 52
▁pursuit 52
▁request 52
oming 52
▁worms 52
▁march 52
▁cooperate 52
▁destiny 52
▁Redwood 52
▁spill 52
▁whistle 52
▁wedding 52
▁syn 52
▁bath 52
▁donor 52
▁Brooklyn 52
▁puzzles 52
▁safely 52
orm 51
▁fires 51
▁infections 51
▁locally 51
▁marketplace 51
▁assets 51
uh 51
▁US 51
iation 51
▁jet 51
▁doubled 51
▁reproduce 51
▁tension 51
▁stays 51
▁honestly 51
aff 51
▁Love 51
▁emails 51
▁transmit 51
▁elegant 51
▁downtown 51
▁News 51
▁contributed 51
▁insane 51
ount 51
▁bu 51
▁3. 51
▁extraordinarily 51
ume 51
▁via 51
▁motors 51
▁ah 51
▁continuous 51
anger 51
▁obese 51
▁kingdom 51
▁infant 51
uous 51
▁concentrated 51
▁Mandela 51
▁Pol 51
▁inevitably 51
▁manipulate 51
▁listened 51
▁gig 51
▁tre 51
▁jazz 51
▁port 51
▁psychologist 51
▁Lake 51
▁chains 51
▁Brian 51
▁6,000 51
asing 51
lic 51
▁preparing 51
eds 51
▁failures 51
▁claims 51
500 51
▁palm 51
▁attacked 51
▁newspapers 51
▁Bar 51
▁Anyone 51
▁barrier 51
▁fallen 51
▁Leonardo 51
▁Industrial 51
▁economist 51
▁limitations 51
▁reflection 51
▁prior 51
▁adm 51
▁enabled 51
ift 51
▁protest 51
▁locations 51
▁cal 51
▁advances 51
▁stopping 51
▁humanitarian 51
▁sheets 51
▁offers 51
▁halfway 51
bert 51
▁transmission 51
▁elementary 51
eter 51
▁calculations 51
▁proved 51
▁mapping 51
▁recycling 51
▁electrodes 51
▁surrounding 51
▁raped 51
ius 51
▁stored 51
▁tor 51
▁Technology 51
▁exposure 51
▁headlines 51
▁melt 51
▁Carolina 51
▁geometry 51
▁terrain 51
▁valley 51
▁Ro 51
▁2: 51
▁formula 51
▁gras 51
▁Lincoln 51
▁conduct 51
▁Stage 51
▁jihad 51
9. 50
rate 50
▁scenes 50
▁Cor 50
▁drum 50
▁observed 50
▁legitimate 50
▁approached 50
key 50
▁vis 50
All 50
▁Gen 50
▁Coast 50
▁logical 50
▁readers 50
▁loose 50
▁beautifully 50
▁SW 50
▁amazed 50
▁correctly 50
▁installation 50
▁consumed 50
▁prostate 50
▁ooh 50
▁fathers 50
▁concentration 50
▁gesture 50
▁hunt 50
▁corrupt 50
▁consciously 50
▁. 50
une 50
wood 50
▁trivial 50
▁bother 50
▁Almost 50
Who 50
gers 50
min 50
▁purple 50
▁dep 50
▁pour 50
▁supermarket 50
▁Pe 50
▁Chile 50
▁Court 50
inger 50
▁amazingly 50
▁magn 50
not 50
▁55 50
▁wrap 50
80 50
▁murder 50
▁bills 50
▁workplace 50
stone 50
▁Way 50
ora 50
▁storytelling 50
▁Feynman 50
▁toilets 50
ali 50
ata 50
▁demonstrated 50
erry 50
▁voting 50
▁insulin 50
ories 50
▁inch 50
▁breed 50
▁believing 50
▁grasp 50
▁follows 50
▁colored 50
▁boats 50
▁guard 50
▁physicians 50
▁deepest 50
ete 50
▁ritual 50
▁foundations 50
▁manner 50
▁mor 50
▁Indonesia 50
▁Dad 50
▁Tony 50
ham 50
irl 50
▁sail 50
▁cliff 50
▁sperm 50
▁terrified 50
▁keys 50
▁sons 50
▁cricket 50
▁fate 50
▁Abraham 50
▁nodes 50
▁Moon 50
ealand 50
▁retirement 50
▁illustrate 49
▁posted 49
▁politically 49
▁useless 49
eng 49
▁dam 49
▁partnership 49
▁proposition 49
person 49
▁guilty 49
▁expedition 49
▁orders 49
world 49
▁devastating 49
▁350 49
▁behalf 49
▁lanes 49
▁tropical 49
▁capt 49
▁cancers 49
▁communicating 49
ree 49
oses 49
▁neutral 49
▁cons 49
▁commit 49
▁Silicon 49
▁glucose 49
▁origins 49
▁magnificent 49
powered 49
▁sir 49
▁verb 49
▁hub 49
▁activist 49
▁beaten 49
▁instinct 49
▁Coke 49
▁cows 49
▁Min 49
▁fatal 49
imp 49
▁installed 49
▁pills 49
▁Half 49
right 49
▁relief 49
bb 49
kes 49
iers 49
aeda 49
▁Pal 49
▁enemies 49
▁portrait 49
▁Tor 49
▁aim 49
▁selected 49
eless 49
▁therapies 49
inging 49
▁atomic 49
▁staring 49
▁estimated 49
▁relax 49
▁maker 49
▁civilizations 49
▁Hong 49
▁hometown 49
▁initiative 49
▁funds 49
▁select 49
▁mines 49
▁elect 49
▁supplies 49
▁mosquito 49
▁Bol 49
▁breeding 49
▁telescopes 49
▁interviews 49
▁Hans 49
▁nerves 49
▁Social 49
▁sav 49
▁prosperity 49
vable 49
▁stones 49
▁calories 49
▁psychologists 49
▁officials 49
▁College 49
▁42 49
ola 49
▁memes 49
▁crimes 49
▁ambitious 49
▁glue 49
pers 49
itude 49
▁orchestra 49
▁glamour 49
▁Monterey 48
▁remix 48
▁accomplish 48
▁tiles 48
▁implement 48
▁meme 48
▁15- 48
▁technically 48
▁pole 48
▁Someone 48
▁opinions 48
▁Probably 48
▁lonely 48
▁Media 48
▁Rather 48
▁regardless 48
▁disabled 48
▁highway 48
▁steam 48
arth 48
▁dist 48
▁pit 48
▁indigenous 48
,' 48
▁Jane 48
▁drew 48
▁adapted 48
▁Shakespeare 48
▁calm 48
▁buses 48
▁biologist 48
▁recipe 48
▁pun 48
▁consult 48
kin 48
▁2005, 48
aces 48
▁Little 48
water 48
▁activists 48
▁Eve 48
▁punishment 48
▁cellular 48
ula 48
▁clim 48
▁likelihood 48
▁deals 48
▁Berlin 48
▁Security 48
q 48
▁historically 48
▁grave 48
ams 48
Are 48
▁sanitation 48
▁stack 48
▁taxes 48
▁renewable 48
▁worrying 48
▁pharmaceutical 48
▁athletes 48
▁receiving 48
lessly 48
▁sake 48
▁laptops 48
▁November 48
▁competing 48
▁variations 48
▁binary 48
▁packed 48
▁Ste 48
▁stake 48
gging 48
▁enjoying 48
▁tear 48
▁heading 48
▁spinning 48
▁blindness 48
▁Col 48
▁pizza 48
▁cared 48
ball 48
ape 48
▁instruction 48
▁toss 48
Here 48
▁expressions 48
▁worthy 48
▁fre 48
▁pie 48
▁motivated 48
▁Sal 48
▁Ag 48
mar 48
two 48
"? 48
▁syndrome 48
▁nitrogen 48
▁Iceland 48
▁personalized 48
▁shelf 48
▁Da 48
▁magnet 48
▁criminals 48
▁JH 48
▁asleep 47
idge 47
▁straw 47
▁dominated 47
book 47
▁sexy 47
▁Star 47
▁tim 47
▁ser 47
▁optim 47
ae 47
▁grad 47
▁randomly 47
▁engineered 47
▁bite 47
ama 47
tern 47
▁Kevin 47
▁bulb 47
▁Tanzania 47
▁bas 47
▁bump 47
▁responded 47
▁resistant 47
▁2000 47
▁historic 47
▁carpet 47
▁publishing 47
▁bamboo 47
▁electrons 47
▁healing 47
▁App 47
▁algae 47
▁spray 47
▁tur 47
▁hierarchy 47
rant 47
▁Watson 47
▁lit 47
▁division 47
▁covers 47
▁connectivity 47
▁..." 47
▁approved 47
▁involve 47
▁pencil 47
alt 47
▁drops 47
▁messy 47
▁reserves 47
▁belongs 47
▁disagree 47
▁topics 47
▁curves 47
▁spect 47
▁fe 47
ancy 47
▁Ann 47
▁mesh 47
▁Titan 47
rs 47
▁enjoyed 47
▁comic 47
ained 47
▁reactor 47
▁legislation 47
▁simpler 47
▁barriers 47
anted 47
wards 47
▁aud 47
▁Bangladesh 47
zes 47
▁websites 47
▁shy 47
▁narratives 47
▁lobby 47
▁duck 47
▁sale 47
▁rating 47
▁peers 47
▁unp 47
▁banking 47
▁revealed 47
▁meals 47
▁Singapore 47
▁coach 47
osis 47
Sh 47
▁Albert 47
▁chop 47
▁predator 47
▁fisheries 47
▁AB 47
irt 47
▁implant 47
▁dough 47
▁sin 47
utes 47
▁ceremony 47
▁promised 47
▁Israeli 47
▁Force 46
▁hat 46
▁Clinton 46
▁simplest 46
▁Mal 46
ette 46
▁Amy 46
▁namely 46
▁norm 46
▁immense 46
ek 46
▁excuse 46
lines 46
▁automobile 46
▁intensive 46
ht 46
▁strings 46
▁Carl 46
▁genomes 46
▁temperatures 46
▁Trans 46
▁rad 46
▁irony 46
▁cult 46
▁Rick 46
▁agreement 46
▁viewer 46
▁batteries 46
ression 46
▁span 46
▁roles 46
▁mimic 46
▁plastics 46
▁vaccines 46
▁enhance 46
▁junk 46
▁Stephen 46
▁authentic 46
▁April 46
▁rings 46
ever 46
▁incident 46
▁USA 46
▁Rem 46
▁shoe 46
▁artwork 46
ners 46
▁prob 46
▁40,000 46
▁overhead 46
▁Geographic 46
▁scanning 46
▁educate 46
▁meg 46
▁measurements 46
▁dilemma 46
▁reject 46
▁attitudes 46
ike 46
aled 46
▁divers 46
▁predators 46
▁hop 46
▁bacterial 46
▁atom 46
▁blink 46
▁item 46
▁loads 46
rol 46
▁pound 46
icity 46
▁Swiss 46
▁nutrition 46
▁generating 46
▁Ireland 46
▁AK 46
▁independence 46
▁anticipate 46
▁bang 46
▁calculated 46
eling 46
▁regularly 46
ason 46
▁dil 46
▁zones 46
▁Bruno 46
▁accent 46
hh 46
ests 46
ocation 46
▁wet 46
iding 46
▁altitude 46
▁193 46
▁tunnel 46
▁Still 46
▁Switzerland 46
▁AT 46
▁kindness 46
▁strands 46
▁corners 46
five 46
▁wooden 46
▁contribution 45
▁maximum 45
▁Char 45
usion 45
osition 45
▁10. 45
▁statistic 45
▁Jeff 45
▁aesthetic 45
▁IBM 45
▁vary 45
▁compounds 45
▁lists 45
▁sends 45
▁accuracy 45
▁sheer 45
ials 45
▁inhib 45
thirds 45
▁McDonald 45
▁harmony 45
▁professors 45
▁compound 45
▁skeletal 45
▁blah 45
▁Gra 45
▁harbor 45
▁prospect 45
ode 45
▁dirt 45
cast 45
▁remarkably 45
▁tomato 45
log 45
▁smiling 45
▁expressed 45
▁Bu 45
▁Jones 45
▁cruel 45
▁custom 45
▁Lego 45
▁mask 45
▁Mil 45
▁injuries 45
▁introduction 45
▁minus 45
driven 45
▁trapped 45
par 45
▁joint 45
cul 45
▁Seven 45
▁Through 45
▁stunt 45
▁machinery 45
▁nowadays 45
▁abundance 45
▁borrow 45
▁visualization 45
▁import 45
▁forecast 45
income 45
▁compromise 45
▁Andrew 45
▁UN 45
▁wishes 45
▁mig 45
▁entry 45
▁diameter 45
▁attend 45
▁Organization 45
oma 45
erence 45
▁att 45
▁Rome 45
▁inject 45
▁continuously 45
▁hopes 45
▁norms 45
▁mentally 45
▁picks 45
▁Benjamin 45
▁Brazilian 45
▁Sl 45
▁favorites 45
▁coverage 45
iance 45
ura 45
▁medicines 45
▁embarrassing 45
▁hormones 45
oes 45
▁frequently 45
arr 45
▁fluorescent 45
▁critic 45
isions 45
▁observations 45
▁Aristotle 45
▁suspended 45
▁dose 45
▁comics 45
▁happily 45
▁JF 45
▁juice 44
▁excl 44
▁expanded 44
▁abandoned 44
▁2004, 44
▁spacecraft 44
▁scream 44
ather 44
▁phot 44
ients 44
kins 44
▁Ok 44
▁broader 44
▁PC 44
▁redesign 44
ech 44
▁JA 44
▁overwhelming 44
▁controversial 44
▁accomplished 44
▁breakthrough 44
▁hopeless 44
▁bell 44
gu 44
▁phenomenal 44
▁responding 44
aked 44
▁12, 44
ologies 44
▁hacking 44
▁clusters 44
point 44
umber 44
Th 44
▁planetary 44
▁Lord 44
▁realities 44
▁textbooks 44
ending 44
▁crap 44
▁Turns 44
▁Olympic 44
▁intensity 44
▁understands 44
ival 44
▁texture 44
▁opt 44
Please 44
obb 44
istry 44
wn 44
gy 44
They 44
▁ver 44
▁adopt 44
mic 44
God 44
▁landing 44
▁recycled 44
ury 44
▁glimpse 44
▁intention 44
▁viol 44
▁nearest 44
▁tables 44
▁Kong 44
aving 44
▁Detroit 44
▁export 44
▁lifted 44
▁frightening 44
aste 44
hy 44
▁helpless 44
▁cooling 44
▁belly 44
▁momentum 44
inary 44
▁cuts 44
▁bridges 44
ange 44
bi 44
▁findings 44
▁Bas 44
▁reflected 44
onia 44
▁realization 44
▁trauma 44
▁coastal 44
▁masses 44
▁sectors 44
▁publicly 44
▁mankind 44
▁delicious 44
rated 44
▁suggestion 44
▁ang 44
inity 44
▁candidate 44
▁Port 44
▁establish 44
▁attracted 44
▁panic 44
▁intact 44
▁chronic 44
▁hated 44
▁grades 44
▁glacier 44
▁grace 44
▁deploy 44
▁relatives 44
▁boots 43
▁laughed 43
▁kidding 43
▁seal 43
▁Berkeley 43
▁Nick 43
▁earning 43
▁venture 43
▁denial 43
▁fin 43
▁formation 43
▁intersection 43
▁climbed 43
ographic 43
▁disrupt 43
ouch 43
▁screens 43
▁indicate 43
▁discussions 43
▁Greece 43
▁transit 43
▁occurring 43
▁revers 43
▁prof 43
▁chimps 43
▁teaches 43
▁bush 43
▁destroying 43
▁answering 43
▁horror 43
itz 43
▁naive 43
ention 43
▁visualize 43
▁Men 43
▁lean 43
▁gorgeous 43
esty 43
▁privileged 43
▁clubs 43
▁authors 43
▁ext 43
aging 43
▁rub 43
▁membrane 43
▁riding 43
▁prototypes 43
worth 43
▁retail 43
▁determines 43
▁crossed 43
▁shower 43
▁lap 43
▁rig 43
▁192 43
▁cattle 43
▁trips 43
▁Alex 43
▁describing 43
▁comparing 43
▁heavily 43
▁literacy 43
▁theoretical 43
▁reaches 43
udge 43
ision 43
▁stolen 43
▁priority 43
▁distinction 43
▁deaf 43
ented 43
▁composition 43
▁sizes 43
▁boundary 43
bar 43
▁County 43
▁disasters 43
▁shore 43
▁aw 43
▁neuro 43
cher 43
war 43
▁livestock 43
▁patents 43
▁rap 43
▁cream 43
▁separation 43
▁arrow 43
▁transcend 43
berry 43
word 43
▁default 43
▁penguin 43
▁LED 43
▁vocal 43
▁Business 43
▁labeled 43
▁dropping 43
▁realistic 43
▁backyard 43
▁peculiar 43
▁Christians 43
▁screaming 43
▁exceptions 43
▁Pretty 43
▁touching 43
▁chamber 43
ork 43
▁Jews 43
▁Parkinson 43
▁crude 43
▁SETI 43
three 43
itive 43
▁gate 43
anny 43
▁brush 43
▁transformative 43
▁rewards 43
▁activate 43
▁TK 43
edge 42
net 42
▁neocortex 42
▁shocking 42
▁biomass 42
▁thus 42
100 42
▁index 42
▁Afghan 42
▁hostile 42
▁retreat 42
mo 42
▁craft 42
▁proposal 42
▁barrel 42
▁sequencing 42
▁29 42
ires 42
▁alarm 42
▁discussing 42
▁thrilled 42
▁i 42
▁analyzed 42
▁pad 42
▁Louis 42
▁mentor 42
▁Gandhi 42
▁ties 42
▁Disney 42
ope 42
▁sculptures 42
aling 42
▁Sand 42
ec 42
ifies 42
▁pulls 42
▁sweat 42
▁Camp 42
▁According 42
▁documented 42
▁coin 42
▁Army 42
▁AM 42
▁Harry 42
▁spreads 42
▁appeal 42
ience 42
▁criteria 42
ouse 42
▁distinguish 42
▁Laden 42
▁mathematician 42
▁gains 42
▁sew 42
▁mud 42
▁fence 42
▁shoulders 42
▁carries 42
MA 42
lying 42
▁deployed 42
▁analy 42
▁mutations 42
mit 42
▁slower 42
▁universes 42
▁pale 42
▁filling 42
utions 42
▁computational 42
▁wa 42
▁exhibit 42
▁stamp 42
▁correspond 42
▁cluster 42
▁shops 42
▁FDA 42
▁switched 42
ye 42
ipp 42
▁planted 42
▁drunk 42
▁racing 42
▁winner 42
▁programmers 42
▁twist 42
▁intent 42
▁informal 42
▁subt 42
▁couples 42
▁handful 42
ked 42
▁Jerusalem 42
▁unw 42
▁loses 42
pper 42
▁mast 42
▁cheat 42
▁imagining 42
upp 42
▁Tra 42
▁sequences 42
í 42
▁iconic 42
ifer 42
▁surgeries 42
▁endless 42
▁Ind 42
▁surgeons 42
▁disgust 42
▁radi 42
▁Netherlands 42
▁helium 42
▁freezing 42
▁deception 42
▁Syria 42
▁Water 41
▁Kids 41
▁1,500 41
▁respons 41
▁Egyptian 41
▁dare 41
▁Trade 41
▁190 41
▁Mo 41
▁wrapped 41
▁wrist 41
▁freak 41
cell 41
▁pathways 41
▁overwhelmed 41
▁accelerating 41
▁candy 41
ita 41
▁Pre 41
▁flock 41
▁Stone 41
▁horses 41
▁microphone 41
▁watts 41
▁25,000 41
▁interventions 41
▁cardiac 41
▁exploit 41
isc 41
▁prey 41
▁fil 41
wind 41
▁150,000 41
▁hopeful 41
itable 41
▁outs 41
burg 41
▁Ser 41
▁repeated 41
▁sexually 41
▁emotionally 41
rim 41
▁sooner 41
▁37 41
▁scaling 41
▁herd 41
encies 41
▁ham 41
▁voted 41
rou 41
▁Society 41
▁Virginia 41
▁spl 41
▁Mer 41
▁rein 41
▁History 41
vert 41
▁Sil 41
▁Sm 41
▁risky 41
▁ward 41
ometer 41
▁shifts 41
▁Sw 41
▁kicked 41
▁lethal 41
▁Civil 41
▁sticking 41
▁Catholic 41
▁steep 41
▁grocery 41
▁Wi 41
▁accelerate 41
▁assembly 41
acing 41
▁recognizing 41
▁handed 41
▁passes 41
umble 41
▁Newton 41
▁cylinder 41
▁mild 41
▁rotate 41
▁collaborate 41
▁Walk 41
▁Bre 41
form 41
▁Arabia 41
active 41
ament 41
▁evolving 41
▁pulse 41
▁matched 41
▁scar 41
▁pred 41
izz 41
month 41
hi 41
▁Em 41
▁Brad 41
▁surf 41
▁fantasy 41
▁canvas 41
▁visually 41
▁concentrate 41
▁1930 41
▁weigh 41
▁argued 41
▁welfare 41
▁spare 41
▁pleasant 41
▁ego 41
long 41
▁intimate 41
▁hyp 41
amm 41
▁Scott 41
▁Arthur 41
▁democracies 41
▁occasion 41
▁enterprise 41
▁blew 41
▁Ladies 41
▁Mount 41
▁texts 41
▁destination 41
▁Olympics 41
▁knock 41
▁com 41
▁minority 41
▁lion 41
unch 41
▁float 41
▁Nigerian 41
▁bulbs 41
▁asteroids 41
▁heritage 41
digit 41
hes 41
▁raises 41
▁nasty 41
As 41
▁conv 41
▁summit 41
▁terrific 41
▁spiders 41
▁systematically 41
▁eastern 41
▁remotely 41
▁Iranian 41
▁EM 41
▁RM 41
▁blown 40
view 40
▁elaborate 40
▁31 40
▁acquire 40
▁trading 40
imate 40
offs 40
eral 40
ibilities 40
▁practically 40
▁critically 40
▁economically 40
▁planned 40
akers 40
▁inventor 40
▁Aut 40
▁irrational 40
▁Joseph 40
▁stressed 40
▁130 40
esis 40
▁boards 40
▁whoever 40
▁iPod 40
▁abandon 40
enn 40
erg 40
▁nic 40
▁deforestation 40
▁logging 40
▁approximately 40
▁damaged 40
▁eliminate 40
▁repl 40
▁injured 40
▁pouring 40
▁seals 40
Now 40
itate 40
har 40
▁streams 40
▁mus 40
▁enc 40
▁offspring 40
▁probe 40
▁Mozart 40
etics 40
oked 40
▁Dis 40
▁witnessed 40
▁empower 40
▁copies 40
icles 40
▁youngest 40
Come 40
▁Steven 40
▁representing 40
▁periods 40
▁pipe 40
omet 40
▁Seattle 40
▁Mumbai 40
▁exagger 40
▁organizing 40
▁modest 40
▁frames 40
▁powered 40
▁lifespan 40
▁assess 40
▁amb 40
▁Greenland 40
▁alphabet 40
▁reporting 40
▁utterly 40
▁patch 40
anged 40
ograph 40
sey 40
rey 40
▁Pop 40
▁wins 40
▁Mexican 40
ches 40
▁accountability 40
▁stadium 40
AIDS 40
za 40
col 40
▁smells 40
▁marks 40
iology 40
▁recession 40
▁gross 40
▁employ 40
▁significance 40
á 40
▁aunt 40
▁apps 40
rat 40
▁commodity 40
▁unlock 40
▁mere 40
verse 40
▁usage 40
▁wid 40
ement 40
▁optical 40
fly 40
▁documentary 40
▁Journal 40
▁prisoner 40
▁3, 40
▁donors 40
stand 40
▁flavor 40
▁lottery 40
▁chess 40
▁div 40
▁awe 40
▁reconstruct 40
▁kidney 40
▁selves 40
▁camel 40
▁philanthropy 40
▁const 40
▁locomotion 40
▁preparation 40
▁Med 40
▁vacation 40
▁principal 40
eren 40
▁alongside 40
▁dy 40
▁gallery 40
▁cooperative 40
▁ideology 40
omes 40
ker 40
▁boost 40
▁Cyrus 40
▁hybrid 39
▁harsh 39
▁Int 39
▁mas 39
▁rains 39
▁vegetable 39
▁bind 39
▁implemented 39
▁congestion 39
▁multiply 39
▁screw 39
▁wow 39
▁adds 39
▁logo 39
▁horizontal 39
▁DP 39
▁bare 39
▁DR 39
▁representative 39
▁mer 39
▁Atlanta 39
▁gasoline 39
▁scans 39
▁shorter 39
▁mating 39
oting 39
▁investigate 39
▁couch 39
▁jumping 39
▁rejected 39
irst 39
▁cocktail 39
▁worm 39
▁serves 39
iously 39
▁encountered 39
▁ob 39
▁astronomy 39
cut 39
▁Spring 39
ales 39
oot 39
▁ens 39
▁philosophical 39
▁Cape 39
▁folding 39
▁interrupt 39
proof 39
▁album 39
▁format 39
cel 39
▁trusted 39
▁unfortunate 39
▁convicted 39
▁adoption 39
▁install 39
▁metric 39
▁conceptual 39
▁acres 39
orous 39
▁hyd 39
▁cope 39
▁imm 39
▁enforcement 39
▁arrest 39
▁western 39
▁Stud 39
▁basketball 39
▁pleased 39
▁coordination 39
▁counts 39
apped 39
▁prescription 39
▁actively 39
▁Ant 39
▁hydro 39
▁Young 39
▁Medical 39
bre 39
▁Together 39
▁72 39
▁girlfriend 39
han 39
▁reasoning 39
▁telecom 39
shaped 39
▁wasted 39
▁Som 39
▁ingredient 39
▁diarrhea 39
▁plates 39
▁rescued 39
apt 39
▁reserve 39
▁acids 39
born 39
▁cables 39
umbling 39
profit 39
▁digest 39
▁prosthetic 39
▁candidates 39
▁meets 39
▁utter 39
▁mutation 39
▁acquired 39
▁exotic 39
▁Cap 39
▁deserves 39
▁assumed 39
▁slice 39
▁associate 39
▁Coll 39
▁mosquitos 39
▁Indus 39
▁smartphone 39
▁Abed 39
▁investments 38
ables 38
bon 38
▁returns 38
▁generic 38
▁Wright 38
▁consensus 38
▁regulation 38
▁advis 38
▁generates 38
anes 38
▁mil 38
▁infectious 38
▁4. 38
▁seawater 38
cop 38
ential 38
▁Office 38
▁sometime 38
▁techn 38
▁Hum 38
▁Tokyo 38
flow 38
▁convenient 38
Ah 38
self 38
▁shining 38
rew 38
▁contained 38
▁luckily 38
▁visiting 38
▁Craig 38
▁roofs 38
▁Charlie 38
▁mic 38
ien 38
ns 38
icked 38
▁Van 38
▁longest 38
reating 38
▁melting 38
▁emergence 38
▁torn 38
▁penis 38
▁translator 38
▁delivering 38
▁Saturday 38
▁beef 38
ees 38
▁themes 38
▁talented 38
▁bon 38
Man 38
▁minor 38
▁negotiate 38
▁Copenhagen 38
▁dishes 38
▁proceed 38
▁creator 38
▁counted 38
▁shrink 38
▁networking 38
▁employment 38
▁chat 38
▁Tibet 38
▁tolerance 38
▁Daniel 38
▁11, 38
▁electro 38
▁feeds 38
▁semi 38
▁2011, 38
▁Fund 38
▁longevity 38
▁priorities 38
▁Hawaii 38
▁mammal 38
▁parachute 38
▁alert 38
▁aliens 38
▁mot 38
▁cube 38
▁illustr 38
▁Around 38
▁heating 38
▁households 38
▁dump 38
▁pays 38
▁habitats 38
▁richest 38
wide 38
▁migration 38
▁simulate 38
▁wore 38
▁: 38
▁desperate 38
▁reforms 38
▁digging 38
▁practicing 38
▁gestures 38
pect 38
▁compute 38
▁Sarah 38
▁anniversary 38
▁delight 38
▁hoped 38
▁assist 38
▁collision 38
quality 38
▁tem 38
▁Development 38
▁farther 38
ila 38
▁Kingdom 38
▁systematic 38
▁kindergarten 38
▁tags 38
▁ut 38
ami 38
▁Ross 38
▁Matt 38
▁variable 38
▁demo 38
▁Academy 38
▁integrate 38
ild 38
▁shaking 38
▁ann 38
▁revenues 38
▁achieving 38
▁Republic 38
▁ethic 38
▁ign 38
▁disciplines 38
▁pants 38
tz 38
▁Telescope 38
ini 38
▁considering 38
▁grains 38
▁calculus 38
▁converted 38
sters 38
▁owners 38
▁temple 38
▁crows 38
▁guards 38
▁geography 38
▁authoritarian 38
▁firing 38
▁cheating 38
▁targeted 38
percent 38
▁onstage 38
▁Norden 38
▁LT 38
▁Lebanon 37
bing 37
▁projection 37
▁rail 37
▁acute 37
▁mill 37
▁excess 37
▁preventing 37
▁AG 37
▁12- 37
▁Bra 37
▁2003, 37
▁predicting 37
▁grant 37
cept 37
▁ultraviolet 37
▁parasite 37
olog 37
▁deciding 37
▁transm 37
▁eighth 37
▁platforms 37
rection 37
▁legisl 37
▁Heart 37
▁progression 37
▁deadly 37
▁sensing 37
▁chemotherapy 37
▁travels 37
Would 37
▁angiogenesis 37
▁Therefore 37
▁Phoenix 37
osh 37
fire 37
▁thinkers 37
▁contributing 37
▁integration 37
▁bacterium 37
▁Light 37
▁Mart 37
ould 37
illion 37
▁col 37
▁enormously 37
▁confronted 37
▁charged 37
▁innovate 37
▁Has 37
▁ed 37
▁ski 37
▁investigation 37
▁1. 37
▁cares 37
page 37
ifications 37
▁spite 37
▁Lev 37
▁Pen 37
erson 37
▁Tuesday 37
▁Cold 37
▁blowing 37
ala 37
▁checking 37
ira 37
nded 37
no 37
For 37
icking 37
elect 37
standing 37
▁inherently 37
▁bust 37
▁involving 37
▁toll 37
oning 37
amps 37
ands 37
▁vice 37
▁cosm 37
▁cosmos 37
part 37
▁assemble 37
▁Suppose 37
▁precip 37
▁Dra 37
dr 37
▁60,000 37
▁regulations 37
▁producers 37
▁submit 37
igh 37
▁consent 37
▁decides 37
▁48 37
▁defining 37
▁MA 37
▁Palestinian 37
▁speeds 37
▁decent 37
▁rigid 37
▁parenting 37
▁char 37
▁unfair 37
▁managing 37
▁rolled 37
urb 37
▁flesh 37
▁prim 37
▁addressing 37
▁entities 37
▁Everest 37
▁Ram 37
iti 37
▁millennia 37
▁champions 37
pre 37
▁hugely 37
uded 37
▁Show 37
▁refuse 37
▁8,000 37
▁cage 37
▁posed 37
▁foster 37
tes 37
ask 37
▁envision 37
▁copied 37
▁visions 37
▁condoms 37
pped 37
▁Dick 37
▁refused 37
▁Jupiter 37
oted 37
uch 37
unt 37
▁unle 37
eting 37
▁- 37
▁salmon 37
▁transported 37
▁pigeon 37
▁detector 37
apse 37
▁mapped 37
▁allies 37
▁renewables 37
▁TEDTalks 37
▁profitable 36
▁Di 36
▁hills 36
▁Inst 36
▁pol 36
▁tangible 36
▁attempts 36
▁gar 36
▁maintenance 36
▁airline 36
▁'50 36
onic 36
▁vocabulary 36
▁filters 36
▁infect 36
omb 36
▁screening 36
▁ven 36
▁processor 36
▁surround 36
imeter 36
▁segment 36
▁substantial 36
▁Prot 36
▁ur 36
▁pedestrian 36
▁weighs 36
▁equals 36
▁humility 36
▁behold 36
va 36
▁metals 36
izer 36
▁embarrassed 36
ception 36
ogen 36
▁consists 36
▁Ted 36
yn 36
▁noisy 36
dom 36
ching 36
illa 36
▁bowl 36
▁embracing 36
▁cle 36
▁disturbing 36
elt 36
▁frogs 36
see 36
▁grabbed 36
▁intern 36
▁fired 36
▁disconnect 36
cont 36
▁knees 36
▁magazines 36
mark 36
▁DVD 36
▁insist 36
▁surveys 36
▁regional 36
▁losses 36
minded 36
▁potent 36
▁scheme 36
▁dra 36
▁shifted 36
▁headquarters 36
boards 36
▁yards 36
▁catastrophic 36
▁Mall 36
▁RNA 36
▁ampl 36
▁autistic 36
▁routine 36
▁absurd 36
▁30, 36
▁revolutions 36
▁metabolism 36
▁cracks 36
▁survivors 36
▁millimeter 36
▁Library 36
▁Similarly 36
ounded 36
▁precision 36
fer 36
▁es 36
▁analog 36
▁blast 36
uel 36
▁improvements 36
▁Canadian 36
▁Fortunately 36
size 36
▁squares 36
▁12,000 36
▁beside 36
▁Ac 36
▁escal 36
aced 36
▁Hospital 36
▁basement 36
▁cholera 36
essed 36
▁occupy 36
▁ambition 36
▁interfaces 36
▁abroad 36
▁brands 36
▁weekend 36
▁jam 36
▁broadcast 36
▁loans 36
▁woods 36
▁limbs 36
▁beneficial 36
▁exceed 36
▁explored 36
▁humankind 36
iments 36
▁Sierra 36
▁Meanwhile 36
▁fans 36
▁floors 36
▁intentions 36
▁philosophers 36
▁Egyptians 36
▁Gene 36
▁shout 36
▁Notice 36
walk 36
▁desktop 36
▁prol 36
▁odor 36
▁Whenever 36
▁parliament 36
▁dictionaries 36
▁frag 36
▁celebration 36
▁gardens 36
▁Kennedy 36
▁symmetries 36
▁cups 36
▁stimulate 36
▁squid 36
▁Joshua 36
eyed 36
▁Korean 36
▁foie 36
▁unseen 36
▁hallucinations 36
▁diplomacy 36
▁Sylvia 36
otion 35
how 35
▁complain 35
▁Larry 35
▁Republicans 35
bra 35
▁promoting 35
▁modeling 35
▁widespread 35
▁brutal 35
speed 35
▁flights 35
cap 35
isms 35
▁bond 35
▁intimacy 35
▁Elizabeth 35
▁frustration 35
▁greatly 35
▁chromosome 35
otic 35
▁replacing 35
▁Monday 35
▁Say 35
grade 35
ding 35
▁mat 35
▁crowds 35
▁ordered 35
▁strikes 35
▁towns 35
pound 35
cond 35
▁pressures 35
▁satisfaction 35
▁deficit 35
▁chem 35
▁celebrity 35
Did 35
grand 35
▁slip 35
▁talents 35
▁careers 35
▁fog 35
▁Ros 35
▁struggled 35
▁seventh 35
▁morph 35
▁delay 35
▁desires 35
▁graphs 35
300 35
▁timing 35
rab 35
ences 35
▁nicely 35
▁illusions 35
▁angles 35
▁Mel 35
▁passage 35
enses 35
▁feminist 35
pace 35
▁blessed 35
▁mixture 35
Go 35
istically 35
▁Ast 35
▁Os 35
cause 35
▁bench 35
▁clarity 35
▁spatial 35
▁participating 35
▁opposition 35
▁praying 35
ict 35
▁traces 35
▁Sudan 35
▁Alaska 35
pet 35
▁surviving 35
you 35
▁plankton 35
▁fails 35
aper 35
▁exponentially 35
engineering 35
▁indicates 35
▁beam 35
▁genuine 35
▁Wal 35
▁altered 35
▁disappears 35
▁Thailand 35
▁nonetheless 35
▁uniquely 35
▁jumps 35
▁corresponds 35
ga 35
▁pressing 35
▁slave 35
hop 35
▁Columbia 35
▁Montana 35
▁baseline 35
ward 35
▁chickens 35
▁communic 35
rid 35
▁warrior 35
▁squeeze 35
body 35
▁entrance 35
etically 35
heads 35
▁Eventually 35
▁pricing 35
▁cycl 35
▁rank 35
ident 35
▁maneuver 35
▁upward 35
ashing 35
▁filmed 35
wise 35
rating 35
lish 35
aining 35
Good 35
▁mushrooms 35
▁elevator 35
▁pil 35
▁procedures 35
▁equity 35
▁browser 35
▁shelves 35
▁chasing 35
orth 35
▁frequencies 35
▁liberty 35
▁Bi 35
▁warmer 35
▁eternal 35
▁Such 35
▁ironic 35
▁Ang 35
▁honored 35
▁TEDTalk 35
▁viewed 35
▁beds 35
▁ep 35
▁cloth 35
▁tagged 35
▁medications 35
▁metabolic 35
▁autonomy 35
icks 35
▁drought 35
care 35
▁mel 35
▁assault 35
▁integrity 35
▁shed 35
▁dent 35
▁mutual 35
▁Val 35
▁columns 35
▁artifacts 35
▁symmetrical 35
▁Alice 35
▁Bel 35
▁iceberg 35
▁fishermen 35
▁mycelium 35
▁rises 35
▁Luther 35
▁detected 35
▁yeast 35
▁sensitivity 35
▁Stewart 35
▁authenticity 35
▁beetles 35
▁Goals 35
▁arc 34
▁calculation 34
▁Consider 34
▁Less 34
inding 34
▁empowerment 34
▁subsid 34
▁budgets 34
vy 34
▁apartments 34
▁cou 34
▁chromosomes 34
urance 34
▁sells 34
▁lately 34
load 34
▁motivate 34
▁assure 34
▁tanks 34
▁greet 34
▁sadness 34
▁personalities 34
atives 34
▁asthma 34
▁fract 34
▁physiology 34
▁receptor 34
gle 34
▁Portugal 34
▁tightly 34
▁thereby 34
▁sexuality 34
▁replacement 34
▁upright 34
▁biases 34
▁judgments 34
▁spaghetti 34
▁paste 34
▁Ext 34
▁owe 34
▁marijuana 34
▁programmed 34
▁Sing 34
ES 34
▁punish 34
izers 34
cious 34
▁goodness 34
▁hol 34
graph 34
▁applies 34
▁oven 34
▁countless 34
▁penalty 34
million 34
▁Having 34
▁folded 34
ux 34
astic 34
▁obsolete 34
▁portraits 34
▁functioning 34
ada 34
▁asset 34
▁46 34
ears 34
▁jungle 34
▁anim 34
▁soccer 34
uts 34
▁empowering 34
▁slight 34
▁gy 34
▁gravitational 34
▁relativity 34
▁Ice 34
lets 34
▁statistical 34
▁famously 34
▁spiral 34
pres 34
▁Try 34
▁chapters 34
zed 34
▁ultra 34
wing 34
▁ste 34
▁paths 34
acity 34
▁lectures 34
▁infl 34
▁slept 34
▁1.2 34
▁scientifically 34
▁hem 34
ED 34
▁famine 34
▁Gar 34
▁disappointed 34
▁disappoint 34
uct 34
dd 34
▁15, 34
▁pipeline 34
▁cousin 34
▁hunter 34
▁emphasize 34
▁correlation 34
▁slope 34
▁surgical 34
▁salary 34
law 34
Fi 34
▁2008 34
▁sang 34
▁stairs 34
▁internet 34
▁archive 34
▁frontier 34
▁settle 34
▁symbolic 34
▁shortly 34
ocratic 34
iac 34
▁rehabilitation 34
▁clips 34
▁sufficient 34
▁wiped 34
▁ancestor 34
▁holy 34
imb 34
ead 34
▁massively 34
elle 34
▁embodied 34
▁Sk 34
▁rays 34
▁virtue 34
▁Despite 34
▁microscopic 34
▁2006, 34
▁server 34
▁zoo 34
▁disk 34
take 34
▁fossils 34
▁Fred 34
▁blueprint 34
▁Country 34
▁stealing 34
ross 34
▁primates 34
▁consuming 34
▁triangle 34
▁Step 34
▁staggering 34
▁reflects 34
▁goodbye 34
▁cardboard 34
asters 34
▁matches 34
▁Phil 34
▁Venus 34
▁pros 34
▁marker 34
▁dismiss 34
▁Top 34
▁clues 34
▁politician 34
▁sulfide 34
▁acceptance 34
▁node 34
▁rod 34
▁configuration 34
▁texting 34
controlled 34
▁checked 33
▁tide 33
▁projected 33
ffic 33
▁purchase 33
isan 33
▁viable 33
▁tale 33
▁prov 33
▁diamonds 33
alities 33
▁skilled 33
▁Gh 33
▁Keep 33
▁swing 33
▁1.5 33
▁reproduction 33
▁dict 33
▁outl 33
▁minimal 33
▁fragments 33
▁numerous 33
▁compl 33
▁buttons 33
Thank 33
▁hack 33
10 33
▁singular 33
▁compet 33
▁Beach 33
▁Greeks 33
▁skeptical 33
▁lighter 33
maker 33
▁apes 33
▁mirrors 33
▁multinational 33
school 33
▁44 33
▁manipulation 33
▁pipes 33
▁waited 33
▁respected 33
▁relates 33
▁Old 33
▁fame 33
▁commission 33
▁mouths 33
▁Elect 33
thing 33
▁characteristic 33
▁journalism 33
▁returning 33
▁flood 33
▁courts 33
▁silicon 33
▁manufacture 33
▁Co 33
▁beetle 33
▁kilometer 33
▁inherent 33
fin 33
▁lightning 33
▁MS 33
ptic 33
▁Kansas 33
ua 33
ste 33
▁Mor 33
antic 33
▁Natural 33
oral 33
▁aluminum 33
▁staircase 33
▁Hill 33
▁forgive 33
▁summarize 33
▁belt 33
▁frontal 33
▁inventions 33
▁hut 33
▁MO 33
SA 33
▁Absolutely 33
▁frightened 33
handed 33
▁edit 33
▁arise 33
tr 33
▁IM 33
ocracy 33
▁headline 33
▁nano 33
▁diagnostic 33
▁accumulate 33
▁steady 33
▁displays 33
▁Vol 33
▁Year 33
▁alter 33
▁biosphere 33
▁Small 33
▁Band 33
▁Interestingly 33
▁container 33
▁bugs 33
uster 33
▁stimul 33
▁stare 33
+ 33
▁advocate 33
roph 33
▁circular 33
▁worldview 33
▁upload 33
▁dorm 33
▁stimulation 33
▁Native 33
ima 33
▁horr 33
▁secondary 33
▁sustained 33
ection 33
▁confirm 33
▁Str 33
▁disruptive 33
▁Philadelphia 33
▁washed 33
▁Coca 33
Cola 33
oriented 33
field 33
▁drama 33
verted 33
oles 33
▁shepherd 33
ourcing 33
▁reflex 33
iel 33
▁Tele 33
▁spontaneously 33
▁chase 33
▁orientation 33
▁destructive 33
▁collaborators 33
▁jokes 33
rich 33
▁checks 33
▁ghost 33
▁gigantic 33
▁friction 33
▁isolation 33
▁quantities 33
▁honesty 33
▁invitation 33
▁obstacle 33
▁appreciation 33
iment 33
▁activated 33
▁playful 33
ulates 33
ther 33
▁Sim 33
▁magician 33
▁Jefferson 33
▁resilient 33
▁triumph 33
▁Inc 33
rence 33
▁convention 33
▁Des 33
▁mature 33
▁stepping 33
▁partnerships 33
▁prosec 33
▁PowerPoint 33
▁individually 33
▁markers 33
ican 33
200 33
usted 33
▁frustrating 33
imbabwe 33
section 33
▁entrepreneurial 33
▁guitar 33
▁siblings 33
▁recur 33
▁insult 33
▁analyzing 33
▁Milky 33
▁unre 33
▁psychiatric 33
▁suits 33
▁hacker 33
bot 33
▁apples 33
▁immun 33
▁disabilities 33
▁therapist 33
makers 33
▁circul 33
▁Neanderthals 33
▁regulate 33
hab 33
▁marrow 33
▁psychopath 33
▁marathon 33
▁Milo 33
rhythm 33
ctions 32
▁macro 32
▁acceptable 32
▁pose 32
▁2001, 32
orb 32
sm 32
press 32
▁Canyon 32
▁wives 32
▁premise 32
▁influ 32
erer 32
▁Galapagos 32
▁abundant 32
▁laboratories 32
▁crashes 32
▁scroll 32
▁Phys 32
▁Spe 32
▁finishing 32
ific 32
▁prom 32
▁memorial 32
▁purely 32
▁supportive 32
▁utility 32
▁Post 32
▁bonds 32
▁brick 32
▁nevertheless 32
▁chemist 32
▁Cancer 32
▁harmful 32
▁migrate 32
▁chaotic 32
▁Ask 32
▁bay 32
▁Wait 32
uan 32
▁obsession 32
▁alike 32
▁minerals 32
vest 32
▁Danny 32
▁inspect 32
develop 32
▁jar 32
cking 32
▁award 32
Le 32
▁explanations 32
▁astronomers 32
▁lips 32
▁textbook 32
▁mixing 32
▁perceptions 32
▁shadows 32
▁flex 32
formed 32
natural 32
▁aer 32
▁easiest 32
▁Defense 32
ums 32
▁benef 32
▁earned 32
▁variables 32
▁observing 32
▁reflective 32
ya 32
▁Sa 32
▁amateur 32
▁Secretary 32
▁202 32
inent 32
▁constitution 32
▁voluntary 32
▁playground 32
▁Ken 32
▁Lama 32
▁patience 32
▁Buddha 32
▁buzz 32
▁controversy 32
ended 32
▁enabling 32
▁similarly 32
▁remembering 32
▁fra 32
fulness 32
generation 32
raw 32
esh 32
▁Sum 32
▁faint 32
▁Cent 32
▁heck 32
▁Mod 32
▁vol 32
▁monster 32
▁posters 32
Every 32
▁lever 32
▁grassroots 32
▁Kosovo 32
▁2005 32
▁Using 32
emb 32
70 32
▁av 32
▁gen 32
▁adaptation 32
ager 32
▁impulse 32
▁marked 32
▁anatomy 32
▁affairs 32
▁fever 32
▁Public 32
▁Ron 32
otal 32
ught 32
▁illnesses 32
▁Add 32
▁dreamed 32
▁midst 32
▁Thirty 32
▁reclaim 32
▁numb 32
▁ratings 32
▁goat 32
ames 32
▁prevalence 32
▁Later 32
▁Roman 32
▁cod 32
▁stereoty 32
aterial 32
▁Start 32
▁Food 32
▁Clearly 32
▁confined 32
▁documenting 32
▁Sub 32
▁preserved 32
▁butter 32
olved 32
▁Su 32
front 32
lly 32
▁depos 32
Mom 32
ship 32
▁trap 32
gram 32
▁calculating 32
▁bananas 32
▁weakness 32
▁ax 32
▁breakdown 32
▁Id 32
▁eats 32
▁50- 32
▁electromagnetic 32
▁Lee 32
▁scholars 32
eration 32
▁fruits 32
▁mem 32
▁shred 32
▁bribe 32
▁Buddhist 32
▁spr 32
▁presidential 32
▁editors 32
▁twins 32
▁passions 32
▁Hel 32
▁candle 32
craft 32
alth 32
▁butt 32
▁storms 32
iform 32
▁processed 32
▁tiger 32
▁recognizes 32
▁reveals 32
▁1900 32
▁Stop 32
▁Golden 32
▁thread 32
▁draws 32
▁glow 32
▁snakes 32
▁Libya 32
▁broccoli 32
▁Cy 32
▁folk 32
▁DM 32
▁Jordan 32
▁tattoo 32
athy 32
▁admire 32
▁exercises 32
▁dancers 32
▁propaganda 32
▁primate 32
▁bombsight 32
▁Jay 31
One 31
err 31
uce 31
▁cement 31
▁smugg 31
▁operates 31
▁breakthroughs 31
produ 31
▁persuade 31
▁'8 31
aire 31
▁tenth 31
▁efficiently 31
▁sculpt 31
ules 31
▁duty 31
▁exc 31
▁infrared 31
▁overl 31
▁warfare 31
ato 31
▁prohib 31
▁Wr 31
▁lim 31
▁touches 31
▁Empire 31
▁viewing 31
▁enthusiasm 31
▁Oklahoma 31
vol 31
▁sidewalk 31
▁450 31
▁hooked 31
▁dependence 31
▁altruism 31
▁joining 31
▁nonsense 31
▁outbreak 31
▁attacking 31
ached 31
▁leak 31
izations 31
oly 31
▁producer 31
▁Vi 31
▁twin 31
▁devoted 31
▁Tw 31
▁juvenile 31
▁fungi 31
▁Wars 31
▁equilibrium 31
▁ple 31
icy 31
ena 31
▁Slow 31
▁Cuba 31
▁instances 31
era 31
▁fuzzy 31
▁op 31
▁ashamed 31
▁copying 31
uits 31
▁prayer 31
pons 31
▁circ 31
Ex 31
▁tuned 31
bling 31
▁conce 31
iable 31
specific 31
acks 31
▁hurts 31
▁empire 31
▁civilian 31
asa 31
▁Dalai 31
▁impressed 31
▁Looking 31
Not 31
▁pathway 31
vered 31
icted 31
▁petition 31
▁intriguing 31
▁IP 31
OL 31
▁linking 31
▁2012, 31
▁consideration 31
▁doubling 31
▁cracked 31
▁accurately 31
▁2010 31
▁banned 31
▁convincing 31
▁biologically 31
▁institute 31
▁emerges 31
▁rainforests 31
▁hy 31
▁celebrated 31
▁scaled 31
▁benign 31
core 31
▁subjective 31
▁irr 31
▁explode 31
▁arbitrary 31
▁helmet 31
▁protective 31
▁Pers 31
run 31
▁piles 31
▁Fifty 31
▁promises 31
ota 31
▁Cr 31
▁140 31
▁slum 31
oos 31
▁15,000 31
▁Nike 31
ja 31
▁pumps 31
▁blocked 31
▁ambulance 31
awa 31
▁nightmare 31
▁admitted 31
▁Commun 31
▁Large 31
ube 31
addy 31
▁Association 31
▁san 31
▁introducing 31
▁inflation 31
▁specialist 31
▁solo 31
▁repeatedly 31
▁judges 31
▁hatred 31
▁launching 31
▁morally 31
rit 31
▁snake 31
▁Cur 31
▁tips 31
▁Denmark 31
▁researching 31
▁consistently 31
▁sequ 31
▁yard 31
▁practiced 31
▁deple 31
▁fertilizer 31
▁mum 31
▁ridge 31
▁endeavor 31
print 31
sight 31
▁supports 31
▁deliberately 31
▁Others 31
▁friendship 31
▁sucks 31
▁irre 31
▁nucleus 31
▁thermal 31
▁Jill 31
▁awake 31
▁Turn 31
▁24- 31
▁meditation 31
▁choir 31
▁recruit 31
▁Edward 31
▁Je 31
▁equator 31
▁depths 31
▁perspectives 31
▁gel 31
▁dates 31
▁laying 31
irect 31
▁tro 31
ati 31
▁WK 31
aven 31
▁angels 31
▁libraries 31
▁harass 31
▁16, 31
▁Er 31
Because 31
▁Fort 31
▁reinvent 31
ologically 31
▁grammar 31
▁conj 31
▁bonus 31
▁planting 31
▁cinema 31
▁octopus 31
▁strengths 31
▁galleries 31
itors 31
▁Carnegie 31
▁stigma 31
▁Win 31
▁prisons 31
▁museums 31
uge 31
▁kit 31
▁examine 31
rin 31
▁jaw 31
▁altogether 31
▁Bangalore 31
▁flaw 31
▁Sahara 31
▁mustache 31
▁TEDx 31
▁seafood 31
▁connectome 31
▁BJ 31
▁Tasmanian 31
▁Snowden 31
▁update 30
▁graduates 30
▁commonly 30
▁7, 30
ani 30
orse 30
▁bloody 30
▁firms 30
rog 30
▁spends 30
▁Real 30
omics 30
Cl 30
acre 30
▁inclusive 30
owers 30
▁expense 30
▁humble 30
▁tricky 30
▁43 30
▁composed 30
▁wonderfully 30
▁affection 30
other 30
▁disappearing 30
▁correl 30
rug 30
▁sections 30
nes 30
▁scanned 30
rical 30
▁divorce 30
▁Australian 30
▁elev 30
▁transformations 30
▁exclusive 30
▁Mont 30
aint 30
▁operated 30
▁eBay 30
▁Ke 30
rie 30
▁commons 30
▁visitors 30
them 30
▁dreaming 30
▁presents 30
▁copper 30
▁apologize 30
▁Po 30
▁poo 30
▁mort 30
▁suburban 30
avors 30
▁presenting 30
▁manufacturers 30
▁problematic 30
sw 30
▁complaining 30
▁aggreg 30
▁aggregate 30
▁envelope 30
▁lump 30
▁Sn 30
▁fights 30
lethal 30
▁Argentina 30
▁Mu 30
▁balanced 30
▁gentle 30
▁tribal 30
mod 30
story 30
▁hump 30
cially 30
▁persons 30
▁Expl 30
▁routinely 30
performing 30
▁temporal 30
▁retina 30
-2 30
▁cleaning 30
▁Parliament 30
▁intervene 30
▁promising 30
▁mit 30
▁portray 30
gal 30
▁ov 30
▁crushed 30
cape 30
inch 30
▁52 30
▁Royal 30
▁urgent 30
▁violin 30
▁truths 30
▁scarce 30
▁statements 30
▁tow 30
▁advertis 30
▁185 30
▁financially 30
arter 30
▁addressed 30
mp 30
hold 30
▁conscience 30
▁resid 30
▁vacc 30
mat 30
▁CEOs 30
▁vitamin 30
elling 30
▁ladder 30
▁contest 30
▁winners 30
▁dancer 30
▁rhythms 30
▁Bor 30
▁slowed 30
axis 30
mb 30
▁Pet 30
▁degraded 30
lights 30
▁questioning 30
▁conqu 30
▁wandering 30
▁defect 30
▁countryside 30
▁generosity 30
▁heroin 30
▁willingness 30
11, 30
▁identities 30
,000. 30
▁Lib 30
▁Fin 30
ras 30
▁Kh 30
ails 30
▁Swedish 30
▁Data 30
▁anxious 30
▁buff 30
▁acoustic 30
▁eth 30
▁wished 30
▁squared 30
▁toast 30
▁160 30
ially 30
agn 30
▁apparent 30
▁outdoor 30
▁dest 30
▁Wood 30
▁inmates 30
▁donated 30
▁attributes 30
▁expectation 30
▁hatch 30
bee 30
▁dim 30
▁transmitted 30
▁storyteller 30
▁independently 30
▁ir 30
▁nan 30
rays 30
zer 30
▁meaningless 30
▁ethics 30
▁powder 30
una 30
▁codes 30
▁episode 30
cal 30
▁germ 30
▁debris 30
mile 30
▁midnight 30
▁Humans 30
▁captain 30
▁entity 30
▁adolescence 30
▁masters 30
▁mathematically 30
▁crab 30
▁Cart 30
▁Princeton 30
▁refrigerator 30
hal 30
lan 30
▁Teszler 30
▁tast 30
▁cens 30
▁cerebral 30
▁Prime 30
rons 30
▁arena 30
▁folds 30
ille 30
▁Julian 30
▁leopard 30
meter 30
▁recovered 30
▁lane 30
uten 30
▁discrimination 30
▁hollow 30
▁Mah 30
▁voters 30
▁legally 30
hed 30
▁protocell 30
▁newborn 30
▁Kiribati 30
▁Edinburgh 30
▁Arduino 30
▁multiverse 30
▁mammoth 30
▁Lagos 29
▁chef 29
▁successes 29
▁Cars 29
▁CC 29
friendly 29
but 29
second 29
▁Democrats 29
▁98 29
put 29
▁campaigns 29
ressive 29
▁developments 29
▁eradication 29
erers 29
▁tickets 29
▁Michelangelo 29
▁avatar 29
▁yell 29
alled 29
pes 29
▁sequenced 29
▁wavelength 29
▁tremendously 29
▁assembled 29
▁Ham 29
▁notions 29
▁synthesis 29
▁ethanol 29
▁evaluate 29
▁typing 29
▁menu 29
▁reader 29
▁Either 29
▁ease 29
▁taller 29
▁scenarios 29
▁quietly 29
▁categor 29
aneous 29
▁requirement 29
▁beast 29
copy 29
▁Ooh 29
▁vegetation 29
▁needing 29
iotic 29
▁observer 29
▁impaired 29
▁improvise 29
▁Simon 29
▁poorly 29
▁crank 29
▁orgasm 29
▁calcium 29
ird 29
semble 29
aning 29
▁regenerate 29
eny 29
▁sums 29
▁pond 29
▁Arch 29
▁conferences 29
▁superior 29
▁varieties 29
▁halls 29
▁expose 29
▁slowing 29
▁Sher 29
▁Radio 29
▁Virgin 29
▁Rights 29
▁displaced 29
▁injustice 29
▁250,000 29
iber 29
▁heights 29
▁Wonder 29
▁180 29
py 29
▁jewelry 29
▁1990, 29
▁50, 29
▁optimize 29
▁statistically 29
▁Keith 29
AA 29
▁certainty 29
▁cigarette 29
▁Nepal 29
▁invasion 29
▁Eight 29
▁flexibility 29
▁Peru 29
▁workshop 29
▁incom 29
▁fee 29
ruct 29
bone 29
iner 29
▁RS 29
▁votes 29
▁expl 29
▁gaining 29
▁multip 29
▁gait 29
▁sands 29
▁differ 29
▁irres 29
▁Alright 29
▁intend 29
aws 29
atar 29
▁Brothers 29
▁2010. 29
orph 29
▁catastrophe 29
asm 29
▁volumes 29
▁imperative 29
▁existential 29
▁miracles 29
▁Babbage 29
▁tracked 29
▁standpoint 29
▁mand 29
▁TEDsters 29
▁demographics 29
▁horrific 29
▁attraction 29
▁Party 29
▁taxi 29
condition 29
▁Ba 29
▁discussed 29
▁300,000 29
▁Dev 29
▁Bab 29
▁exploded 29
▁gratitude 29
▁SMS 29
▁unc 29
▁confusion 29
▁Lewis 29
▁disgusting 29
▁dome 29
▁accountable 29
▁4, 29
▁equipped 29
▁gifts 29
▁afterward 29
itted 29
▁racial 29
list 29
▁happiest 29
▁Pur 29
▁towel 29
▁perpet 29
▁harvesting 29
▁stra 29
▁equ 29
▁Bon 29
▁releasing 29
▁Stand 29
▁evalu 29
ched 29
▁Ministry 29
▁celebrating 29
▁races 29
▁assuming 29
▁Leone 29
▁whisper 29
▁crust 29
▁PR 29
▁navig 29
▁infinitely 29
▁undergraduate 29
▁OECD 29
▁Education 29
▁var 29
▁worship 29
▁Rep 29
aves 29
iny 29
urd 29
▁38 29
▁wor 29
▁obtained 29
▁parameters 29
▁Mountain 29
▁Freedom 29
▁Sel 29
▁SB 29
▁hobby 29
▁colorful 29
ule 29
▁responds 29
▁Diego 29
▁Amsterdam 29
▁bypass 29
li 29
▁Tesla 29
▁pregnancy 29
▁lawn 29
▁coincidence 29
▁cookie 29
▁newly 29
▁Michigan 29
▁dug 29
▁accepting 29
▁anytime 29
building 29
▁firmly 29
▁distorted 29
▁hu 29
▁ris 29
▁Hon 29
▁Democratic 29
rous 29
nam 29
▁operator 29
▁wells 29
▁commands 29
▁abnormal 29
▁Philip 29
aid 29
▁prefrontal 29
▁cockroach 29
▁hairs 29
▁sacrific 29
▁Bud 29
▁nectar 29
▁releases 29
▁slaves 29
▁rockets 29
order 29
▁educators 29
▁basking 29
▁LHC 29
▁Ev 29
▁cried 29
▁Natasha 29
▁Emily 29
▁tweet 29
▁Babylon 29
▁reviews 29
▁filmmaker 29
▁Nathan 29
▁val 29
▁mastery 29
▁needles 29
▁Liberia 29
▁dragonflies 29
▁NSA 29
▁Republican 28
▁sticky 28
abilities 28
▁scope 28
▁flourish 28
▁Certainly 28
rine 28
▁pilots 28
▁Alan 28
▁resort 28
▁weekends 28
▁Apollo 28
▁Vegas 28
▁Caribbean 28
▁1.3 28
▁auditorium 28
▁CD 28
▁sque 28
▁louder 28
uper 28
▁Unlike 28
▁towers 28
▁skip 28
▁sens 28
▁360 28
▁inviting 28
▁Mem 28
▁1998, 28
▁knocked 28
ulators 28
lim 28
▁quantitative 28
▁secondly 28
▁redefine 28
▁posture 28
▁demanding 28
▁limestone 28
▁Medicine 28
▁Luckily 28
▁Usually 28
▁ped 28
vation 28
▁spike 28
▁squee 28
▁champion 28
assembly 28
▁crystal 28
▁coding 28
▁Down 28
▁Solar 28
▁lasts 28
▁drift 28
▁contents 28
▁7,000 28
▁decre 28
gar 28
▁tastes 28
▁delicate 28
▁imperfect 28
▁125 28
▁observ 28
▁torture 28
oding 28
▁cousins 28
▁bankers 28
▁nail 28
▁noticing 28
▁Wilson 28
▁assign 28
▁hung 28
▁satisfied 28
▁unacceptable 28
ounding 28
▁occup 28
stick 28
▁Brit 28
▁banana 28
jan 28
▁globalized 28
▁maintaining 28
▁thirds 28
▁fierce 28
▁Francis 28
▁rum 28
ographer 28
▁Nairobi 28
anc 28
▁encyclopedia 28
▁ho 28
▁hint 28
▁biased 28
▁Information 28
▁Intel 28
▁revolutionary 28
▁Mach 28
▁defeat 28
backs 28
▁Cambodia 28
▁distribute 28
▁geometric 28
▁Les 28
▁erotic 28
cient 28
▁gosh 28
inc 28
eline 28
▁Kle 28
isa 28
▁listed 28
appiness 28
▁eager 28
▁fixing 28
▁innovators 28
efficient 28
▁gallon 28
pled 28
ocks 28
40 28
▁unemployed 28
▁justify 28
▁sec 28
▁rainfall 28
nic 28
fit 28
▁experimenting 28
▁Bo 28
▁dealt 28
▁routes 28
atures 28
▁referred 28
▁puberty 28
ibr 28
▁conclusions 28
▁spouse 28
▁declared 28
aba 28
▁contam 28
▁fled 28
▁malnutrition 28
▁vastly 28
▁retire 28
▁initiatives 28
▁pupp 28
▁annoying 28
▁Mind 28
▁chore 28
▁Wouldn 28
▁mundane 28
▁Death 28
▁Muhammad 28
▁contradiction 28
▁manifest 28
▁Work 28
▁secular 28
▁Person 28
▁2008. 28
▁Finland 28
▁reasonably 28
▁fa 28
fall 28
▁circulation 28
▁Georgia 28
▁backpack 28
dest 28
▁Recently 28
▁reduces 28
▁backs 28
▁temptation 28
▁wreck 28
▁ideological 28
▁battlefield 28
▁Bosnia 28
▁NGO 28
▁civilians 28
▁Beck 28
▁unstable 28
An 28
▁submitted 28
iger 28
Hi 28
▁victory 28
uite 28
▁Net 28
▁Ple 28
▁reproductive 28
▁Mot 28
▁plu 28
▁moms 28
lessness 28
verb 28
▁qualified 28
coming 28
▁coined 28
▁tooth 28
▁daylight 28
ummy 28
▁searches 28
▁laundry 28
▁oblig 28
▁hug 28
▁graffiti 28
▁societal 28
▁symptom 28
▁Turing 28
imes 28
▁elders 28
▁fertil 28
▁unin 28
▁Nicole 28
▁pools 28
▁coordinate 28
▁Namibia 28
▁commodities 28
aser 28
▁anesthesia 28
▁bureauc 28
intuitive 28
▁adaptive 28
▁unfold 28
▁Fire 28
▁titles 28
▁blocking 28
▁2007 28
osp 28
▁bre 28
▁missions 28
▁rides 28
▁learns 28
▁summary 28
▁assistant 28
SE 28
▁ruins 28
▁developmental 28
▁slogan 28
▁settled 28
▁doses 28
▁steer 28
▁woo 28
▁Tower 28
▁absor 28
▁shipped 28
▁cigarettes 28
▁swamp 28
▁declining 28
▁Line 28
otics 28
▁passport 28
▁regrets 28
▁Pra 28
▁censorship 28
▁Giussani 28
▁YR 28
▁boson 28
▁Doaa 28
▁Len 27
▁Invest 27
▁triple 27
60 27
itical 27
▁citizenship 27
▁inherited 27
▁compressed 27
▁12. 27
▁Russians 27
▁86 27
▁mobil 27
▁compact 27
▁marvelous 27
▁deserts 27
▁Rel 27
▁NA 27
▁resolved 27
▁holiday 27
iful 27
▁sailing 27
▁assessment 27
▁repertoire 27
▁insert 27
▁synthes 27
▁wo 27
ware 27
▁2000. 27
▁Jobs 27
▁writes 27
▁preced 27
▁forcing 27
▁relevance 27
▁carr 27
▁refined 27
▁environmentally 27
▁crowded 27
▁officers 27
▁sne 27
olly 27
▁preventable 27
resses 27
▁culturally 27
▁grim 27
▁Hundreds 27
▁14, 27
▁feared 27
▁dragged 27
▁singers 27
▁myths 27
To 27
▁romance 27
isted 27
ogenic 27
▁Jo 27
carbon 27
▁incomplete 27
▁catalog 27
new 27
▁duration 27
where 27
ado 27
▁100, 27
▁Pan 27
▁17, 27
ester 27
alu 27
▁cam 27
▁Rich 27
▁resonance 27
achers 27
▁interconnect 27
▁Music 27
vin 27
▁shield 27
▁shouting 27
anges 27
wall 27
▁Bern 27
▁delighted 27
▁PhD 27
▁Bad 27
▁undert 27
▁literal 27
▁negotiation 27
▁aspirations 27
▁randomness 27
▁influences 27
▁conditioning 27
▁enters 27
▁Supreme 27
▁render 27
▁mos 27
▁Desert 27
▁nu 27
▁tennis 27
▁poured 27
▁Tem 27
third 27
▁funeral 27
▁shortcut 27
▁comparable 27
▁Franklin 27
▁monsoon 27
▁Est 27
dis 27
▁editing 27
▁bandwidth 27
▁Bro 27
▁suspicious 27
otes 27
▁arose 27
▁agrees 27
▁inefficient 27
▁acceleration 27
▁unpredictable 27
▁shares 27
▁entitled 27
▁attempted 27
▁spheres 27
▁association 27
onal 27
▁nuclei 27
▁accelerated 27
case 27
▁chunk 27
▁pursuing 27
▁faculty 27
▁Connecticut 27
▁virgin 27
▁Hawking 27
itely 27
night 27
▁Dave 27
idden 27
▁beginnings 27
▁developers 27
▁inst 27
▁Palestine 27
▁calendar 27
▁Pennsylvania 27
▁Cop 27
▁disconnected 27
ulsion 27
▁tack 27
▁900 27
▁programmer 27
▁appropriately 27
▁sovereign 27
▁specialists 27
▁glory 27
▁issued 27
▁ing 27
▁distrib 27
▁keen 27
▁Sar 27
▁Ju 27
▁register 27
▁cooler 27
▁mysteries 27
▁Exactly 27
screen 27
▁Cities 27
▁Scotland 27
▁taboo 27
▁twe 27
▁peaks 27
▁executed 27
▁Dean 27
▁mosque 27
▁Somalia 27
▁tuberculosis 27
bled 27
▁parasites 27
▁cafe 27
▁lasted 27
% 27
▁blade 27
▁Warren 27
▁shaping 27
▁lobe 27
▁theirs 27
▁misery 27
▁impose 27
icians 27
▁rolls 27
▁bucket 27
▁inex 27
Am 27
▁Johnny 27
▁cree 27
know 27
▁Miss 27
▁mythology 27
cked 27
oded 27
▁conver 27
▁guaranteed 27
obs 27
▁cathedral 27
atically 27
fts 27
▁Climate 27
▁blend 27
▁187 27
▁Reg 27
ener 27
▁phrases 27
atin 27
▁heroic 27
▁larvae 27
▁Hubble 27
uci 27
On 27
▁Ow 27
▁noble 27
▁surplus 27
▁pesticides 27
▁riots 27
set 27
▁elbow 27
▁saf 27
▁chim 27
▁gro 27
▁sadly 27
▁condom 27
▁selective 27
▁Bhutan 27
▁bitter 27
▁modified 27
▁sulfur 27
▁treaty 27
▁emergent 27
▁applause 27
▁piv 27
▁survivor 27
▁carp 27
▁sch 27
formation 27
▁thrive 27
▁flee 27
eps 27
▁thrust 27
lings 27
▁divine 27
▁corridors 27
▁soy 27
▁eco 27
▁reactors 27
▁dece 27
▁conductor 27
▁merit 27
▁stir 27
▁arrows 27
▁Rover 27
▁Leg 27
▁heh 27
▁climbers 27
▁receiver 27
▁cartilage 27
▁Eighty 27
▁neurogenesis 27
▁EDI 27
▁CRISPR 27
▁Soon 26
▁booth 26
come 26
▁corporation 26
▁indoor 26
▁wonders 26
▁smo 26
▁basket 26
▁timber 26
atively 26
▁organizational 26
▁operational 26
rum 26
▁schedule 26
▁Allen 26
▁Hopefully 26
▁worthwhile 26
centric 26
pot 26
▁Us 26
▁novelty 26
Me 26
▁embraced 26
▁royal 26
char 26
▁eleg 26
▁Hold 26
▁Building 26
▁radar 26
▁contributions 26
▁reson 26
▁cleaned 26
▁spontaneous 26
▁ty 26
▁suburbs 26
▁cab 26
▁gallons 26
▁Del 26
▁Too 26
▁geographic 26
▁Especially 26
odd 26
▁traditionally 26
▁hunters 26
▁preferred 26
▁histories 26
▁Toronto 26
▁stumbled 26
pid 26
▁Ell 26
iza 26
ckets 26
▁noises 26
▁negotiating 26
ancing 26
▁crit 26
▁padd 26
▁Power 26
▁Bruce 26
omen 26
▁distinctive 26
▁finite 26
▁bol 26
▁Garden 26
▁sessions 26
atics 26
▁blogging 26
▁Kepler 26
▁loaded 26
▁Nor 26
.7 26
▁insisted 26
▁rip 26
▁Kyoto 26
▁Tre 26
text 26
ensively 26
▁algebra 26
▁Map 26
▁18- 26
▁blob 26
▁Had 26
▁strang 26
▁prototyping 26
▁animations 26
wheel 26
▁compos 26
lar 26
▁remark 26
▁geeks 26
▁forbid 26
▁SA 26
▁founding 26
▁wounded 26
▁Often 26
▁aged 26
▁bands 26
▁explicitly 26
▁placebo 26
▁activ 26
ona 26
▁entertain 26
▁Poll 26
▁uncertain 26
▁streaming 26
▁sought 26
Great 26
▁18, 26
▁cabin 26
▁Jerry 26
▁strand 26
Ar 26
attering 26
wa 26
▁employee 26
▁confusing 26
▁disruption 26
▁Massachusetts 26
▁sapiens 26
▁grip 26
oric 26
▁biotechnology 26
▁Fre 26
▁strictly 26
▁turbul 26
▁velocity 26
▁lure 26
▁skies 26
▁Skype 26
▁Machine 26
▁simulated 26
▁unified 26
▁incidentally 26
▁kilograms 26
chn 26
▁wax 26
issions 26
▁Ob 26
▁bleeding 26
▁spine 26
asy 26
▁unb 26
▁que 26
▁nurturing 26
▁wis 26
▁cellphone 26
▁sounded 26
▁consist 26
▁aquatic 26
▁Roger 26
▁satisfy 26
▁ast 26
▁stressful 26
▁Arizona 26
▁barrels 26
ulu 26
▁photographers 26
▁lif 26
▁Dam 26
▁freeze 26
going 26
▁recycle 26
breaking 26
▁implanted 26
▁diagnose 26
▁obsess 26
▁Doesn 26
▁nerd 26
▁prioritize 26
kers 26
▁comb 26
▁trail 26
▁firsthand 26
▁testosterone 26
▁47 26
aver 26
RA 26
She 26
alk 26
▁pediatric 26
▁assigned 26
jo 26
▁verge 26
▁orphan 26
forward 26
These 26
▁Home 26
low 26
▁dwell 26
▁labels 26
▁chalk 26
▁spe 26
▁prevents 26
▁cav 26
▁pops 26
▁cues 26
▁Norwegian 26
▁reass 26
▁addicts 26
▁broadly 26
erved 26
▁chap 26
▁schooling 26
▁appreciated 26
▁thumbs 26
▁hamburger 26
▁swap 26
▁vibrating 26
▁guilt 26
iced 26
kings 26
▁Yale 26
▁Williams 26
▁accompanied 26
▁appliances 26
▁gaze 26
▁loneliness 26
▁ideals 26
acter 26
illy 26
itis 26
▁charities 26
▁Beethoven 26
▁sho 26
▁automatic 26
▁pollutants 26
▁Mediterranean 26
▁2006 26
▁biof 26
▁visceral 26
▁Pittsburgh 26
▁Ter 26
▁manages 26
▁altern 26
▁hotter 26
cular 26
▁digits 26
▁satisfying 26
▁Samuel 26
▁pity 26
▁negotiations 26
▁intrinsic 26
▁radius 26
▁ozone 26
▁contagious 26
ledge 26
tra 26
▁MoMA 26
wh 26
▁potato 26
▁projections 26
▁bounce 26
▁curator 26
▁unity 26
▁bent 26
aken 26
▁waterfall 26
▁McC 26
▁Shir 26
▁drinks 26
leep 26
▁painter 26
▁Fe 26
▁erectus 26
▁accounting 26
oty 26
▁Fa 26
▁relaxed 26
▁Turk 26
▁glaciers 26
▁fees 26
▁biom 26
▁unintended 26
▁advent 26
▁petals 26
▁Cup 26
▁bluefin 26
▁Ushahidi 26
▁Alpha 26
conflict 26
▁Rub 26
▁pancreatic 26
▁nonviolent 26
▁exit 25
▁lifelong 25
iency 25
borne 25
▁cass 25
etch 25
▁Otherwise 25
▁intangible 25
▁united 25
▁bulk 25
▁fighters 25
▁overlap 25
▁BMW 25
▁Las 25
▁surroundings 25
▁indication 25
▁sketches 25
▁triggered 25
▁departments 25
inator 25
ushing 25
▁Acc 25
▁Techn 25
iders 25
▁Already 25
▁shuttle 25
▁illum 25
▁contacts 25
▁wounds 25
▁highways 25
▁bicycles 25
▁Venice 25
▁marvel 25
▁meanwhile 25
AR 25
ocate 25
▁exch 25
▁40- 25
▁Hard 25
anting 25
▁neurolog 25
▁toxins 25
▁rout 25
▁FG 25
▁AR 25
▁Darwinian 25
▁attachment 25
ugh 25
▁verbal 25
▁valued 25
most 25
here 25
PA 25
▁Learning 25
▁jun 25
▁nanotechnology 25
cles 25
▁bumps 25
▁loc 25
plex 25
▁dragon 25
▁protests 25
▁drilling 25
▁hammer 25
▁Mos 25
▁reinventing 25
▁af 25
▁illustration 25
stream 25
west 25
▁pneumonia 25
▁census 25
▁publication 25
▁Cam 25
▁singer 25
▁denied 25
▁Abu 25
▁continually 25
ID 25
▁partial 25
▁tink 25
▁lic 25
dog 25
▁pee 25
▁instincts 25
▁sole 25
▁typ 25
uction 25
▁Lots 25
▁inventors 25
ield 25
▁Fast 25
growing 25
▁nap 25
▁wages 25
▁similarities 25
▁slam 25
▁terr 25
▁combinations 25
▁Agency 25
▁Austria 25
▁distress 25
▁brib 25
nce 25
▁Freud 25
▁ambiguity 25
▁lined 25
▁Taiwan 25
▁executive 25
▁voyage 25
▁Going 25
▁confirmed 25
▁Compassion 25
earing 25
ogy 25
▁biochem 25
▁Lawrence 25
▁2050, 25
▁beaches 25
built 25
uth 25
▁backgrounds 25
▁pervasive 25
ses 25
▁13, 25
▁Doug 25
tic 25
▁sensible 25
▁underestimate 25
▁distract 25
▁metaphors 25
▁Tunisia 25
▁Tar 25
▁expressing 25
▁volcanic 25
▁empath 25
▁margins 25
ought 25
rogram 25
writing 25
▁composer 25
pical 25
Pro 25
▁replied 25
▁defines 25
oud 25
▁competitors 25
istan 25
▁instability 25
▁wasting 25
▁beloved 25
▁poses 25
▁quotes 25
▁nurture 25
▁Katrina 25
▁Orleans 25
igned 25
▁comprehensive 25
▁53 25
▁geological 25
▁meantime 25
mission 25
ocated 25
ivers 25
▁migraine 25
▁currents 25
▁eradicate 25
▁34 25
▁crawl 25
▁appearing 25
▁blows 25
▁offensive 25
400 25
▁requirements 25
▁Best 25
▁Dem 25
amas 25
▁Susan 25
▁goats 25
▁Han 25
▁tilt 25
▁strict 25
ford 25
▁humanities 25
▁Company 25
▁celebr 25
umps 25
▁persist 25
▁cro 25
▁registered 25
▁urbanization 25
▁Movement 25
▁approval 25
▁unsustainable 25
owing 25
obile 25
▁threaten 25
▁fundraising 25
inations 25
▁cru 25
▁ranging 25
▁contracts 25
dle 25
▁joyful 25
▁matching 25
▁meanings 25
ells 25
een 25
ateral 25
▁gram 25
▁archae 25
▁permanently 25
▁deer 25
▁Comm 25
▁Darfur 25
▁reck 25
gin 25
▁surprises 25
Listen 25
▁descend 25
now 25
▁imaginary 25
▁Siberia 25
▁kilos 25
ife 25
▁irrigation 25
stop 25
▁Rule 25
▁improbable 25
▁indu 25
▁closet 25
▁volcano 25
▁heavens 25
▁seasons 25
▁Got 25
oice 25
▁suggestions 25
▁Perfect 25
▁quantity 25
▁du 25
▁wip 25
▁Engine 25
▁Mountains 25
lear 25
▁unemployment 25
energy 25
▁intrigued 25
▁plun 25
▁courageous 25
▁crashing 25
▁quo 25
▁enrich 25
▁geo 25
▁grabs 25
▁pup 25
ibles 25
▁Students 25
▁Den 25
▁Government 25
▁Venezuela 25
▁exquisite 25
▁excellence 25
▁ups 25
onom 25
▁invaded 25
▁Pink 25
▁Rose 25
▁Iraqi 25
erman 25
▁4: 25
▁TM 25
▁epidemics 25
▁erosion 25
▁extensive 25
▁lakes 25
▁tropics 25
▁Sty 25
▁rectangle 25
▁paralysis 25
▁trad 25
uls 25
▁contexts 25
▁motiv 25
▁remembers 25
▁potatoes 25
▁Dylan 25
▁waking 25
▁1: 25
▁Goliath 25
cript 25
▁loops 25
▁narr 25
▁Mas 25
abytes 25
▁fictional 25
▁illustrates 25
▁tin 25
▁centr 25
▁Wolfram 25
▁symphony 25
▁shr 25
▁camels 25
▁stereotypes 25
▁UCLA 25
resistant 25
▁identifying 25
▁checklist 25
▁measurement 25
▁sync 25
▁Interviewer 25
▁Costa 25
▁kidneys 25
esteem 25
▁2009 25
matic 25
hel 25
▁JC 25
▁cybercriminals 25
▁settings 25
ç 25
sex 25
▁fishery 25
▁encryption 25
▁din 24
▁shells 24
▁automobiles 24
▁Use 24
▁compens 24
▁directors 24
▁respiratory 24
ambia 24
▁Ash 24
shirt 24
▁cred 24
▁14- 24
▁flown 24
▁Sputnik 24
▁DARPA 24
▁hotels 24
▁Deep 24
▁Fall 24
▁priest 24
▁amino 24
▁synthesize 24
▁boiling 24
▁fer 24
mentation 24
ashes 24
▁enjoyable 24
▁Reagan 24
ror 24
▁Type 24
99 24
▁Simple 24
▁Windows 24
gent 24
▁74 24
ties 24
▁praise 24
▁KA 24
▁Pier 24
▁developer 24
▁owns 24
hen 24
▁Side 24
rupt 24
▁adjacent 24
agon 24
▁recre 24
▁smiles 24
▁25, 24
▁vapor 24
▁cardiovascular 24
olving 24
▁cognition 24
verbal 24
▁Easter 24
▁explorers 24
▁arises 24
▁investigating 24
▁pinpoint 24
▁interviewing 24
▁swe 24
▁promotion 24
▁educating 24
step 24
▁employed 24
▁throws 24
▁crystall 24
▁crawling 24
▁lenses 24
oration 24
▁enzyme 24
▁periodic 24
▁nud 24
▁incorpor 24
▁swallowed 24
▁evident 24
type 24
▁axes 24
▁Oregon 24
▁hallway 24
▁intellig 24
▁Lady 24
▁Paulo 24
def 24
▁abused 24
▁interrog 24
▁execution 24
▁portable 24
▁Companies 24
▁Linux 24
▁attribute 24
▁shallow 24
dad 24
hot 24
▁Vinci 24
▁improves 24
▁restricted 24
▁quiz 24
▁balloons 24
▁throat 24
yd 24
▁Gam 24
▁academics 24
) 24
▁wage 24
▁400,000 24
▁Jersey 24
▁discl 24
▁gener 24
▁hippocampus 24
cies 24
▁occupied 24
▁overt 24
▁Justice 24
lex 24
▁peel 24
▁focuses 24
▁scare 24
▁der 24
▁Max 24
▁prevented 24
▁Himalayas 24
▁wallet 24
▁icons 24
▁industrialized 24
▁Guatemala 24
▁ow 24
▁Kibera 24
iro 24
▁Kenyan 24
▁spong 24
▁foreground 24
▁edited 24
ground 24
▁conspiracy 24
▁neurological 24
▁1800 24
unting 24
▁spades 24
▁excuses 24
▁gh 24
oned 24
lands 24
▁drain 24
ym 24
▁manufacturer 24
aul 24
▁criticism 24
▁orbiting 24
▁sterile 24
▁Cat 24
▁battles 24
▁irrelevant 24
▁donation 24
▁astronomical 24
▁aesthetics 24
▁melody 24
▁clicks 24
▁Language 24
▁avoiding 24
▁End 24
▁switches 24
▁advantages 24
▁eliminated 24
▁pip 24
aren 24
▁popped 24
▁stocks 24
▁transforms 24
with 24
▁mentors 24
plan 24
▁reflecting 24
gence 24
▁requests 24
▁Fox 24
oun 24
▁weekly 24
▁prizes 24
▁exhib 24
itness 24
▁responsive 24
▁manifestation 24
ulsive 24
▁messaging 24
▁writ 24
▁orphanage 24
cribe 24
▁ingenuity 24
▁worries 24
▁ze 24
▁2.5 24
oter 24
▁implicit 24
▁bikes 24
urfing 24
rates 24
▁exhaust 24
▁addicted 24
inson 24
▁wr 24
▁rooted 24
unning 24
▁stated 24
▁deny 24
▁grounded 24
▁souls 24
▁Mur 24
▁empt 24
▁Believe 24
▁NBA 24
Mart 24
▁cultivate 24
▁Poland 24
▁Germans 24
▁notebook 24
rams 24
▁collar 24
ods 24
▁wig 24
▁stab 24
▁Hol 24
ban 24
▁Cairo 24
tion 24
organized 24
▁inadequate 24
▁Scottish 24
▁bless 24
▁BC 24
rust 24
▁arrangement 24
NC 24
▁exhausted 24
▁Ninety 24
▁vivid 24
abil 24
▁fatty 24
▁mechan 24
▁moth 24
▁Ber 24
▁Margaret 24
▁weighed 24
▁Inside 24
▁grief 24
▁slaughter 24
▁gre 24
▁Full 24
▁ramp 24
▁blur 24
linear 24
▁desp 24
▁diamond 24
eries 24
▁sy 24
▁festival 24
▁wander 24
▁neuroscientists 24
▁ancestry 24
▁Scientists 24
▁Rec 24
▁lazy 24
▁threatening 24
yr 24
otted 24
▁backward 24
▁amput 24
▁Barack 24
obe 24
▁recruited 24
▁Sky 24
▁Luc 24
▁evapor 24
▁tid 24
▁excerpt 24
▁ringing 24
▁elites 24
▁ministers 24
▁council 24
▁offshore 24
working 24
▁crafts 24
▁Medic 24
▁injection 24
▁Cir 24
▁handy 24
▁Cooper 24
▁fib 24
▁triangles 24
▁hect 24
▁Gal 24
▁geese 24
aware 24
▁poets 24
▁creators 24
▁Ath 24
▁magnets 24
▁crosses 24
▁scholar 24
▁certified 24
▁whis 24
▁Fem 24
▁bioluminescence 24
iration 24
▁Emb 24
▁passengers 24
▁99. 24
▁juggling 24
▁AIMS 24
▁tutor 24
▁pirate 24
▁files 24
▁neut 24
▁centimeter 24
▁hats 24
▁executives 24
▁Jud 24
▁Jean 24
▁Wild 24
ourced 24
▁synapses 24
▁improvisation 24
▁Hem 24
▁gam 24
ushed 24
▁PH 24
▁trait 24
▁BL 24
▁urine 24
▁optimal 24
▁scripts 24
▁antibodies 24
▁wolves 24
▁limitation 24
ER 24
▁RISD 24
▁cartoonist 24
▁cong 24
▁indoors 24
▁turb 24
asc 24
▁iPad 24
▁mammography 24
Jeopardy 24
▁AO 24
wandering 24
▁HG 24
▁Everglades 24
ipper 23
▁rear 23
jor 23
▁flooding 23
▁ignorant 23
▁burns 23
▁Comp 23
▁sympathy 23
▁textile 23
▁troubled 23
▁doct 23
▁Av 23
▁develops 23
▁Mus 23
▁SR 23
▁tourism 23
change 23
▁subst 23
organ 23
non 23
▁Senate 23
▁committee 23
▁enzymes 23
▁RO 23
Your 23
enh 23
▁Palm 23
▁flop 23
▁1997, 23
▁jeans 23
iety 23
▁echo 23
▁respects 23
▁Stat 23
olis 23
▁tourist 23
▁fulfilling 23
▁Hudson 23
IP 23
▁depressing 23
uding 23
▁Wil 23
▁lag 23
▁invade 23
▁absorbed 23
▁2001 23
▁Pepsi 23
▁Moreover 23
▁untouch 23
▁stewards 23
▁thirdly 23
▁regimes 23
▁differentiate 23
opsy 23
▁corresponding 23
▁leaks 23
▁elevated 23
▁novels 23
▁Aud 23
industrial 23
▁acqu 23
▁estrogen 23
▁54 23
▁marriages 23
▁IT 23
▁carcin 23
ugg 23
▁packaging 23
▁cue 23
ivia 23
green 23
▁armor 23
▁189 23
▁expands 23
▁snap 23
▁varied 23
▁Much 23
▁democrat 23
▁Psych 23
ince 23
▁internationally 23
▁presentations 23
BC 23
▁bunk 23
▁explicit 23
airs 23
▁auditory 23
▁tortured 23
▁uploaded 23
iar 23
irts 23
▁cooked 23
▁fractal 23
▁shrinking 23
▁Sony 23
Give 23
▁Modern 23
▁buys 23
▁trunk 23
▁stereo 23
▁rendering 23
-' 23
▁Dead 23
▁merch 23
▁fuck 23
▁fairy 23
▁bel 23
assion 23
▁ru 23
isy 23
allow 23
▁methodology 23
▁Village 23
▁Point 23
▁signing 23
▁NO 23
ologic 23
quarters 23
▁Starbucks 23
▁et 23
▁Ric 23
itten 23
▁merg 23
▁reconnect 23
▁spills 23
raction 23
iper 23
▁rushed 23
▁biotech 23
osure 23
▁pers 23
▁constrained 23
▁Nine 23
▁donations 23
xt 23
▁reporter 23
style 23
▁lightweight 23
▁decentralized 23
▁Kelly 23
▁2002, 23
organizing 23
▁Depression 23
▁fut 23
imal 23
▁minimize 23
▁exh 23
sts 23
▁stockp 23
▁learner 23
rand 23
▁hypothetical 23
cro 23
▁ecst 23
▁intrinsically 23
▁functionality 23
▁fade 23
bit 23
▁comput 23
▁inputs 23
▁Julia 23
▁costly 23
▁auto 23
▁57 23
▁saves 23
ault 23
▁dispar 23
▁carrot 23
▁anticipated 23
▁Moses 23
▁tipping 23
vet 23
▁settlement 23
▁Build 23
▁renew 23
▁explos 23
▁reacting 23
▁seiz 23
urge 23
phal 23
▁Kar 23
▁outrageous 23
▁strongest 23
▁epidem 23
▁Program 23
▁Network 23
▁founder 23
▁188 23
▁frequent 23
keeping 23
▁pos 23
▁amateurs 23
xy 23
oul 23
abad 23
▁Agnes 23
▁mol 23
▁richness 23
▁tails 23
▁accidental 23
▁penet 23
▁implication 23
aic 23
▁dash 23
▁Sex 23
▁buck 23
▁envy 23
cur 23
▁databases 23
▁upwards 23
▁depr 23
▁banker 23
bye 23
▁Run 23
▁heel 23
▁poorer 23
people 23
▁fingertips 23
▁invasive 23
▁Cro 23
enced 23
▁veil 23
▁humiliation 23
▁Ultimately 23
▁glorious 23
rip 23
▁ninth 23
▁margin 23
▁pets 23
▁Christianity 23
▁wiring 23
▁athlete 23
ingo 23
▁preferences 23
stein 23
▁statue 23
▁lam 23
▁strangely 23
▁thunder 23
▁coherent 23
▁tox 23
▁descriptions 23
▁germs 23
▁boo 23
▁cane 23
oxy 23
▁drowning 23
▁trusting 23
▁Marx 23
▁complained 23
▁poetic 23
▁secretly 23
ogue 23
▁vo 23
▁upstream 23
izable 23
munications 23
▁ide 23
▁Station 23
▁resemble 23
acon 23
▁convenience 23
consum 23
held 23
▁Marine 23
▁Conf 23
igate 23
ols 23
▁align 23
▁terminal 23
▁orb 23
▁diagn 23
owned 23
▁coinc 23
▁simplistic 23
▁Aw 23
▁Ku 23
▁dub 23
▁scholarship 23
▁Mama 23
oton 23
▁cabinet 23
▁Murray 23
▁dunes 23
▁drowned 23
▁halluc 23
▁rightly 23
▁indul 23
▁reminder 23
ension 23
aved 23
▁trailer 23
▁Goo 23
▁northeast 23
▁aqu 23
▁maximize 23
▁synchron 23
▁insecure 23
houses 23
▁Sydney 23
▁spirits 23
▁advers 23
▁translates 23
▁whistling 23
ocus 23
▁porn 23
ó 23
assy 23
▁retired 23
▁dining 23
▁propag 23
ipcar 23
▁literary 23
▁mite 23
▁hon 23
▁plut 23
▁jugg 23
▁SJ 23
▁Left 23
▁fluctuations 23
ss 23
▁Throughout 23
▁charter 23
▁centimeters 23
▁congress 23
▁detectors 23
▁achievements 23
▁cubic 23
▁devised 23
▁acknowledged 23
▁appealing 23
▁liberals 23
▁sealed 23
▁Dar 23
▁stunts 23
▁diff 23
▁guidance 23
▁stimulus 23
▁Dallas 23
▁exams 23
▁conservatives 23
▁Marcus 23
▁Hindu 23
▁uranium 23
▁overseas 23
▁sett 23
▁blo 23
▁interven 23
▁followers 23
▁chew 23
▁orient 23
degree 23
▁Tamiflu 23
▁aspiration 23
▁honeybees 23
▁Forty 23
▁pu 23
▁BP 23
▁lesbian 23
positive 23
▁bioluminescent 23
▁favelas 23
▁FO 23
▁friendships 23
▁RL 23
▁StoryCorps 23
▁expend 22
inder 22
▁calculator 22
▁involvement 22
▁Listen 22
▁Help 22
▁charcoal 22
archy 22
IT 22
▁prem 22
▁Europeans 22
▁whip 22
▁motorcycle 22
▁extremes 22
ynth 22
agen 22
▁metabol 22
▁combining 22
▁crashed 22
▁primal 22
▁ruin 22
▁clicking 22
versely 22
asure 22
▁emailed 22
▁Norman 22
▁steering 22
▁impress 22
▁parked 22
▁watt 22
kel 22
▁lithium 22
▁therm 22
▁IMF 22
▁Chim 22
atized 22
▁hunch 22
▁Didn 22
▁dumped 22
city 22
▁footprints 22
▁Fair 22
▁hypotheses 22
▁huh 22
▁doub 22
▁polite 22
▁Whit 22
▁tolerate 22
▁Arabs 22
▁58 22
▁mineral 22
▁96 22
▁recipes 22
▁fertility 22
▁mutually 22
elled 22
▁historian 22
▁Guinea 22
▁medieval 22
▁Anything 22
▁realizes 22
▁mustard 22
ij 22
home 22
▁quar 22
▁variability 22
hear 22
▁banjo 22
▁gossip 22
▁reads 22
ki 22
great 22
▁antenna 22
Wh 22
▁UK 22
▁Guardian 22
▁Veronica 22
round 22
place 22
ressing 22
▁jury 22
cend 22
▁accused 22
▁Behind 22
▁500,000 22
▁reply 22
▁orch 22
▁gru 22
▁interfere 22
▁Lyn 22
▁mach 22
▁telephones 22
▁extrem 22
umin 22
▁commercials 22
rench 22
▁Fed 22
rage 22
▁Portland 22
▁Given 22
iary 22
ctors 22
▁unpleasant 22
ety 22
oulder 22
▁criticized 22
▁placing 22
uration 22
▁penetrate 22
outh 22
▁Renaissance 22
▁janitor 22
▁Creat 22
pable 22
▁retrospect 22
azz 22
▁warehouse 22
▁Pentagon 22
▁milit 22
itary 22
▁Plan 22
▁Sebastian 22
▁tense 22
▁Read 22
▁lingu 22
uns 22
violence 22
▁bru 22
▁Lin 22
▁collaborator 22
▁Club 22
atr 22
ench 22
▁smartest 22
▁Ange 22
▁inexpensive 22
▁centralized 22
ements 22
ratic 22
▁cere 22
ogn 22
▁200- 22
▁immortality 22
▁poles 22
▁underway 22
▁bid 22
child 22
▁dangers 22
▁compass 22
▁escaped 22
▁3: 22
▁Laure 22
resh 22
Just 22
EC 22
▁stakes 22
▁capacities 22
▁arithmetic 22
lement 22
▁distracted 22
oose 22
▁JL 22
▁emphasis 22
▁miscon 22
▁UV 22
▁prevalent 22
▁payload 22
▁brakes 22
urable 22
brain 22
▁sewage 22
▁retain 22
▁Neither 22
▁rubble 22
▁CNN 22
rap 22
▁integrating 22
▁guidelines 22
▁pristine 22
▁sucked 22
ensity 22
▁byproduct 22
▁popping 22
▁cub 22
saving 22
▁scalable 22
▁ST 22
yard 22
▁erase 22
unction 22
ni 22
iologist 22
itan 22
Hello 22
feed 22
▁tab 22
▁Snow 22
▁Cross 22
crib 22
▁murdered 22
▁je 22
fting 22
▁strokes 22
▁exceptional 22
▁Truth 22
CO 22
▁conception 22
▁inequ 22
▁Victorian 22
▁Among 22
rome 22
▁warn 22
aa 22
▁founders 22
▁unh 22
charge 22
▁adolescents 22
▁Energy 22
▁flick 22
▁Nik 22
fits 22
itarian 22
astically 22
ellers 22
▁rotating 22
icular 22
▁incorporate 22
▁rendered 22
▁angel 22
vern 22
▁receives 22
▁preservation 22
action 22
▁belonging 22
▁liberation 22
arded 22
▁Vietnamese 22
▁caregivers 22
anced 22
▁jo 22
cending 22
Get 22
▁puppet 22
▁payment 22
▁Excellent 22
▁Commission 22
very 22
▁TR 22
▁Kind 22
▁Oliver 22
▁casc 22
▁Somehow 22
ulous 22
▁myst 22
▁ren 22
▁cliffs 22
▁unaware 22
▁prog 22
▁lied 22
▁floods 22
▁Ivan 22
▁Essentially 22
▁Hitler 22
abb 22
▁Ver 22
eur 22
▁summ 22
▁encl 22
▁livelihood 22
▁Colorado 22
-3 22
▁wrest 22
▁announce 22
▁scuba 22
▁hay 22
▁tablet 22
▁ripped 22
odies 22
▁browse 22
▁browsing 22
ago 22
▁sediment 22
▁chron 22
▁extracted 22
▁fingerprint 22
▁tales 22
▁timeline 22
▁foraging 22
▁nests 22
▁Maria 22
ims 22
▁deliberate 22
▁depended 22
▁transferred 22
▁difficulties 22
▁MBA 22
▁Conference 22
▁Bond 22
▁announcement 22
▁Pakistani 22
▁infer 22
▁establishment 22
▁mama 22
▁appe 22
uate 22
▁110 22
crim 22
Have 22
tery 22
▁Ages 22
▁county 22
▁sur 22
▁academ 22
▁kidn 22
▁neuroscientist 22
▁outward 22
▁overd 22
bur 22
▁Near 22
social 22
encing 22
nel 22
erk 22
▁fle 22
▁mega 22
▁desalination 22
▁availability 22
12 22
▁periphery 22
▁desertification 22
itudes 22
▁polls 22
▁dodo 22
▁Lou 22
weet 22
omy 22
▁Sen 22
▁82 22
▁chord 22
▁deleg 22
▁paradise 22
▁heated 22
chan 22
▁claws 22
▁gecko 22
▁lasting 22
▁breasts 22
▁Doctor 22
▁cul 22
▁decomp 22
▁fairness 22
▁Brain 22
ivated 22
▁addict 22
▁shortage 22
▁behaving 22
fashioned 22
▁eng 22
▁LEDs 22
irming 22
▁province 22
▁Hadron 22
▁Collider 22
▁fuse 22
growth 22
cor 22
▁strains 22
▁Index 22
▁inventing 22
bec 22
▁Flickr 22
▁ray 22
uclear 22
▁joints 22
acted 22
▁vicious 22
▁fraud 22
▁claimed 22
▁virtues 22
▁Wired 22
▁veterans 22
▁articulate 22
▁mash 22
▁unve 22
▁convers 22
▁onc 22
▁questioned 22
▁policing 22
umes 22
▁beekeepers 22
▁Ur 22
▁dispers 22
▁aspir 22
▁personnel 22
▁reun 22
▁abusive 22
▁fonts 22
▁predatory 22
▁metrics 22
▁providers 22
ublic 22
rus 22
▁penicillin 22
ã 22
▁LOL 22
▁Lesters 22
▁Tennessee 21
▁Buy 21
urp 21
▁conducting 21
▁cleaner 21
▁stabilize 21
bag 21
▁UC 21
▁switching 21
▁AS 21
▁Econom 21
▁simplify 21
▁rode 21
▁illiterate 21
▁instinctively 21
▁spaceship 21
▁adequate 21
▁2020. 21
▁starving 21
▁15. 21
▁obligation 21
▁stole 21
▁quant 21
▁downstairs 21
▁Gordon 21
▁1995, 21
▁derived 21
▁capturing 21
▁nut 21
▁mandate 21
▁Word 21
▁severely 21
▁revealing 21
▁16- 21
▁cath 21
artic 21
▁pier 21
▁disbelief 21
▁substantially 21
ilar 21
▁concluded 21
▁automotive 21
iage 21
▁Avenue 21
▁sidewalks 21
▁visionary 21
▁100- 21
▁boil 21
▁dimin 21
▁performances 21
▁Nancy 21
▁stretched 21
▁deterior 21
▁generator 21
▁resemb 21
▁colonial 21
▁precon 21
▁suff 21
erving 21
▁arranged 21
▁handsome 21
▁wastewater 21
▁ceram 21
▁degradation 21
▁tempt 21
▁Ol 21
▁animated 21
olution 21
your 21
▁freedoms 21
bell 21
▁serv 21
▁volat 21
▁makeup 21
hole 21
▁Emma 21
▁skept 21
▁perceptual 21
▁Galileo 21
▁Hu 21
arse 21
▁wipe 21
lyn 21
Tell 21
▁inhabitants 21
▁vibrant 21
▁DJ 21
▁innov 21
▁translating 21
▁modular 21
▁automated 21
▁sword 21
▁Wide 21
shot 21
▁Town 21
ervation 21
▁immensely 21
▁flour 21
star 21
▁hears 21
▁lava 21
▁gangs 21
▁unequal 21
▁charts 21
real 21
▁dread 21
mies 21
▁Report 21
▁tiniest 21
▁fig 21
urally 21
▁hind 21
▁caus 21
▁tomb 21
kill 21
▁numer 21
▁casualties 21
▁Cuban 21
▁sweeping 21
▁Cre 21
▁submarine 21
▁watches 21
▁idiot 21
▁pron 21
▁restrictions 21
▁cent 21
▁CIA 21
▁Tam 21
▁occupation 21
▁Exxon 21
arts 21
▁neighboring 21
aj 21
▁atheist 21
▁Caltech 21
▁rigorous 21
▁manuscript 21
▁references 21
▁stap 21
▁jacket 21
▁sank 21
gr 21
mun 21
▁monthly 21
▁dictator 21
▁hi 21
▁fulfill 21
▁SARS 21
▁transistors 21
▁Code 21
▁transistor 21
▁augmented 21
▁genuinely 21
▁condem 21
▁thoroughly 21
▁eliminating 21
▁counsel 21
▁partially 21
ishes 21
▁clap 21
▁cosmology 21
▁supernova 21
▁unfinished 21
sc 21
▁scrap 21
struct 21
▁Cons 21
that 21
resolution 21
quis 21
▁carve 21
▁supercomputer 21
▁Cameron 21
▁billboard 21
▁refers 21
oko 21
▁lastly 21
▁thesis 21
▁Toyota 21
▁ther 21
▁indicators 21
▁Poor 21
▁spear 21
▁populated 21
▁League 21
▁flap 21
▁epiphany 21
▁tire 21
▁intentional 21
▁dip 21
▁TEDster 21
▁artery 21
▁Several 21
ogram 21
▁headaches 21
▁headache 21
olar 21
▁Channel 21
▁triggers 21
▁blessing 21
▁eradicated 21
▁certificate 21
▁kings 21
▁Barry 21
▁MP 21
▁quarters 21
▁fiscal 21
▁Case 21
▁starvation 21
▁pharmac 21
▁drank 21
▁reinforce 21
▁grounds 21
▁dissem 21
▁Buddh 21
▁curtain 21
▁circum 21
ilation 21
▁residential 21
▁prot 21
heart 21
▁progressive 21
▁exploitation 21
▁amaz 21
▁Carol 21
▁plural 21
▁spo 21
▁VC 21
▁protocol 21
▁paragraph 21
▁officially 21
▁mentality 21
amation 21
good 21
▁measurable 21
ogs 21
▁tensions 21
▁hacked 21
▁superpower 21
▁hello 21
▁Panbanisha 21
▁groom 21
▁curved 21
▁worn 21
▁lev 21
nal 21
▁1,100 21
▁ce 21
▁bro 21
▁Sadly 21
▁Land 21
▁determination 21
▁stagn 21
▁Mag 21
▁gifted 21
▁rejection 21
▁Book 21
▁Need 21
AC 21
▁Online 21
▁flipped 21
▁mini 21
▁Sri 21
gel 21
▁hood 21
▁Holy 21
▁intellect 21
▁Better 21
▁tattoos 21
rib 21
▁rabbits 21
▁fluctu 21
▁horn 21
▁rows 21
▁clapping 21
por 21
ppers 21
▁laure 21
▁Pope 21
▁Living 21
Of 21
▁agnostic 21
▁mismatch 21
▁affirm 21
conf 21
▁64 21
high 21
▁containers 21
mes 21
▁forum 21
▁plotted 21
▁bass 21
▁defending 21
▁jack 21
edy 21
▁airports 21
▁Dur 21
▁Millennium 21
▁sting 21
▁aerial 21
▁tunas 21
Afric 21
uba 21
ih 21
▁Magazine 21
▁IV 21
▁sunny 21
▁thou 21
▁disturb 21
▁perfection 21
Star 21
= 21
▁identification 21
etah 21
cils 21
▁husbands 21
▁memorable 21
▁persistent 21
▁incomes 21
▁trillions 21
ographical 21
▁lemon 21
▁resulted 21
ogene 21
▁declined 21
▁dominance 21
▁CERN 21
▁oxide 21
▁Digital 21
▁ape 21
heim 21
▁MM 21
▁Andy 21
▁packaged 21
ilated 21
▁AV 21
hr 21
▁cruise 21
▁Cassini 21
▁adventures 21
▁stain 21
▁commissioned 21
bits 21
mail 21
▁gyrus 21
▁coma 21
▁proves 21
▁disposal 21
▁traded 21
generated 21
▁uh 21
▁notation 21
▁predicts 21
▁retrie 21
▁fission 21
▁dro 21
▁athletic 21
▁regain 21
▁visualizing 21
▁maj 21
gon 21
▁Hack 21
race 21
▁BR 21
▁anom 21
▁mites 21
▁Joel 21
▁innate 21
▁balancing 21
People 21
▁explosions 21
▁Incredible 21
▁freeway 21
▁vents 21
▁rac 21
▁hull 21
▁Hebrew 21
▁Mob 21
▁performers 21
ilia 21
icious 21
fty 21
acious 21
▁fungus 21
cons 21
▁extracellular 21
▁slot 21
▁steak 21
▁crush 21
iked 21
osaurus 21
arent 21
sharing 21
▁Isaac 21
▁Es 21
▁theft 21
IS 21
▁posts 21
bags 21
▁bronze 21
▁bab 21
▁Fly 21
▁nursing 21
▁lent 21
▁continuity 21
▁Brother 21
ictions 21
▁overweight 21
awatt 21
▁RG 21
▁recreate 21
▁bites 21
itra 21
activity 21
è 21
▁slices 21
▁flame 21
▁rediscover 21
▁valve 21
▁Glass 21
▁ripp 21
▁Falcon 21
▁Iranians 21
▁Tehran 21
▁neur 21
▁Khan 21
▁prescribe 21
▁deceased 21
▁Lakota 21
▁agile 21
▁atrazine 21
▁Movember 21
▁thylacine 21
“ 21
▁Nash 20
aur 20
▁strain 20
ratulations 20
▁bip 20
orr 20
▁commentary 20
▁Stay 20
▁fragmented 20
▁mobilize 20
▁capitalist 20
▁supposedly 20
▁Text 20
▁endlessly 20
▁discourse 20
aza 20
▁39 20
▁rust 20
ivate 20
▁critics 20
aires 20
?' 20
▁rage 20
▁Between 20
mal 20
▁separ 20
▁qual 20
▁Cou 20
▁swallow 20
las 20
▁genital 20
utch 20
week 20
ano 20
▁modify 20
▁cellul 20
▁remed 20
chemical 20
▁ironically 20
▁understandable 20
▁Photoshop 20
▁upgrade 20
▁geek 20
▁backed 20
▁Whoa 20
rect 20
▁Ground 20
▁devastated 20
▁collabor 20
▁rebuilding 20
▁lining 20
▁unimaginable 20
▁energ 20
▁skate 20
▁feathers 20
▁contaminated 20
▁suitable 20
▁greed 20
plus 20
▁oral 20
iol 20
▁quot 20
▁Mahatma 20
▁Pot 20
Maybe 20
▁initi 20
white 20
▁embarrassment 20
▁2004. 20
▁craving 20
▁artic 20
▁Sol 20
▁imaginative 20
▁circuitry 20
▁Fore 20
▁compatible 20
▁antidepressants 20
RI 20
▁serotonin 20
▁survives 20
bes 20
▁interference 20
▁mimics 20
▁rainwater 20
ensing 20
▁11. 20
▁Eden 20
▁Arts 20
▁definitions 20
▁collections 20
▁proph 20
▁olive 20
hor 20
▁swear 20
▁hurricane 20
▁stimulated 20
uary 20
cience 20
▁linguistic 20
▁fro 20
igious 20
▁baker 20
▁cease 20
▁1940 20
▁stripped 20
▁confession 20
vention 20
▁intimid 20
▁swept 20
itory 20
▁reuse 20
▁Math 20
▁auction 20
▁Imp 20
▁prints 20
aria 20
▁diffusion 20
▁ignoring 20
▁notor 20
▁80- 20
CE 20
▁proving 20
oking 20
▁Bear 20
aim 20
effective 20
terior 20
▁decor 20
▁accommodate 20
▁resh 20
▁augment 20
▁energetic 20
▁Though 20
▁beats 20
11. 20
iscovery 20
isive 20
Stop 20
eland 20
▁Raise 20
▁disparate 20
▁unm 20
▁Oper 20
appy 20
▁analytical 20
lean 20
▁enlight 20
▁forehead 20
▁Colombia 20
▁workshops 20
▁Irish 20
▁Marshall 20
▁Armstrong 20
oto 20
▁Turkish 20
iki 20
gener 20
▁contribut 20
▁delete 20
▁append 20
reet 20
▁hosts 20
▁defe 20
▁incremental 20
lived 20
▁neglect 20
▁immortal 20
sim 20
eor 20
assic 20
▁flames 20
idal 20
▁versa 20
▁sim 20
▁subsequently 20
▁Scratch 20
▁depict 20
▁Russell 20
▁moons 20
▁traum 20
▁drifted 20
▁diagnostics 20
oscope 20
vity 20
controll 20
▁Yves 20
▁effectiveness 20
▁backup 20
▁subsidies 20
▁grat 20
▁convergence 20
▁contacted 20
▁unhealthy 20
ipe 20
▁cumulative 20
▁resur 20
any 20
▁surre 20
▁photographing 20
▁demol 20
▁maze 20
▁Exper 20
▁neuros 20
udes 20
▁Early 20
▁WHO 20
enza 20
▁tougher 20
▁Move 20
▁Jon 20
▁astounding 20
▁embryonic 20
▁levers 20
▁2,500 20
anda 20
agina 20
▁Girls 20
▁conform 20
▁emphas 20
▁determining 20
▁73 20
▁Non 20
pse 20
▁5. 20
ede 20
wire 20
▁scarcity 20
▁hurry 20
▁decl 20
▁perme 20
▁motto 20
catch 20
▁destined 20
▁imitate 20
▁perm 20
▁collapses 20
ems 20
gling 20
▁micros 20
▁monument 20
▁1994, 20
berto 20
▁CP 20
▁enduring 20
▁surfing 20
ependent 20
▁yields 20
ng 20
▁apprent 20
hearted 20
▁helicopters 20
▁scram 20
▁sponsor 20
▁gently 20
funded 20
▁fac 20
▁quoted 20
▁uncover 20
▁Happy 20
▁inferior 20
▁liking 20
▁prep 20
▁crystals 20
rability 20
▁discomfort 20
arl 20
tt 20
cuss 20
▁tun 20
utt 20
▁wetlands 20
▁inhabit 20
▁Doctors 20
▁fort 20
# 20
▁prayers 20
▁junior 20
▁gran 20
▁Dec 20
▁pornography 20
▁Along 20
pen 20
▁Nevada 20
▁Bridge 20
lined 20
▁puff 20
▁adulthood 20
▁priv 20
▁kin 20
▁unite 20
▁enterprises 20
▁shores 20
party 20
▁param 20
▁Friedman 20
▁guessing 20
▁enlightened 20
▁viewpoint 20
▁Europa 20
▁Enceladus 20
requ 20
▁repeating 20
▁ultrasound 20
utter 20
▁forage 20
▁gee 20
▁creepy 20
▁stabil 20
▁ju 20
▁Welcome 20
▁McK 20
iva 20
▁Fourth 20
▁shattered 20
▁carved 20
▁propulsion 20
▁twenty 20
▁Mid 20
▁pist 20
▁credible 20
▁Spider 20
▁rewarded 20
uation 20
▁protons 20
▁alarming 20
▁protects 20
▁paleont 20
▁activism 20
▁disproportion 20
▁seasonal 20
▁concerts 20
▁1,200 20
▁Save 20
eters 20
▁synesthesia 20
fe 20
phor 20
▁chewing 20
▁rud 20
▁essay 20
▁jeal 20
▁dye 20
▁weaker 20
▁brute 20
▁motions 20
▁urgency 20
▁spir 20
▁Self 20
abs 20
arians 20
▁Rh 20
▁pioneer 20
▁ruled 20
▁anch 20
▁bumble 20
▁manipulated 20
adic 20
lay 20
eping 20
▁Sweeney 20
▁mechanically 20
▁flo 20
▁Titanic 20
▁Rab 20
▁eyebrow 20
▁arteries 20
▁exposing 20
▁accidentally 20
hou 20
▁Westerners 20
▁dove 20
▁vit 20
▁soils 20
▁stink 20
▁oyster 20
▁vending 20
▁omn 20
▁mounted 20
▁submersible 20
▁extraction 20
▁gloves 20
▁Effect 20
▁unfamiliar 20
▁Neanderthal 20
▁empirical 20
▁mater 20
▁epic 20
▁Stories 20
▁dude 20
mate 20
ulations 20
▁Gaza 20
aded 20
▁viewers 20
ceptions 20
▁containing 20
▁Group 20
▁Hyper 20
▁80,000 20
▁radioactive 20
▁Legos 20
bro 20
▁believer 20
ulously 20
▁Duke 20
ö 20
▁intricate 20
▁perf 20
▁doodling 20
▁hive 20
▁hives 20
▁pollinators 20
▁fright 20
▁guerrillas 20
▁crises 20
▁pension 20
▁professions 20
▁narc 20
▁tweets 20
▁monitored 20
▁instruct 20
▁retrof 20
▁standardized 20
▁encoded 20
▁dictators 20
▁protocells 20
▁Maldives 20
▁Titus 20
▁ft 20
▁pies 20
driving 20
gend 20
▁Lesterland 20
▁RNG 20
▁rented 19
▁catalyst 19
▁Working 19
▁predomin 19
▁aviation 19
▁Voyager 19
▁Cra 19
ige 19
▁taxpay 19
▁puppy 19
aments 19
▁Prince 19
▁pathogens 19
▁characterized 19
▁testimony 19
cc 19
▁captures 19
▁converting 19
▁photosynthesis 19
rorism 19
▁typed 19
gment 19
▁Haw 19
▁Forget 19
▁AI 19
ameless 19
washing 19
orial 19
▁railroad 19
▁pedestrians 19
atable 19
▁Grey 19
▁Stirling 19
comp 19
▁imitation 19
▁dividing 19
spe 19
▁companion 19
▁deriv 19
▁proliferation 19
tun 19
▁removing 19
▁metast 19
asis 19
▁hijack 19
▁Miami 19
▁RSW 19
▁cheer 19
clear 19
▁fitting 19
aga 19
▁traumatic 19
▁holistic 19
▁suppress 19
▁flush 19
▁carbonate 19
▁polymer 19
▁starch 19
lied 19
▁attempting 19
▁extending 19
▁extends 19
Bl 19
▁Trust 19
▁revelation 19
ried 19
▁Jackson 19
unky 19
icing 19
▁Yellow 19
eled 19
▁univers 19
▁hid 19
▁fring 19
▁tribute 19
▁downloaded 19
▁Bono 19
▁humane 19
▁digit 19
▁tearing 19
cale 19
▁84 19
bound 19
▁Potter 19
▁differential 19
medi 19
▁primordial 19
mas 19
▁mortgage 19
▁zip 19
da 19
rove 19
▁Captain 19
▁Organ 19
icial 19
▁digitally 19
piece 19
▁contributes 19
▁Iron 19
▁anesth 19
amin 19
▁jelly 19
ensive 19
▁toughest 19
▁mantra 19
▁servant 19
angle 19
▁Buff 19
alo 19
▁presumably 19
▁contin 19
▁unravel 19
uri 19
▁governor 19
▁displayed 19
▁asymmet 19
aze 19
▁Achilles 19
▁exclusively 19
abe 19
▁Kim 19
▁pretending 19
▁Hand 19
▁mount 19
▁pissed 19
▁draft 19
▁inh 19
▁alpha 19
stra 19
▁occasions 19
▁1960, 19
▁tagging 19
▁Ce 19
▁thoughtful 19
Wait 19
abyte 19
▁Whole 19
▁dumping 19
▁Stein 19
▁lifes 19
▁merge 19
▁summed 19
▁prote 19
▁skeletons 19
▁crabs 19
▁evolves 19
▁dried 19
▁anecd 19
market 19
lit 19
▁irregular 19
gender 19
Our 19
▁premature 19
▁Equ 19
lapse 19
▁astronauts 19
uccess 19
▁reconcile 19
▁subconscious 19
▁assumes 19
▁Graham 19
▁posit 19
▁enhanced 19
▁modules 19
▁modes 19
▁vibr 19
mann 19
▁Nice 19
▁directed 19
▁cereal 19
icell 19
▁rib 19
izzy 19
▁generalize 19
▁Sin 19
▁abstraction 19
▁substitute 19
▁distort 19
▁tires 19
▁stiff 19
fifth 19
▁Governments 19
▁advancing 19
▁dragging 19
▁restoration 19
▁desperation 19
▁wilderness 19
▁jewel 19
▁1999, 19
▁Alabama 19
▁villagers 19
ustain 19
▁por 19
▁Cultural 19
▁hitch 19
▁pains 19
▁Moh 19
▁competent 19
▁Ball 19
▁Serge 19
▁queens 19
▁embark 19
▁1980, 19
▁unthinkable 19
▁discrete 19
opol 19
▁cans 19
▁fulfilled 19
▁piss 19
▁eru 19
▁suspected 19
▁186 19
▁proposing 19
▁lacking 19
▁gears 19
▁payoff 19
▁structured 19
▁BBC 19
▁Glenn 19
▁melted 19
ieve 19
▁devote 19
▁Rosling 19
▁passionately 19
▁dominate 19
ollow 19
▁'30 19
▁Rachel 19
▁reception 19
▁boyfriend 19
▁vague 19
▁susceptible 19
▁plaus 19
▁reviewed 19
▁correlated 19
▁constructive 19
▁boils 19
▁Pay 19
▁ducks 19
▁proxy 19
▁hover 19
oping 19
▁Vancouver 19
▁universally 19
▁97 19
ustr 19
▁acquisition 19
ulture 19
▁mantis 19
▁filming 19
▁fount 19
▁rearr 19
▁allev 19
▁barg 19
5,000 19
▁learners 19
opes 19
boat 19
▁Py 19
▁racism 19
▁clarify 19
▁imposed 19
▁grandmothers 19
▁maternal 19
▁evaluation 19
▁19, 19
▁representatives 19
▁arriving 19
▁Knowing 19
▁simulator 19
▁scrib 19
onies 19
▁dairy 19
▁serendip 19
▁terrestrial 19
▁obey 19
▁shortest 19
▁appreci 19
▁messed 19
▁futures 19
legic 19
▁rhetoric 19
▁replicated 19
oster 19
▁rabbit 19
▁dune 19
▁lengths 19
▁encounters 19
▁Night 19
▁milliseconds 19
▁Rain 19
▁performer 19
▁Ga 19
▁blanket 19
▁nit 19
▁solitary 19
▁rav 19
▁toaster 19
▁Computer 19
eed 19
▁packing 19
enders 19
▁finest 19
▁Shortly 19
▁cured 19
▁conceive 19
▁unch 19
▁hostility 19
iew 19
▁loyal 19
▁confuse 19
iosity 19
▁Josh 19
▁une 19
▁Find 19
▁broadcasting 19
▁communal 19
▁excav 19
▁Oakland 19
▁announcing 19
▁consp 19
▁sneak 19
▁Economic 19
inked 19
▁emission 19
▁lifetimes 19
▁communist 19
▁Virtual 19
▁2007. 19
▁Philippines 19
▁attended 19
▁onset 19
▁puzzling 19
▁quadru 19
▁imbalance 19
▁strips 19
▁pixels 19
▁foragers 19
▁antennae 19
▁attendance 19
idence 19
iters 19
▁suitcase 19
▁autobi 19
▁Roosevelt 19
ruption 19
▁dysfunctional 19
▁struggles 19
▁strapped 19
▁fertilizers 19
▁sen 19
▁Wind 19
▁Holocaust 19
▁mattered 19
▁experimentation 19
▁bullets 19
▁fences 19
▁arrangements 19
irty 19
orable 19
▁speeches 19
▁sideways 19
phem 19
▁Americas 19
oir 19
▁verbs 19
reci 19
▁interpre 19
xual 19
▁immigrants 19
uty 19
▁antibiotic 19
▁Survey 19
▁35,000 19
▁scour 19
▁powerfully 19
▁ridic 19
▁vertically 19
▁circumstance 19
SP 19
▁damaging 19
▁Normally 19
▁gates 19
▁rece 19
▁revol 19
▁shade 19
cise 19
▁flourishing 19
▁pads 19
legged 19
▁Lo 19
▁resulting 19
▁serial 19
▁virtuous 19
▁enthusiastic 19
ouses 19
▁prostitution 19
▁inherit 19
▁technicians 19
▁enroll 19
▁Further 19
▁provider 19
peer 19
▁beans 19
rise 19
▁bricks 19
▁microwave 19
▁stall 19
▁mock 19
▁Judaism 19
▁rabbi 19
▁illeg 19
▁atmospheres 19
cribed 19
▁durable 19
▁Jama 19
rict 19
▁fost 19
▁oper 19
onics 19
▁bending 19
▁digitize 19
▁filmmakers 19
▁coordinated 19
▁cloned 19
▁bleed 19
▁Southeast 19
▁interrupted 19
▁savanna 19
▁socioeconomic 19
▁efficacy 19
▁assignments 19
iley 19
▁installations 19
icult 19
▁utop 19
▁pulses 19
vey 19
▁traw 19
▁seminal 19
▁Jesse 19
▁Sergio 19
▁poop 19
▁Harlem 19
OM 19
aras 19
▁defeated 19
▁Grace 19
▁KS 19
▁detecting 19
▁participatory 19
▁Service 19
▁representations 19
▁Mario 19
ded 19
ao 19
▁Matthew 19
mates 19
diving 19
▁collaborating 19
▁Kin 19
▁continuum 19
▁exhilarating 19
"' 19
▁lymph 19
marks 19
▁undercover 19
▁filed 19
▁Fibonacci 19
▁scaffold 19
▁oiled 19
▁Anonymous 19
▁encrypted 19
▁Dubai 19
▁pollination 19
▁mammogram 19
abor 19
▁Baltimore 19
▁Tahrir 19
▁Syrian 19
▁Romo 19
▁microRNA 19
▁waving 18
▁Pick 18
▁readily 18
▁nutritional 18
▁kil 18
▁restrict 18
ava 18
ds 18
▁Hopkins 18
▁monopoly 18
▁bombed 18
▁missile 18
▁bothered 18
▁commerce 18
▁prest 18
▁divergence 18
▁Taylor 18
▁brilliance 18
ittle 18
▁expeditions 18
▁genomics 18
contin 18
▁stunning 18
ucky 18
▁Uh 18
▁technician 18
ext 18
Pr 18
ilot 18
▁teens 18
▁rhy 18
vo 18
▁plywood 18
ember 18
▁bureaucracy 18
▁withdraw 18
▁respectful 18
▁Lear 18
▁collide 18
look 18
master 18
▁kilogram 18
▁8, 18
▁distill 18
▁salad 18
▁experimenter 18
▁Everywhere 18
▁Know 18
▁Hung 18
▁Hot 18
▁excessive 18
▁intuitively 18
▁2003 18
▁pushes 18
Mr 18
▁hiring 18
▁liberating 18
▁specialize 18
▁sweep 18
▁possess 18
▁distraction 18
▁resting 18
▁regarded 18
stru 18
iots 18
▁astonished 18
▁union 18
▁grav 18
▁Venter 18
▁syll 18
▁divorced 18
assemb 18
saw 18
aco 18
sel 18
▁fu 18
▁resurrect 18
cart 18
▁accumulation 18
▁dated 18
idd 18
▁charging 18
ounce 18
▁Roll 18
▁Roy 18
▁100. 18
rypt 18
writer 18
▁flatten 18
▁publisher 18
▁Rod 18
iece 18
FO 18
▁Alt 18
sa 18
▁Amazing 18
▁Kat 18
▁Jennifer 18
▁Gab 18
▁Midwest 18
▁storing 18
▁bookstore 18
dem 18
▁publishers 18
iddle 18
▁governed 18
▁Creative 18
▁Commons 18
▁lover 18
▁preoccup 18
arriage 18
rist 18
▁artificially 18
ritic 18
sell 18
insp 18
▁filt 18
iture 18
note 18
cre 18
▁dealer 18
alf 18
▁simplified 18
square 18
▁referring 18
▁lousy 18
▁separating 18
▁modeled 18
▁inquiry 18
▁cone 18
▁EC 18
▁Alfred 18
▁manipulating 18
den 18
▁riot 18
▁projecting 18
▁legitimacy 18
.- 18
▁reconstruction 18
▁acronym 18
headed 18
esian 18
▁Different 18
▁bombing 18
▁clash 18
▁Nation 18
▁Mass 18
watch 18
alan 18
▁1.4 18
atters 18
▁defec 18
▁reporters 18
▁dele 18
▁troll 18
▁undermine 18
▁2030. 18
▁Genome 18
agan 18
▁iPods 18
opt 18
▁psycho 18
▁desirable 18
▁Hands 18
▁symp 18
athetic 18
▁vac 18
ulative 18
atis 18
▁embryo 18
▁capsule 18
▁membranes 18
▁Fish 18
▁amphib 18
▁True 18
▁Madagascar 18
▁sle 18
▁broadband 18
▁60, 18
▁dual 18
agle 18
▁implants 18
wash 18
▁latter 18
bet 18
eding 18
▁59 18
▁cataly 18
▁IKEA 18
▁pumping 18
omer 18
▁Jose 18
▁compose 18
▁lobes 18
▁acceler 18
▁Neil 18
feld 18
▁revenge 18
iler 18
▁kite 18
▁aerodynamic 18
cra 18
▁cheated 18
▁Oil 18
▁interf 18
▁quicker 18
idents 18
▁zoning 18
coll 18
ref 18
▁forgiveness 18
▁motivates 18
eman 18
▁Mississippi 18
▁coaches 18
designed 18
haired 18
fore 18
burn 18
gan 18
icle 18
▁beep 18
▁Thursday 18
▁aura 18
▁litigation 18
▁Page 18
orrh 18
▁Aaron 18
iologists 18
▁Det 18
cia 18
▁Live 18
▁Ali 18
▁slee 18
▁Campaign 18
▁Rad 18
▁Baby 18
iven 18
▁pessimistic 18
▁Rap 18
▁leisure 18
▁orchest 18
▁Financial 18
▁reluctant 18
▁paj 18
attered 18
▁miraculous 18
found 18
▁blobs 18
▁rele 18
▁progressively 18
▁BA 18
▁thankfully 18
▁annoyed 18
▁Jonas 18
▁guests 18
▁laughs 18
▁naught 18
▁chunks 18
▁aimed 18
▁presum 18
beat 18
▁slipp 18
rost 18
▁anthropologist 18
▁explorer 18
▁displace 18
mond 18
▁Free 18
▁guessed 18
olic 18
▁treadmill 18
▁speeding 18
▁erect 18
▁welcomed 18
▁flaws 18
▁denser 18
▁exerc 18
▁Sue 18
▁accompan 18
▁monsters 18
gles 18
aman 18
▁conve 18
▁Miller 18
▁ballot 18
▁tops 18
▁demanded 18
▁Economist 18
educated 18
lder 18
▁seize 18
▁Walter 18
▁6. 18
▁spines 18
▁relying 18
▁rebell 18
▁Nic 18
▁incidents 18
▁Jen 18
▁Farm 18
▁rebel 18
▁TB 18
▁perpetrators 18
▁bul 18
▁Bahamas 18
▁Oscar 18
▁grapp 18
▁Diana 18
ancies 18
▁preserving 18
▁commun 18
▁troubling 18
edd 18
venth 18
▁reprodu 18
▁consol 18
eal 18
▁ID 18
ND 18
▁--" 18
▁sar 18
▁Att 18
▁dances 18
▁fasc 18
inates 18
▁toothbrush 18
leton 18
▁tucked 18
▁68 18
▁Strange 18
▁zeros 18
▁hus 18
▁93 18
▁framed 18
▁drip 18
▁IDEO 18
ikh 18
▁fitness 18
▁atheists 18
why 18
▁biography 18
▁rewarding 18
▁startling 18
▁adversity 18
▁Anim 18
ieu 18
▁Wol 18
▁Moving 18
▁ash 18
▁physiological 18
osoph 18
▁Magic 18
▁meadow 18
▁sponsored 18
▁assured 18
▁Local 18
angled 18
▁hoo 18
▁twisted 18
▁Walmart 18
▁Evan 18
▁belie 18
▁orth 18
version 18
▁conviction 18
▁Hind 18
▁Karl 18
was 18
▁cookies 18
▁diffuse 18
▁lat 18
▁Acumen 18
achine 18
▁prehist 18
▁fishes 18
▁adolescent 18
▁funders 18
▁Lind 18
usions 18
▁fleet 18
▁biofuels 18
▁2050. 18
▁delusion 18
▁manip 18
▁constell 18
▁lasers 18
▁Getting 18
▁Jul 18
▁chambers 18
▁basics 18
▁stratosphere 18
▁clinically 18
grad 18
▁20. 18
protected 18
connected 18
ortun 18
empt 18
▁swarm 18
sec 18
▁Jazeera 18
▁extracting 18
▁boot 18
▁Stockholm 18
▁rotten 18
▁slate 18
▁tapest 18
▁glowing 18
▁Forest 18
▁complic 18
▁Nazi 18
oom 18
▁surge 18
▁downs 18
icide 18
▁blues 18
▁refram 18
▁districts 18
rats 18
▁millennium 18
▁sling 18
▁barbar 18
▁recipro 18
▁Jason 18
into 18
force 18
▁psychiatrist 18
▁ion 18
▁anecdote 18
▁demonstr 18
▁expressive 18
▁pave 18
▁borrowed 18
▁darker 18
▁coupled 18
▁prejudice 18
▁deployment 18
▁shoreline 18
▁nickname 18
▁dood 18
▁infinity 18
▁sensations 18
itters 18
▁handling 18
▁daddy 18
ream 18
▁underlies 18
▁perce 18
▁apparatus 18
▁volcanoes 18
▁concentrations 18
acles 18
▁bal 18
▁similarity 18
▁regulating 18
▁iter 18
▁landfill 18
▁ment 18
▁scra 18
▁appla 18
▁heartbeat 18
ief 18
▁tit 18
▁HP 18
▁recordings 18
▁surrounds 18
▁kindly 18
▁turtle 18
▁vibrate 18
▁crown 18
▁scandal 18
▁Fold 18
aches 18
▁fascination 18
▁frontiers 18
xic 18
▁instrumental 18
▁intensely 18
▁messing 18
▁profiles 18
▁dials 18
▁ineffective 18
east 18
▁mainframe 18
ache 18
▁Domin 18
▁technologists 18
▁Fortune 18
▁adapting 18
fat 18
▁tended 18
▁pillar 18
▁booms 18
▁70,000 18
▁wiz 18
▁reverber 18
▁forens 18
▁som 18
▁titled 18
▁Treat 18
▁impulses 18
▁leveraging 18
▁PRI 18
▁shook 18
▁Hyun 18
Sook 18
▁fond 18
▁repetitive 18
▁donate 18
▁KT 18
▁castle 18
▁moisture 18
▁stre 18
▁centered 18
▁sniff 18
▁squirrel 18
Hmm 18
▁diagrams 18
▁Hope 18
▁shelters 18
adi 18
▁locking 18
▁sco 18
▁Honey 18
▁Danish 18
confidence 18
▁venom 18
rees 18
▁Morgan 18
▁firefight 18
▁tunneling 18
▁relational 18
▁comprised 18
▁diplomatic 18
▁ED 18
▁incubator 18
▁gal 18
▁pepper 18
▁Gay 18
▁whistles 18
▁cris 18
▁reptiles 18
holder 18
▁wand 18
nity 18
▁turtles 18
▁Diver 18
▁leaning 18
▁ambassador 18
▁Rom 18
▁selectively 18
▁Row 18
▁puncture 18
▁bail 18
▁mars 18
▁2030, 18
▁endow 18
▁DIY 18
▁Bali 18
▁reacted 18
▁illumination 18
▁Galois 18
▁supermassive 18
▁openly 18
▁Missouri 18
▁seniors 18
▁sanitary 18
▁abalone 18
eye 18
▁Bertie 18
▁Mahmoud 18
” 18
▁Bassem 18
▁sincere 17
herence 17
forest 17
▁discoura 17
▁manure 17
▁creatively 17
▁Johns 17
▁borrowing 17
ventional 17
▁snapshot 17
▁Von 17
▁IR 17
uz 17
performance 17
▁orig 17
anship 17
▁sensual 17
000 17
▁haul 17
yg 17
▁postcards 17
ifiable 17
▁recom 17
▁sugars 17
▁participated 17
▁gadgets 17
▁wears 17
▁duplic 17
Ma 17
▁upgrad 17
▁acknowled 17
inci 17
▁unnecessary 17
▁Count 17
▁CB 17
▁Thousands 17
▁ram 17
▁Police 17
▁ticking 17
▁volunteered 17
write 17
▁Saint 17
▁imposing 17
▁Gallery 17
▁outrage 17
▁multiplic 17
gra 17
▁scars 17
ggy 17
▁metropolitan 17
▁skiing 17
▁Brilliant 17
▁Chief 17
▁gor 17
▁Roots 17
▁Shoots 17
▁persistence 17
▁landm 17
▁impair 17
▁awarded 17
▁ingenious 17
lance 17
▁patron 17
sea 17
auc 17
▁gratification 17
▁aver 17
▁complications 17
▁casual 17
▁mortal 17
▁estim 17
ogens 17
▁ger 17
▁lifting 17
▁Barbara 17
▁optics 17
▁facade 17
▁subset 17
▁framing 17
ctu 17
▁Stanley 17
▁Diet 17
uces 17
▁aspire 17
▁bloggers 17
iblical 17
▁Pict 17
▁archives 17
▁paran 17
▁Harr 17
▁causal 17
years 17
▁educ 17
▁classmates 17
▁campaigning 17
▁Airport 17
ueens 17
itty 17
▁600,000 17
ensible 17
▁simulations 17
ometric 17
▁sustaining 17
▁sem 17
iracy 17
ourse 17
ef 17
▁specimens 17
▁socks 17
▁Form 17
▁Airb 17
▁rotates 17
▁dice 17
▁Dire 17
▁luc 17
doc 17
▁fooled 17
▁Saf 17
▁dum 17
itories 17
▁guiding 17
▁dialect 17
actic 17
▁Sav 17
creat 17
▁coff 17
▁planners 17
abled 17
▁downstream 17
▁criticize 17
▁Navy 17
▁facilitate 17
▁monks 17
oids 17
▁Osama 17
aka 17
▁Hurricane 17
▁Ep 17
▁Laboratory 17
▁Cohen 17
town 17
▁bund 17
▁neutr 17
SD 17
kn 17
▁enfor 17
▁1900, 17
▁width 17
▁intermediate 17
▁hes 17
▁indefin 17
animate 17
▁pathology 17
▁hygiene 17
dam 17
▁succeeding 17
▁spores 17
▁Birds 17
olf 17
▁veins 17
▁Et 17
▁agon 17
▁nephew 17
▁170 17
▁extinctions 17
▁unfolding 17
▁albeit 17
▁systemic 17
▁Vel 17
bble 17
▁Billy 17
▁Kick 17
▁awards 17
▁burnt 17
▁unlimited 17
dep 17
▁memorize 17
▁jets 17
reasing 17
▁stance 17
▁cheaply 17
▁Liter 17
▁Tur 17
six 17
orter 17
▁demonstrating 17
▁Environmental 17
▁visits 17
▁util 17
▁petroleum 17
▁pitches 17
▁presidents 17
grown 17
▁Develop 17
flu 17
▁na 17
▁Innovation 17
▁adaptable 17
▁grasses 17
▁reservoir 17
▁furn 17
▁vill 17
rooms 17
▁vibration 17
▁doo 17
▁fills 17
▁suffers 17
▁epilepsy 17
▁electrode 17
▁immunity 17
▁searched 17
▁cough 17
▁seriousness 17
▁violation 17
▁brig 17
▁Brand 17
blowing 17
▁carn 17
▁eman 17
▁Congolese 17
▁secrecy 17
woman 17
Day 17
▁Rift 17
▁Cut 17
sensitive 17
▁zo 17
▁Picasso 17
▁waist 17
Ph 17
itute 17
▁proudly 17
▁Head 17
▁champagne 17
▁scissors 17
▁ideally 17
▁elusive 17
▁brink 17
▁Road 17
▁accomplishment 17
▁alleg 17
▁afflu 17
▁widow 17
▁intersections 17
▁cram 17
▁pra 17
▁tutoring 17
det 17
▁awak 17
bal 17
▁stunned 17
▁catches 17
▁snail 17
▁pert 17
▁collapsing 17
▁disinteg 17
▁inconven 17
▁journeys 17
organisms 17
▁maintained 17
sels 17
▁classified 17
▁influential 17
▁confrontation 17
▁guerrilla 17
▁liberated 17
lements 17
▁Eth 17
▁railway 17
▁supplement 17
▁Thanksgiving 17
▁Julie 17
▁restored 17
▁asylum 17
▁perpetual 17
▁logistics 17
▁dispute 17
▁drifting 17
▁navigation 17
▁forwards 17
▁anthropology 17
▁animate 17
istics 17
▁propos 17
▁maxim 17
▁paintbrush 17
idays 17
▁kidnapped 17
conscious 17
Really 17
orry 17
▁bladder 17
enet 17
rable 17
▁oblivious 17
▁trump 17
▁prince 17
▁pleasures 17
bees 17
athers 17
▁Sobule 17
urg 17
▁drums 17
▁orchestras 17
▁strive 17
▁lexicon 17
▁Rouge 17
▁protocols 17
▁Rush 17
▁clog 17
▁socket 17
esome 17
▁taped 17
▁Juan 17
▁Cru 17
▁controller 17
▁loyalty 17
obia 17
▁tactics 17
▁guest 17
▁infamous 17
▁blunt 17
▁sandwiches 17
▁recipient 17
nie 17
▁hence 17
▁paras 17
▁Diam 17
attle 17
▁disturbed 17
▁Maslow 17
▁rainy 17
▁Scientific 17
▁Mola 17
▁Current 17
▁intol 17
▁skins 17
▁Scot 17
omatic 17
▁minim 17
▁foremost 17
▁ethn 17
post 17
storm 17
▁stripes 17
ivores 17
▁calibr 17
idding 17
▁Hmm 17
▁Generation 17
▁Hipp 17
▁crocodile 17
▁Tradition 17
under 17
▁treasure 17
▁sweating 17
▁inability 17
roads 17
fact 17
▁Dark 17
▁Ra 17
▁Excuse 17
▁Ka 17
▁vector 17
▁iteration 17
▁gloom 17
▁blaming 17
▁obsc 17
eenth 17
▁ga 17
▁interp 17
▁vide 17
▁cockroaches 17
▁conventions 17
▁sued 17
riend 17
aki 17
▁cafeteria 17
▁academia 17
▁tofu 17
ko 17
organization 17
▁commitments 17
▁goose 17
▁phases 17
▁obscure 17
▁Tel 17
▁encode 17
▁warmth 17
▁photons 17
▁shiny 17
▁defic 17
▁policymakers 17
▁Fear 17
▁atmospheric 17
▁examining 17
▁energies 17
▁mutant 17
▁pots 17
▁Anas 17
▁madness 17
▁Cook 17
▁demonstrations 17
▁emitted 17
▁peanuts 17
ardon 17
▁medal 17
▁thriving 17
▁mur 17
flies 17
▁joking 17
▁typeface 17
▁recl 17
▁semester 17
▁incl 17
others 17
▁Oprah 17
▁Mellon 17
▁Award 17
▁Dod 17
usive 17
uture 17
akh 17
▁acted 17
▁anthropologists 17
▁heterosexual 17
oof 17
shelf 17
▁Dor 17
▁Ready 17
▁eu 17
solving 17
▁attending 17
▁carpenter 17
▁plank 17
▁historians 17
rait 17
▁investig 17
▁badge 17
▁conquer 17
▁Columb 17
▁discount 17
▁droughts 17
intend 17
▁Hero 17
▁Tod 17
▁Barbie 17
chool 17
▁Mrs 17
▁oftentimes 17
▁ambiguous 17
▁refine 17
uther 17
▁disco 17
▁monitors 17
▁Mongolia 17
▁vet 17
▁decipher 17
▁crow 17
▁vegetarian 17
▁USDA 17
▁occasional 17
▁jurisd 17
▁dwarf 17
▁gaming 17
iginal 17
▁pillars 17
▁Christopher 17
▁pedal 17
▁replicator 17
▁avo 17
▁electoral 17
▁Mes 17
▁Ale 17
▁southwest 17
▁arr 17
agging 17
▁rally 17
▁50. 17
just 17
BM 17
▁bulldo 17
mill 17
▁Ig 17
▁forgetting 17
▁fundamentalism 17
▁pine 17
▁Amb 17
▁whereby 17
▁pasted 17
▁inhab 17
▁sampled 17
▁prosth 17
▁gamma 17
definition 17
▁cooled 17
▁superstar 17
▁revolutionize 17
▁pioneers 17
▁Core 17
▁arguably 17
▁subm 17
anth 17
▁DG 17
▁usable 17
▁flooded 17
▁flashing 17
Americans 17
▁assert 17
▁sampling 17
▁dispersed 17
sticks 17
▁solely 17
▁Kid 17
▁cords 17
asty 17
▁killers 17
door 17
incent 17
▁veteran 17
▁tolerant 17
istine 17
▁assass 17
▁suey 17
▁Rica 17
▁NM 17
▁cochlear 17
▁Choir 17
▁astronaut 17
▁crochet 17
▁superhero 17
▁Maps 17
▁fal 17
▁smartphones 17
check 17
▁lip 17
▁Sounds 17
▁wondrous 17
▁cognitively 17
▁pest 17
▁ponds 17
▁automation 17
▁Independent 17
▁qualitative 17
▁compuls 17
▁webcam 17
▁nothingness 17
▁Benki 17
▁TS 17
▁antiangiogenic 17
▁Haz 17
nee 17
▁walkable 17
▁Diplom 17
corn 17
▁Mubarak 17
▁Archie 17
etine 17
▁boreal 17
▁Archimedes 17
▁superconductor 17
▁wetsuit 17
▁yelling 16
▁Call 16
▁recap 16
▁Produ 16
▁updated 16
▁purchases 16
▁addresses 16
▁appalling 16
▁Joy 16
▁compress 16
ettes 16
▁fifty 16
▁instructor 16
▁comparisons 16
▁incap 16
▁Lock 16
▁erupt 16
▁counterparts 16
esting 16
inology 16
▁Newtonian 16
▁SU 16
▁fucking 16
▁forged 16
▁chlor 16
yll 16
▁imaginations 16
chi 16
▁chemists 16
▁hangs 16
Ms 16
▁Pres 16
▁overload 16
▁violate 16
▁cockpit 16
▁medioc 16
▁violated 16
▁propr 16
▁memor 16
uated 16
▁Kal 16
▁Nicholas 16
▁Rockefeller 16
▁scaffolding 16
cence 16
▁inappropriate 16
olithic 16
▁Yesterday 16
▁Model 16
range 16
billion 16
▁roller 16
▁avian 16
▁fecal 16
▁vividly 16
▁sentient 16
▁cripp 16
▁accumulated 16
▁60- 16
▁apartheid 16
▁raging 16
▁purs 16
▁Tumor 16
▁utilize 16
▁vers 16
▁sweats 16
▁Bil 16
▁tile 16
▁Cla 16
▁bases 16
▁teapot 16
▁sights 16
▁casually 16
▁sorrow 16
▁bark 16
▁geniuses 16
amine 16
▁prescriptions 16
▁13. 16
▁complement 16
▁biomimicry 16
▁hike 16
anna 16
▁optic 16
▁fins 16
▁tu 16
olves 16
▁threads 16
▁compartment 16
▁intersect 16
▁snails 16
▁batch 16
▁hors 16
▁Rag 16
▁raft 16
imi 16
▁fueled 16
▁blended 16
▁78 16
father 16
▁bathrooms 16
▁resonate 16
▁narciss 16
ormal 16
▁Corporation 16
▁misses 16
▁extrater 16
restrial 16
ucker 16
Os 16
▁concl 16
▁bun 16
▁Satan 16
". 16
▁Ree 16
bel 16
▁coer 16
▁repos 16
uments 16
▁packs 16
pling 16
▁spit 16
▁servers 16
uj 16
▁discipl 16
vented 16
▁inorganic 16
▁elastic 16
▁Moscow 16
▁feminine 16
▁Eames 16
▁dedic 16
▁Eleph 16
oons 16
▁sliced 16
▁promoted 16
▁Copernicus 16
▁purchasing 16
▁alb 16
▁Sudhir 16
▁Extreme 16
▁increment 16
▁tact 16
lict 16
▁decoration 16
trans 16
▁Vent 16
▁Naz 16
kil 16
▁Maryland 16
▁Vienna 16
▁occupying 16
▁cour 16
▁constructing 16
inth 16
rophy 16
▁Mic 16
▁Dep 16
▁arrival 16
▁Close 16
▁league 16
▁proportional 16
▁Check 16
▁joins 16
▁Carr 16
▁overwhelmingly 16
▁projector 16
▁motivating 16
▁hel 16
▁brightest 16
▁dull 16
▁prone 16
▁roommate 16
▁obst 16
▁2004 16
▁Board 16
▁Jimmy 16
▁CDs 16
▁peril 16
engineered 16
bury 16
▁49 16
▁quantify 16
▁penny 16
▁resp 16
▁sprint 16
cir 16
replic 16
▁encompass 16
▁considerably 16
pop 16
▁evange 16
▁speculation 16
▁accumulating 16
ria 16
▁depart 16
▁revelations 16
▁echoes 16
▁Mig 16
▁multiplied 16
▁outdoors 16
▁targeting 16
▁comet 16
▁swarms 16
▁gast 16
ishment 16
▁Bert 16
▁Change 16
▁Minnesota 16
aph 16
band 16
▁archety 16
▁spirituality 16
▁requ 16
▁immersed 16
inist 16
▁styles 16
▁Nowadays 16
bly 16
▁embody 16
▁advoc 16
▁preca 16
uble 16
▁execute 16
ronic 16
▁situ 16
▁Beatles 16
irvana 16
▁oneself 16
ths 16
elines 16
▁SL 16
teen 16
▁OPEC 16
▁jog 16
▁Riverside 16
imps 16
▁worthless 16
▁inj 16
▁Architect 16
ilized 16
▁stakeholders 16
vision 16
lect 16
bott 16
▁advocacy 16
▁settlements 16
▁appetite 16
▁exploding 16
▁Mao 16
▁dedicate 16
▁apocaly 16
▁elevation 16
▁practition 16
▁millimeters 16
▁ABC 16
▁purse 16
uras 16
▁conting 16
▁skyrocket 16
▁uplif 16
▁diplomat 16
ication 16
▁craw 16
▁tub 16
▁excites 16
▁beard 16
verty 16
pool 16
▁Likewise 16
▁accord 16
▁Tomorrow 16
rowing 16
▁marginal 16
▁tapes 16
▁debates 16
▁incentiv 16
▁queue 16
cers 16
ologues 16
▁Main 16
▁Kn 16
▁antidote 16
▁epit 16
▁anatom 16
some 16
▁ruth 16
▁sequel 16
▁crammed 16
▁seam 16
▁ADHD 16
▁coins 16
▁relieved 16
uries 16
▁loser 16
computer 16
istence 16
▁betting 16
species 16
▁Tal 16
▁regenerative 16
▁Kaz 16
▁regulated 16
▁yoga 16
▁suspects 16
isters 16
▁prosperous 16
count 16
▁83 16
▁twists 16
lav 16
▁attributed 16
▁requiring 16
▁Compare 16
▁lex 16
▁stom 16
▁smash 16
▁scratching 16
▁parabol 16
▁puzzled 16
▁knives 16
▁Gram 16
▁generators 16
▁yearning 16
▁Hampshire 16
▁grape 16
▁unexplored 16
worm 16
▁symb 16
▁Ass 16
▁summar 16
▁pharmaceuticals 16
▁NATO 16
▁punished 16
▁Kabul 16
tenth 16
▁counseling 16
▁reconciliation 16
▁fet 16
▁Scient 16
▁TH 16
▁trustworthy 16
▁featured 16
SS 16
▁bum 16
▁11- 16
▁underwear 16
odka 16
▁diary 16
▁ribbon 16
Ac 16
lasting 16
▁interacts 16
▁Niger 16
▁Evolution 16
▁unbelievably 16
▁misunderstood 16
▁wield 16
lam 16
▁est 16
▁surrender 16
▁upd 16
▁Universe 16
▁Homer 16
▁Noah 16
▁metaphorical 16
": 16
▁fulfillment 16
▁evolutionarily 16
Make 16
▁66 16
sch 16
▁arsen 16
cip 16
▁Treating 16
▁pic 16
ply 16
▁inflate 16
▁Dum 16
▁hurd 16
▁acoust 16
▁whilst 16
▁Sound 16
break 16
ixt 16
phone 16
cats 16
elly 16
▁vic 16
ergy 16
▁mighty 16
▁theor 16
▁shoots 16
identally 16
▁7. 16
▁journals 16
▁prophet 16
▁dire 16
▁rude 16
▁policemen 16
▁burgl 16
▁handic 16
Aid 16
▁ridicule 16
▁Ca 16
▁integral 16
▁voc 16
▁degrading 16
▁biomedical 16
▁tectonic 16
▁lun 16
soci 16
▁overfishing 16
▁beh 16
▁Molas 16
▁desks 16
▁transfers 16
▁Arkansas 16
▁godd 16
▁aligned 16
▁sunshine 16
▁microb 16
LA 16
▁fing 16
▁toolbox 16
▁decreased 16
▁Botswana 16
rants 16
▁geographical 16
▁passively 16
▁Aurora 16
▁photographic 16
▁toothp 16
▁Luke 16
▁herb 16
iances 16
▁sparked 16
▁Isab 16
▁facilit 16
ctic 16
ether 16
▁Ukraine 16
anch 16
▁nuanced 16
▁Ronald 16
▁Thankfully 16
othing 16
▁indirectly 16
▁Adv 16
▁maize 16
▁classification 16
▁adv 16
nec 16
track 16
▁Enlightenment 16
▁unst 16
▁intr 16
▁muff 16
what 16
▁flipping 16
▁supermarkets 16
▁lamb 16
▁Hiroshima 16
▁List 16
▁carc 16
▁2005. 16
▁Palestinians 16
▁Years 16
quot 16
ilton 16
caps 16
▁pref 16
▁ventilation 16
blood 16
▁tigers 16
▁humidity 16
▁Fahrenheit 16
drop 16
▁converge 16
▁mystical 16
code 16
▁complaints 16
▁Nico 16
▁butterflies 16
▁binds 16
▁kicks 16
▁buyer 16
▁coco 16
▁procl 16
▁Common 16
▁extremism 16
▁volts 16
after 16
▁dreadful 16
▁pioneered 16
▁treaties 16
▁arrange 16
icides 16
▁neurobi 16
hesive 16
antor 16
▁algorithmic 16
▁altruistic 16
▁apt 16
▁Soph 16
▁tan 16
▁giraffe 16
▁Conservation 16
▁puls 16
▁bouncing 16
▁Kentucky 16
▁deterg 16
▁Uruguay 16
▁masks 16
▁exhibitions 16
▁Chair 16
▁graduation 16
▁Cast 16
▁tragically 16
▁mour 16
▁edible 16
▁lawns 16
▁maggots 16
patible 16
▁setup 16
conds 16
▁guides 16
copes 16
▁cort 16
▁foam 16
▁prominent 16
▁pragmatic 16
▁strengthen 16
▁anticipation 16
Up 16
▁Studio 16
▁chin 16
▁shocks 16
▁extrapol 16
▁stark 16
▁motivations 16
▁synchrony 16
▁quarks 16
▁fidd 16
▁fellows 16
▁hummingbird 16
▁Bulgaria 16
▁ox 16
▁harvested 16
▁peanut 16
▁swam 16
▁commute 16
capes 16
▁nerdy 16
▁Game 16
iversal 16
▁alliance 16
▁disadvant 16
kind 16
▁nostal 16
▁alignment 16
thood 16
▁Mermaid 16
▁Federal 16
▁stub 16
▁lifelike 16
di 16
Take 16
▁prost 16
unal 16
▁liberate 16
▁decay 16
▁gymn 16
▁substances 16
▁Israelis 16
▁blindfold 16
▁amplify 16
imen 16
▁recovering 16
▁customization 16
▁builder 16
▁personalization 16
▁visuals 16
uf 16
▁reconstructed 16
▁migrated 16
▁relent 16
▁sanctuary 16
▁teamed 16
▁shuffle 16
▁fridge 16
▁headphones 16
▁integr 16
▁cheapest 16
▁bombers 16
15 16
▁intuitions 16
▁crux 16
▁earthquakes 16
▁1950, 16
▁gum 16
▁SK 16
▁immigrant 16
▁Guess 16
▁HA 16
▁Visual 16
▁preference 16
▁Java 16
▁Mau 16
▁multimedia 16
mad 16
▁Superman 16
▁vascular 16
▁clos 16
▁lesser 16
rance 16
▁stitch 16
▁Nollywood 16
▁deprivation 16
▁temperate 16
▁spotted 16
▁thinker 16
▁beeh 16
keeper 16
▁decode 16
culus 16
▁Planet 16
▁amp 16
▁Bret 16
ael 16
▁danced 16
▁DL 16
▁intractable 16
▁bald 16
▁fragment 16
▁underm 16
gery 16
▁momentous 16
▁EEG 16
▁Langley 16
▁harmless 16
▁cush 16
▁planner 16
▁Mission 16
▁sane 16
▁Biosphere 16
▁config 16
bery 16
▁goo 16
▁aph 16
▁liters 16
▁pits 16
▁freshwater 16
▁relies 16
▁spokes 16
pest 16
▁mamm 16
▁astrol 16
▁Ryan 16
▁rupees 16
▁Ahmed 16
▁heter 16
▁veterinarians 16
▁dementia 16
▁Mt 16
▁spikes 16
▁CL 16
rified 16
▁plummet 16
▁malignant 16
▁Vermeer 16
▁aquaculture 16
▁disclose 16
▁concuss 16
▁Mandarin 16
▁Doha 16
▁grandm 16
▁Cochrane 16
▁Amanda 16
▁nitric 16
▁phthalates 16
▁Gando 16
▁FreeSpeech 16
▁Cura 16
▁HeForShe 16
▁lowered 15
▁Particip 15
▁Supp 15
▁persuasion 15
oves 15
▁nanotubes 15
umbled 15
finance 15
▁administrative 15
▁paradigms 15
▁scares 15
▁uncon 15
▁sophistication 15
credit 15
▁Unless 15
▁Houston 15
gie 15
▁cargo 15
▁synonymous 15
▁Bet 15
▁Canal 15
pos 15
▁reas 15
iod 15
▁Meth 15
▁Phot 15
▁hottest 15
▁funn 15
▁Eis 15
▁teeny 15
World 15
▁ropes 15
▁Son 15
▁hooks 15
▁Anders 15
▁sufficiently 15
▁Ax 15
▁Liber 15
daughter 15
▁Trib 15
▁Were 15
▁Kamen 15
▁reassuring 15
eks 15
▁cran 15
▁Fifth 15
▁appointment 15
▁outlet 15
▁combustion 15
▁kilow 15
▁devast 15
▁hypertension 15
▁Ecuador 15
SI 15
eard 15
▁Boys 15
▁originated 15
▁grabbing 15
aired 15
▁Saul 15
▁cleans 15
▁secretary 15
▁curse 15
▁overest 15
▁contextual 15
agra 15
▁closes 15
▁mimicking 15
▁tum 15
▁spraying 15
▁precurs 15
ounces 15
▁dissolve 15
▁collisions 15
▁Kay 15
▁abd 15
▁Jamie 15
alog 15
PO 15
▁derive 15
erences 15
▁recurs 15
ysics 15
▁congreg 15
aha 15
▁posting 15
▁collects 15
▁perseverance 15
▁maid 15
▁pseud 15
▁administrators 15
▁til 15
▁astro 15
▁opaque 15
ellar 15
▁dismant 15
thest 15
▁powerless 15
ween 15
▁Against 15
▁obtain 15
▁customized 15
▁indicating 15
▁colleges 15
▁licensed 15
▁rocking 15
▁induced 15
▁Wales 15
sur 15
▁eff 15
▁lifts 15
▁homem 15
▁crappy 15
▁Tu 15
itiz 15
▁bakery 15
▁Pearl 15
pected 15
▁Julius 15
▁hostage 15
▁murderer 15
▁indifferent 15
▁infants 15
▁cures 15
only 15
verage 15
▁45,000 15
▁insignificant 15
▁sty 15
▁carrier 15
▁propelled 15
▁gateway 15
▁agg 15
▁shad 15
▁Const 15
▁Joey 15
▁tragedies 15
▁opponents 15
▁bankrupt 15
▁Saddam 15
aby 15
▁Balkans 15
ifle 15
▁networked 15
▁Agricult 15
governmental 15
▁Cond 15
▁carriers 15
▁Arm 15
▁Ret 15
▁Reserve 15
▁trance 15
▁Maur 15
▁manuscripts 15
eller 15
▁Harbor 15
▁Leo 15
▁stuffed 15
▁latr 15
▁redistrib 15
▁entries 15
▁theoretically 15
▁calculators 15
▁1968, 15
▁2002. 15
▁Gertrude 15
▁persuaded 15
▁outweigh 15
▁moderate 15
▁withstand 15
▁uncont 15
▁Growing 15
adow 15
▁haw 15
▁arrives 15
▁Laptop 15
▁pixel 15
▁Tunis 15
▁astronomer 15
▁centigrade 15
eda 15
▁hazard 15
▁Bott 15
▁Bio 15
▁Joan 15
▁compelled 15
▁neglected 15
▁involunt 15
▁ominous 15
▁Might 15
▁pianist 15
sky 15
▁saturated 15
▁forbidden 15
▁hosp 15
▁programmable 15
▁assemb 15
▁weave 15
▁superst 15
▁smack 15
▁cyn 15
▁financed 15
▁Auth 15
ority 15
▁1850 15
▁Drake 15
▁McL 15
▁hydrocarbons 15
▁imprison 15
▁Lat 15
▁deemed 15
▁formerly 15
first 15
▁detrim 15
▁implementation 15
▁competitions 15
▁resident 15
▁rehab 15
▁beams 15
▁Humanity 15
▁replic 15
▁contemplate 15
▁pinnacle 15
▁dynam 15
▁preliminary 15
▁brainstorm 15
▁psyche 15
▁incidence 15
▁ruined 15
ulator 15
MS 15
▁les 15
▁tasted 15
▁gla 15
▁Fifteen 15
▁Bihar 15
▁idealism 15
▁bud 15
atization 15
▁extremists 15
eous 15
▁hippie 15
▁summon 15
▁priests 15
▁Sally 15
cted 15
▁vaginas 15
iang 15
▁uncles 15
▁daunting 15
▁warriors 15
touch 15
▁malle 15
▁curiously 15
▁bearing 15
odied 15
▁mistaken 15
▁engulf 15
▁sha 15
nut 15
▁Gill 15
▁ballet 15
▁audition 15
▁distinguished 15
risk 15
▁underp 15
▁competence 15
▁blurry 15
▁empires 15
▁positively 15
At 15
▁marginalized 15
▁Commandments 15
FL 15
▁undersea 15
▁Netflix 15
▁Reed 15
▁premium 15
▁Bed 15
▁psychologically 15
▁massage 15
▁adren 15
uity 15
▁advertise 15
▁establishing 15
▁Kir 15
▁daydream 15
▁Morning 15
▁Bonobo 15
▁Kanzi 15
▁pel 15
▁longing 15
▁advised 15
▁hyperbolic 15
▁Jacques 15
▁Geneva 15
▁fisherman 15
600 15
gled 15
▁blinded 15
▁5, 15
▁gorilla 15
▁unto 15
▁genomic 15
▁domains 15
utu 15
orted 15
▁medic 15
▁1993, 15
▁negot 15
▁philanthrop 15
▁fuss 15
riends 15
▁Northwest 15
▁descendants 15
▁slipped 15
▁cray 15
▁40, 15
▁tides 15
▁Antarctic 15
▁Nov 15
▁abs 15
umen 15
▁hurdles 15
▁advancement 15
▁formats 15
▁Democracy 15
▁faiths 15
▁vertebr 15
▁balances 15
▁fearless 15
▁suicidal 15
▁benchmark 15
▁Control 15
▁parap 15
psych 15
▁Ve 15
▁lend 15
▁churn 15
blown 15
abric 15
bine 15
▁simulating 15
▁trunks 15
ocene 15
acher 15
▁rotation 15
▁biodegrad 15
▁compost 15
▁tempting 15
700 15
▁Sixty 15
eight 15
▁Tol 15
ouncer 15
▁nugg 15
▁celestial 15
uish 15
▁verse 15
▁admission 15
▁inward 15
arted 15
▁splend 15
▁alleged 15
▁preach 15
▁clar 15
athe 15
▁Avel 15
▁associations 15
▁Bring 15
▁Walker 15
14 15
▁communism 15
▁sushi 15
▁sprawl 15
▁suburbia 15
▁cubicle 15
▁pavilion 15
▁ambient 15
▁reco 15
▁behaves 15
▁heav 15
amie 15
▁dictatorship 15
▁wra 15
▁Mayor 15
▁2002 15
▁dissip 15
▁ank 15
▁slightest 15
▁NIH 15
▁charming 15
▁exports 15
▁Laur 15
▁Opp 15
▁evaporate 15
▁manufactured 15
▁succ 15
▁Ms 15
▁pork 15
wr 15
▁gardening 15
▁vest 15
▁ruling 15
▁indicated 15
▁Bia 15
hyd 15
▁token 15
▁trek 15
▁greatness 15
▁Ent 15
reprene 15
▁Euro 15
▁Gil 15
▁Ethiop 15
▁costing 15
▁Leaders 15
ossible 15
▁marched 15
▁Patrick 15
▁Shah 15
▁Sending 15
oys 15
▁reign 15
earch 15
ww 15
▁brut 15
▁dividend 15
▁edition 15
▁listener 15
▁ord 15
▁transaction 15
▁diplomats 15
▁CT 15
▁2.0 15
▁protesters 15
▁Carter 15
ports 15
▁void 15
usiness 15
▁Cod 15
▁nin 15
▁Buck 15
▁seeks 15
ivals 15
▁cycling 15
▁stacks 15
▁tunnels 15
▁tourists 15
▁Lar 15
▁liter 15
▁Alb 15
▁expenses 15
▁collector 15
fathers 15
▁Galax 15
▁Cas 15
▁ecl 15
▁contradict 15
▁femin 15
retched 15
▁onion 15
▁Bot 15
▁caf 15
▁underst 15
▁paraly 15
▁palace 15
▁brightness 15
▁packets 15
▁casting 15
▁psychiatry 15
▁amygdala 15
▁focal 15
ston 15
▁grading 15
▁latitude 15
▁botan 15
▁von 15
▁psychiatrists 15
▁30. 15
▁stalk 15
▁plasticity 15
▁fMRI 15
▁Pin 15
▁statues 15
▁giants 15
▁pyramids 15
▁Penn 15
▁lux 15
▁ruler 15
▁miniature 15
▁stacked 15
▁rectang 15
graders 15
▁predictive 15
▁interpreted 15
▁thigh 15
▁Allow 15
▁Millions 15
▁valleys 15
▁mop 15
▁Mut 15
▁Hell 15
▁Dun 15
▁considers 15
▁ranges 15
cert 15
▁vow 15
▁transactions 15
▁inn 15
▁conflicting 15
▁1920 15
▁goof 15
▁Ja 15
ante 15
cen 15
▁dere 15
▁communicates 15
▁tut 15
▁Dublin 15
▁rehearsal 15
▁activation 15
▁polarization 15
▁oscill 15
▁bells 15
▁tobacco 15
▁vibrations 15
▁cann 15
▁analogies 15
cientific 15
▁troubles 15
▁Eleanor 15
▁2015, 15
▁suite 15
▁tallest 15
▁carbs 15
▁advocating 15
▁Mostly 15
entine 15
▁disastrous 15
▁ribs 15
▁Pale 15
▁Tyr 15
vens 15
▁investigative 15
▁blindly 15
▁Hannah 15
▁Clay 15
▁festivals 15
omething 15
▁Fest 15
▁decept 15
?'" 15
▁Dimitri 15
holders 15
Life 15
untu 15
▁memorized 15
idian 15
irsty 15
▁chicks 15
▁dissect 15
▁Cloud 15
▁surpass 15
▁stimulating 15
▁mindfulness 15
▁Judy 15
speaking 15
Bs 15
▁microphones 15
▁CPU 15
irlwind 15
▁grassland 15
▁kits 15
▁cruc 15
▁emit 15
▁attracting 15
▁persuasive 15
▁locate 15
▁Batman 15
▁misunder 15
▁temporarily 15
▁hyena 15
▁digitized 15
▁Seventy 15
▁breadwin 15
▁Chernobyl 15
itics 15
ruction 15
▁gamers 15
▁colder 15
western 15
▁payments 15
▁sauc 15
▁nanoscale 15
▁glor 15
▁multicultural 15
▁guts 15
▁masterpiece 15
nell 15
▁EB 15
▁neatly 15
▁SM 15
▁neurologic 15
friend 15
▁Susie 15
ucks 15
▁synchronize 15
▁delic 15
▁wholly 15
▁utilitarian 15
▁mailbox 15
▁blamed 15
▁Poetry 15
▁Foreign 15
▁gravel 15
▁printers 15
▁arrogant 15
▁intercept 15
▁Ever 15
▁swine 15
▁outdated 15
▁neurotrans 15
▁feather 15
ardo 15
▁judged 15
▁offense 15
▁bomber 15
▁Jere 15
eros 15
tics 15
▁sabbatical 15
ait 15
▁FI 15
▁graves 15
▁pigmented 15
▁pigmentation 15
▁sinister 15
▁rounded 15
▁dispos 15
▁cleaners 15
▁sighted 15
▁employers 15
▁ballast 15
▁Alh 15
▁Patient 15
▁supernovae 15
▁immigration 15
visible 15
▁grapes 15
▁princess 15
▁Boom 15
▁gharial 15
▁cobra 15
▁Rat 15
▁salam 15
▁multitasking 15
▁dissent 15
▁incarceration 15
▁Tasmania 15
gill 15
▁TD 15
▁PIPA 15
▁Sioux 15
▁Tarahumara 15
▁Naj 15
▁PISA 15
▁microblog 15
▁daf 15
▁CAPTCHA 15
orescence 15
▁SOPA 15
▁progeria 15
▁thylacines 15
▁Solly 15
▁ELAM 15
▁Mouaz 15
-4 14
written 14
▁Ren 14
quest 14
▁branding 14
▁sustainably 14
▁entertaining 14
▁conveniently 14
▁coolest 14
infect 14
▁bottlene 14
▁provision 14
▁recommendations 14
▁feasible 14
fran 14
▁revis 14
▁conceivable 14
▁provinces 14
▁opium 14
▁screwed 14
ipt 14
cord 14
▁1.7 14
▁Ele 14
▁applic 14
love 14
itution 14
▁creations 14
▁fax 14
De 14
umental 14
▁solidarity 14
▁Based 14
living 14
▁Hal 14
▁Daw 14
▁injected 14
▁Du 14
▁fantas 14
▁Broadway 14
▁OS 14
▁nod 14
▁consistency 14
▁folder 14
▁beg 14
Un 14
▁inconsistent 14
▁domination 14
▁crunch 14
▁buddy 14
▁Tour 14
▁evac 14
▁Gi 14
▁tedious 14
▁privately 14
▁contractor 14
▁deadline 14
▁reinfor 14
▁41 14
Sure 14
▁blades 14
▁regulatory 14
hours 14
▁transplants 14
▁MR 14
▁spectros 14
▁fitted 14
▁polluted 14
illas 14
▁poisoning 14
▁compromised 14
▁broch 14
▁inflict 14
▁loo 14
Dr 14
▁Hungarian 14
▁initiated 14
▁bombard 14
▁constitutes 14
▁pathogen 14
▁recruiting 14
▁expresses 14
▁receptors 14
▁disgu 14
etched 14
▁Mull 14
▁dilemmas 14
▁defy 14
▁leaked 14
loy 14
erable 14
books 14
▁grasslands 14
▁extr 14
▁76 14
▁unrelated 14
▁mates 14
estic 14
▁pearl 14
▁Ern 14
aration 14
▁refrigeration 14
▁Jan 14
▁possessions 14
▁investigations 14
▁specialization 14
▁Huge 14
▁cliche 14
▁valves 14
▁DDT 14
▁8. 14
▁plots 14
▁pap 14
ika 14
▁Must 14
▁blogger 14
mother 14
▁plumb 14
▁geologists 14
▁candles 14
▁Chap 14
▁tours 14
▁intentionally 14
▁Books 14
▁Illinois 14
▁2015. 14
lett 14
▁Nap 14
selling 14
mom 14
▁enlar 14
▁spam 14
▁whack 14
allel 14
bish 14
▁pioneering 14
▁Kap 14
▁rug 14
iat 14
atomic 14
▁delivers 14
lux 14
▁feat 14
▁Consum 14
▁purchased 14
oodle 14
▁polish 14
▁slap 14
▁addictive 14
author 14
▁Ven 14
▁stair 14
▁spreadshe 14
▁franchise 14
▁Administration 14
▁pleas 14
▁anonymity 14
▁rigged 14
▁accommod 14
OC 14
▁Hunter 14
▁bends 14
imm 14
▁Constitution 14
▁whiskey 14
▁pod 14
▁Flore 14
iral 14
atched 14
aneously 14
▁accessing 14
▁locals 14
iathan 14
vere 14
gone 14
▁lob 14
▁ration 14
▁Hom 14
iterate 14
▁firemen 14
Al 14
▁elder 14
▁Polar 14
▁shaman 14
oper 14
▁helix 14
▁patented 14
▁Madison 14
opsies 14
▁predisp 14
▁bipolar 14
▁favela 14
rian 14
▁conco 14
fter 14
▁treas 14
gia 14
▁reinforced 14
▁hillside 14
▁municipal 14
alism 14
neg 14
Tw 14
▁administr 14
atical 14
▁appointed 14
▁logarithmic 14
igma 14
iatur 14
▁2020 14
▁prevail 14
▁immoral 14
rob 14
pective 14
▁imagin 14
ochond 14
▁flowering 14
▁interdependence 14
▁accustomed 14
▁bonobos 14
▁melts 14
▁salaries 14
▁embodiment 14
▁afforded 14
▁expans 14
▁subtract 14
▁imprisoned 14
▁aftermath 14
induced 14
▁spawn 14
▁Ide 14
▁eyeball 14
▁sticker 14
▁freaking 14
▁teddy 14
▁Appro 14
▁wasteful 14
▁cruelty 14
eroids 14
amous 14
▁183 14
▁outskirts 14
▁intergalactic 14
▁suns 14
▁limiting 14
▁plentiful 14
▁logically 14
▁tablets 14
▁replicating 14
uctors 14
▁autonomously 14
▁Wednesday 14
game 14
reviewed 14
▁sporting 14
▁composite 14
▁suppliers 14
dies 14
▁autom 14
▁stretching 14
▁philosoph 14
▁waterfront 14
nered 14
isk 14
▁proximity 14
▁stat 14
▁trafficking 14
▁Kate 14
▁Meet 14
▁outreach 14
▁Lower 14
▁leapf 14
▁migrant 14
amily 14
▁possession 14
chem 14
▁Thus 14
▁Ohio 14
▁scal 14
▁template 14
▁thickness 14
▁psychotic 14
▁Pass 14
▁cert 14
▁swollen 14
▁GPHIN 14
▁denominator 14
▁Disease 14
▁doubts 14
▁EU 14
▁scrut 14
▁Ideas 14
▁umbrella 14
▁intestine 14
▁Victor 14
▁inadvert 14
pted 14
▁priorit 14
ensus 14
utive 14
▁bean 14
igator 14
▁kios 14
▁seamlessly 14
▁HC 14
rr 14
▁Opera 14
▁intro 14
ynd 14
▁horribly 14
▁innocence 14
▁brilliantly 14
▁underpin 14
▁Gener 14
▁threatens 14
▁Orig 14
▁fortun 14
▁Speaking 14
eming 14
itations 14
▁Solomon 14
▁Fisher 14
▁tender 14
▁gent 14
▁conceived 14
▁freaked 14
aline 14
▁peek 14
▁newest 14
▁contradictions 14
▁insur 14
▁atrocities 14
▁scheduled 14
▁Austin 14
▁Ny 14
▁Swahili 14
▁aiming 14
▁shar 14
▁chooses 14
▁backstage 14
▁dynamically 14
▁provocative 14
▁amuse 14
▁3.5 14
Cause 14
▁culm 14
avers 14
▁envelop 14
Israel 14
▁suspicion 14
rawn 14
▁oppression 14
▁interd 14
ufficient 14
▁plague 14
▁divides 14
▁rang 14
▁Rwandan 14
▁Moz 14
▁smiled 14
▁wrapping 14
birth 14
erus 14
belie 14
▁Mich 14
▁replay 14
▁encourages 14
▁toe 14
▁daytime 14
▁Troy 14
▁battling 14
▁sweater 14
▁curtains 14
Which 14
▁Lanka 14
▁bedrock 14
▁noted 14
▁hardwired 14
uest 14
itic 14
▁gall 14
▁contemplating 14
▁Dougl 14
▁Friends 14
▁lovers 14
▁armies 14
ugs 14
▁tort 14
amy 14
▁nutrient 14
▁Pu 14
▁cooper 14
iches 14
▁asphalt 14
usable 14
▁Edison 14
▁mocking 14
▁jars 14
▁Chin 14
▁intimately 14
▁contempl 14
▁corros 14
▁solves 14
▁suspension 14
ationally 14
▁Nevertheless 14
agu 14
▁meta 14
▁Sciences 14
▁connot 14
obic 14
▁clearer 14
▁regist 14
▁Gand 14
▁spawning 14
▁misuse 14
▁variants 14
▁Hussein 14
onse 14
▁upstairs 14
-19 14
▁courtyard 14
▁retro 14
▁1984 14
▁Prad 14
▁dressing 14
atre 14
▁stretches 14
zers 14
▁napkin 14
▁mammalian 14
▁microprocess 14
▁controll 14
▁grams 14
▁dataset 14
▁kel 14
▁belonged 14
▁employer 14
gest 14
▁lobb 14
▁pressed 14
▁crease 14
adata 14
▁duct 14
▁imag 14
idelity 14
▁homage 14
▁Environment 14
▁Micro 14
▁abyss 14
▁crushing 14
▁accelerator 14
▁regener 14
▁injecting 14
disciplinary 14
▁clicked 14
▁cloudy 14
▁bree 14
oices 14
bu 14
▁Hillary 14
eastern 14
▁Maya 14
▁Trek 14
berries 14
▁1996, 14
▁begging 14
▁Capital 14
pora 14
imental 14
▁windmill 14
▁Fantastic 14
▁Johann 14
▁completing 14
oubtedly 14
▁Challen 14
wait 14
▁ec 14
▁coup 14
plete 14
▁wealthier 14
▁peacekeepers 14
nda 14
▁pub 14
▁artifact 14
▁twentieth 14
▁wholesale 14
▁homosexuality 14
▁1945, 14
etta 14
▁aggression 14
van 14
▁noun 14
▁bribes 14
▁calam 14
▁pesticide 14
▁penn 14
▁flutes 14
▁encouragement 14
▁sect 14
cand 14
▁unsafe 14
▁Twin 14
▁processors 14
▁triang 14
▁13- 14
▁dropout 14
▁Tyler 14
▁optimist 14
▁labore 14
▁thinner 14
▁fluids 14
▁icy 14
ipse 14
▁antiretroviral 14
▁tackling 14
▁Sit 14
▁Fer 14
▁aroused 14
▁galvan 14
▁excruciating 14
uddle 14
▁proportions 14
▁fashionable 14
▁exchanges 14
▁IC 14
▁BM 14
▁Ord 14
engine 14
▁balcony 14
▁wakes 14
ascal 14
ainted 14
▁merging 14
▁rainbow 14
neys 14
▁Sant 14
▁verify 14
opath 14
▁leukemia 14
▁aims 14
▁scru 14
▁unders 14
▁wrinkles 14
▁dared 14
iard 14
▁pac 14
Ind 14
apest 14
▁Bart 14
ingu 14
▁gour 14
▁studios 14
▁reserved 14
▁portal 14
stan 14
▁comedian 14
▁grazing 14
▁portions 14
▁impacted 14
▁recommended 14
▁bursts 14
▁halt 14
▁Test 14
▁Plato 14
▁inspirational 14
▁slows 14
arp 14
▁judging 14
▁nurs 14
▁welcoming 14
▁Cleveland 14
Ha 14
fight 14
▁Fight 14
▁Hay 14
▁reactive 14
▁lightbul 14
▁hur 14
▁advert 14
▁2009. 14
▁Ap 14
▁marching 14
▁Beyond 14
▁Belg 14
▁Chad 14
▁8: 14
▁21, 14
▁tactile 14
▁Shake 14
▁whatnot 14
▁someplace 14
▁discarded 14
▁consumes 14
▁bott 14
▁yogurt 14
▁Pack 14
▁750 14
▁stool 14
▁Delta 14
▁specialty 14
ustainable 14
▁Intelligence 14
▁sovereignty 14
▁invisibility 14
cends 14
sych 14
▁diseng 14
▁bullying 14
▁Path 14
▁habitable 14
▁canoe 14
▁librarians 14
▁offline 14
▁nerds 14
azing 14
ocy 14
▁hex 14
▁darkest 14
▁Emmanuel 14
▁recess 14
lla 14
▁ele 14
api 14
▁Mak 14
▁disson 14
▁shalt 14
▁fundamentalists 14
▁seaweed 14
▁psychoan 14
▁pore 14
▁cores 14
rial 14
wild 14
▁hierarchical 14
▁Brah 14
▁Mitchell 14
▁vig 14
▁analogous 14
elope 14
▁Warner 14
▁vendor 14
▁blogosphere 14
▁leaking 14
▁comple 14
▁operators 14
▁xen 14
▁liberties 14
▁indicator 14
800 14
▁Geiger 14
▁thorn 14
▁Chicken 14
▁babys 14
Doh 14
▁tang 14
▁attorney 14
▁Morocco 14
▁dentist 14
▁Nin 14
▁Share 14
▁surveyed 14
▁arousal 14
▁branching 14
uantum 14
fig 14
▁transl 14
mega 14
▁cholesterol 14
▁wellness 14
▁inertia 14
▁Bureau 14
rophobic 14
▁segments 14
▁smelled 14
unci 14
▁Khmer 14
▁juxtap 14
▁arthritis 14
▁reintrodu 14
▁micr 14
▁Aimee 14
▁necessity 14
▁pollinate 14
▁antib 14
▁compliment 14
▁impatient 14
▁explo 14
▁Malaysia 14
mi 14
▁vacant 14
▁discriminate 14
▁exacerb 14
▁cater 14
▁grind 14
▁Georgetown 14
mia 14
arial 14
oops 14
▁demoral 14
▁pellets 14
▁orangutan 14
▁ecologist 14
▁absent 14
▁Talks 14
▁Maltese 14
rof 14
▁customs 14
eys 14
▁thy 14
▁silently 14
urations 14
odox 14
▁Face 14
▁redefining 14
orum 14
▁disl 14
phones 14
▁Infin 14
▁scarf 14
▁Prov 14
▁uncommon 14
▁Drugs 14
▁aspiring 14
▁euros 14
▁semen 14
▁marshm 14
orative 14
▁supporters 14
iah 14
▁Typically 14
▁Ear 14
▁reconfig 14
▁psychopaths 14
ilities 14
▁Mechanical 14
▁trafficked 14
undering 14
▁transnational 14
▁Brun 14
▁Beau 14
igue 14
▁frustrations 14
▁Transition 14
▁roughness 14
security 14
teacher 14
▁recon 14
▁ALS 14
▁surrogate 14
▁physi 14
▁Netra 14
▁maths 14
▁marries 14
▁intens 14
eymah 14
▁urch 14
▁Passage 14
▁Viv 14
▁ancestral 14
pattern 14
olph 14
▁61 14
▁exoplanets 14
▁Galvao 14
▁conductive 14
▁Der 14
▁cowork 14
▁Heritage 14
▁lesion 14
▁Pantheon 14
▁pluripotent 14
▁Leads 14
▁fluent 14
▁malware 14
▁Milwaukee 14
igible 14
▁Scra 14
▁reimagine 14
▁dengue 14
▁Weibo 14
▁Broadmoor 14
▁2013, 14
▁Toraj 14
▁Player 14
▁Calais 14
▁Low 13
ueling 13
▁deflect 13
▁Ins 13
isis 13
▁Democrat 13
▁repet 13
▁tyranny 13
▁inclusion 13
▁agreements 13
▁Boeing 13
▁Computers 13
▁ell 13
▁commercially 13
inals 13
▁temper 13
▁permits 13
▁dazz 13
shit 13
Love 13
Vs 13
▁pessim 13
uda 13
▁Panama 13
shirts 13
▁1,800 13
▁transp 13
▁Ebola 13
semb 13
▁synthesized 13
▁petro 13
▁delayed 13
▁1999 13
ethical 13
▁unman 13
▁punched 13
▁erased 13
▁downside 13
▁Ut 13
▁taps 13
▁styl 13
▁USB 13
▁dar 13
▁Easy 13
▁burial 13
▁cas 13
Se 13
▁speculate 13
▁barn 13
▁renov 13
▁entrenched 13
▁94 13
▁Emer 13
▁Management 13
▁contractors 13
▁Sort 13
▁hor 13
seless 13
▁locom 13
▁policeman 13
▁CDC 13
▁Safe 13
▁parrot 13
▁Davis 13
▁1960. 13
utans 13
ulars 13
▁fist 13
cutting 13
▁bloom 13
▁patr 13
▁Aus 13
prom 13
▁Gehry 13
▁insecurity 13
▁playwright 13
▁Ky 13
▁Herbie 13
ader 13
var 13
▁Portuguese 13
▁Mir 13
iam 13
▁hust 13
forms 13
▁Bernard 13
▁businessman 13
▁Romantic 13
▁175 13
▁lust 13
▁rick 13
laci 13
▁rowing 13
▁carving 13
▁distortion 13
onge 13
▁knot 13
▁Cornell 13
▁proton 13
▁glove 13
▁prair 13
elf 13
▁conducive 13
technology 13
▁Hillis 13
distance 13
▁inert 13
▁Papua 13
▁Kurzweil 13
cock 13
expression 13
▁impressions 13
▁dism 13
▁pickle 13
▁vine 13
gate 13
▁beta 13
aders 13
▁skepticism 13
iscovered 13
utches 13
▁investigated 13
▁sprink 13
▁bushes 13
▁bury 13
▁Negroponte 13
▁imperial 13
ML 13
▁uptake 13
▁kissing 13
▁pals 13
peror 13
still 13
▁Greg 13
hard 13
▁sculptural 13
▁droplet 13
▁prostitutes 13
▁raining 13
▁Architecture 13
▁tripled 13
exp 13
▁Lion 13
▁loaf 13
aku 13
▁constituency 13
▁rival 13
oard 13
▁Iowa 13
▁negatives 13
▁"... 13
belts 13
▁strap 13
▁contra 13
▁labyrinth 13
▁conc 13
▁documentation 13
▁enhances 13
usal 13
icated 13
eem 13
▁Lux 13
ocol 13
works 13
▁heels 13
China 13
▁coalition 13
▁Barn 13
▁19- 13
▁Bagh 13
▁insurgency 13
▁Jessica 13
arried 13
▁monk 13
▁monastery 13
▁uprising 13
enment 13
violent 13
▁Valde 13
ahn 13
▁Kath 13
▁17. 13
▁Indiana 13
▁bioph 13
▁Crick 13
▁coordinates 13
▁humiliated 13
▁phos 13
▁pH 13
▁1973, 13
▁schizophrenic 13
▁Bomb 13
▁Istanbul 13
▁ey 13
▁tapped 13
anty 13
▁wool 13
▁scaven 13
▁plaster 13
▁refrigerators 13
▁dealers 13
▁soda 13
▁median 13
oren 13
▁spelled 13
alized 13
▁jargon 13
▁highlighted 13
▁arist 13
▁embarrass 13
▁admired 13
▁monarchy 13
bene 13
▁eloqu 13
▁wirelessly 13
▁adopting 13
▁relay 13
▁defl 13
▁pul 13
▁therapeutic 13
▁intric 13
merce 13
urity 13
▁Name 13
▁ecologically 13
iatric 13
▁qualify 13
▁undergo 13
▁philanthropic 13
▁Species 13
▁degrade 13
▁backing 13
▁latent 13
orp 13
▁Jur 13
lies 13
▁witnesses 13
▁cleared 13
▁Sene 13
▁Maine 13
▁reliably 13
▁1985, 13
▁stead 13
▁downhill 13
▁patches 13
▁Stars 13
▁schematic 13
▁plaque 13
▁vigil 13
▁hyster 13
▁consultants 13
▁5: 13
▁6: 13
rene 13
▁decorated 13
▁peripheral 13
▁gadget 13
▁inserted 13
ults 13
▁brace 13
▁56 13
▁approxim 13
▁Alexandria 13
▁sunset 13
▁pathetic 13
ffe 13
ateg 13
▁amen 13
▁constraint 13
cha 13
▁legendary 13
▁suited 13
▁immersion 13
immer 13
▁resembles 13
▁astroph 13
▁prevailing 13
▁Hence 13
▁redu 13
▁doomed 13
▁nanometers 13
▁hockey 13
▁replication 13
▁magically 13
▁spher 13
ractive 13
▁Australians 13
▁skys 13
lee 13
cker 13
rying 13
▁whaling 13
▁Dream 13
▁examined 13
▁woven 13
▁uncom 13
▁handled 13
raining 13
▁Hunt 13
▁od 13
▁'40 13
▁torch 13
▁precedent 13
expl 13
▁Bog 13
▁thorough 13
▁reservations 13
igation 13
▁forums 13
▁consultant 13
▁TEDGlobal 13
▁fab 13
▁turnar 13
▁sobering 13
▁deconstruct 13
▁Wisconsin 13
▁Shenzhen 13
▁90,000 13
▁skyscrapers 13
▁9,000 13
welling 13
iencies 13
▁breathtaking 13
intensive 13
▁unreal 13
▁diminished 13
▁manifestations 13
▁sponsors 13
▁dysfunction 13
cat 13
▁Ban 13
▁eyel 13
▁Ara 13
▁isolate 13
▁Gapminder 13
▁pandemics 13
▁sla 13
▁Beautiful 13
▁orphans 13
▁stigm 13
▁credibility 13
▁ded 13
▁merc 13
uis 13
▁enl 13
▁protagon 13
economic 13
iche 13
▁crater 13
eating 13
▁mutilated 13
▁NYU 13
▁Gib 13
▁16. 13
othe 13
▁graduating 13
pus 13
▁Helen 13
▁axe 13
gatherer 13
▁negativity 13
▁Doing 13
ounced 13
▁Gall 13
icism 13
▁pillow 13
▁hedge 13
▁poke 13
HA 13
▁confess 13
▁inflection 13
▁1999. 13
▁supreme 13
▁salute 13
▁draining 13
celer 13
ivating 13
▁cherish 13
▁promotes 13
▁brighter 13
ustered 13
▁Bollywood 13
City 13
▁transporting 13
▁Seriously 13
▁scattered 13
joy 13
▁underestimated 13
▁repay 13
▁invites 13
▁Wy 13
▁Eduardo 13
▁emits 13
▁destroys 13
▁propeller 13
throp 13
▁undo 13
▁delightful 13
rodu 13
▁installing 13
▁pater 13
▁infrastructures 13
▁1,600 13
▁declare 13
▁definitive 13
pieces 13
▁exquisitely 13
▁Coming 13
▁Serb 13
▁makeshift 13
lov 13
▁concentrating 13
ographers 13
▁Malawi 13
▁indic 13
than 13
▁Claus 13
▁Plus 13
▁anthropomorph 13
▁prophe 13
▁eternity 13
▁2006. 13
Dear 13
▁econom 13
▁Tech 13
▁bonding 13
ittens 13
▁voic 13
▁Blair 13
▁Malaria 13
▁1.8 13
▁trails 13
▁redesigning 13
itous 13
uestion 13
sub 13
▁translations 13
▁complaint 13
ples 13
▁Father 13
▁intellectually 13
▁Aren 13
▁fireman 13
astery 13
▁synag 13
▁Doc 13
▁disadvantage 13
▁deliber 13
▁reckless 13
▁brainstorms 13
▁knocks 13
ubble 13
▁commander 13
boy 13
▁Adams 13
▁adjusted 13
▁guesses 13
▁rhin 13
▁Mira 13
erd 13
▁curl 13
amer 13
▁cleverly 13
imba 13
▁acoustics 13
▁eyesight 13
▁recyclable 13
▁kar 13
▁1984, 13
▁Tob 13
▁Nan 13
▁feces 13
▁hype 13
▁rushing 13
▁Bever 13
▁Horse 13
▁Bowl 13
enly 13
▁risked 13
▁Electric 13
▁wrink 13
▁Progress 13
▁1998 13
birds 13
ucking 13
stander 13
▁dod 13
▁Fields 13
elligent 13
▁Rev 13
▁patri 13
▁Natal 13
gn 13
▁unicorn 13
▁incorrect 13
▁coated 13
▁Hotel 13
▁anth 13
▁nucle 13
▁pronounced 13
▁pickup 13
▁submer 13
▁bore 13
tte 13
▁ordering 13
▁immersive 13
▁outstanding 13
▁geographically 13
▁Stalin 13
▁aversion 13
▁scanners 13
uros 13
▁geology 13
▁manageable 13
▁desired 13
▁aquarium 13
▁pictured 13
raged 13
▁democratization 13
rete 13
▁meas 13
▁empathize 13
▁emitting 13
▁hydrothermal 13
▁1989, 13
▁laparoscopic 13
▁wearable 13
▁UNA 13
▁Trying 13
▁scrip 13
▁Feel 13
▁tenderness 13
▁cursor 13
▁Yahoo 13
▁Olymp 13
erald 13
▁buffer 13
▁sculptor 13
illary 13
ti 13
▁Simpson 13
▁Rives 13
▁hurting 13
▁orthopedic 13
▁charitable 13
▁chiefs 13
▁marketplaces 13
▁nutshell 13
▁deposit 13
▁Chapter 13
▁forestry 13
▁twelve 13
▁Yor 13
▁spelling 13
▁Cameroon 13
▁nails 13
▁flashlight 13
▁thro 13
ission 13
▁Mead 13
mor 13
▁Thula 13
▁hangers 13
▁Victoria 13
▁modernity 13
▁charismatic 13
▁greedy 13
▁SO 13
▁seldom 13
▁virgins 13
ilk 13
▁exploited 13
adem 13
uating 13
▁slang 13
▁analyses 13
▁messenger 13
onomy 13
▁compliance 13
▁disagreement 13
▁cubes 13
▁EPA 13
▁Occasionally 13
▁virul 13
▁farmed 13
▁rogue 13
anthrop 13
▁14. 13
▁inspires 13
anks 13
▁Soldiers 13
▁Anthony 13
▁Milan 13
▁intertwined 13
minster 13
▁simpl 13
pret 13
▁resc 13
▁attain 13
▁swell 13
▁probable 13
▁Ald 13
▁bitten 13
urches 13
▁highlands 13
▁imposs 13
ocean 13
▁apolog 13
▁220 13
▁dyslexic 13
▁prompt 13
▁Jonathan 13
inky 13
she 13
▁shack 13
▁Fact 13
▁Aviv 13
▁Bach 13
▁photoc 13
▁budd 13
▁limbic 13
agged 13
▁buyers 13
ousing 13
itol 13
▁trespass 13
▁commandment 13
ererana 13
▁temples 13
▁depress 13
▁psychotherapy 13
▁advise 13
▁implies 13
▁adverse 13
mented 13
▁mes 13
▁peaked 13
▁recogn 13
bas 13
▁Coal 13
▁biomaterials 13
▁selecting 13
▁biome 13
▁coconut 13
▁sped 13
▁Indust 13
▁fractals 13
▁altar 13
▁Neumann 13
▁aisle 13
▁Volunteer 13
equ 13
▁scr 13
▁separates 13
enstein 13
▁Hispan 13
uer 13
▁Wang 13
mel 13
▁enriched 13
▁Emp 13
opy 13
▁toddler 13
aky 13
▁considerable 13
▁brutality 13
pered 13
▁segreg 13
Uh 13
▁Charlotte 13
iating 13
▁Mill 13
▁esoteric 13
▁Manchester 13
▁Orchestra 13
▁Gary 13
bie 13
▁celebrities 13
▁redundancy 13
▁dominating 13
important 13
▁ult 13
▁neoc 13
▁symbiosis 13
▁contested 13
▁treats 13
▁grie 13
inas 13
▁raz 13
▁impacting 13
▁mainland 13
▁km 13
onium 13
Wide 13
▁spectac 13
▁Woo 13
▁pasting 13
▁Teacher 13
▁pounding 13
', 13
▁canal 13
▁Send 13
▁superheroes 13
▁Symphony 13
▁contempt 13
▁transcendence 13
▁63 13
uled 13
▁Song 13
▁commonplace 13
▁Orwell 13
atorium 13
▁dolls 13
death 13
▁hints 13
▁stacking 13
▁electromagn 13
▁knocking 13
▁Algeria 13
▁Michoac 13
direction 13
▁forg 13
▁inoc 13
angu 13
▁bait 13
▁diets 13
▁lettuce 13
rofoam 13
▁springs 13
▁swims 13
▁pumped 13
▁cowboy 13
pture 13
▁CE 13
▁paraphrase 13
▁bred 13
▁squish 13
▁sac 13
reek 13
▁denounce 13
▁ranks 13
▁knots 13
▁lightly 13
alia 13
▁Barr 13
▁incarcer 13
aret 13
angar 13
▁McG 13
olk 13
▁Kore 13
▁ensla 13
▁restoring 13
▁ivory 13
▁wrestle 13
umn 13
▁conserve 13
▁devise 13
▁smiley 13
▁decorative 13
▁hominid 13
▁1.6 13
thon 13
▁palms 13
▁Looks 13
pared 13
▁handheld 13
▁megawatts 13
▁RD 13
▁crane 13
▁jaws 13
▁ben 13
▁overboard 13
▁mang 13
▁Offic 13
▁distractions 13
ulas 13
patient 13
▁Card 13
▁titanium 13
▁lyrics 13
▁Sala 13
respect 13
▁restrain 13
▁superpowers 13
▁skim 13
▁attacker 13
▁plumes 13
▁nat 13
▁technologically 13
▁yo 13
▁paw 13
ippers 13
La 13
▁nutritious 13
▁aids 13
▁poss 13
▁TVs 13
▁haunted 13
▁Speed 13
▁ranch 13
▁Norse 13
▁dads 13
▁schem 13
atra 13
yo 13
▁Yellowstone 13
▁introdu 13
horn 13
▁Action 13
acc 13
▁chefs 13
▁provoke 13
▁Flu 13
nought 13
emic 13
▁subsequent 13
▁monetary 13
▁devoid 13
▁mangrove 13
▁Specifically 13
▁Fried 13
▁thermost 13
▁Tso 13
▁puffs 13
dec 13
▁Na 13
▁Eiffel 13
▁proceeded 13
▁subdiv 13
▁Buen 13
▁overlooked 13
Huh 13
threat 13
▁runners 13
▁rhinovir 13
▁Leah 13
▁Twain 13
cripts 13
▁improvising 13
▁doorstep 13
▁youngsters 13
▁oy 13
▁vanished 13
▁increments 13
orescent 13
rade 13
▁chick 13
▁Hers 13
▁cortical 13
▁bothers 13
▁Android 13
▁bliss 13
▁rooftop 13
▁goggles 13
▁densities 13
estyle 13
▁Hab 13
▁comparative 13
assum 13
▁biking 13
▁Bess 13
pa 13
isol 13
▁persec 13
▁syringe 13
▁esc 13
▁participant 13
▁insulation 13
▁vaccinated 13
▁cymatics 13
▁calving 13
chief 13
▁Raj 13
rosper 13
▁Ottoman 13
shine 13
▁Collect 13
▁wetland 13
▁beaver 13
waves 13
▁resign 13
▁flute 13
▁Maitreya 13
sect 13
▁suspe 13
▁Schwarzschild 13
▁Mans 13
▁Brigades 13
▁Redd 13
▁Linda 13
▁clinicians 13
▁outliers 13
▁Justin 13
▁growers 13
▁caregiver 13
▁cartoonists 13
▁skier 13
▁prescribed 13
▁Harriet 13
▁humanoid 13
▁chk 13
▁Browne 13
fluid 13
▁Mathematica 13
▁pirated 13
▁Accenture 13
▁Mard 13
▁seductive 13
▁rebuilt 13
▁SC 13
yan 13
blowers 13
▁oct 13
▁tadpole 13
owan 13
▁crypt 13
nb 13
▁Message 13
▁Jarrett 13
▁MBI 13
▁TEDWomen 13
▁Islamist 13
▁exoske 13
19 13
▁2012 13
▁Bare 13
▁Chapel 13
▁gratefulness 13
▁dragline 13
▁Odysseus 13
▁Triceratops 13
▁disgusted 13
▁Uber 13
▁Bonnie 13
▁INCRA 13
▁upstreamists 13
adores 13
▁Poem 13
▁Jenipher 13
▁Vice 12
neut 12
through 12
US 12
enter 12
▁maf 12
issance 12
▁'5 12
▁'7 12
▁ripe 12
▁lin 12
▁tot 12
card 12
▁Magn 12
▁Slo 12
▁mac 12
▁PS 12
▁JS 12
▁fare 12
inally 12
▁PET 12
▁concer 12
▁orang 12
▁1991 12
▁Jaco 12
▁tore 12
bao 12
Yo 12
▁acre 12
▁Bit 12
▁templ 12
cture 12
▁Labs 12
▁plat 12
click 12
▁evol 12
▁Diff 12
owitz 12
▁asp 12
▁brew 12
▁Sid 12
▁Pas 12
▁Tree 12
▁Sao 12
aton 12
▁Sund 12
unes 12
▁myri 12
insky 12
dig 12
acle 12
alm 12
esium 12
▁Lim 12
colm 12
▁ende 12
block 12
▁deter 12
ito 12
gras 12
▁remn 12
Sp 12
ello 12
▁oppon 12
▁Guard 12
▁Aff 12
▁62 12
oran 12
Could 12
ultan 12
▁2030 12
▁Jr 12
arring 12
▁heap 12
▁cott 12
▁Wiki 12
▁Fil 12
▁Nano 12
▁Cell 12
rex 12
juven 12
inem 12
▁traject 12
▁catastroph 12
▁lays 12
ankton 12
▁impr 12
▁Oz 12
▁wom 12
osphere 12
▁diag 12
▁9, 12
illions 12
War 12
anz 12
▁cos 12
▁compreh 12
gue 12
▁Interest 12
▁Op 12
▁GM 12
▁tran 12
▁Nie 12
En 12
pay 12
▁Cool 12
▁neg 12
▁FE 12
exist 12
rovir 12
▁Si 12
rup 12
▁diab 12
▁hots 12
▁guru 12
▁Ott 12
fect 12
▁2100 12
▁Pitt 12
▁lone 12
othy 12
ooky 12
▁Spl 12
ause 12
▁anticip 12
▁SI 12
▁Nat 12
aiting 12
sses 12
▁hers 12
react 12
▁Jew 12
oub 12
▁stew 12
▁Past 12
▁apex 12
▁DVDs 12
Whoa 12
▁undergradu 12
▁indirect 12
ugos 12
▁finan 12
▁Govern 12
▁Lucy 12
▁enthusi 12
▁cher 12
▁darn 12
arer 12
▁balcon 12
ctive 12
▁2.3 12
▁remo 12
▁plea 12
▁unco 12
▁ol 12
empl 12
▁sins 12
fare 12
criptions 12
EM 12
athons 12
bul 12
▁sofa 12
pit 12
▁25- 12
▁vict 12
▁Sach 12
▁nour 12
chs 12
arents 12
▁liber 12
verer 12
▁mosqu 12
leg 12
▁hamb 12
Free 12
▁bod 12
▁lad 12
▁experim 12
▁domin 12
hum 12
▁Ir 12
▁184 12
1: 12
▁coord 12
▁alar 12
bird 12
▁grey 12
▁Him 12
ida 12
▁athe 12
assium 12
▁calf 12
▁obs 12
▁imper 12
▁ster 12
ihil 12
▁consequ 12
▁curv 12
zac 12
inis 12
▁lbs 12
SM 12
▁89 12
Dad 12
▁Sac 12
iji 12
chie 12
▁corrid 12
▁sip 12
reas 12
▁ul 12
▁rect 12
pass 12
▁AP 12
▁embry 12
lf 12
ifier 12
▁pict 12
ista 12
▁coun 12
▁curren 12
▁gn 12
▁Mali 12
▁Igbo 12
▁Crow 12
ois 12
ba 12
▁trim 12
▁Af 12
▁amid 12
orient 12
▁vel 12
afa 12
▁cops 12
oured 12
▁Taj 12
▁jams 12
omed 12
▁Area 12
eres 12
lical 12
▁noon 12
▁alt 12
ario 12
atz 12
eyer 12
plic 12
icient 12
function 12
▁strateg 12
inn 12
otomy 12
oenix 12
▁Berg 12
▁RHex 12
stage 12
umi 12
ician 12
▁Mult 12
▁RP 12
24 12
▁Film 12
▁erg 12
▁epis 12
▁doll 12
los 12
▁90- 12
▁88 12
▁Ty 12
hake 12
▁Bin 12
shed 12
iba 12
▁humil 12
ivol 12
▁Nar 12
oute 12
ipur 12
oria 12
▁storyt 12
▁cad 12
zo 12
uhan 12
xter 12
yon 12
▁Bax 12
achel 12
zra 12
anic 12
▁kilo 12
olate 12
▁Vas 12
eded 12
▁constitu 12
▁Mush 12
▁unint 12
ixon 12
▁suppl 12
▁dess 12
▁submar 12
rano 12
▁consum 12
ozoic 12
▁mov 12
▁ident 12
▁phen 12
-, 12
▁Pain 12
ureka 12
▁40. 12
▁unpre 12
AM 12
▁ine 12
group 12
▁isot 12
ggie 12
mot 12
▁24, 12
▁euth 12
John 12
▁saus 12
▁pir 12
prove 12
▁bubb 12
▁rut 12
▁Ec 12
▁moder 12
▁anonym 12
irable 12
▁0.1 12
▁Dist 12
▁pear 12
▁Furb 12
iser 12
▁Key 12
▁Decl 12
▁expo 12
lave 12
▁HD 12
▁Cab 12
gic 12
– 12
ittee 12
marin 12
alin 12
▁JPL 12
▁shru 12
▁1918 12
▁wasp 12
▁millenn 12
▁Rail 12
▁gamb 12
▁Rest 12
omi 12
▁45- 12
lider 12
pill 12
▁oily 12
▁deci 12
ema 12
▁kr 12
ected 12
▁1500 12
ensed 12
normal 12
▁improv 12
▁Patr 12
itals 12
urf 12
▁PT 12
cion 12
jad 12
▁USC 12
▁mart 12
▁eyew 12
▁2050 12
loom 12
▁freed 12
fed 12
gard 12
ours 12
▁fanc 12
▁eel 12
▁Atl 12
▁Sufi 12
▁font 12
▁jud 12
shif 12
▁Kara 12
ambra 12
▁egos 12
▁Kr 12
▁trib 12
▁Swed 12
itha 12
▁Leban 12
▁Pool 12
ermat 12
ocal 12
ucus 12
▁imam 12
▁Race 12
agell 12
▁mosquit 12
▁Li 12
▁GC 12
▁Dana 12
▁Task 12
▁Kiva 12
▁GG 12
▁TBP 12
▁404 12
▁bise 12
▁STEM 12
▁Git 12
Rabbit 12
▁ESG 12
▁Amel 12
▁oppos 11
▁attrib 11
lt 11
▁Afgh 11
design 11
mass 11
odynam 11
▁elim 11
▁Mean 11
▁legend 11
atom 11
▁Od 11
▁Argent 11
children 11
omic 11
eron 11
iors 11
cyclopedia 11
▁overlook 11
▁enforce 11
▁Nav 11
ultural 11
osal 11
uild 11
NA 11
▁feas 11
phony 11
vious 11
▁arbit 11
igm 11
ropolitan 11
ylon 11
mental 11
▁trou 11
▁fert 11
▁indig 11
▁Himalay 11
onds 11
▁pharm 11
ording 11
▁compre 11
▁gym 11
▁Story 11
▁rehabil 11
frame 11
DA 11
▁recip 11
erent 11
lor 11
▁Bosn 11
▁sever 11
avor 11
ready 11
itative 11
ulner 11
▁cum 11
▁batt 11
arks 11
mony 11
orge 11
▁gradu 11
▁arg 11
fessor 11
▁incon 11
▁mob 11
▁spat 11
ili 11
▁Hawai 11
quarium 11
etary 11
▁diplom 11
▁bot 11
▁simult 11
▁panc 11
IDS 11
rowth 11
rics 11
irling 11
▁anten 11
▁Kam 11
▁inqu 11
▁plum 11
▁implic 11
▁AD 11
▁fier 11
aran 11
pol 11
▁rul 11
▁Educ 11
▁Sah 11
ela 11
▁ware 11
▁esca 11
▁shuff 11
ousy 11
▁Mathem 11
ufact 11
alling 11
▁Michel 11
annah 11
▁Mat 11
aterials 11
ignant 11
▁Ill 11
▁Serv 11
▁reli 11
vir 11
▁submers 11
esthes 11
▁concent 11
cuse 11
herent 11
▁hypothes 11
ulf 11
ortion 11
▁curs 11
bons 11
▁Dou 11
angers 11
▁reper 11
aped 11
▁rhyth 11
agement 11
▁Field 11
▁Sus 11
ocke 11
▁Ult 11
▁epip 11
▁inconsist 11
▁persu 11
▁comprom 11
acqu 11
▁isol 11
orrow 11
atts 11
▁comed 11
▁pla 11
afe 11
hea 11
ometers 11
▁rooft 11
ju 11
keepers 11
TC 11
▁exec 11
▁therap 11
fort 11
▁pige 11
ademy 11
▁defin 10
iscover 10
▁Philipp 10
zen 10
▁rend 10
enz 10
opoly 10
▁wre 10
▁dign 10
gency 10
▁arrog 10
agger 10
▁negoti 10
▁Color 10
▁refriger 10
des 10
erves 10
▁Off 10
▁redef 10
ighth 10
wan 10
orough 10
▁Colomb 10
▁nav 10
atus 10
▁cust 10
▁empir 10
ucked 10
▁Keny 10
▁controvers 10
▁teen 10
▁valu 10
▁nurt 10
rations 10
ptions 10
gets 10
ellow 10
irth 10
▁eradic 10
▁nightm 10
▁gest 10
▁Dav 10
▁veget 10
asking 10
erve 10
istical 10
▁hybr 10
▁metap 10
▁iss 10
obo 10
wired 10
▁withd 10
▁Sat 10
onscious 10
▁Matth 10
lad 10
ais 10
mn 10
fess 10
▁lar 10
▁enth 10
alysis 10
▁homosexual 10
▁clus 10
▁instit 10
▁genoc 10
▁horizont 10
▁Unt 10
rett 10
▁webs 10
▁iPh 10
▁volunte 10
bow 10
▁entit 10
▁crim 10
▁murd 10
olitan 10
pack 10
▁Sad 10
lebr 10
lif 10
pless 10
▁administ 10
▁liqu 10
▁phenomen 10
inct 10
▁sched 10
▁demon 10
hill 10
▁humming 10
▁determ 10
▁py 10
▁voy 10
▁stud 10
▁Cong 10
keys 10
▁perpetr 10
aron 10
dy 10
vas 10
atrix 10
▁ech 10
▁underw 10
▁parach 10
▁mag 10
arency 10
▁Pent 10
arest 10
urban 10
▁meth 10
isphere 10
ournal 10
▁chang 10
hors 10
ague 10
▁sam 10
ependence 10
▁bes 10
▁dimens 10
▁Pac 10
▁horiz 10
ET 10
▁polit 10
▁recept 10
integ 10
▁crocod 10
▁jan 10
asso 10
thal 10
▁tadp 10
irm 10
▁Marc 10
▁incub 10
imag 10
▁whist 10
▁refuge 10
▁gon 10
▁traff 10
▁veter 10
▁repe 10
▁supercond 10
▁contag 10
▁legitim 10
ounder 10
▁altru 10
▁fundra 10
▁mush 10
urger 10
perform 10
▁Hist 9
▁conven 9
arin 9
ensitive 9
ument 9
weight 9
eart 9
▁Brook 9
▁Bow 9
ù 9
▁Ox 9
copic 9
mend 9
▁Thom 9
idity 9
▁stere 9
olith 9
▁Def 9
▁org 9
▁aug 9
▁tect 9
ifice 9
▁Sov 9
▁obl 9
▁emp 9
imed 9
▁reput 9
▁disagre 9
puters 9
▁toler 9
lom 9
anta 9
▁haz 9
▁Mexic 9
▁Austr 9
▁effic 9
▁congest 9
▁epile 9
pox 9
▁prag 9
urch 9
discipl 9
▁constrain 9
etheless 9
esth 9
erals 9
▁appet 9
rough 9
▁commod 9
▁achie 9
edding 9
tle 9
▁snaps 9
oline 9
▁intest 9
forestation 9
NG 9
fast 9
isco 9
▁sanct 9
roc 9
gage 9
ivable 9
▁anthrop 9
▁reve 9
▁relig 9
▁spons 9
▁suburb 9
pring 9
▁rept 9
▁bask 9
▁twent 9
▁Copern 9
▁emerg 9
▁fam 9
ivation 9
▁municip 9
▁obser 9
licit 9
inarily 9
irms 9
▁vag 9
▁fant 9
▁sober 9
arity 9
▁Gard 9
▁Connect 9
▁brid 9
▁los 9
ione 9
▁tread 9
ertain 9
▁associ 9
enth 9
▁Bat 9
▁adequ 9
▁annoy 9
▁sulf 9
▁princip 9
▁Leon 9
yright 9
▁Tit 9
akota 9
▁rehears 9
▁sou 9
▁ess 9
▁rabb 9
▁soph 9
cket 9
apers 9
cyclop 9
▁Labor 9
▁cyl 9
seen 9
nat 9
think 9
ivid 9
▁ove 9
ieces 9
rought 9
ennis 9
anas 9
astics 9
cil 9
▁homin 9
cam 9
▁NG 9
cules 9
▁transf 9
▁photosynth 9
▁geomet 9
osaur 9
▁manif 9
▁improvis 9
▁intrig 9
▁fem 9
imated 9
▁chocol 9
ivial 9
!] 9
▁prototy 9
elve 9
▁impro 9
▁Beh 9
olve 9
▁conserv 9
▁ly 9
▁vulner 9
▁lett 9
▁mak 9
umbs 9
▁drople 9
▁hierarch 9
gly 9
▁syring 9
▁Bh 9
▁Syr 9
▁drown 9
▁transpl 9
educ 9
opard 9
▁veterin 9
▁grou 9
▁alg 9
▁stro 9
itzer 9
vasive 9
otherapy 9
▁asth 9
▁encry 9
▁argu 9
▁medi 8
▁constit 8
▁compar 8
roid 8
▁compr 8
aceutical 8
tends 8
vard 8
zees 8
igrade 8
iques 8
▁GP 8
▁Kev 8
▁Tro 8
▁gur 8
▁Command 8
asant 8
▁Stan 8
▁Wik 8
Re 8
▁Cambr 8
estone 8
▁cyc 8
▁avail 8
gradu 8
▁embra 8
imicry 8
▁dom 8
edic 8
▁redund 8
road 8
▁dru 8
▁eg 8
iences 8
▁impl 8
nov 8
yle 8
▁moist 8
▁unac 8
isl 8
cription 8
obos 8
▁millise 8
▁camer 8
▁Short 8
tebr 8
▁girlf 8
▁Jacqu 8
▁Intellig 8
imony 8
esters 8
▁ke 8
▁hij 8
▁ES 8
▁theore 8
porary 8
ostic 8
airy 8
▁volunt 8
▁Ark 8
▁spa 8
▁Beat 8
othermal 8
osity 8
cipl 8
arant 8
athered 8
gath 8
▁vend 8
▁Sold 8
▁doc 8
ieth 8
ocative 8
▁guarant 8
▁reluct 8
▁viscer 8
▁haunt 8
▁exper 8
fund 8
ymmet 8
▁adj 8
itar 8
▁Cambod 8
▁prosper 8
phere 8
uced 8
fi 8
unks 8
▁Found 8
food 8
▁aston 8
▁Cost 8
engu 8
▁prin 8
idi 8
cav 8
isons 8
▁proto 8
estern 8
▁Pic 8
▁pries 8
rary 8
ructive 8
▁athlet 8
assador 8
▁Tanzan 8
ashion 8
▁Adm 8
onym 8
▁cig 8
oman 8
ffect 8
aurs 8
places 8
▁Chr 8
govern 8
ü 8
wich 8
▁grocer 8
▁impat 8
▁rh 8
wart 8
▁counterpart 8
▁innoc 8
▁obt 8
osn 8
lection 8
▁kitch 8
▁thresh 8
▁degrad 8
▁env 8
ploy 8
itutes 8
hythm 8
parents 8
▁facil 8
▁iP 8
▁crick 8
▁revel 8
ograms 8
athon 8
▁emot 8
▁Jord 8
ijuana 8
▁wets 8
obiles 7
▁Tib 7
▁equival 7
epend 7
venue 7
▁recru 7
edia 7
▁adul 7
▁mim 7
last 7
appro 7
uctor 7
iop 7
▁relie 7
▁surve 7
▁appro 7
( 7
▁enorm 7
dimens 7
ogan 7
ocaust 7
▁Certain 7
▁jew 7
▁Kib 7
lete 7
▁hipp 7
▁unnecess 7
inction 7
▁Pap 7
uke 7
▁stu 7
restr 7
▁underest 7
▁Vir 7
▁overwhel 7
cycle 7
worthy 7
chester 7
allen 7
▁Cher 7
inery 7
ternal 7
andem 7
▁unexpl 7
▁Broad 7
▁frank 7
▁vib 7
itual 7
▁sib 7
mind 7
bian 7
▁Nep 7
hist 7
eer 7
iana 7
▁improb 7
▁incred 7
otto 7
▁particip 7
▁appl 7
▁Hur 7
▁laund 7
▁magnific 7
▁Similar 7
▁glob 7
▁civ 7
ortex 7
cup 7
▁lon 7
ikes 7
▁ambig 7
▁Hop 7
▁Odys 7
udi 7
adian 7
▁rhet 7
▁democ 7
iron 7
▁dat 7
▁Geor 7
▁Austral 7
▁calend 7
rans 7
▁cathed 7
▁eld 7
▁gira 7
inea 7
esthesia 7
▁struct 7
▁outc 7
rast 7
ulse 7
▁antidepress 7
orters 7
eday 7
▁forb 7
▁Mand 7
▁init 7
▁todd 7
oca 7
etti 7
▁Aust 7
▁Nich 7
▁Uk 7
ither 7
@ 7
ortune 7
istant 7
▁trig 7
ulum 7
oters 7
▁intermedi 7
▁virt 7
ertips 7
asion 7
racies 7
agers 7
▁tong 7
ermaid 7
tical 7
giving 7
awi 7
pher 7
IN 7
▁provin 7
▁ais 7
nik 7
▁amph 7
▁Aristot 7
▁anx 7
▁displ 7
▁bacter 7
^ 7
▁mixt 7
opardy 7
faction 7
via 7
▁maneu 7
▁fis 7
hol 7
▁hypoth 7
▁Tun 7
bean 7
orden 7
▁occ 7
▁fundam 7
▁Russ 7
iverse 7
▁Bah 7
stal 7
izational 7
▁excell 7
▁ic 7
▁cha 7
atell 7
phas 7
▁DAR 7
umines 7
▁juven 7
▁DD 7
fill 7
tw 7
▁sym 7
ifferent 7
inators 7
asks 7
▁ELA 7
▁prec 7
▁Balk 7
▁Beij 7
EA 7
▁Lester 7
▁careg 7
▁exoplan 7
▁elabor 6
andon 6
cellular 6
lene 6
▁tempor 6
▁arter 6
▁adap 6
▁wheelch 6
racy 6
istance 6
▁enab 6
▁Coun 6
balance 6
umented 6
anor 6
oli 6
ellig 6
ession 6
▁Recent 6
▁inevit 6
▁Orch 6
▁drif 6
▁facult 6
massive 6
itious 6
▁Span 6
viron 6
▁langu 6
anned 6
abet 6
psy 6
▁hous 6
ength 6
▁unpredict 6
acities 6
obal 6
munic 6
▁distingu 6
▁necess 6
▁unus 6
▁pregn 6
▁hier 6
▁Norweg 6
ateful 6
▁Aur 6
▁bookst 6
ostics 6
ilty 6
▁remem 6
▁exhilar 6
▁tyr 6
hire 6
▁Charl 6
▁tsun 6
▁Nam 6
ocent 6
ront 6
abetes 6
▁hist 6
▁Dig 6
oqu 6
ources 6
▁approx 6
▁nerv 6
▁Hen 6
▁enterpr 6
▁ske 6
[...]
